#version: 0.2
ä ¸
ã Ģ
ç ļ
çļ Ħ
ä º
ãĢ Ĥ
ä »
å ı
æ ľ
å ħ
è ¿
å ¤
ä ½
å Ī
æ ĺ
å ľ
å ®
ç Ķ
æ Ī
å Ĳ
ä¸ Ģ
è ¯
æ ĸ
å Ĵ
ä ¹
åĴ Į
ç »
æĺ ¯
å Ĭ
å Ń
å ¹
å °
å Ľ
ãĢ ģ
åľ ¨
è ®
æ Ĺ
ä» ¥
äº º
å ¸
æ Ŀ
å º
ä ¼
äº Ĩ
å į
ä¸ ª
ĥ ½
ä¸ Ń
ä¸ º
é ĩ
å ·
é Ģ
å Į
æľ ī
ç §
è ¡
å ¼
å Ĩ
æ ķ
åı ¯
å ¾
ç ī
å ĩ
è¿ Ļ
æĪ ĳ
å ¯
æ ī
ä¸ į
è §
è ĥ½
è Ģ
æ Ģ
çĶ ¨
å ¥
ç İ
æ Ń
é Ĺ
é ¢
æ ł
å ½
äº İ
ç Ľ
ç Ń
è ĩ
åŃ ¦
¦ ģ
å¹ ´
æ ³
è ¦ģ
ä» ¬
çĶ Ł
å¤ §
æ Ĭ
æ ŀ
å İ
å ±
é Ŀ
æĿ ¥
æĸ ĩ
ç Ĳ
æ °
æ ĭ
æĹ ¶
åľ °
æ Ķ
å ¿
æĪ Ĳ
ä ¿
å ĵ
ä¸ ĭ
ä» ĸ
è µ
å ¦
ç º
åı¯ ä»¥
æ Ľ
å ĳ
æ µ
ä¸ Ĭ
è¡ Į
è ´
æ ı
åĪ °
æ ĥ
åĪ Ĩ
æ Ħ
æ İ
ä ¾
åĩ º
ä¼ ļ
åĽ ½
å¯ ¹
è ¾
èĩ ª
ç «
é Ļ
ç ±
ä½ ľ
æ Ļ
ä¸Ģ ä¸ª
æ ²
å Ł
æ į
åŃ Ĳ
æ ¯
æ ´
ç ®
çŃ ī
å¤ ļ
åĬ ¨
æĸ ¹
æ Į
å¹ ¶
ç§ į
æľ ¬
åı ĳ
å¦ Ĥ
è¿ ĩ
è ½
é ĺ
åħ ¶
çī ©
ç ľ
å· ¥
çĲ Ĩ
æķ °
æı Ĳ
æľ º
ä¹ ĭ
é ģ
è¿ Ľ
ç± »
æ³ ķ
æ ¸
é¢ ĺ
éĢ ļ
åĲ İ
ä½ ĵ
æį ®
æĽ ´
å ī
éĿ ¢
ä¹ Ł
ä½ ¿
é «
å® ¶
åĮ ĸ
é« ĺ
æĢ §
çİ °
æľ Ģ
äº Ľ
å® ļ
ä¸ »
é ĥ
åĲ Į
ä½ ł
å® ĥ
é ľ
èĢ Į
åĽ ł
æ ¬
å° Ĩ
æ ±
åħ ¬
åĲ į
è ī
ç Ŀ
é £
å¸ ¸
ä¸ İ
åħ ³
ç ½
å¥ ½
å¾ Ĺ
é ķ
å° ı
ç Ł
è¯ Ń
å ģ
åĬ Ľ
åº Ķ
æĪ ĸ
æĸ °
ç» ı
æĪĳ ä»¬
è ¢
åĬ ł
ç Ħ
éĹ ´
éĩ į
éĹ ®
ç ¾
åº ¦
è ¶
ç ¬
éĥ ¨
ç ¨
ç ³
è¡ ¨
éľ Ģ
æĥ ħ
çĶ µ
ä¹ ł
å¤ ©
çī ¹
ç ¤
æĬ Ģ
çĦ ¶
è ·
é Ľ
ç ©
ç Ĥ
é Ķ
è® ¡
å¼ Ģ
å »
è °
åĵ ģ
æŃ ¤
è¢ «
å¿ ĥ
è§ £
é ĥ½
æī Ģ
æĦ Ł
ç Ī
æ ģ
ä¿ Ŀ
ä¸ ļ
è Ĭ
æĹ ¥
å½ ±
çĿ Ģ
æľ ¯
éĩ ı
éĩ Į
éķ ¿
è¯ ´
éģ ĵ
è¯ ¥
é ļ
å ¢
æŀ ľ
è Ĥ
å¸ Ĥ
å® ŀ
äº ĭ
é ¡
éĹ® é¢ĺ
å §
é Ĥ
æĻ º
åı Ĭ
ç³ »
åŃ¦ ä¹ł
è ĭ
ç¨ ĭ
å¼ ı
åĲ Ī
å ŀ
æĺ İ
ç ¡
èĢ ħ
ä½ Ĩ
ä½ į
çĽ ¸
ç ķ
å Ŀ
åĮ º
è ģ
éľĢ è¦ģ
å Ģ
å» º
ä½¿ çĶ¨
é ¦
ä» »
åħ ¨
ç¾ İ
2 0
æĦ ı
åĨ ħ
åī į
ç ´
ç® Ĺ
å Ļ
ç ł
æ´ »
æ Ł
æľ Ī
æĻº èĥ½
ä» İ
è Ĳ
åĪ ¶
èī ²
çĲ ĥ
ä» £
çĤ ¹
ç» Ļ
ç ¼
äº §
çĶ ±
åĮ ħ
ç ¥
æ ¡
è¿Ľ è¡Į
åħ ¥
æ° ´
æķ° æį®
æĺ¯ ä¸Ģ
ç§ ĳ
å° ±
åĻ ¨
æĸ ¯
è¿ ĺ
å £
çĽ ®
å½ ĵ
æ° Ķ
ä»¥ ä¸ĭ
ä¿ ¡
å¤ ĸ
i n
å ĸ
é ©
åŀ ĭ
æ ·
æĸĩ æľ¬
æŃ £
èµ ·
å¤ Ħ
å¾ Ī
åĬ ¡
æ Ĥ
åı ĺ
åĪ ©
è¿Ļ ä¸ª
è º
è ¥
Â ·
è¯ į
æ ®
äº ¤
å¹ ³
æĬĢ æľ¯
è¥ ¿
è® ¾
åĽ ŀ
åĳ ĺ
ä¸ ī
ç» ĵ
1 9
é Ł
æ ¨
åĪ «
æī ĭ
ä¹ Ī
åľ º
èº «
ç» Ł
åı ¸
ç¬ ¬
ç Ļ
a n
å± ķ
æ¯ Ķ
ä¾ Ľ
ç¡ ®
å° Ķ
ç ĸ
é ª
åİ »
æł ĩ
è İ
åı¯ èĥ½
è½ ¦
åħ ·
æ ¶
e r
æĹ ł
åı ¥
æµ ·
å ķ
æĮ ģ
æĢ »
æ¨ ¡
o n
ç ĥ
è ĥ
æł ¹
éĢ ī
ç ĭ
éĿ ŀ
ä¸ ĸ
åŃ Ĺ
æĥ ³
è Ħ
ãĢ Ĭ
ãĢ ĭ
éĢļ è¿ĩ
é¢ Ĩ
åı ĸ
åĬ ©
è Ī
ç ģ
ä¸ ¤
æľ Ł
å® ī
è ¨
æıĲ ä¾Ľ
è¨ Ģ
ä¾ ĭ
è Ļ
å· ±
çľ ĭ
çİ ¯
åį Ĺ
çŁ ¥
éĤ £
é »
è® ©
èĩª å·±
æĭ ¬
ä¸Ń çļĦ
é£ Ł
æ ¼
é ħ
äºº å·¥
åŁ º
è į
è¿ °
ä» ¶
å± ±
åı Ĺ
æ º
åħ¬ åı¸
è¿Ļ äºĽ
æģ ¯
æ¬ ¡
t h
åŁ Ł
æ »
åİ Ł
åĨ ³
éŁ ³
è´ ¨
æĪ ·
ç Ĺ
å° ĳ
ç« ł
æ² ¡
ç» Ħ
æ® µ
åĮħ æĭ¬
åį ģ
æķ Ļ
ç¤ ¾
åĨ Ļ
äº Į
æł¹ æį®
äººå·¥ æĻºèĥ½
å½ ¢
æĶ ¹
åį ķ
åħ ĭ
åĲ ĳ
ç ¦
ç« ĭ
è® º
æĶ ¿
æµ ģ
ä»ĸ ä»¬
å· ²
å¤ ª
è¾ ¾
è¿ Ĳ
åı ª
å ²
ä¸ ľ
é ĵ
å¹ ¿
è· ¯
ç½ ĳ
ä¹ Ĳ
è¯ Ĩ
å¥ ¹
ç§ °
åŁ İ
æĮ ĩ
éĩį è¦ģ
çŃ Ķ
ä¼ ł
åĵ į
åģ ¥
çº ¿
e n
æ¯ ı
é£ İ
åĮ Ĺ
å¯ ¼
æĸĩ ç«ł
æĹ¶ éĹ´
åºĶ çĶ¨
åİ Ĩ
æ ĳ
å± ŀ
ä¸į åĲĮ
æł ·
æł ¼
ä½ ķ
å¸ ĥ
æķ Ī
å¼ º
å¸ ®
çĪ ±
æ° ĳ
åĪ Ľ
å¢ ĥ
å Ķ
ç® ¡
ä¸Ģ äºĽ
åĲ Ħ
æİ ¥
åı £
å® ¹
æľº åĻ¨
æĶ ¾
è¯ Ŀ
å¾ ·
è®¡ ç®Ĺ
. .
äº ļ
èĩ ³
æ· ±
é ¥
o r
åĪ Ĺ
ä» Ģ
éĩ ĳ
é Ĵ
å·¥ ä½ľ
) ,
ç ²
æĪ ĺ
åº ·
å¤ Ł
æ¡ Ī
è¯Ń è¨Ģ
è§ Ĩ
çķ Į
æ £
çł Ķ
é© ¬
åı °
a r
å¸ ¦
è® ¸
èĬ Ĥ
è® ¤
ç¥ ŀ
: "
æŀ ģ
ä¾ĭ å¦Ĥ
ä¹ ī
æľ į
å½± åĵį
ç« Ļ
äºº ç±»
éĿŀ å¸¸
éĢ Ĥ
æĭ ī
å¤ ´
çĶŁ æ´»
è ±
åĨ Ľ
æŃ ¥
æľ ª
æº Ĳ
ä¸Ń åĽ½
åıĳ å±ķ
ä»Ģ ä¹Ī
åĬ Ł
æ¸ ¸
è§ Ĥ
æĤ ¨
åı ²
åħ ī
åħ ±
ç¤ º
å¤Ħ çĲĨ
ç Ĭ
ç© ¶
éĽ Ĩ
æĺ Ł
åĪĨ ç±»
è¯ ·
æµ ĭ
ä¿¡ æģ¯
åĽł æŃ¤
ç Į
å¥ ³
e s
æİ ¨
ä¹ ¦
å§ ĭ
è® ®
å®ĥ ä»¬
éĢ ł
èĭ ±
è§ ģ
ç© º
é¦ ĸ
ç³» ç»Ł
é¢Ĩ åŁŁ
çĶµ å½±
åĽł ä¸º
ç ¿
æ³ ¨
æ²¡ æľī
æ± Ĥ
å ĥ
èģ Ķ
çłĶ ç©¶
è £
æ¼ Ķ
å¸® åĬ©
ç´ ł
åĪ Ļ
åģ¥ åº·
åĸ ľ
ç® Ģ
i s
è° ĥ
è Į
ä¸» è¦ģ
ç ¯
èĩª çĦ¶
åŃ ĺ
çº ¦
æ¸ ħ
å· ŀ
a t
å® ¢
åħ¶ ä»ĸ
åħ ĥ
çİ ĭ
ç» ´
éĺ Ł
èĥ½ å¤Ł
åı Ĥ
åĽ Ľ
æıĲ é«ĺ
åķ Ĩ
å ¡
çĽ ´
æ² »
è¯ Ħ
å¼ ķ
ä¸ Ķ
è¶ Ĭ
æĸ Ń
å® Į
ä»¥ åıĬ
è® °
è ĳ
æ¬ ¢
èµ Ħ
åĩ ı
åı¥ åŃĲ
çľ Ł
é¡ ¹
a l
é¢ Ħ
èĬ ±
åĥ ı
æĢ Ŀ
èĢ ĥ
æŀ Ħ
å¿ «
ç¼ ĸ
æĶ ¯
æĸ¹ å¼ı
æĬ ¤
çİ¯ å¢ĥ
èµ Ľ
ä¹ĭ ä¸Ģ
åĽ ¾
æ ļ
æĺ¯ä¸Ģ ç§į
å ¨
æı ı
éĺ ³
æĻ ¯
å¤ į
æĪĲ ä¸º
åħ Ī
æĺ¯ ä¸Ģä¸ª
å¤ ĩ
è¯ ķ
éª Į
åı į
åº ı
åĮ »
åĳ ½
æŃ Į
æĸ¹ æ³ķ
å¸ Ī
æ ¢
çļĦ ä¸Ģ
èİ ·
èĢ ģ
è ı
çİ ĩ
å¢ ŀ
åĩ Ĩ
äºº ä»¬
æ¨¡ åŀĭ
éĹ ¨
åı Ī
åģ ļ
åı ·
ä¾ ¿
èĩ ´
æ ¹
ä¼ ĺ
æĢ ģ
çĻ ½
è®¸ å¤ļ
åĢ Ļ
çĹ ħ
æĭ ©
è®¡ç®Ĺ æľº
å£ «
ç§ ¯
éĶ ®
æī ¾
éĢī æĭ©
ç½ Ĺ
éĢļ å¸¸
åĪ Ĵ
ç¯ ĩ
éļ ı
0 0
åĲĮ æĹ¶
è½ ¬
è¶ ³
å¦Ĥ æŀľ
çľ ģ
æĶ ¶
æŀ Ĺ
æĸ Ļ
ç» Ń
åĩ ł
ä» ·
è¿ ĳ
æŀ Ĳ
æī ĵ
ä¸ĸ çķĮ
æľºåĻ¨ åŃ¦ä¹ł
äº§ åĵģ
å¥½ çļĦ
ãĢĤ "
ãĢ Į
çĶŁ æĪĲ
ç± ³
æķ ´
æķ ħ
æĿ ¡
ãĢ į
è§ ī
èĲ ½
æıı è¿°
è§ Ħ
è§ Ĵ
æ¸ ©
ç» Ĩ
é ²
è¾ ĵ
èĩªå·± çļĦ
éĢ Ł
åĪĨ æŀĲ
ç» ĥ
å®ļ çļĦ
åĲ «
å£ °
éĻ ¢
æ² ³
åĨ į
å· ´
åį İ
åħ³ éĶ®
æĺ ĵ
åİ ¿
l e
æ Ĵ
è± ¡
ç ı
çī ĩ
æ» ¡
è¯ »
éĺ ¿
å¼ ł
åĪ° äºĨ
å° ¼
åĽ ¢
æĽ ¾
ä» Ĭ
çļĦ äºº
è½ »
i c
å¼Ģ å§ĭ
ç¾İ åĽ½
åĨ µ
æİ Ĵ
åº ľ
in g
å Ħ
çĬ ¶
æĸ¹ éĿ¢
Ġ th
è¾ ĥ
åĽŀ çŃĶ
éĩ ĩ
çĥ Ń
çĶ¨ æĪ·
åĢ ¼
20 1
äº Ķ
å ĭ
å¦Ĥ ä½ķ
çŃ ĸ
å·² ç»ı
çŁ Ń
ç®Ĺ æ³ķ
å ł
ä¸ ĵ
åı ¤
åĲ ¬
ä¸» é¢ĺ
æľį åĬ¡
èĲ ¥
ç ¢
åĦ ¿
é ¸
æ ħ
å¤§ çļĦ
æĬ ¥
æĥħ æĦŁ
æ¶ Ī
çĸ Ĺ
åĬ¨ çī©
åİĨ åı²
è¿Ĳ åĬ¨
æĬ Ĭ
æĽ´ åĬł
é ¾
Ġ s
åĸľ æ¬¢
åŁİ å¸Ĥ
è¾ ¹
èģ Į
æĸĩ åĮĸ
éļ ¾
æ´» åĬ¨
åĳ ¨
çº ¢
äºĨ ä¸Ģ
ç¦ »
çº §
åĳ ³
å¾ ģ
è®¾ è®¡
è® Ń
èĤ ²
ä»» åĬ¡
åį ³
è§£ åĨ³
åħ· æľī
e l
åºĶ è¯¥
æľ Ľ
æ ¤
æ ¦
è¿Ļ ç§į
ä½į äºİ
çŁ ³
åı ĭ
åĩı å°ĳ
éĶ Ģ
æī į
ä¹ĭ éĹ´
ç² ¾
ç ħ
i t
æ¯ į
ä¸ª äºº
åıĳ çİ°
çĶ¨ äºİ
åħ ´
å¤ ±
åħ °
æľª æĿ¥
ç´ ¢
æĪĳ çļĦ
éĻ ħ
ç ª
è ħ
æĸ ½
åĨħ å®¹
ä½ İ
æŁ ¥
èµ °
ç§ĳ åŃ¦
è¿ ŀ
o u
r e
è®¤ ä¸º
æĹ ħ
ç» Ī
ç¤¾ ä¼ļ
ä½Ĩ æĺ¯
åī §
äº Ĵ
æĽ ²
ç½ ®
ç» ľ
åĳ Ĭ
çĶ ·
è¯Ĩ åĪ«
èĳ Ĺ
ä¿Ŀ æĬ¤
æĸ° çļĦ
äº ²
å¯¹ äºİ
åħ¶ ä¸Ń
çĭ ¬
åį ¡
å± Ĥ
éĥ¨ åĪĨ
é¦ Ļ
ä¸ ĩ
è´ ¹
åį ĩ
å¾ Ģ
éĻ ©
ä¸įåĲĮ çļĦ
ç½ĳ ç»ľ
æł ¡
) ãĢĤ
èº« ä½ĵ
è¿ĩ ç¨ĭ
ä»ĸ çļĦ
åħ¨ çĲĥ
å¯ Ĩ
ç®¡ çĲĨ
å¦ Ī
Ġ t
åĽ ´
20 0
é ±
åĲ ¸
èĥ½ åĬĽ
è¿ ľ
æ Ĳ
è Ĵ
æİ ¢
é± ¼
a s
é» ĳ
ç¦ ı
å®ŀ çİ°
æİ §
" ,
æĥħ åĨµ
åıĺ åĮĸ
èİ· å¾Ĺ
å¿ ħ
ç¿ »
å¸Ĥ åľº
éĶ Ļ
è¯ ĳ
å®ī åħ¨
ä½ł çļĦ
ä¸¤ ä¸ª
åĲĦ ç§į
æīĢ æľī
æ³ Ľ
è¯ ģ
ä» ħ
å¯¼ èĩ´
å° ½
åŃ £
æĪĳä»¬ çļĦ
æĻ ®
å® ĺ
Ġ c
ä¼ ¼
æĹ ©
éĩ Ĭ
è£ ħ
å± ħ
æĽ´ å¤ļ
å¤§ åŃ¦
ç ĵ
æľ Ŀ
æķħ äºĭ
çº ª
¤ Ĳ
1 0
éŁ³ ä¹Ĳ
åĽ Ń
Ġth e
ä¼ Ĺ
çĽ¸ åħ³
å¤ «
ç¨ĭ åºı
çĲĨ è§£
éĻ ¤
ä½ľ ä¸º
èī º
åľ° åĮº
ä» ½
éħ į
éķ ĩ
è´ Ł
çľ ¼
èĩª åĬ¨
ä¿ ®
äºº çļĦ
æ³ ¢
åİ ĭ
é» Ħ
o m
è®Ń ç»ĥ
æĪ ı
æĺ ¾
ç¬¬ ä¸Ģ
æĿ İ
Ġ p
çĽ® æłĩ
æ ĵ
æŁ Ĳ
æ± Ł
éĻ į
çģ «
ä¸Ĭ çļĦ
æł ĳ
äº¤ éĢļ
çĶ »
å¸ Į
åĪ Ŀ
a c
ä¿Ŀ æĮģ
è Ľ
è¶ ħ
å¹¿ æ³Ľ
å¹¶ ä¸Ķ
éĩįè¦ģ çļĦ
å¿ µ
åĵ Ī
çĪ ¶
å® ¤
åħ į
è®¡ åĪĴ
é ¤Ĳ
èĩªçĦ¶ è¯Ńè¨Ģ
æĹ ı
ä» ¤
äº ¬
äº ī
ç Ĩ
ä½ ı
" ãĢĤ
éĵ ģ
æ´ ²
æĳ ĺ
å¹ ²
èĦ ĳ
æ¦ Ĥ
çł ģ
æ ½
çĽ ĳ
ä¸ ½
é ¼
ä» ĭ
çħ §
åĬ ¿
å¯ Į
åĲ ĥ
ä¸ ¾
ä¸į æĸŃ
å½ Ĵ
èĻ ĳ
åħ »
æĿ ¾
æµ İ
é¥ ®
åħ³ äºİ
æĭ ¥
åĲ ¦
å² Ľ
ä¸Ģ ç§į
äºĨ è§£
çī Į
Ġ w
i on
å¤ª éĺ³
çī¹ å¾ģ
é¾ Ļ
Ġ d
an d
åı ¦
åħ ħ
éĺ ²
æŃ¤ å¤ĸ
ç» ĩ
ç¬ ¦
â Ģ
æĶ¯ æĮģ
éĹ »
å¥ ¥
åľ° çĲĥ
ä¹Ł æĺ¯
1 8
çĶ± äºİ
ä¸į æĺ¯
åĸ Ħ
e d
ç»ĵ æŀľ
Ġ a
ç ĳ
å»º è®®
æŃ ¦
æ¤ į
åĵ ª
éĻ Ĳ
çļĦ æĺ¯
äº§ çĶŁ
è ŀ
çļĦ ä¸Ģä¸ª
æĪĲ åĬŁ
çº ³
äº «
æĬ ķ
åº §
åĶ ®
é£ ŀ
è´ Ń
è® ¨
Ġ b
ç¿» è¯ĳ
çĭ Ĺ
å½ ķ
Ġ f
èı ľ
æıĲ åıĸ
åŃĺ åľ¨
åį ´
åĬŁ èĥ½
æĳĺ è¦ģ
ç¾ ¤
åĩº çİ°
ç§¯ æŀģ
æĪ ¿
èĮ ĥ
å±ŀ äºİ
åĩ »
å¥ ĩ
è¡¨ ç¤º
å ³
å¾Ī å¤ļ
çī Ī
.. ..
åį ı
Ġ o
åı¯èĥ½ ä¼ļ
è´¨ éĩı
ç¡® ä¿Ŀ
r o
éĿ Ĵ
è Ĺ
æĿ Ĥ
åħ³ ç³»
Ġ S
å¢ŀ åĬł
åĪ© çĶ¨
å¾ ĭ
è½ ¯
ç»Ļ å®ļçļĦ
ä¼ ģ
åį °
å ĺ
u s
å ª
åĬ ŀ
é Ń
æĭ ħ
èĻ ½
æŃ »
ä¸º äºĨ
çĻ ¾
æĮ ĳ
æ ¿
å¸¦ æĿ¥
ç¤¾ äº¤
èį ī
æĹ¥ æľ¬
å®¢ æĪ·
æ ¥
æĶ¿ åºľ
åŃ ©
åı¯ä»¥ å¸®åĬ©
æĽ´ å¥½
äº ĳ
æĿ ĥ
ä»İ èĢĮ
é¢Ħ æµĭ
æķĻ èĤ²
æĿ Ĳ
éĥ½ æĺ¯
æľĢ åĲİ
æ¬ ¾
è¡¨ è¾¾
å°ı è¯´
å¤ ı
çļĦ å½±åĵį
çŃĶ æ¡Ī
èĥ Į
ç»ĵ æŀĦ
å¨ ģ
åħ Ń
æľ ¨
å¼Ģ åıĳ
æ¸¸ æĪı
åľ Ł
è¯ ¯
å® Ŀ
ç»Ħ ç»ĩ
ä¸ĭ éĿ¢
å§ Ķ
è¶ £
æį ¢
è§£ éĩĬ
å¾ ®
åı ¶
å® ³
å°± æĺ¯
å± Ģ
ä»£ è¡¨
å®Į æĪĲ
ã ģ
ç»ı æµİ
åį «
å¥ ĸ
Ċ Ġ
A I
Ġ m
æİ§ åĪ¶
æĿ ĳ
ä¹ °
èĩªçĦ¶è¯Ńè¨Ģ å¤ĦçĲĨ
çķ ¥
i l
çĮ «
é¦ Ĩ
æĹ¶ åĢĻ
ä¸Ģ èµ·
å¯ »
åħ³éĶ® è¯į
åİ ħ
æ² Ļ
çļ ®
è° ¢
ç§ĳ æĬĢ
åı Į
è® ²
çķ Ļ
ç¥ŀ ç»ı
å¿ Ĺ
æ± ī
åıĳ çĶŁ
åŃ¦ çĶŁ
æĪĸ èĢħ
âĢ Ķ
æŁ ĵ
æĮ ī
åª Ĵ
çŃ ĳ
en t
æĽ´å¥½ åľ°
åĮ» çĸĹ
å»º ç«ĭ
èī ¯
å Ĥ
Ġ "
æ¸ ¯
æī §
å¼ Ĥ
ä¼ģ ä¸ļ
ä¼ ¤
è¡Į ä¸º
è¾ĵ åħ¥
åį ļ
æĮĳ æĪĺ
æ°Ķ åĢĻ
ä¸Ń å¿ĥ
è¿Ļ æł·
a m
æ¿ Ģ
çĶµ åŃĲ
æ³¨ æĦı
ç» į
çª ģ
Ġ C
åħ «
åį Ĭ
æĿ¥ è¯´
æĴ Ń
å¤§ éĩı
è ĵ
æ¯ı ä¸ª
èĻ½ çĦ¶
å ©
æĺ¯ åĲ¦
ç¬¬ äºĮ
æ·± åº¦
çĻ »
èĭ ı
èŀ į
åĮħ åĲ«
æĻ ļ
åħ ¸
èĤ ī
éľĢ æ±Ĥ
ä¼ ¦
1 2
è¿ĺ æĺ¯
ä¹ĭéĹ´ çļĦ
ä¸Ģ ç¯ĩ
çļĦ éĹ®é¢ĺ
åĿ ĩ
æľ ĭ
å¡ Ķ
çĦ¶ åĲİ
æ´ ĭ
æĪĳä»¬ åı¯ä»¥
åº Ń
åĽ½ å®¶
å° Ħ
e t
åĪ ĩ
ä½ľ çĶ¨
éģ ¿
ç» ¿
èĢĥ èĻĳ
åı¥ è¯Ŀ
ç±» åŀĭ
ä»ĸä»¬ çļĦ
ç§° ä¸º
åľ £
æĭ¥ æľī
çģ µ
éļı çĿĢ
çŁ¥ éģĵ
é º
ä¹ ¡
éĻ Ĩ
æ¹ ĸ
è´ £
Ġ h
æ± ½
æ£ Ģ
å»º çŃĳ
æĢ» ä¹ĭ
1 5
è¿ ½
çİ° åľ¨
åªĴ ä½ĵ
o l
åĪ »
æĺ ¥
ç» §
åĵ ¥
åħ ļ
è¾ ĳ
æľĭ åıĭ
ä¼ Ĭ
ç¬ ĳ
æ¹ ¾
Ġ in
ä¸ ´
æīĢ ä»¥
çİ ©
è¡ Ģ
é¢ ĳ
å®ĥ çļĦ
è®¾ å¤ĩ
èµĦ æºĲ
æ¤į çī©
ç§ »
èĲ ¨
æĸ° éĹ»
çĿ ¡
æ®µ èĲ½
éħ Ĵ
çĶŁ äº§
ç¡® å®ļ
å· ®
èī² çļĦ
å¸ Ŀ
æĢ§ çļĦ
æ´ ¾
æĽ´å¤ļ çļĦ
èį ¯
Ġo f
æķĪ çİĩ
çŃī çŃī
çĶŁ çī©
æĮģ ç»Ń
åĨ ľ
çł ´
åº Ĺ
èµ· æĿ¥
ç¼ º
åįķ è¯į
ä¸ ĥ
è ľ
åº ķ
æļ ĸ
æľĢ ç»Ī
ä¾ Ŀ
åħ· ä½ĵ
ä»ĭ ç»į
æĭ Ł
è¡¨ çİ°
åº ĵ
åį ĥ
æİ ª
æŃ£ åľ¨
æĹł æ³ķ
åı «
å³ °
ä» į
ç»Ħ æĪĲ
çŁ¥ è¯Ĩ
åŁº äºİ
çļĦ åľ°
åĿ Ĺ
å·¥ åħ·
å® Ĺ
å² ģ
åħ µ
19 9
æĸ¹ æ¡Ī
éĤ ®
ç« ¯
éģ ĩ
éĽ ¨
é¢ ľ
è¡ Ĺ
ä¼ł ç»Ł
éĻ Ī
æľī æķĪ
çĽ Ĭ
çı Ń
æ£ ®
u l
æ° ı
çİ¯ ä¿Ŀ
ä½ľ åĵģ
åĶ ±
æŃ ¢
æĦŁ åĪ°
å¾ ħ
è¡ £
ç´ §
è¿Ļ æĺ¯
è· Ł
c h
æķ £
åĪ¶ ä½ľ
æ¬ §
éĺ ħ
åĽł ç´ł
æ¯ Ľ
æł ¸
é ¹
ç»Ļ åĩº
é£Ł çī©
å® £
çİ° ä»£
åĩĨ ç¡®
æīĭ æľº
çļĦ åıĳå±ķ
åĨ³ çŃĸ
ä¸ ¥
æľī ä¸Ģ
æĢ§ åĴĮ
å¯ Ł
éĶĢ åĶ®
äºĨ ä¸Ģä¸ª
åı¯ä»¥ éĢļè¿ĩ
Ġ A
æ¯Ķ èµĽ
æĢ İ
ä½ĵ éªĮ
ç»Ļ å®ļ
æ±½ è½¦
çĿ £
ç© ¿
èĪ ¬
åģ ĩ
æķ° åŃĹ
å· ¦
åĪĨ å¸ĥ
çĶµ è§Ĩ
ä¼ ¯
æ´ Ľ
ä¸į ä»ħ
ä¹ ħ
èīº æľ¯
æĺ¯ æĮĩ
ä¹ĭ åĲİ
çļĦ ä¸»è¦ģ
è¯Ħ è®º
Ġ M
äºº æ°ĳ
å®¶ åºŃ
æī¾ åĪ°
çī Ľ
é Ĩ
ä»» ä½ķ
çļĦ éĩįè¦ģ
è´ Ŀ
å¼ Ł
å° ļ
çĸ ¾
ä½ ³
é¡ »
æĵ į
ç®Ģ åįķ
Ġ and
åıĤ åĬł
æĭ ¿
åıĹ åĪ°
å¤į æĿĤ
è¿Ļ ä¸Ģ
æİª æĸ½
æ° §
ä¹ Ŀ
åī ¯
åĬ ª
çĽ ĸ
è¿Ļ æ®µ
åģ ľ
Ġ P
ä¸ĸ çºª
æ¸ Ĳ
åĲ ī
åĲ Ĺ
æĺ¯ åľ¨
å¤ ľ
é¸ Ł
åł Ĥ
u r
æ¨¡ å¼ı
äºĭ ä»¶
éĩĩ åıĸ
åħ³ æ³¨
éĽ ·
æ² ¹
ä¸ °
çĦ¶ èĢĮ
æľ Ĺ
æĬĢ èĥ½
æ¢ ¦
çĶ °
æĿ¥ è¶Ĭ
åı ³
å¾Ĺ åĪ°
æħ ¢
éĿ Ļ
é ³
èĪ ª
åİŁ åĽł
è¶Ĭ æĿ¥è¶Ĭ
çĽ® åīį
æī ¿
ä¼ °
1 1
i d
åİĭ åĬĽ
å° Ŀ
åĪ ¤
è¡¨ æĺİ
èĭ ¹
æĳ Ħ
æĿ Ģ
åĽ¢ éĺŁ
éĢ Ĳ
è½¦ ç«Ļ
s t
åĳ ¼
è¿ĺ æľī
Ġt o
èĭ¹ æŀľ
åĿ ļ
å¥ ¶
åĵģ çīĮ
é¥® é£Ł
æłĩ é¢ĺ
éĺħ è¯»
éĤ£ ä¹Ī
ç¥ ĸ
éĩĩ çĶ¨
æŃ£ ç¡®
åŃ¦ æł¡
å§ Ĩ
é¦ĸ åħĪ
Ġ -
ä¸ī ä¸ª
çļ ĩ
èĹ ı
æĢ» ç»ĵ
åĲį ç§°
ä¸Ģ çĽ´
l o
æĶ »
çļĦ åºĶçĶ¨
éħ ¸
éģ¿ åħį
éĩ İ
å· §
å· Ŀ
ä¸į èĥ½
éĢ ģ
éĶĻ è¯¯
é¡¹ çĽ®
ç³» åĪĹ
åħ¬åı¸ çļĦ
é¡ º
å· ¨
äºº çī©
è¯ º
äº ®
é£İ éĻ©
åĩº äºĨ
æ° ¸
ä»· åĢ¼
ç¼ĸ ç¨ĭ
æĤ¨ çļĦ
æľī åħ³
æ·±åº¦ åŃ¦ä¹ł
èĥ ľ
æ¯ Ĵ
èĽ ĭ
æĿ ¿
è Ń
åĲĪ ä½ľ
åĭ Ĵ
ä½ Ľ
ä¿ ĥ
é¡ ¿
èĥ½ æºĲ
åĴ ĸ
å ´
éĵ ¶
è¯Ń éŁ³
ä»¥ä¸ĭ æĺ¯
i g
ç ĩ
? "
å¸Į æľĽ
T h
èĵ Ŀ
ç¤ ¼
èŃ ¦
åĽ½ éĻħ
åķ ¡
çĵ ¦
ä½¿ å¾Ĺ
æ¶ ī
èģ ļ
å°Ĩ åħ¶
è¦ģ æ±Ĥ
å¦Ī å¦Ī
æ³ķ åĽ½
å° ģ
èģĮ ä¸ļ
ç» ¼
é ½
, "
Ġ n
éĢĤ åĲĪ
æĹħ æ¸¸
ç³ ĸ
é² ģ
æ¥ ¼
éĴ Ī
çĸ¾ çĹħ
æ°´ æŀľ
å® Ī
è· ĳ
åĲ¸ å¼ķ
æĦ ¿
æĶ¹ åıĺ
æ´ ģ
åĬ ±
ç§ ģ
æī ĺ
åĴĸ åķ¡
çĶ ²
æİ Ī
èĳĹ åĲį
è Ķ
ä¸į ä¼ļ
æ²» çĸĹ
æ± ¡
åĪĽ éĢł
çī Ļ
éĿ ©
çİ Ľ
çĶŁ åĳ½
å½ĵ åľ°
u m
é© ¶
Ġ B
èİ ±
) ãĢģ
åĩ ½
æķ°æį® éĽĨ
ä¸Ģ æŃ¥
éĤ® ä»¶
çĹ ĩ
æ¯Ķ è¾ĥ
åĨ °
å¡ ŀ
çĪ ¸
è¯ ¦
åĳĺ å·¥
çī¹ åĪ«
åŁº ç¡
éļ Ĳ
a d
ä½ľ èĢħ
é© ¾
å½¢ æĪĲ
èĭ± åĽ½
i m
åŁºç¡ Ģ
æĸĩæľ¬ ä¸Ń
æľº ä¼ļ
æ³ °
1 6
å¸¸ è§ģ
è§Ĵ èī²
åı¯ä»¥ åľ¨
é² ľ
åĽ °
å¿ĥ çĲĨ
çĶŁ æĢģ
å¤ļ ä¸ª
åŁº æľ¬
å¹ ¸
é«ĺ çļĦ
è¿Ļ ç¯ĩ
åĬª åĬĽ
éģ Ĺ
é¥ °
ç« ŀ
å¹´ çļĦ
æµ ª
è¡Į åĬ¨
éĿ ł
æ°ĶåĢĻ åıĺåĮĸ
ç £
æģ ©
u n
ç» Ŀ
è¿ İ
çĮ ®
è¯ Ĺ
åŃ¦ åĲį
åıĤ ä¸İ
ç¤¾äº¤ åªĴä½ĵ
å½ĵ æĹ¶
åĨ ²
æĶ¿ æ²»
è¯ ¾
èĪ Ĵ
åĽ¾ åĥı
æĭħ ä»»
å¤© æ°Ķ
è½ ½
Ġ (
åı° æ¹¾
çľĭ åĪ°
æİ Į
v e
åĩ½ æķ°
å® «
æĬ Ĺ
èĮĥ åĽ´
è½¯ ä»¶
åĬ© äºİ
c e
a y
20 2
! "
ä¸Ģ æł·
å¿« éĢŁ
åĲ §
ä¼ĺ åĮĸ
æµĭ è¯ķ
æĺ¯ ä»Ģä¹Ī
å®ŀ éĻħ
ä»¥ ä¸Ĭ
ç¼ ĵ
äºº åĳĺ
ä¸ĵ ä¸ļ
è¡ ¡
ç»ı éªĮ
åıĺ å¾Ĺ
è´ µ
çī© è´¨
è° ģ
å½¢ å¼ı
æĢĿ èĢĥ
åľ Ĩ
é£Ł åĵģ
æĹ¶ æľŁ
å¿ħ é¡»
éĴ Ł
èĴ Ļ
å® ĩ
é¢ Ŀ
çļĦ æĸ¹æ³ķ
y th
ä½ Ļ
ã Ĥ
o t
ä¼ ĳ
ä¾ §
åĩł ä¸ª
æ± ĩ
éª ¤
æ¡ ¥
å½ ©
åĨ³ å®ļ
ã ĥ
åº Ħ
éĢ ı
1 7
èĢĮ ä¸Ķ
åķĨ åĵģ
å·¥ ç¨ĭ
æĤ £
é¢ľ èī²
éĢł æĪĲ
ç» ª
ç¥ŀç»ı ç½ĳç»ľ
æĦŁ è§ī
éĻ Ħ
ä½į ç½®
éĵ ¾
åĨ ·
åľ¨ è¿Ļä¸ª
ç¥ ¨
äº ¦
æİ¢ ç´¢
è®¨ è®º
è´ ¢
å® ģ
åĪ ĺ
19 8
çļĦ å¤§
åŃ© åŃĲ
æĢ§ èĥ½
æ½ ľ
åºĶçĶ¨ ç¨ĭåºı
åĪ¶ å®ļ
æī§ è¡Į
æ±¡ æŁĵ
åķ Ĭ
æľī åĬ©äºİ
çľ ł
æľŁ éĹ´
Ġ I
èĻ ļ
é¦Ļ æ¸¯
å®¹ æĺĵ
æŃ¥ éª¤
åĩº æĿ¥
åĪĨ ä¸º
åĿ Ĳ
åıª æľī
çĥ Ī
è§Ĥ çĤ¹
Ġ is
åŁ ¹
åĨ ł
è¡Į ä¸ļ
ç»ı åİĨ
æĵį ä½ľ
è· Ŀ
é¼ ĵ
çĸ «
éĩĳ èŀį
äººå·¥æĻºèĥ½ æĬĢæľ¯
Ġ l
ç½ĳ ç«Ļ
æ¯Ķ å¦Ĥ
ç±» åĪ«
è´Ń ä¹°
yth on
æĪĳä»¬ éľĢè¦ģ
æĥħåĨµ ä¸ĭ
ä¹Ł åı¯ä»¥
v er
éĢ Ķ
è¯Ħ ä¼°
å¹¶ åľ¨
é¡ ¶
æĢİ ä¹Ī
åħ¬ éĩĮ
ç§ ĭ
è° ·
æĶ¹ åĸĦ
è¾ĵ åĩº
éĽ ª
è¯ ī
æĿ¡ ä»¶
ä»Ĭ å¤©
ä»¥ ä¾¿
èį Ĳ
å¹³ åı°
åŁ ĥ
çī© ç§į
å¥¹ çļĦ
æ ĩ
a g
æĥ Ĭ
i r
è Ĩ
èĤ ¡
éĥ½ æľī
è¿ ª
ä¸Ń æĸĩ
èĦ ļ
éĻį ä½İ
é¡ ¾
è ¸
åħ± åĲĮ
æķ ĳ
æ ¾
æ¶ī åıĬ
Ġ L
å¯» æī¾
æ´ ŀ
è¿ĩç¨ĭ ä¸Ń
åĲİ æĿ¥
æĿ ¯
æļ ´
è¿ĩ åİ»
ç§ ĺ
åĪ º
3 0
ä¸Ģ æ®µ
o s
è¿Ľ åħ¥
æĺ¯ çĶ±
çĬ¶ æĢģ
æĿĲ æĸĻ
è¿Ļ éĩĮ
t er
å°Ŀ è¯ķ
å¤ļ ç§į
æĸĩ åŃ¦
è¯¦ ç»Ĩ
åĮĹ äº¬
èĩª çĶ±
åĤ ¨
çļĦ æķ°æį®
æ¼ «
éĴ ±
çļĦ æĹ¶åĢĻ
é¤Ĳ åİħ
æĲ ľ
ä¸Ģ èĪ¬
è´ ¥
ä¸ ģ
æĿ °
èĪ ŀ
é¢ĺ çĽ®
ä¸º ä»Ģä¹Ī
æĦı ä¹ī
å° ¾
åĳ ¢
æ ©
è´Ł éĿ¢
åĩĨ å¤ĩ
äºº åı£
åĶ Ĳ
éĢŁ åº¦
æŀ ¶
è ĸ
æĪĲ åĳĺ
e c
æ¦Ĥ å¿µ
.... ..
æİ¨ èįĲ
Ċ Ċ
æĽ ¼
å¿ Ĩ
æĢ ¥
éĩį æĸ°
æļ Ĺ
é£İ æł¼
é©¾ é©¶
æķ´ ä¸ª
ç§ Ģ
çĽ¸åħ³ çļĦ
æī ©
åĪĽ æĸ°
ç¨ ³
ä¹ Į
æķ° éĩı
ç¼ ©
æ¶Ī è´¹
éª ¨
æľĢ ä½³
åĪ ļ
åĬł åħ¥
ä»£ çłģ
æīį èĥ½
åķĨ ä¸ļ
ç»§ ç»Ń
å¹´ è½»
æĿ¥ èĩª
ç« ¥
ä¹ İ
æĬķ èµĦ
åĮĸ çļĦ
çĹ Ľ
åı¯ä»¥ ä½¿çĶ¨
åĿ ¦
åŀ ĥ
æ² Ł
è¶ ĭ
åľ ¾
åŀĥ åľ¾
æĹħ è¡Į
ä¹ĭ åīį
å°½ ç®¡
çŃ ¾
å®ĥä»¬ çļĦ
ç¾İ ä¸½
ä¸Ń åįİ
è ķ
o d
æĶ¹ è¿Ľ
èģĶ ç½ĳ
o w
åıį åºĶ
ç ¹
æľ «
i f
èĭ± æĸĩ
è§Ĩ è§ī
åľº æĻ¯
ä»¥ä¸ĭ éĹ®é¢ĺ
èĦ ¸
" )
æĥ ¯
åĿ ı
æĽ´ å¥½çļĦ
æĹ §
ä¸į åı¯
æĪĲ ç«ĭ
èĪ ¹
çĶ ļ
çī¹ çĤ¹
æĹ ¨
æ¯ ķ
çļĦ å°ı
ç¹ ģ
åŃ¦ éĻ¢
å» ¶
è¿Ļ åı¥è¯Ŀ
æĸ Ĺ
éĢ Ģ
çĶ¨ çļĦ
éĢĤ åºĶ
è¯Ħ ä»·
æıĲä¾Ľ äºĨ
åį ±
éŃ Ķ
åĲ ¯
éĿ¢ ç§¯
ç¢ ³
ä¿ĥ è¿Ľ
åĲį ä¸º
åº Ĩ
ä¸» ä¹ī
åģ ı
æłĩ åĩĨ
ä¸ Ŀ
æĭ Ķ
æĮ ¥
åĬ ³
åħ¬ åĽŃ
è¿ŀ æİ¥
åį ł
è®© æĪĳ
åħ´ è¶£
éĽ ħ
Ġ R
æĽ ¿
ä» ĺ
åĳ Ī
çĿ¡ çľł
ä¸Ĭ æľĢ
1 4
äº¤ æµģ
5 0
at ion
çŃĸ çķ¥
ç©º éĹ´
± ä¹Ĳ
å®ļ ä¹ī
èĭ ¥
ç± į
ä¹ ³
è Ŀ
èĥ ŀ
åħĥ ç´ł
å§Ķ åĳĺ
ç¬ Ķ
ç¼ĸ åĨĻ
çģ ¯
èĢģ å¸Ī
ä»· æł¼
æĸĩ æ¡Ī
è· ³
æľĢ è¿ĳ
é ŀ
åı¯ æĮģç»Ń
ä¼ ´
æĸ¹ åĲĳ
ä¸ĭ æĿ¥
å¤§ åĪ©
æ´ Ĺ
æ² ī
å¯ º
çļĦ æĥħæĦŁ
èĭ± è¯Ń
èİ «
æľī äºĽ
æķĪ æŀľ
çĤ ¼
çı ł
éĽ Ħ
è°ĥ æķ´
è¡Į æĶ¿
åĨ ¬
è§£åĨ³ æĸ¹æ¡Ī
è¿ ·
è¶ĭ åĬ¿
çİ ī
éľ ²
æ»¡ è¶³
èģĶ ç³»
ç¬¬ ä¸ī
çļĦ çĶŁæ´»
æĹ¶ ä»£
ç»ı å¸¸
ä¸° å¯Į
ä¸Ģ æ¬¡
å¹´ ä»£
æĭ į
è¿Ļ éĥ¨
èĥ ¡
ä¸į è¦ģ
å¾ Ħ
çĶŁ å¹³
çī© çĲĨ
æĺ ł
çº ½
åŃĹ ç¬¦
æıĲ åĩº
åĪ¶ éĢł
æ¯ı å¤©
æ°´ å¹³
èĲ¥ éĶĢ
èĢ ³
èĭ ¦
èĥĮ æĻ¯
å®ŀ ä½ĵ
è¿Ľ ä¸ĢæŃ¥
é«ĺ åº¦
e m
åıĸ å¾Ĺ
åĴĮ åħ¶ä»ĸ
å¼º è°ĥ
å¼ķ èµ·
a p
åħ¬ åħ±
u t
è¡Į æĺŁ
çĨ Ĭ
æľº æŀĦ
åĢ Ĵ
Ġ T
æŃĮ æĽ²
æĿ ¨
è´ §
èĴ Ĥ
å¢ŀ å¼º
el l
ç² ī
äºĭ æĥħ
çĨ Ł
è¿Ļä¸ª éĹ®é¢ĺ
æĥħ ç»ª
éŁ ©
o p
` `
æ· ·
è ª
ä¸ ¹
æī ¹
éĺ ¶
èĢħ çļĦ
æĢ Ģ
å¿ ĺ
è¶³ çĲĥ
çģ ¾
è½ ®
åħħ æ»¡
çĳ ŀ
å¡ ĳ
ä¹Ł æľī
Ġ D
çĭ¬ çī¹
çļĦ ä¿¡æģ¯
åĽ º
å¼ ¹
åŃ Ļ
åĮº åŁŁ
o g
äººç±» çļĦ
å¸ Ń
è¯ Ĭ
æĬ¥ éģĵ
ç ŀ
ä¼ļ è®®
çĶ¨ æĿ¥
éĥ ¡
çļĦ æĹ¶éĹ´
è ļ
ä¸Ģ å®ļ
èĲ¥ åħ»
çĽĳ çĿ£
é» İ
æį Ł
1 3
ä¹ł æĥ¯
è® ¿
ä»ĸ åľ¨
æ¢ ħ
è¿Ļç¯ĩ æĸĩç«ł
å° º
åł ¡
Ġ W
Ġ H
æĬĢ å·§
çļĦ æĬĢæľ¯
å°ı æĺİ
è®° å½ķ
æĲľ ç´¢
ä¹ ĺ
æĦı æĢĿ
éº ¦
ä¸Ģ ä¸ĭ
éĻ¤ äºĨ
å¤ ®
çĽ Ł
æ¸© åº¦
è´ ¡
ç»ı è¿ĩ
è¿Ľè¡Į åĪĨç±»
Th e
åĲİ çļĦ
çĽ ĺ
åŃĹ æ¯į
Ġ G
çĽ¸ ä¼¼
æģ ¶
1 00
å¯¹ è¯Ŀ
P ython
éļ Ĩ
åĬĽ åĴĮ
å© ļ
ä½¿ åħ¶
è¾ Ĩ
ç¡ ¬
è§ī å¾Ĺ
äºĮ åįģ
ç©º æ°Ķ
å° Ĭ
éĴĪ å¯¹
çĦ ¦
çĶµ èĦĳ
ç«ŀ äºī
åħ± åĴĮ
è¾ ĸ
è¯´ æĺİ
åĪĽ å»º
èĪĴ éĢĤ
ä¸ ²
Ġ g
è´Ł è´£
ä¿ Ħ
çļĦ å·¥ä½ľ
æĬ ½
çĽ´ æİ¥
ç¤¾ åĮº
èī ¾
çĸ ĳ
19 7
è¿ĺ åı¯ä»¥
å¹¿ åĳĬ
or m
èĮ ¶
æ¼Ķ åĳĺ
éĿ¢ çļĦ
è·Ŀ ç¦»
ç© Ĩ
åĲį åŃĹ
åį ·
æ± ł
å® ½
èį £
åĩº çĶŁ
èĩª æĪĳ
åĮĸ åŃ¦
æł¹æį® ç»Ļå®ļçļĦ
ä»Ģä¹Ī æĺ¯
æĥ³ æ³ķ
æĮī çħ§
æŁ Ķ
åĿ Ģ
æİĴ æĶ¾
æĿ Ł
æŁĲ äºĽ
äº ¡
çĪ¶ äº²
æĦı è¯Ĩ
åľ° æĸ¹
éģ į
éĺ µ
ä¸į è¿ĩ
åĪĨ åĪ«
å£° éŁ³
å¼ Ĺ
éĢ Ĵ
å± Ĭ
èĻ «
æİ¥ åıĹ
æ¬¢ è¿İ
éĢĲ æ¸Ĳ
é¸ ¡
å± ĭ
çº ¸
æ² ¿
é» ĺ
ç±» ä¼¼
æĳ ©
åģļ åĩº
çļĦ æĸĩç«ł
ç»Ĩ èĥŀ
éļ ľ
æĢ ķ
âĢĶ âĢĶ
éĶ »
çĭ¬ ç«ĭ
åĮ» çĶŁ
å² ¸
åŃ¦ä¹ł åĴĮ
çļĦ æĸ¹å¼ı
èµ ı
åį° åº¦
èĦ ±
å§ ĵ
ä¸ļ åĬ¡
i a
å «
çŁŃ è¯Ń
æĭ Ľ
åº Ł
æľºåĻ¨ äºº
æķ° åŃ¦
å° ¤
æĹ¥ å¸¸
åĺ ī
èµ ŀ
è¯Ń æ³ķ
åį Ī
éĶ» çĤ¼
å®Į åħ¨
è®² è¿°
çĲĨ è®º
ç¿»è¯ĳ æĪĲ
æĬ ĺ
äºĴ èģĶç½ĳ
äº« åıĹ
åĭ ĩ
ä¸¥ éĩį
åĸ Ŀ
èı ²
é¥ Ń
éĢī é¡¹
åħ Ħ
å°¼ äºļ
r i
åºĶçĶ¨ äºİ
ãĢĭ (
çİ° å®ŀ
æ· »
ä¸Ń å¤®
è¶ħ è¿ĩ
åħ±åĴĮ åĽ½
é«ĺ æķĪ
çĽ¸ å¯¹
å¦Ĥ ä¸ĭ
çļĦä¸Ģ ç§į
é½ Ĳ
è¡ ¥
çĶ ľ
æĦı åĳ³
éĤ£ äºĽ
çĽ Ľ
åĬł å¼º
Ġ F
æł¹æį® ä»¥ä¸ĭ
æĬĢæľ¯ çļĦ
Ġ e
çļĦ æĸĩæľ¬
è§Ħ åĪĻ
æ°Ķ ä½ĵ
è¡Į çļĦ
èĳĹåĲį çļĦ
åı¦ å¤ĸ
ç» ©
ä¹ ±
æ°§ åĮĸ
åĵª äºĽ
é¼ĵ åĬ±
æķ ı
å¹¶ ä¸į
ä¹Ł ä¸į
ä¹ Ķ
æĺİ ç¡®
ç§ĳåŃ¦ å®¶
èª ī
å¾ ª
å Ĺ
åıª æĺ¯
å¹¸ ç¦ı
ç»Ļ æĪĳ
19 6
ç½ ª
ç¨ĭ åº¦
åĽłä¸º å®ĥ
ä¸Ģ ä½į
åĳĬ è¯ī
a v
æ¶ ²
æ½ ®
å®ŀ éªĮ
å¸¸è§ģ çļĦ
ä¸ľ è¥¿
é¢Ĩ å¯¼
ç²¾ ç¥ŀ
åıĳ å¸ĥ
çĩ ĥ
æ» ĳ
éķ¿ çļĦ
åºĶ å¯¹
å¼ ĥ
åĪ¤ æĸŃ
åĪĽ ä½ľ
æı ¡
æ²Ł éĢļ
ä»į çĦ¶
æĪĲ æľ¬
éª ĳ
å¿ Ļ
åıĺ æļĸ
ä¸Ģ åĲį
å¦ ¹
éĨ Ĵ
æŃ£ å¼ı
çĶļ èĩ³
åī ĳ
an g
è§ ¦
è¿Ļéĥ¨ çĶµå½±
ä»¥ä¸ĭ æĺ¯ä¸Ģ
åĨĻ ä½ľ
å® Ļ
éĥ İ
å¥ ı
åĪĹ è¡¨
Ġ E
çŃī æĸ¹éĿ¢
éĿ¢ ä¸´
çĪ ·
çĬ ¯
åĩº çļĦ
å¥ Ĺ
æĶ¿ çŃĸ
æİ¢ è®¨
å¹ ķ
æĦıåĳ³ çĿĢ
éľ ĩ
èı Į
è¢« è®¤ä¸º
çľŁ çļĦ
æľī çļĦ
å·¥ ä¸ļ
ãĢĭ ,
èĤ ¯
åĬĽ çļĦ
æĶ¾ æĿ¾
å¹ »
çĽ¸ åĲĮ
è¯ ¢
å² ©
es t
æ£Ģ æŁ¥
çŃī é¢ĨåŁŁ
éĢ ĥ
å¹³ è¡¡
æ¯ķ ä¸ļ
åİ ļ
æ¸ħ æĻ
Ġ N
çĪ± æĥħ
èĶ ¬
å°Ĩ ä»¥ä¸ĭ
æİ¨ å¹¿
è° Ī
èī¯ å¥½çļĦ
) :
è± Ĩ
å¾· åĽ½
æŃ£ç¡® çļĦ
åħ¨ åĽ½
æĲ Ń
ãĢį ,
Ġ Ġ
æ¨¡ æĭŁ
å¤ļ çļĦ
æĸĩ åŃĹ
ä¹Ł ä¼ļ
æľ ±
è¯Ĭ æĸŃ
ð Ł
å¸Ĥ éķĩ
äºİ æĺ¯
åŃ ¤
èĦ ī
æģ Ĳ
ä¸Ĭ æµ·
çļĦ æķħäºĭ
å® ĭ
æµ· æ´ĭ
æ£® æŀĹ
ä» ¿
ä»¤ äºº
çī¹ å®ļ
å¼Ģ æĶ¾
æĹł è®º
æĺ¾ ç¤º
è¯ŃéŁ³ è¯ĨåĪ«
é¢ Ĺ
åį ¢
åŃ¦ å®¶
åĽŀçŃĶ ä»¥ä¸ĭéĹ®é¢ĺ
æľī è¶£
è§Ħ åĪĴ
æľī ä¸Ģä¸ª
æľĢ å¤§çļĦ
å®ĩ å®Ļ
å¹³ æĸ¹
æł¸ å¿ĥ
éĹ Ń
å¤§ å®¶
å¯ ¿
åŃĲ çļĦ
æł ĸ
è¾¾ åĪ°
è¢« ç§°ä¸º
æĹ ĭ
æľªæĿ¥ çļĦ
åľ¨ çº¿
è½¬ æį¢
a b
es s
åī Ĥ
ç¿ °
çİ° è±¡
åº Ĭ
æĢĿ æĥ³
q u
èĶ¬ èıľ
è¶³ å¤Ł
åīį å¾Ģ
, ),
o h
æĪĲä¸º äºĨ
19 4
èĥ½ éĩı
æİ ī
al l
åı¯èĥ½ æĺ¯
æĬ¥ åĳĬ
å¿« ä¹Ĳ
æ¯ı ä¸ªäºº
è°ĥ æŁ¥
ä»¥ ç¡®ä¿Ŀ
çļĦ ä¸»é¢ĺ
å® ¾
æĪĺ äºī
éĢĤ å½ĵ
2 5
å¤§ éĻĨ
æĥ³ è¦ģ
è´Ń çī©
åĪĨ äº«
ç¾İ é£Ł
å¨ ±ä¹Ĳ
é¼ ł
è¯į æ±ĩ
é¡ µ
æĽ¾ ç»ı
æ¬§ æ´²
è¿ ¹
éŀ ĭ
æį ·
å¿ ł
Ġ re
éĻĲ åĪ¶
åĸľæ¬¢ çļĦ
éģ Ń
æĿ¥ æºĲ
äº Ī
çļĦåľ° æĸ¹
å¿ħ è¦ģ
èµ ĸ
æĭ ¼
çĶŁ éķ¿
è¿Ļæ®µ æĸĩæľ¬
ç» ĺ
åĽŀçŃĶ éĹ®é¢ĺ
èĩª è¡Į
æĹ Ĺ
æĥħ èĬĤ
æķ°æį® çļĦ
å±ķ ç¤º
è¿Ľ æŃ¥
éĥ½ ä¼ļ
èĦ Ĥ
éĵģ è·¯
çı į
æ· ¡
ç»ĵ åĲĪ
åĽ° éļ¾
è¯» èĢħ
çĬ¶ åĨµ
è´¡ çĮ®
åįģ åĪĨ
æ·± åħ¥
åĳ¼ åĲ¸
åĪĨç±» ä¸º
åĢ Ł
éĤ ¦
ä½ĵ èĤ²
åĲ ´
æľī çĿĢ
åĨ Ĵ
æ¾ ³
æŃ£ éĿ¢
æĹ ģ
è®¾ ç½®
æį ķ
åĮ» åŃ¦
è¢ ĭ
åĲĮæĹ¶ ä¹Ł
è¯ ¸
ç»¿ èī²
çº½ çº¦
åįķ ä½į
çĥ Ł
ä½ł ä»¬
èµ «
åħ¨çĲĥ åıĺæļĸ
æ£ Ĵ
æĸĩæľ¬ ä¸ŃçļĦ
åħ ¼
æĸ¯ çī¹
ç»ĥ ä¹ł
åŃĺ åĤ¨
en ce
åı¯ä»¥ è¢«
å¹³ åĿĩ
éĹ®é¢ĺ çļĦ
é¾ Ħ
æ» ©
å¸ ģ
èĬĤ çĽ®
éķ ľ
æĬ ±
æµ· æĭĶ
è§Ĩ é¢ĳ
è¿ĲåĬ¨ åĳĺ
åĪĨå¸ĥ äºİ
çĥ §
çī© åĵģ
çļĦ ä¸»
é³ į
éŁ ¦
ç ¦ģ
æ´ ª
åĵ º
ç§» åĬ¨
ä¸ĭ çļĦ
éģĵ è·¯
è¿ Ķ
è®© äºº
èĢ ¶
åĶ ¯
æķ ¢
çĽ´ åĪ°
èį ·
åİ Ĥ
ä¸Ģä¸ª äºº
ç¦» å¼Ģ
å¤ļ æł·
æ¸ħæĻ °
èĽĭ çĻ½
éĺ³ åħī
æĹ¨ åľ¨
å°ı æĹ¶
ä¾ĭ åŃĲ
èĢ Ĳ
å»º è®¾
æ¡ £
è§Ħ æ¨¡
èĮ ¨
on e
æµ ĵ
åģ¥åº· çļĦ
çģ Ń
æ¯į äº²
éĩĮ çļĦ
æĺ¯ ä¸ŃåĽ½
an t
ç¼ ĺ
éĽ ¶
åĩº çīĪ
è®º æĸĩ
å¤§éĩı çļĦ
åĨħ çļĦ
äº ¿
ç½Ĺ æĸ¯
èĩªåĬ¨ åĮĸ
å°Ĩ ä¼ļ
æİ¨ åĬ¨
äººå·¥æĻºèĥ½ çļĦ
19 5
çĹħ æ¯Ĵ
çĿ Ľ
éķ¿ æľŁ
åĬĽ éĩı
åĲĪ éĢĤ
è®° å¿Ĩ
æ± ¤
å¥ ĭ
èģĶ åĲĪ
ä» Ķ
æĢĿ ç»´
åŃĹç¬¦ ä¸²
å® ł
a k
èĻ İ
ç»ı åħ¸
åľ° çļĦ
åįĹ éĥ¨
å§ Ĳ
åĮ ¹
ç« ¹
å¾ ¡
å¥³ æĢ§
ä» ª
è¿ ģ
çªģ çĦ¶
ç¬¦ åĲĪ
åĩı è½»
æĭ ľ
æĸ¹ ä¾¿
Ġs t
ç¨³ å®ļ
è¯ ļ
æĥ ł
æĦŁ åıĹ
éļĲ ç§ģ
çĶŁæĢģ ç³»ç»Ł
éº »
æķ ¬
çŁ ¿
çĪ Ĩ
çģ °
ä¸ĸçķĮ ä¸ĬæľĢ
æīĢ è¿°
æĪ ´
å¼ ±
Ġ åľ¨
å®¶ æĹı
æľĢ å¤§
å® ¡
æ² ĥ
åĪ Ģ
æĢ» çļĦ
Ġ y
ç§¯æŀģ çļĦ
çĽ Ĳ
çĥ ¤
æĻ ĭ
æ³ ½
æĪĳ ä¼ļ
i th
æ·» åĬł
åįģ äºĮ
ç»¼ ä¸Ĭ
è· ¨
åĮĹ éĥ¨
çĶ ĺ
ä½ĵ çļĦ
åĵº ä¹³
çľŁ æŃ£
èĦ ı
äº¤ æĺĵ
çĽ¸ ä¿¡
æĢ ª
éĻĦ è¿ĳ
å¢ŀ éķ¿
ãĢį ãĢĤ
è½ ¨
éľ į
çĽ¸ äºĴ
ar e
è¿Ļ æĺ¯ä¸Ģ
äºĨ è®¸å¤ļ
æ¢ ģ
Ġ r
æĢ»çļĦ æĿ¥è¯´
00 0
çĽ® çļĦ
æĩ Ĥ
æĦı å¤§åĪ©
æľ¬ æĸĩ
éĿ¢ å¯¹
æĺ¯ä¸Ģ ä½į
è½¦ è¾Ĩ
ä¸ĭ æĸĩ
èĩ³ å°ĳ
å®¶ å±ħ
çº ¯
çļĦä¸Ģ éĥ¨åĪĨ
çº¢ èī²
éļ Ķ
åı¯ä»¥ è®©
æģ Ĵ
çľ¼ çĿĽ
æĶ¶ éĽĨ
åıĹ æ¬¢è¿İ
è§Ĥ ä¼Ĺ
Ġ J
éĤ »
ä¸Ģ ä»½
è® ¢
N A
is t
åº Ļ
è· µ
æĢ» æĺ¯
åıĳ æĺİ
ä¿Ŀ åģ¥
ç»Ł è®¡
åĲį è¯į
éļ ¶
æľī éĻĲ
er s
å§Ķåĳĺ ä¼ļ
åľ¨ ä¸Ģèµ·
è¡¨ éĿ¢
æķ ¦
p p
è¿Ļ æĺ¯ä¸Ģä¸ª
åº¦ åĴĮ
Ġd e
æ® Ĭ
çļĦ çłĶç©¶
èĩ £
çĶ· åŃĲ
ä¼ł æĴŃ
çĶŁæ´» ä¸Ń
åİ» äºĨ
å½Ĵ ç±»
åŃ Ķ
åŁº åĽł
åĢ ¾
æ³ ³
å® ľ
åĨł åĨĽ
å¾Ī å¥½
å¤ı åŃ£
æ¹ ¿
æĦ ī
å·´ é»İ
å¤ļ æķ°
åĲĦ ä¸ª
ä¸Ĭ åįĩ
è§ Ī
æĪĲ éķ¿
ç¼ĸ è¾ĳ
èĤ ¥
éĺ ´
çĶµåŃĲ éĤ®ä»¶
æ¥ ļ
çĶŁæĪĲ ä¸Ģä¸ª
è®¾ æĸ½
å®ĥ æĺ¯
e b
å°ı çļĦ
2 4
æŃĮ è¯į
çĪ¸ çĪ¸
æĢ» ç»Ł
åĨħ éĥ¨
çĶ ³
ç®Ģ æ´ģ
è¿Ļ é¦ĸ
é¦ Ī
åĮº åĿĹ
å¡ĳ æĸĻ
æ¶Īè´¹ èĢħ
a in
çĶŁ åŃĺ
èĩªåĬ¨ é©¾é©¶
åı¥åŃĲ ä¸Ń
å¤ª ç©º
éĴ ¢
å¸ ķ
åĳ¨ åĽ´
il l
æ³ ¡
ç® ±
äº§åĵģ çļĦ
ç»¼ä¸Ĭ æīĢè¿°
åĪĨ éĴŁ
åĵ ²
ä¸Ģ å¹´
äººæ°ĳ åħ±åĴĮåĽ½
å®ŀ è·µ
å¦Ĥ æŃ¤
éĩı åŃĲ
æº ª
ç´ «
ç» ķ
éĢ »
åĩ ¯
äºº åĲį
oh n
åľ Ī
å¤§ èĦĳ
åĳ½ åĲį
åıĤ æķ°
åį ĸ
æĹ ¢
å±ŀ çļĦ
ä¸ª æĢ§
u c
å¿ ½
æ¬ £
o k
åĲ Ľ
å¦Ĥæŀľ ä½ł
æ¨¡åŀĭ çļĦ
o c
èµ µ
f orm
åĬ¨ ä½ľ
æ»¡ æĦı
èĤ ¤
å½¢ å®¹
ar t
ä¸ī å¹´
å¦ »
ä½¿çĶ¨ çļĦ
æī ¬
æ¶ ¦
å¤§ æ°Ķ
è®¡ç®Ĺæľº ç§ĳåŃ¦
ä¸ĭ åĪĹ
å½ ¼
åĬŀ åħ¬
æ´ ¥
à ¸
æıĲ åĪ°
æĿ ľ
ãĢģ "
ç»¼ åĲĪ
æĺİ æĺ¾
è¡¨ æ¼Ķ
è¿ ħ
çł´ åĿı
ç®Ģåįķ çļĦ
ä¼ ¸
è ¹
æıĲ åįĩ
èĤ Į
ç»ĵ æĿŁ
è½» æĿ¾
ç¾ ½
çº ¹
ä½ ©
çĪ± çļĦ
å°¤ åħ¶
åŃ¦ ä¼ļ
çº¦ ç¿°
æ³ķ å¾ĭ
æĪĳ ä¸į
å¹ ¼
ä¸Ń æľĢ
ç ĺ
çª Ĺ
ou r
åįļ çī©
çļĦ åħ³éĶ®
å·¨ å¤§çļĦ
èĩªè¡Į è½¦
çĭ¬çī¹ çļĦ
æľ µ
æłĸ æģ¯
æķ Į
ãĢĭ ãĢĤ
çĵ ľ
ul a
æīĢæľī çļĦ
ç»´ æĬ¤
an s
äºĨ ä¸ĢäºĽ
è¯¾ ç¨ĭ
ç»Ħ åĲĪ
æ¶ ¯
ç´ ¯
ç»Ĩ èĬĤ
äºĴ åĬ¨
çĮ İ
19 3
åįģ å¹´
çĶµ è¯Ŀ
å» ·
ä» ģ
å¢ Ļ
åĪĨ åŃĲ
å¨ ľ
éĹ ²
äºĭ å®ŀ
ä¸Ńåįİ äººæ°ĳåħ±åĴĮåĽ½
å¾ Ĵ
æİ¨ çĲĨ
è¾ Ľ
åħ ¹
o b
çĶŁ ç´ł
i e
è®¾ æľī
æİĴ åºı
åģ¥ èº«
ç² Ĵ
ç¥ Ŀ
æ® ĸ
ç¾İä¸½ çļĦ
æĪĳ æĥ³
ç½ ²
åĩ Ģ
çĲ ´
åĵºä¹³ åĬ¨çī©
å®¶ äºº
æİĮ æı¡
èĭ Ĺ
åľ° çĲĨ
ä½ľ å®¶
è¸ ª
åĿ ¡
åı¯èĥ½ çļĦ
çīĪ æľ¬
åĲ« ä¹ī
çĤ İ
n t
åĨľ ä¸ļ
ä¸Ģ åıª
åıį é¦Ī
åħ¶ æ¬¡
å¼Ģ å¤´
æľºåĻ¨åŃ¦ä¹ł ç®Ĺæ³ķ
èĳ ¡
éĢĤå½ĵ çļĦ
èİ· åıĸ
æłĩ çŃ¾
è®¤ è¯Ĩ
å®£ å¸ĥ
åľ¨ å®¶
2 1
åĢ¼ å¾Ĺ
æľĢ é«ĺ
è§Ĩ ä¸º
å±ħ æ°ĳ
Ġf or
éĢ» è¾ĳ
è¿½ æ±Ĥ
è® ¯
åŃ£ èĬĤ
çļĦ è¯Ŀ
æ¡ Į
in e
èĥ ģ
çī¹ æ®Ĭ
çº ²
èĩª ä¸»
æ¸© å®¤
è§Ĥ å¯Ł
å¸® æĪĳ
å± ı
é½ ¿
çĽĳçĿ£ åŃ¦ä¹ł
éĵ¶ è¡Į
ä»¥ä¸ĭæĺ¯ä¸Ģ äºĽ
åıĺ æĪĲ
é«ĺ åħ´
å®£ ä¼ł
æ© Ļ
åĪ© äºļ
èİ ī
ç±»åŀĭ çļĦ
å®ł çī©
ç Ĵ
æ® ¿
çļĦ æĸ°
æľī å¾Īå¤ļ
éªĮ è¯ģ
èĢ Ĺ
è¢«è®¤ä¸º æĺ¯
æģ ĭ
è± ª
å¤ªéĺ³ ç³»
èĪ į
å·¦ åı³
æ·± åĪ»
è´£ ä»»
èµ ¢
åıĬ åħ¶
èĻļ æĭŁ
åºĶ çļĦ
ç¬¬ ä¸Ģä¸ª
çĦ¦ èĻĳ
éĿ© åĳ½
t ion
æĶ» åĩ»
åĿļ æĮģ
ãĢģ ãĢĬ
æĹ¶éĹ´ åĴĮ
ä¹ ı
å¯ Ĵ
æķĻ æİĪ
å°± ä¼ļ
å£ ®
å¤© çļĦ
åľ° çĤ¹
åı¯ æĺ¯
çķ ħ
åı¯ä»¥ å°Ĩ
æ³ ª
n d
åıĳ è¡Į
åĦ¿ åŃĲ
æľ¬ ä¹¦
å¹ ħ
ä¼ĺ ç§Ģ
åĪĻ æĺ¯
åĲĮ åŃ¦
èį¯ çī©
é© »
æŁĲ ä¸ª
åĵĪ åĪ©
è§Ħ å¾ĭ
å¤įæĿĤ çļĦ
t e
åĲĳ éĩı
åįļçī© é¦Ĩ
" (
æİ¨ åĩº
æľĢ åĪĿ
åº¦ çļĦ
è¿Ļ ä¹Ī
ç« Ł
æłĩ å¿Ĺ
è¿Ĳ è¡Į
æĤ ²
åĲ« æľī
å¤© ç©º
æµ ®
å®Į æķ´
æ½ľ åľ¨
en s
åĲĪ çī©
ç¯ ®
éĢ Ĭ
åĳ³ éģĵ
å¥ ī
èĲ Ħ
åĮ» éĻ¢
å·® å¼Ĥ
éĤ£ ä¸ª
èĳ¡ èĲĦ
i al
åıĺ éĩı
æĳ ĩ
çĲĥ éĺŁ
è¾ ħ
ä¾ µ
çļĦ å¥½
ç»ĵ è®º
åĲĪ çĲĨ
åĮ»çĸĹ ä¿Ŀåģ¥
åıĳ æĮ¥
" ãĢģ"
æĮĩ åĩº
å¤ļ å°ĳ
èĢĮ ä¸įæĺ¯
åī§ æĥħ
å¥³ åŃĲ
ä¿ Ĺ
å¨ ĺ
ä¼ Ł
ä» Ļ
å°Ĩ åĨĽ
åı¦ ä¸Ģä¸ª
éĺ »
ä¼ĺ åĬ¿
æĶ¿æ²» äººçī©
e ar
åĺ ´
çŁ¥ åĲį
å¨ģ èĥģ
ä¸ĵ è¾ĳ
èĢĮ è¨Ģ
é¢ĨåŁŁ çļĦ
æĿ¥ çļĦ
æ¶ µ
æī °
åħ ģ
ä¼ ½
æ£Ģ æµĭ
æ± Ĺ
è¿Ļä¸ª åı¥åŃĲ
èĢĮ æĺ¯
éĩį åĨĻ
æ¸¸ æ³³
ä¸Ģ å®¶
æıĲ åĪ°äºĨ
å¯¼ æ¼Ķ
æĤ ¦
çº ł
éĹ ª
at e
æī İ
ä»İ ä»¥ä¸ĭ
å¹´ é¾Ħ
éĻ ·
çļ Ĩ
çĬ ¬
ç¼ĸç¨ĭ è¯Ńè¨Ģ
_ _
è¿Ľè¡Į äºĨ
u d
éĺ¶ æ®µ
æĸĩ ä»¶
ç¾ Ĭ
ä¹ĭ å¤ĸ
æľī äºº
l d
è¥¿ äºļ
æłĩ è®°
é¢Ħ éĺ²
å¦ ĩ
åķ ¦
æ¯ «
Ġ v
åİŁ å§ĭ
çļĦ é£İéĻ©
è° ĵ
äºĨä¸Ģ ç§į
æħ §
æĹ© æľŁ
è®¡ç®Ĺæľº è§Ĩè§ī
ç»´ çĶŁç´ł
å¾ª çİ¯
çľŁ å®ŀ
ç®Ģ çŁŃ
åĽŀ å½Ĵ
è®¿ éĹ®
Ġ æııè¿°
äºº çĶŁ
èģ Ĭ
åı¤ ä»£
å¤ º
åĮºåĿĹ éĵ¾
çĪ ¬
è° ±
ä¿Ħ ç½Ĺæĸ¯
è¢« å¹¿æ³Ľ
çĶŁ æ¶¯
å¹¶ æıĲä¾Ľ
åĴĮ æĸĩåĮĸ
ä¸Ģ ç»Ħ
éĻ ª
é¦ĸ æ¬¡
in d
ä¿¡ åı·
æĹ¶ å°ļ
æŀ ª
æľĢ å¥½çļĦ
æĸ¯ åĿ¦
å®ļ æľŁ
å¾Ĺ åĪ°äºĨ
çŁŃ æĸĩ
æ¨ ª
åĶ¯ ä¸Ģ
æł· çļĦ
åĲĪéĢĤ çļĦ
æĪĲ ç»©
çĻ Į
ar d
ä¸İ åħ¶ä»ĸ
å½ĵ åīį
ä¿Ŀ è¯ģ
å¢ ¨
æıĲä¾Ľ çļĦ
åľ¨ ä¸ŃåĽ½
è ¦
æŀĦ å»º
æ¸© æļĸ
èķ ī
è¿ «
ä¿® æĶ¹
æ¡ ĥ
ä¸¤ ç§į
ä¸°å¯Į çļĦ
æ¸©å®¤ æ°Ķä½ĵ
l y
ä¼ Ļ
å¹¶ æ²¡æľī
æľī æĹ¶
éĩį çĤ¹
çĲĨè§£ åĴĮ
éŃ ı
æīĢ åľ¨
éĺ¿ å°Ķ
èº« ä»½
å¤§ åŀĭ
ç¥ŀ ç§ĺ
å®ī æİĴ
éĽĨ åĽ¢
2 2
æĻļ ä¸Ĭ
è¯ģ æĺİ
å½Ĵç±» ä¸º
ç¾İ çļĦ
åľ¨ ä¸Ģä¸ª
è¾ Ĳ
20 19
Ð °
é© ±
æĻ¯ çĤ¹
è¿Ļ ä¸¤ä¸ª
èº«ä½ĵ åģ¥åº·
æĺĵ äºİ
æĺ Į
å½¢ è±¡
åı¯ éĿł
åĨį æ¬¡
æķ°æį® ä¸Ń
å½ ¹
çļĦ çŃĶæ¡Ī
é£ŀ è¡Į
èľ ľ
æĳĦ åħ¥
æľī è®¸å¤ļ
ç³»ç»Ł çļĦ
åĳĪ çİ°
äº¤ äºĴ
å¯¹ è±¡
æĺ¯ä¸Ģ éĥ¨
éĥ Ń
æĬĢæľ¯ åĴĮ
åĪĹ åĩº
åĩ ī
éĩį å¤į
or d
å¤§ çº¦
æµģ è¡Į
æı ´
. "
çī© ä½ĵ
åľ¨ æŃ¤
u b
æĸ¹éĿ¢ çļĦ
å½ĵ çĦ¶
ç»Ī äºİ
ä½ł åı¯ä»¥
åĽŀ åĪ°
ä»¥ åĲİ
å®¶ çļĦ
åĦ¿ ç«¥
å¹¶ å°Ĩ
è¦ Ĩ
äººä»¬ çļĦ
æĻºèĥ½ æīĭæľº
è¡¨è¾¾ äºĨ
J ohn
éģ µ
2 3
æ£ ĭ
åħĦ å¼Ł
æĸ ĳ
å®ĥ åı¯ä»¥
éļ¾ ä»¥
è¿Ļæł· çļĦ
å£ ģ
æĤ£ èĢħ
éĥ¨ éĹ¨
æµ Ļ
ç¿ ¼
éģĩ åĪ°
éľĢè¦ģ æ³¨æĦı
å®ŀ æĸ½
èĬ ¬
è£ ¤
éĥ ĳ
Ġ K
ç»´ æĮģ
æĦŁ è°¢
éĤ£ éĩĮ
æģ ¢
å¼º çĥĪ
åł µ
ãĢĭ ãĢģãĢĬ
çĪ µ
åĵģ è´¨
Ġb e
éĽĨ ä¸Ń
æµģ ç¨ĭ
å¦ Ļ
çļĦéĩįè¦ģ æĢ§
å¡ «
åĽĽ å¹´
ac h
å° ĸ
æĬ µ
or t
çĭ Ĳ
çº ¤
å© Ĩ
ä»¥ æĿ¥
æī ®
å¯Ĩ çłģ
å½¢ çĬ¶
æ³ ī
æ°¸ è¿ľ
6 0
èİ·å¾Ĺ äºĨ
çī¹ å®ļçļĦ
çĶ¨æĪ· çļĦ
2 8
çĪ¶ æ¯į
2 9
æĮĩ å¯¼
Ġ on
åİ» ä¸ĸ
åľ¨ è¿Ļ
å· ¡
è¶³å¤Ł çļĦ
Ġ O
æŀ ļ
è· ĥ
æĢģ åº¦
æ²³ æµģ
å¥³ åŃ©
ç¬¬ä¸Ģ æ¬¡
åĪĽ æĦı
åĵ Ń
201 8
åĿ ĳ
å£ ¤
èİ İ
Ã ©
åĪĨæŀĲ åĴĮ
èģĶ çĽŁ
`` `
è ²
é¦Ļ èķī
4 0
è£ Ĥ
ç»Ń åĨĻ
åģ ¶
å§ ĳ
ç¾İ åĳ³
éŃĶ æ³ķ
åĩ ¡
èµ ¶
çĹĩ çĬ¶
æ¶Ī æŀģ
åı ¬
æĻºèĥ½ å®¶å±ħ
å¤§ å¤ļæķ°
åħ¶ å®ŀ
æ¢¦ æĥ³
L P
åĨĻ ä¸Ģç¯ĩ
åĪ ĳ
Ġth at
ç£ ¨
æŃ£ å¸¸
ä¸» è§Ĵ
æľĢ éĩįè¦ģçļĦ
å¹´ æĿ¥
èħ ¿
åĪĨ æĶ¯
è¡£ æľį
éĿ ĸ
ç¬¦ åı·
åıª èĥ½
æľī æīĢ
éĢļå¸¸ æĺ¯
å¹³ éĿ¢
it y
æ¶īåıĬ åĪ°
çļĦ åİŁåĽł
æ¡ ĳ
èĽĭçĻ½ è´¨
æģ¢ å¤į
ic e
ä¾ į
çĤ ¸
æ¸ħ æ´ģ
åı¦ ä¸Ģ
i k
ç¼ĵ è§£
åľ° åĿĢ
çļĦ èĥ½åĬĽ
ä»ĭç»į äºĨ
åĬ¨ è¯į
æ³¢ çī¹
ä¹¦ ç±į
åĳ Ģ
ä¸¤ äºº
æĬ ĵ
éĥ ģ
æ¦Ĥ æĭ¬
æĹ¶ çļĦ
i b
åŁ¹ è®Ń
ä¼ Ĳ
202 1
ig h
æľīæķĪ çļĦ
åĨ Į
è¿Ķ åĽŀ
çŃī åľ°
æĸ°éĹ» æĬ¥éģĵ
å¥ Ķ
å¸¸ å¸¸
ä¸į åĪ°
è¿ħ éĢŁ
é ¬
è®© æĪĳä»¬
æĺ ¨
æĪĳ åľ¨
çĳ ľ
æħ Ī
äºĶ å¹´
ä¼ĺ çĤ¹
å¸¦æĿ¥ äºĨ
è¯į è¯Ń
çļĦ åı¥åŃĲ
å¿ĥ çļĦ
æĭ ĵ
éĻ µ
ä¸į åĨį
2 6
æĽ´ æĸ°
r y
èµĦ æĸĻ
æĴ ŀ
æĺ Ĩ
æĥħæĦŁ åĪĨæŀĲ
ç§į ç±»
æĶ¾ åľ¨
è¿Ľ å£«
å°± åĥı
æīĵ å¼Ģ
ç½Ĺ é©¬
æīĢ éľĢ
éĩı çļĦ
æĪĲ å°±
æ³ Ĭ
ä¸Ģ å¤©
åį« çĶŁ
å´ ĩ
åĨĽ äºĭ
åİŁ çĲĨ
ä»¥ä¸ĭ åı¥åŃĲ
ä¸Ĭ è¿°
i p
ä¸į éĶĻ
äºļ æ´²
åľ¨ æľªæĿ¥
æ¸¸ å®¢
ä¸ĭ éĻį
ç¼º ä¹ı
ä¸ĭ çļĦä¸Ģä¸ª
æ°ĳ æĹı
å¿ §
s e
ä¸» äºº
è®¤ çŁ¥
èħ ¹
Ġw h
æı Ĵ
åį± éĻ©
ä¼¦ æķ¦
èħ Ĭ
æĺ¯ æĪĳ
19 0
æŀ Ŀ
çĮ ª
åħ¶ ä¸ŃçļĦ
æĻ® éĢļ
æľºåĻ¨ ç¿»è¯ĳ
å¾ Ĳ
ç®Ģ ç§°
é£İ æļ´
æĪĲ åĪĨ
ä¼ĳ æģ¯
ä¼¼ ä¹İ
åľ¨ äºİ
äºĭ çī©
éķ¿ åº¦
åĬ¨ åĬĽ
åĪĨ éħį
çĸ ²
æĺ Ĥ
ç¼ĸ çłģ
ä¾ ł
ä¸Ĭ äºĨ
æİ ĺ
åħĪ çĶŁ
ä¸Ģ çĤ¹
èģ ª
å±± å³°
è®© ä½ł
å¹¶ ä¸º
çļĦ çİ¯å¢ĥ
åıª è¦ģ
è¢ Ń
é»ĳ æ´ŀ
æĿ¥ åĪ°
æĸĩåĮĸ åĴĮ
å¯» æ±Ĥ
æŃĮ æīĭ
æ± ģ
201 0
åħ· å¤ĩ
çĶµå½± çļĦ
ag e
å¯¹ çİ¯å¢ĥ
åħ Ķ
çĶŁæ´» æĸ¹å¼ı
' s
èĥ ¸
çıł ç©Ĩ
å® ¿
2 7
æľīæķĪ åľ°
æĬ½ åıĸ
æľĹ çİĽ
æĵ İ
é«ĺ çº§
è¥¿ çıŃ
å°ĳ å¹´
æĶ¶ åħ¥
20 20
é¼ »
è¿Ļ æĦıåĳ³çĿĢ
çıłç©Ĩ æľĹçİĽ
æ³¨ éĩį
æł¼ åħ°
é£Ł çĶ¨
è° ĭ
è¥¿çıŃ çīĻ
èĤ ª
èĦĤ èĤª
ç¢ į
åĲ ¹
åı ī
è² Į
å±± èĦī
åįı è®®
åı¯æĮģç»Ń åıĳå±ķ
åŃ¦ ç§ĳ
æŃ» äº¡
çķ ª
çº ·
æ¬ ²
ç¾İ åħĥ
ç£ ģ
ä¸¾ è¡Į
ä¸Ĭ ä¸ĭæĸĩ
ä¸ĵ æ³¨
æ°ĳ åĽ½
ä¹ Ļ
ä¸ī åįģ
çļĦ åİĨåı²
å¼ķ æĵİ
æľĢ åĸľæ¬¢çļĦ
èĤ º
è´ ´
èĩ³ åħ³
æ°Ķ æ¸©
çļĦ çĽ®æłĩ
æĴ °
åį³ ä½¿
201 6
çļĦ è¿ĩç¨ĭ
è·¯ çº¿
æµĻ æ±Ł
æĹ¶éĹ´ çļĦ
æĺ¯ä¸Ģ åĲį
åĽĽ å·Ŀ
æ¼ Ĥ
æĪ ª
æĶ¯ ä»ĺ
æ¯ ģ
ä¼ł éĢĴ
æĹ¥ æľŁ
é¡º åºı
åĽĽ ä¸ª
ä¸į è¶³
ä» °
ç³ ķ
åģ ·
å¥ Ī
å¤§ å°ı
åĪ° è¾¾
åį« æĺŁ
e p
å¿ĥ èĦı
çĶµ æ±ł
çĬ ¹
åĬ¨ çĶ»
ä¼łç»Ł çļĦ
å¹¿ ä¸ľ
çĪ± å¥½
çıłç©ĨæľĹçİĽ å³°
æĿ¥ å®ŀçİ°
åĩºçĶŁ äºİ
åľ°çĲĥ çļĦ
A l
i P
æıĲä¾Ľ ä¸Ģä¸ª
i v
è¿Ļ é¡¹
æĬ ĳ
å¤Ħ äºİ
ç¢ ĳ
äºĶ ä¸ª
8 0
æµĭ éĩı
åħħ åĪĨ
åı¯ä»¥ æıĲé«ĺ
r a
å®ī è£ħ
æµª è´¹
äº§çĶŁ äºĨ
æĽ´ å®¹æĺĵ
è´ ¾
èĽ ĩ
éĶ ¦
ä½Ĩ åľ¨
æ® ĭ
å¦Ĥæŀľ æĤ¨
è¿Ļ å°Ĩ
èµ¢ å¾Ĺ
å¢ ĵ
æľº åĪ¶
èģĶ èµĽ
çĥŃ å¸¦
ä¸į å¾Ĺ
çģ¾ å®³
Ġ =
å¿ĥ éĩĮ
åı£ æĦŁ
z h
åĬĽ äºİ
æĮ Ĥ
æķĪçİĩ åĴĮ
å¤ª å¹³
æĻ® éģį
æĮ ¯
èĪ °
çģµ æ´»
æĺİ æľĿ
è¿Ļé¦ĸ æŃĮ
åı Ķ
en d
åħį çĸ«
éŁ© åĽ½
i ve
C h
ä¸į çŁ¥
åħģ è®¸
å£ ³
æĪĲåĬŁ çļĦ
n e
æ¢ ¯
è´ŁéĿ¢ å½±åĵį
çĳľ ä¼½
èľ Ĥ
éĵ ľ
ä¸Ģ æĿ¡
æĸĩæľ¬ è¿Ľè¡Į
è´ ¸
çļĦ åĨħå®¹
åĪ ·
, )
Ð ¾
åĲĮ å¹´
åĴĮ æľįåĬ¡
æĽ ¹
æľī ä»Ģä¹Ī
ä¸ľ äº¬
æĻ ¶
çĭ ¼
å¿ħè¦ģ çļĦ
éļı æľº
éĺ² æŃ¢
åıĳ è¡¨
æĤ ī
ä»¥ åīį
æĤ¨ åı¯ä»¥
æĢ Ĵ
201 3
æĳ Ĩ
é¸Ł ç±»
ç§ ¦
ç´§ å¼ł
è®© è®¡ç®Ĺæľº
åħ± äº«
è£ ģ
æŀĦ æĪĲ
æ° Ľ
å¹´ éĹ´
æĮ ĸ
ä¹ĭ å¤Ħ
çļĦ åŁºç¡Ģ
çĭ ®
ä¸º ä¸»
è½¬ åĮĸ
çļ® èĤ¤
Ġ it
è¡Ĺ éģĵ
åħĭ æĸ¯
éģĵ å¾·
ic h
å¸Ŀ åĽ½
éĿŀå¸¸ éĩįè¦ģçļĦ
èĵĿ èī²
çĽ¸ å½ĵ
åĽ¾ ä¹¦
ä¾Ŀ èµĸ
èĴĻ åı¤
å¼º å¤§çļĦ
Ġp ro
æ³ ¥
çļĦ çĶµå½±
åĵª ä¸ª
é»Ħ èī²
ä¼ł è¾¾
çĭ ±
åĵģ ç§į
åĪ« äºº
æľĪ åı°
æ¶Ī æģ¯
201 7
åı¯ä»¥ çĶ¨äºİ
201 4
æĦŁ æŁĵ
éĿŀ æ´²
åĲ¬ åĪ°
äº ķ
æļ Ĥ
ä¸ĵ å®¶
å±± ä¸ľ
ä½¿çĶ¨ äºĨ
å¼ºè°ĥ äºĨ
Ġ V
åĨį çĶŁ
çºª å¿µ
åİŁ æĿ¥
çº¤ ç»´
å¾Ģ å¾Ģ
201 5
çī©çĲĨ åŃ¦
æĪĳ ä¹Ł
åĴĮ ç¤¾ä¼ļ
Ġc on
åĩ ¤
201 2
å¤ı å¤©
è§£åĨ³ éĹ®é¢ĺ
è¿ĩ åº¦
ç§ Ł
ç¢ İ
é¹ ¿
å¯¹ æĸ¹
åĪĨç±» åĻ¨
ac k
éĩĬ æĶ¾
æĬ «
é¬ ¼
åŃ¤ çĭ¬
åĪĹ è½¦
çļĦ ä½¿çĶ¨
N LP
å»º éĢł
æµ ħ
ä¸Ģ ç³»åĪĹ
å°½ åı¯èĥ½
è§Ĵ åº¦
åĴĮ åıĳå±ķ
çĲ ³
çľĭ çĿĢ
çĻ½ èī²
åľŁ åľ°
å¿ į
200 8
å±ķ çİ°
çĵ ¶
æĪĳ æĺ¯
çĽ¸ æ¯Ķ
9 0
ä¸į çŁ¥éģĵ
æĻº æħ§
åľ°åĮº çļĦ
form ula
äºº ä½ĵ
ä¾ ¯
ç¬¬ åĽĽ
ä¸ §
å½± çīĩ
éĤ Ģ
è®¤ çľŁ
åľ° ä¸ĭ
æ¡ Ĩ
åºı åĪĹ
åıĬ æĹ¶
Ġw ith
éĿŀå¸¸ éĩįè¦ģ
åķĨ åĬ¡
åħ¬åħ± äº¤éĢļ
éĻ ¶
åŃ¦ æľ¯
ä»ĸ æĺ¯
æľº åľº
æŀģ ç«¯
çķĻ ä¸ĭ
æ·· åĲĪ
ä¸Ń åŃ¦
æħ¢ æħ¢
æĢ§ è´¨
åĽŀ æĶ¶
åı ¹
äºº åľ¨
( "
çļĦ æĳĺè¦ģ
é² ¸
è¿Ļ æ¬¾
- -
è¿Ľ å±ķ
201 1
åģ¥åº· åĴĮ
åĵª éĩĮ
æ¬£ èµı
è¾ ŀ
æķ°æį® è¿Ľè¡Į
åľ¨ æĪĳ
èĿ ¶
å±ħ ä½ı
åıĺå¾Ĺ æĽ´åĬł
çĶ¨ éĢĶ
æī® æ¼Ķ
éĽ ķ
Ġ are
è¿Ĳ è¾ĵ
åĮĸ åĲĪçī©
äºº å£«
ĠC h
æĥ ľ
éĺ Ķ
åŃ¦ èĢħ
è¿Ļ å®¶
æī© å±ķ
åħ¬ è·¯
æĪ· å¤ĸ
åĮĸ çŁ³
èĪª ç©º
çļĦ æĦıæĢĿ
è¢ ĸ
è½¬æį¢ ä¸º
åĭ ¤
çİĽ ä¸½
å° ¿
èĸ Ħ
åľ° ä½į
æĪĸ åħ¶ä»ĸ
æīĭ è¡¨
è°¢ è°¢
æ¯ı å¹´
åĨĴ éĻ©
om e
åĲĮ æł·
è´ ¦
æĪĳ åĸľæ¬¢
æĭį æĳĦ
åĽ½ çİĭ
éĢ Ŀ
u e
ä¸Ń æıĲåıĸ
çļĦ æĥħåĨµä¸ĭ
çİ© å®¶
äº§ ä¸ļ
èĩª èº«
èĨ ľ
è¯´ è¯Ŀ
éĢļ ä¿¡
å¥³ åĦ¿
å¹¿æ³Ľ çļĦ
è¿ĩ çļĦ
æĺ¾ èĳĹ
æŁ ±
æľª çŁ¥
çİ¯å¢ĥ ä¿ĿæĬ¤
æĶ¾ å¼ĥ
æķ°æį® åĴĮ
è¡ĮæĶ¿ åĮº
é¥ ¼
ä¸» æķĻ
è¿ Ī
å¿ĥ ä¸Ń
on g
ä¸» å¸Ń
å¾Ĺ åĩº
æııè¿° äºĨ
åĩł ä¹İ
ä¼ į
æĺ¯ ä½įäºİ
çĳ Ł
éľĢè¦ģ èĢĥèĻĳ
æ» ¤
è´¢ åĬ¡
ç¾İ å¥½
å¯¹ æīĭ
æ¶µ çĽĸ
åıĹæ¬¢è¿İ çļĦ
æĽ¾ ä»»
if ic
åĽŀ å¿Ĩ
è½¨ éģĵ
ç¿ ħ
p r
åı¯èĥ½ å¯¼èĩ´
5 00
7 0
åı¯ä»¥ æł¹æį®
X X
æĦŁ çŁ¥
åħ·ä½ĵ çļĦ
åĢ į
åī ²
in t
çĭ Ĥ
ä¸Ĭ æĸĩ
å¤ļ æ¬¡
æĪĳä»¬ åºĶè¯¥
A r
æ²³ åįĹ
çĶŁ äºİ
éļı åĲİ
å» ī
ä¸ľ åĮĹ
çŃī å¾ħ
åĴĮ æĬĢæľ¯
Ġ an
u p
çĽ® çļĦåľ°
ä¼ ı
æĮĩ æłĩ
æī¾ åĩº
äºĭ ä¸ļ
é¡¾ å®¢
çļĦ è®¾è®¡
éĥ½ åľ¨
èī² å½©
èĴ ¸
é¢ĨåŁŁ ä¸Ń
æĺ¯ æľĢ
æĪĳ å¾Ī
åŁİå¸Ĥ çļĦ
æĦı è§ģ
æĹ ¦
è¯ķ åĽ¾
åĮĸ åĴĮ
æĽ´ ä¸º
èĢĥ è¯ķ
æ» ļ
æĿ¥ äºĨ
èĤĮ èĤī
åįı ä¼ļ
è¡¨çİ° åĩº
æľī æľº
åĪĨ æĪĲ
èĮĥåĽ´ åĨħ
èģ ĺ
è´Ŀ å°Ķ
æ° ¢
çľĭ è§ģ
çļĦ é£Łçī©
çĽ¸ åºĶçļĦ
äºĳ åįĹ
ç¯® çĲĥ
ç®Ģ è¦ģ
åıĤ èĢĥ
åıĪ ç§°
æĹł äºº
å¹¿ åľº
åħĥ å¹´
è§Ħ å®ļ
ä¼ĳ éĹ²
200 9
ä¸¾ åĬŀ
å¸Į èħĬ
çļĦ éľĢæ±Ĥ
æī© å¤§
æĺ¯ ç¾İåĽ½
è¿Ļ æ¬¡
æĽ´ å¿«
ä¸» ä»»
çº µ
è¯Ŀ é¢ĺ
è¯´ éģĵ
æµ· æ»©
æĦ¿ æĦı
æŁ ı
åĽŀ å®¶
å±ķ å¼Ģ
D NA
Ð ¸
- {
äºĮ å¹´
æ» ´
åľĨ å½¢
ä¸ ĺ
åľº æīĢ
å¯¹ åħ¶
éĶ ħ
çĩ ķ
éĻĪ è¿°
çĽĳ æµĭ
ä¸ī ç§į
ç»ı èĲ¥
çĲĥ åĳĺ
èĬĤ çĤ¹
æľĢ æĸ°
çļĦ äºĭæĥħ
çĽ Ĺ
åħ´ å¥ĭ
å¹¶ å°Ĩåħ¶
ä¸į ä¹ħ
åĵ² åŃ¦
æł· æľ¬
æĪ¿ éĹ´
av a
åĬł æĭ¿
ç¥ŀç»ı åħĥ
çĽ® çļĦæĺ¯
æľ¯ è¯Ń
åįļ å£«
æķ°æį® åĪĨæŀĲ
å¼Ĥ å¸¸
èĩª ä¿¡
} -
è¿ŀ ç»Ń
èµ ¤
èĳ £
ç¨ İ
é«ĺ éĢŁ
åŁ¹ åħ»
æĪĳ åı¯ä»¥
ä»ĸ äºº
äºĭ æķħ
or e
ä¸į éľĢè¦ģ
ç¤º ä¾ĭ
åĪº æ¿Ģ
æĸĩæľ¬ åĨħå®¹
é»ĳ èī²
st r
om p
æľĪ çĲĥ
å¼º åĮĸ
åħŃ å¹´
t r
ä¾Ľ åºĶ
æĻ® åıĬ
å¿ĥ æĥħ
æĬ ļ
as s
çĶŁæ´» çļĦ
æĺ¯ åĽłä¸º
ç»Ļ ä½ł
è¿ĩ äºĨ
å¤± åİ»
æĪ Ī
ä¸ľ åįĹ
å¤± è´¥
åĮº çļĦ
ä½ĵ éĩį
åĽ¾åĥı è¯ĨåĪ«
ä¿¡ ä»»
ç»ĦæĪĲ çļĦ
éĶĢåĶ® é¢Ŀ
æĶ¹ ä¸º
æİ¥ è§¦
å®ĺ æĸ¹
ãĢį (
åħ³éĶ® ä¿¡æģ¯
ä¸ĭ è¾ĸ
æĭ¥ åłµ
æĥ³ è±¡
åİ ¨
å½¢å®¹ è¯į
çļĦ å¤ĸ
èĭ± éĽĦ
o ok
èģĮ ä½į
å¾ ½
e w
è¥¿ éĥ¨
ç¼º çĤ¹
åı Ļ
çĥ ¦
é¥® æĸĻ
éĿĴ å¹´
æĭ¼ åĨĻ
èµ· æºĲ
é£ŀ æľº
çľĭ èµ·æĿ¥
Ġc h
æľ¬ èº«
é¢ Ī
æ°ĳ ä¸»
20 00
åĨ³ äºİ
ä¸Ģ åĪĩ
çĶŁæĪĲ ä¸Ģç¯ĩ
åĪ Ĭ
åıĸ ä»£
æ¯ı æ¬¡
i z
æ¢ °
èĥ Ĩ
è·ĳ æŃ¥
ou t
ä½¿ è®¡ç®Ĺæľº
çĸ« æĥħ
ä½ Ĳ
çļĦ ç»ĵæŀľ
åıĸ åĨ³äºİ
çĸ ¼
p h
æķĻ åłĤ
Ġn ot
è®¨è®º äºĨ
æĪĳ å°±
çº¿ çļĦ
f f
ä¸Ģ é¡¹
å¤ªéĺ³ èĥ½
éħ ±
åŃ¦ ä½į
è®¸å¤ļ äºº
éĥ½ åı¯ä»¥
ec t
çļĦ åŁºæľ¬
æ³¨æĦı åĬĽ
æİĴ åĲį
is e
æĸĩ æĺİ
åģ¥åº· é¥®é£Ł
å¿ĥçĲĨ åģ¥åº·
æĸĩ æ¡£
ç®Ģ ä»ĭ
å·¥ç¨ĭ å¸Ī
ä½ĵ ç³»
èµ ł
è¯¥ åħ¬åı¸
æĬķ åħ¥
æľŁ å¾ħ
åī ª
æ¦ ľ
åĬ© æīĭ
äººå·¥æĻºèĥ½ åľ¨
èģª æĺİ
åĴĮ åºĶçĶ¨
çĶ º
æ¸ ¡
åĴĮ æĮĳæĪĺ
çĶµ åĬ¨
å¹´ èĩ³
ä¸ŃåĽ½ å¤§éĻĨ
é£ ĺ
æī «
ä¾¿ åĪ©
åľ° ä¸Ĭ
æķ´ ä½ĵ
è¶ħ çº§
æĹ¶ åħī
éħĴ åºĹ
çī §
åį° è±¡
ç¾İ å¥½çļĦ
éĩĳ å±ŀ
ç¾İ æ´²
å°Ĭ éĩį
æıĲ éĨĴ
çº¿ æĢ§
æ» ¨
äºĮ æ°§åĮĸ
é±¼ ç±»
è®¾ ç«ĭ
èº« è¾¹
å¼ ¯
æĮĩ çļĦæĺ¯
æĢ» éĥ¨
æ¼Ķ åĩº
m ent
ä¹Ł åľ¨
åĨ¬ åŃ£
æľĢ æĹ©
å¤§ éĥ¨åĪĨ
çŃī éĹ®é¢ĺ
ä¼ļ åľ¨
éĶ ĭ
å¹³æĸ¹ åħ¬éĩĮ
åŀĭ çļĦ
åħ¬ ä¸»
çļĦ å»ºè®®
çļĦ åīį
çĸ« èĭĹ
æĤ ł
ä¼ł è¾ĵ
èŀ º
ç¦ı å»º
åł Ĩ
æİ¥ ä¸ĭæĿ¥
è¾ ½
åį ĵ
ä¹ī è¯į
å±ŀ ä¸ĭçļĦä¸Ģä¸ª
åŃĲ åĴĮ
çĶµè§Ĩ åī§
çīĽ å¥¶
ç® Ń
èº« ä¸Ĭ
E R
éĶ ģ
g e
æĦŁ æĥħ
åıĸå¾Ĺ äºĨ
æīĭ æ®µ
èĲ §
æıĲ åĩºäºĨ
æĴ Ĵ
æĻ ¨
è®° è½½
æĭ Ĩ
éĢī ä¸¾
åķĨåĵģ æĸĩæ¡Ī
å¤ĸ çļĦ
er e
æĺİ çĻ½
è¦Ĩ çĽĸ
è¿Ļ æĹ¶
æķĻ åŃ¦
è´¸ æĺĵ
æĸ° é²ľ
* *
æĭ Ĵ
æĺ¯ éĢļè¿ĩ
ç§ĳ å¹»
å¼ķ åıĳ
çİ »
éĩį è§Ĩ
Ġ le
çī¹ èī²
æİ¥ è¿ĳ
å·²ç»ı æĪĲä¸º
çĶ· åŃ©
å§ ¿
æĤ ¬
ĠS t
è±¡ å¾ģ
æĪĲ æŀľ
çļĦ æĥħåĨµ
çĥ ¹
æĺŁ çĲĥ
èĩª æ²»
è¿ĳ å¹´æĿ¥
n ing
è´ «
èĤ ł
åĲ¸ æĶ¶
ä¹ĭ ä¸Ń
åģĩ è®¾
å¼Ģ å¿ĥ
è·¯ ä¸Ĭ
åĸ ·
å¯ ¸
çī¹ æĢ§
å¤´ èĦĳ
åħ± æľī
ä¸» æ¼Ķ
Ġ çļĦ
åįĹ äº¬
èĥ ¶
çĨĬ çĮ«
èĤ¡ ç¥¨
å¾Ī å¿«
å¾Ī å¤§çļĦ
åĩĨç¡® æĢ§
å°Ķ æĸ¯
äººç±» æĻºèĥ½
æĸ ľ
çĩĥ æĸĻ
çļĦ é¦ĸ
çļĦ ä»»åĬ¡
æĪĳ è®¤ä¸º
éĺ¿ æĭī
æł¼ å¼ı
æľīéĻĲ åħ¬åı¸
è¯Ń åı¥
é¢ĳ çİĩ
åı¯ è¾¾
æ¸ ł
è´ ¯
o th
é¢Ħ å¤ĦçĲĨ
åħ¬ ä¼Ĺ
æº ¶
çļĦ é«ĺ
æıĲ ç¤º
æ¼« çĶ»
åĬłæĭ¿ å¤§
å¯¿ åĳ½
æĹ¶ åĪ»
æĸĩæľ¬ åĪĨç±»
åįı ä½ľ
ä¸į å°ĳ
h one
æĪĳä»¬ å°Ĩ
å¥½ åĥı
è¥¿ åįĹ
ä¹¦ è®°
æĺ¯ä¸Ģ é¡¹
ç¡® è®¤
å¯¹è¯Ŀ åĨħå®¹
çļĦ ä¸ĢäºĽ
ä¸Ģ å®ļçļĦ
ç¿»è¯ĳæĪĲ ä¸Ńæĸĩ
æ¯Ķ äºļ
æĲŃ éħį
åı¯ åĨįçĶŁ
äºĴ çĽ¸
è£ħ é¥°
éļ¶ å±ŀäºİ
ä¸įæĸŃ åľ°
ç² Ĺ
è Ł
çļĦ æĦŁè§ī
éĻ ķ
è®° å¾Ĺ
éļľ ç¢į
åħ¨ éĥ¨
Ġ k
Ð µ
èĭ¹æŀľ åħ¬åı¸
è¥¿ åĮĹ
åĪ¶ åº¦
æľ ´
åľ¨ ç¾İåĽ½
åľ¨ è¿ĻéĩĮ
çļĦ æ°´
èĬ ³
æ£ ī
ä¸Ń åħ±
i es
æĦı ä¸º
çĮ ´
åı¯ä»¥å¸®åĬ© æĪĳä»¬
æİ¢è®¨ äºĨ
éĢ Ĩ
å¹¶ ä¸įæĺ¯
ä»¥ ä¸º
igh t
ä¼ļ å¯¼èĩ´
åĮº åĪ«
æĲ º
æ¬ º
æĪĳ åĴĮ
å®Ĺ æķĻ
å®īåħ¨ æĢ§
æĸĩ çī©
Ġt r
å°± ä¸ļ
202 2
è¿Ļ æľ¬ä¹¦
æħ ķ
èİ ĵ
éĹ ¹
åı£ åĳ³
G o
200 7
ac e
æ£ ķ
ãĢĤ ãĢĬ
çī¹åĪ« æĺ¯
çļĦ äº§åĵģ
åĽ¾ä¹¦ é¦Ĩ
a z
u re
åĬŀåħ¬ å®¤
å° ĺ
æ¶Ī èĢĹ
åŃ Ł
ä¸ľ éĥ¨
å¤§ è§Ħæ¨¡
å¸¦ æľī
æĶ¹ ç¼ĸ
åħ¬ åħĥ
ç»ĦæĪĲ éĥ¨åĪĨ
è¿ Ł
åı¤ èĢģ
å½¼ æŃ¤
x t
æįŁ å¤±
å½¢ æĢģ
or k
çĭ ¸
çĨ Ļ
ç©¿ çĿĢ
æŁ ³
æ¦Ĥ è¿°
æĽ´å¥½åľ° çĲĨè§£
è¿Ĳ çĶ¨
éĩĮ æĸ¯
çĥŃ æĥħ
ä¸º äºº
200 6
åħ ½
çļĩ å¸Ŀ
åĲĪ å¹¶
æı Ń
æĦī æĤ¦
å°± åı¯ä»¥
å¹´ åīį
æĪĲ çļĦ
Ġb y
çļĦ è¯Ńè¨Ģ
åı¯èĥ½ éľĢè¦ģ
æĪĲ äºĨ
æľĢ å¥½
Ġ Ð
ä»İ äºĭ
æĺ¯ ä¸ª
é¸ £
èµ· äºĨ
åı¯ä»¥ æĺ¯
èħ º
çłĶç©¶ è¡¨æĺİ
æĦŁ åıĹåĪ°
çļĦ åŁİå¸Ĥ
lo w
æģĴ æĺŁ
è¿Ĳ èĲ¥
å¤ ¹
åĴĮ åĪĨæŀĲ
æİĴ åĪĹ
å¯¹ äººç±»
æķĻ å¸Ī
, ãĢĬ
ä¹Ł å¾Ī
ç¾¤ ä½ĵ
éĩį å¤§
åľ° éľĩ
åŃ Ŀ
åį ľ
åĩ Ŀ
èħ ¾
èĬ± åĽŃ
åħ± äº§
åºĶè¯¥ æĺ¯
ä¿Ŀ çķĻ
Ġ j
è¯ģ æį®
æĶ¹ åĨĻ
çļĦ çī¹å¾ģ
ä¸ŃåĽ½ çļĦ
åħĪ è¿Ľ
æĪĺ æĸĹ
äºĮæ°§åĮĸ ç¢³
è®²è¿° äºĨ
åįĹ æŀģ
è¯ĨåĪ« åĩº
æĶ Ģ
åĨĽ éĺŁ
ç»ı çĲĨ
ç¬¬ åįģ
åĴĮ å¹³
çľĭ çľĭ
æ¡ Ĥ
èµĦ éĩĳ
åĭ ĥ
åĮħæĭ¬ ä»¥ä¸ĭ
å¼ł ä¸ī
éĶ ¡
ä¸ Ī
äºº åĴĮ
æº ¯
èį Ĵ
çļĦä¸»è¦ģ åĨħå®¹
å»º äºİ
æĭ ³
y p
us t
æİªæĸ½ æĿ¥
å¦ ®
çŃī äºº
æĥ³ åĪ°
éĢı æĺİ
åĽłä¸º å®ĥä»¬
ðŁ ĺ
åħ¬ å¼Ģ
og le
ç§ Ĵ
åıį å¯¹
æĭħ å¿ĥ
å¸ ħ
åĩº è¡Į
åĨ ¥
èµ ĭ
çļĦ éŁ³ä¹Ĳ
åĬł ä¸Ĭ
æ°§ æ°Ķ
ç¾¤ å²Ľ
è¾ £
çĲĨ æĥ³
çħ ®
åĽ½ æ°ĳ
èĲ Ŀ
æ·± è¿ľ
æĽ´ æľī
çļĦ æł¸å¿ĥ
or ld
n g
åĨ³çŃĸ æłĳ
ç¥ĸ çĪ¶
ä¸į å¥½
åľ° åĲį
æĢ» ä½ĵ
çłĶ åıĳ
æĮĩ æĮ¥
çľĭ æ³ķ
ä¸įæĸŃ åıĳå±ķ
æī§ å¯¼
é£İ æĻ¯
åĬĽ åŃ¦
èħ °
çĸ ı
å±ı å¹ķ
åħī çº¿
èĥ ĸ
çļĦ åıĺåĮĸ
Ġ æĪĳ
ac t
å½ĵåľ° çļĦ
å¤© çĦ¶
å°ı åŀĭ
ä¸º ä¸Ģ
æµ· å¹³éĿ¢
æĺ Ń
åı¯èĥ½ä¼ļ å¯¼èĩ´
ç¥ Ń
ä¸ĭ åįĪ
æĬ ¢
Ġ U
è¿ Ŀ
æĢ§ åĪ«
å·ŀ å¸Ĥ
å¥½ å¤Ħ
æĺ¯ è°ģ
æľī çĤ¹
è¿Ļ åº§
è¡Ģ ç®¡
T om
åīį æĻ¯
é©¬ æĿ¥
èº«ä½ĵ åĴĮ
è¢« è§Ĩä¸º
çļĦçĶŁæ´» æĸ¹å¼ı
a h
å¸¦æĿ¥ çļĦ
åĽ½ åĨħ
çŁ¥è¯Ĩ åĴĮ
åĿ Ľ
èµĽ äºĭ
åľ° éĵģ
è´¨éĩı åĴĮ
è½ ´
æŁ¥ æī¾
æ¼ ł
å·² çŁ¥
i an
åįķ æĽ²
as t
å¹¿æ³Ľ çļĦåºĶçĶ¨
å¼ķ åĬĽ
çĴ ĥ
åĩºçİ° åľ¨
åĨ Ī
é¥° æ¼Ķ
æľī ä¸ĢäºĽ
åı ł
å®ļ ä½į
æĵįä½ľ ç³»ç»Ł
ä¿Ŀ éļľ
æİ¢ éĻ©
åħ¨ éĿ¢
éģĹ äº§
éĢļå¸¸ ä¼ļ
æĹ© ä¸Ĭ
çļĦ å£°éŁ³
åħĭ æľį
iP hone
å°¤åħ¶ æĺ¯
åıį æĺł
å¥¶ å¥¶
æľī çĽĬ
åħħæ»¡ äºĨ
èº« å¿ĥ
ell ig
åĽ¢ ä½ĵ
åĴĮ å·¥ä½ľ
ä»·åĢ¼ è§Ĥ
å¤ªå¹³ æ´ĭ
æĴ ¤
äºī è®®
ç»Ļåĩº ä¸Ģä¸ª
èĩªåĬ¨é©¾é©¶ æ±½è½¦
ä¸ĥ å¹´
æ· ĭ
åŀ Ĥ
èĥľ åĪ©
å¤© ä½ĵ
I n
éĩĮ éĿ¢
å¯Į åĲ«
åħ¶ä¸Ń åĮħæĭ¬
å¹¿ æĴŃ
èĬ Ĵ
Ð ½
ar k
æ ª
çĶŁæ´» åľ¨
å¹´ åľ¨
3 1
åĽ½ çļĦ
é¾ Ł
çŃī æĸ¹å¼ı
æĽ´ é«ĺçļĦ
æķ£ æŃ¥
æ¦Ĥ çİĩ
ä¸Ń æĢ§
è¿ĲåĬ¨ ä¼ļ
èĦ Ĭ
åĻ ª
èĢ Ģ
è¿Ļ ä¹Ł
èĤ¯ å®ļ
ic k
ä¿ ±ä¹Ĳ
èģĶ éĤ¦
äºĭ åĬ¡
èİ ²
å½ »
åľ¨ è¿ĩåİ»
éĢĤ çĶ¨äºİ
ä» ĵ
ä¿±ä¹Ĳ éĥ¨
çĮ Ľ
éĹ» åĲį
æĬĢèĥ½ åĴĮ
èĢĮ åľ¨
Ġ as
æĭ ĸ
äººç±» æ´»åĬ¨
çľŁ æĺ¯
æµª æ¼«
ä¼Ļ ä¼´
èĩ´ åĬĽäºİ
çī µ
æµ· åĨĽ
ç»Ļ äºĨ
Ġs h
è¯· æ±Ĥ
æ¸ħ æ¥ļ
æľī äºĨ
åī ©
æĮĸ æİĺ
ä¹ ĥ
åĲĦ åľ°
æ¼ ı
éĥ¨ éķ¿
ä¸Ģ åľº
æķ°æį® åºĵ
å¹ ½
ãĢĤ ãĢĤ
æĪĺ çķ¥
è£ Ķ
éĩİ çĶŁ
ç§į æ¤į
è¿ĺ éľĢè¦ģ
å® ħ
å·ŀ çļĦ
çİ Ħ
èģļ ç±»
æĶ¹ éĿ©
ä¸» æĮģ
èĤ ©
çħ§ çīĩ
éģĹ ä¼ł
åİĨåı² ä¸Ĭ
å® ª
" ),
ç¢ °
çļĦ ä¸į
åĥ §
ä¼ł è¯´
è¢ ģ
è¾ Ī
æľĿ é²ľ
çļĦ åĲ«ä¹ī
è¶Ĭ åįĹ
å®ŀéĻħ ä¸Ĭ
æ §
ä½ł å¥½
å¸¦ çĿĢ
éķ¿ æĹ¶éĹ´
ç¡¬ ä»¶
èĬ Ŀ
æĸĩæľ¬ä¸Ń æıĲåıĸ
éĤĢ è¯·
å² ³
å² Ĺ
èĤ ĥ
æĺŁ æľŁ
åħ¬ åĪĨ
æĦ Ī
è§Ħ èĮĥ
çĽ Ĩ
èĩªçĦ¶ çģ¾å®³
åĭĩ æ°Ķ
æĺ¨ å¤©
åĪĽ å§ĭ
æĦī å¿«
id e
çĽ ¾
å¤§ æĪĺ
åı¯ä»¥ ä¸º
éĥ½ ä¸į
åĢ¾ åĲĳ
åĨ² çªģ
å§ĳ å¨ĺ
èµ° äºĨ
éľĢè¦ģæ³¨æĦı çļĦæĺ¯
åħ³éĶ® åŃĹ
ä»İ æķ°æį®ä¸Ń
ä¼ĺ åħĪ
ä¸Ń éĹ´
ä¸Ĭ æĺł
å®ĥ åľ¨
ä»ĸ æĽ¾
åĲ ķ
åĪĽ ç«ĭ
Ġ ,
éĨ ĩ
åľ¨ è¿Ļç§į
äº¤ åıī
åĲĮ äºĭ
å¹¶ äºİ
ç½ ļ
å¼º çļĦ
J ava
æ°Ľ åĽ´
å·¨ å¤§
ç®Ĺæ³ķ åĴĮ
çĶŁæĪĲ åķĨåĵģæĸĩæ¡Ī
åĩ Ń
æĪĲ çĨŁ
èĹ ¤
åĩł å¹´
åĩĨç¡® åľ°
çĪ ½
æĳ ¸
æĵ ¦
å°ļ æľª
ä¸ Ľ
æĿ ī
Â °
åı¯åĨįçĶŁ èĥ½æºĲ
åĩº èº«
ä¸Ģç¯ĩ æĸĩç«ł
éĿ¢ åĮħ
r om
åĪ© çĽĬ
å§ĭ ç»Ī
i le
æĦŁ åħ´è¶£
èĤ ĸ
å¥¥ æĸ¯
ä»¿ ä½Ľ
é ī
æĿĤ å¿Ĺ
èį ¡
ç´§ æĢ¥
ä»ĸä»¬ åľ¨
æ¸ħ æľĿ
æŁĶ è½¯
åĳ¨ æľŁ
åİ ĺ
çº¦ ä¸º
ä¿® å¤į
èº«ä½ĵ çļĦ
è¯¥ æĸĩæľ¬
æī ĳ
æŁ¥ çľĭ
Ġ al
éĺ ģ
äº® çļĦ
è½» è½»
è°· æŃĮ
çĬ¯ ç½ª
æĿ¥ çľĭ
åĬł éĢŁ
ç³ Ĭ
æĢ§ æł¼
åİŁ åŃĲ
å¹´è½» çļĦ
æľī çĶ¨çļĦ
é¹ ħ
æµ ı
è½¬åĮĸ ä¸º
ä¸» è¯Ń
ä½ł éľĢè¦ģ
ç¾½ æ¯Ľ
å¦» åŃĲ
ä¹Ł è®¸
åĮħåĲ« äºĨ
æ¼Ķ åĶ±
åĪ ł
ä»Ķ ç»Ĩ
åıĳ åĩº
çİ° åľº
ç»Ļ äºĪ
æĺ¯ä¸Ģ å®¶
çĽ¸ åıį
Ñ Ģ
èĥ½å¤Ł åľ¨
o v
Ġ æĺ¯
å±± è¥¿
æĽ¿ ä»£
åĲ Ĳ
éĻķ è¥¿
ar y
æĲľç´¢ å¼ķæĵİ
ellig ence
äºĳ è®¡ç®Ĺ
é¢Ħ ç®Ĺ
æĮ º
Ġe x
è´ ¤
ä¼ĺç§Ģ çļĦ
æį ī
ä¹ĭéĹ´çļĦ åħ³ç³»
ä¼ĺ è´¨
çľĭ åĪ°äºĨ
é¢ ģ
çŀ §
æµģ çķħ
å¤ļæł· æĢ§
æĪĸ æĺ¯
éª Ĺ
è¿½ æº¯
æĽ´å¥½åľ° äºĨè§£
N N
æĸĩ çĮ®
è° Ĭ
é¸ Ń
åĿĲ åľ¨
æ¤ ħ
æ¾³ å¤§åĪ©
æµ·æĭĶ é«ĺåº¦
å®¤ åĨħ
b er
å µ
ä»¥ æıĲé«ĺ
å¼Ģ å±ķ
Ġ åĴĮ
è¿Ļ ä½į
è°ĥ èĬĤ
ä¸ĭ åİ»
è´§ å¸ģ
ä½ĵ éķ¿
æŁĲ ç§į
.. .
åŃ¦çĶŁ çļĦ
å¥¹ åľ¨
åıĳ éĢģ
æ³ Ħ
åįı åĬ©
ç¬¬ äºĶ
æ¾³å¤§åĪ© äºļ
è¯¢ éĹ®
æĪĳ è¦ģ
èŃ¦ å¯Ł
ç®¡ è¾ĸ
ç¥ ¥
éĵ º
éģ ¥
ä¸Ģ çīĩ
ç±³ çļĦ
éī ´
Ġ qu
åŀĥåľ¾ éĤ®ä»¶
a ve
å¾Ī å¥½çļĦ
çĶŁ çļĦ
ä½ľ æĸĩ
æĽ¿ æį¢
é©¬ æĭī
åİĭåĬĽ åĴĮ
å¾Ī æľī
è¯» ä¹¦
é¡µ éĿ¢
ç¼ĸåĨĻ ä¸Ģä¸ª
å¾Ī å¤§
å¥¥ è¿Ĳ
åĨ³ èµĽ
æľº æ¢°
200 5
åĬ ²
å¯ Ħ
ä½Ĩ ä»ĸ
ä¼Ĺ å¤ļ
å¥½ äºĨ
çĭĲ çĭ¸
æıı ç»ĺ
å¯¹ ä»¥ä¸ĭ
è ©
æĦıè¯Ĩ åĪ°
ap p
è¿ĩ æĿ¥
ific ial
å¯¹ æĪĳ
é«ĺ ä¸Ń
å°ı åŃ¦
å±Ĥ æ¬¡
å® ı
ä¸į èµ·
ä¹ĭ ä¸ĭ
åħĭ çļĦ
ä¸Ń éĢīæĭ©
ç² ®
ä¸ī è§Ĵ
ç»Ł æ²»
çĪ· çĪ·
åĪĽå»º ä¸Ģä¸ª
ä¼¤ å®³
ç»ĵ å©ļ
æĭī æĸ¯
ou s
åĴ ¨
ä¸ĭéĿ¢ çļĦéĹ®é¢ĺ
åĴĮ æ°´
æĺİ äºĨ
è®¾ å®ļ
éļı æĹ¶
" "
æµı è§Ī
åħ¬ å°º
èĭı èģĶ
å¿ĺ è®°
å¼ ¦
è¿Ļ è¡¨æĺİ
è¾ĥ ä¸º
åħ³ éĹŃ
çİ» çĴĥ
æ±Ł èĭı
ul t
æľīè¶£ çļĦ
æķ° çĻ¾
æ¶ Ĥ
è¶ĬæĿ¥è¶Ĭ å¤ļ
çĶ³ è¯·
é¥ ª
å·¥ èīº
èĩ³ ä»Ĭ
A P
Ġp l
çĥ¹ é¥ª
æĺİ å¤©
è¿ĺ åľ¨
æľĢ æĸ°çļĦ
è© ¹
æĪ Ĵ
å¿ł è¯ļ
çĪĨ åıĳ
åĲĪ æĪĲ
æĥħæĦŁ åĪĨç±»
: '
ä½ł åľ¨
è§Ĥ çľĭ
æŁ ¯
è®° èĢħ
åį ¿
çļĦ è¡Įä¸º
ç© ·
èĥ İ
åİ¿ äºº
æ¯ĶèµĽ ä¸Ń
æĮĩ å®ļ
çĽ Ī
æĹ¥ åŃĲ
ç¬¬äºĮ ä¸ª
å¹¿æ³Ľ åºĶçĶ¨
ç±»ä¼¼ äºİ
t o
æī £
åĮ¹ éħį
è¾Ĳ å°Ħ
å¥ĸ é¡¹
ä¸įä»ħ ä»ħ
åĳ½ ä»¤
çĻ» å±±
èģĬ å¤©
æĹ ±
æµ· å²¸
éĨ ī
éŃ Ĥ
èĭ± å°º
çģ Į
åĬł å¯Ĩ
åĲĮ ä¸Ģ
ç²¾ åĬĽ
G P
èĳ ¬
çĸ Ĩ
ç¨ į
æĲ ¬
åį µ
çİ¯å¢ĥ ä¸Ń
æ¼Ķ è®²
å¡ ĺ
S T
çºª å½ķ
çľŁæŃ£ çļĦ
èĢĮ ä¸į
æĬĢæľ¯ æĿ¥
æĮĳæĪĺ åĴĮ
äº§çĶŁ çļĦ
3 5
çı Ĭ
åı Ľ
åħ« å¹´
åĪĿ æľŁ
æ¶Ī å¤±
æİ¥ æĶ¶
im p
ä¸º ä»¥ä¸ĭ
å¦Ĥ ä»Ĭ
çº½çº¦ å¸Ĥ
æĥħ å¢ĥ
å¹´è½» äºº
æł ½
ä¸Ĭ éĿ¢
æľºåĻ¨åŃ¦ä¹ł æĺ¯ä¸Ģç§į
çĤ ®
æ¢ ¨
æĹł çº¿
å¤´èĦĳ é£İæļ´
Ġ AI
æĸ° äº§åĵģ
å½ĵ ä»Ĭ
éĥ¨ éĺŁ
ç¨ ¿
ä¿¡ ä»°
è£ Ļ
åĩ Į
è¯Ĺ æŃĮ
Ġ ä½¿çĶ¨
æĩ Ĵ
is h
æ¹ĸ åįĹ
éĢı è¿ĩ
ç²¾ ç¡®
200 4
çĪ± ä½ł
æ±¤ å§Ĩ
é¥ ±
åıĳå±ķ çļĦ
æŃ¤ æĹ¶
éĹ® çŃĶ
èħ Ĳ
æĸ¹ çļĦ
å² Ń
ä½ľä¸º ä¸Ģä¸ª
ä¾Ŀ çĦ¶
ä¹Ł æ²¡æľī
å°Ĩ åľ¨
å¯ Ĥ
èµ Ĳ
çģ« æĺŁ
æ¿Ģ åĬ±
æĤ Ħ
Ġ or
çĽ Ĵ
æĪĳä»¬çļĦ çĶŁæ´»
åĴ ¸
S t
è¿ĺ ä¼ļ
éĢļè¿ĩ å¯¹
çĶŁåĳ½ çļĦ
Ġ un
ä½įäºİ è¯¥
ç¢ ±
å¤ ·
ä» ĩ
éĥ½ èĥ½
åľ° éĿ¢
ç«ĭ åį³
åįı è°ĥ
å®ĺ åĳĺ
å¤§ ä¼ļ
çŁ ©
æ¡Ĩ æŀ¶
æĺ¯ åħ³äºİ
Ġc an
å¹¶ è¿Ľè¡Į
è¿ľ ç¨ĭ
åľ° è¯´
å±ŀä¸ĭçļĦä¸Ģä¸ª ç§į
åľ° åĽ¾
å¹¶ ä½¿çĶ¨
ä¸į ä½ı
ä¿Ŀ éĻ©
I D
å¨ ĥ
çĲĨ çĶ±
åĴĮ æĶ¯æĮģ
èĨ Ģ
4 8
åĩº åİ»
çĥŃ éĹ¨
æĹ¥ åľ¨
æµ ¸
å¸ ½
åı¯ä»¥ åĩıå°ĳ
åº ŀ
çĮ ľ
ä¹Ł å°±æĺ¯
ä»¥ å¸®åĬ©
å¦Ĥä½ķ åľ¨
ä¹Ķ æ²»
åĴĮ è¡Įä¸º
çļĦ ä½įç½®
æ Ĩ
çļĦ é¢ľèī²
æľŁ æľĽ
å¥ĸ åĬ±
æµ ¦
è¯Ń ä¹ī
ĠP ro
ä¿Ŀ åŃĺ
åħ¶ å®ĥ
ç¢ Ĺ
éĽ Ģ
åı¯ä»¥ æıĲä¾Ľ
ä¹Ŀ å¹´
è¸ ı
çļĦ åĬ¨çī©
æĺ¯ æĪĳä»¬
åľº åĲĪ
å¸¸ çĶ¨çļĦ
ä»¬ çļĦ
æĥ §
Ġ 2
çŃ Ľ
æ½ľ åĬĽ
: ãĢĮ
åĽŀçŃĶ è¿Ļä¸ªéĹ®é¢ĺ
éĢī æīĭ
è¾ ī
å¥¥ æŀĹ
e e
ä½Ĩ å®ĥ
èĩ Ĥ
çļĦ å½¢å¼ı
ä¸Ń æľī
ä¼ļ åĦ¿
èĳ Ľ
éģĩ åĪ°äºĨ
æ¨¡ ä»¿
ä¸ŃçļĦ åºĶçĶ¨
æĭĴ ç»Ŀ
è¿Ļ ä½¿å¾Ĺ
çĨŁ æĤī
åĽĽ åįģ
ä¸º ä¸Ģä¸ª
æĴ ĳ
åĩº èī²
æĴŃ æĶ¾
çļĦ åħ³ç³»
åı¯ çĪ±
ä¸¥ æł¼
ä¸ ¢
äºĨ å¾Īå¤ļ
r am
é¹ °
åıĹ ä¼¤
è¿ĩ æ»¤
æļĹ ç¤º
å¹² æī°
åĪ ¸
ä½ľ ä¸ļ
èĥ½åĬĽ åĴĮ
á Ģ
æ¸ħ æ´Ĺ
æħ İ
åıĹ ä¼Ĺ
è¯ ŀ
åİ ¦
æĿ Ĩ
ä»¥ åħ¶
4 5
æŃ ī
æ¸ł éģĵ
çļĦ å¿ĥ
æ» ĭ
ç«Ļ åľ¨
åĴ¨ è¯¢
o x
åĴĮ ä¸į
æĪĲç«ĭ äºİ
æłĩ æ³¨
åģľ æŃ¢
ç½ ķ
å¼ºåĮĸ åŃ¦ä¹ł
å¯Ĩ åº¦
çļĦ æľįåĬ¡
æ¤ İ
çĻĮ çĹĩ
ç»§ æī¿
çħ§ é¡¾
åĸľ çĪ±
åı· çº¿
çķĮ éĿ¢
o f
è®Ńç»ĥ æ¨¡åŀĭ
å·§ åħĭ
Ġy ou
åıĤ è§Ĥ
æ±Ł è¥¿
Ġ at
Ġ The
çĸ² åĬ³
çļĦ æ¦Ĥå¿µ
Go ogle
re m
s h
åįĥ ç±³
Ġ 3
çİ¯å¢ĥ çļĦ
ä½Ĩ æĪĳ
èļ ģ
åħħ è¶³
è·Ł è¸ª
ä¸Ģ è¾¹
åĴĮ ç®¡çĲĨ
æĪĳä»¬åı¯ä»¥ ä½¿çĶ¨
ä¸ĭéĿ¢ çļĦ
èħ Ķ
ä½ł æĺ¯
å¤ĸ è§Ĥ
çļĦ çī¹çĤ¹
ä¸Ģ èĩ´
è®® åĳĺ
æİ¨ æĸŃ
Ġ 1
å¹´ åº¦
ä»» åĳ½
å¿ĥ åĴĮ
æµ· åŁŁ
18 9
æĮĩ åįĹ
åı° åĮĹ
å·¥ä½ľ æķĪçİĩ
æ¯ķä¸ļ äºİ
å°ı çº¢
å®³ æĢķ
ä¸ĵ éĹ¨
çļĦ ä¸ĸçķĮ
å¾Ī éļ¾
çļĦ ç¬¬ä¸Ģ
å°ı ç»Ħ
ä¹¡ è¯ķ
éľĢè¦ģ è¿Ľè¡Į
ç³ĸ å°¿
åĭĩ æķ¢
æīĢéľĢ çļĦ
åĳ¨ æľ«
èį· åħ°
ç³ĸå°¿ çĹħ
ro w
å¾¡ åı²
ä¸Ń éĥ¨
ç¨ Ģ
åıĳçİ° äºĨ
æĺ¯ æ³ķåĽ½
èĢģ äºº
åĴĮ åŃ¦ä¹ł
æģ °
ä¸ĭ äºĨ
å¼Ł å¼Ł
è¯Ń æ°Ķ
åķĨ åºĹ
å¦ ĥ
ä¼ĺ æĥł
ä¸ĢçĽ´ åľ¨
å¥¥æŀĹ åĮ¹
åħ±äº§ åħļ
åİŁ åĪĻ
ä¸¾ äºº
ħ åĬĽ
å®īåħ¨ åĴĮ
è° ¨
èĽ Ľ
èµ ´
Ar t
ç¬Ķ è®°
åħĪ åĲİ
è¿ĺ è¦ģ
æĬ« èĲ¨
ä½¿åħ¶ æĽ´åĬł
åĩºçİ° çļĦ
æĹĭ è½¬
åİŁ æľ¬
è®¡ç®Ĺæľº ç¨ĭåºı
åºĨ ç¥Ŀ
è§£ æĶ¾
ĠI n
å®ŀ æĹ¶
èĬĤ å¥ı
Ġ æķ°æį®
ä¸ ĳ
å°Ķ å¾·
é©¬ åħĭ
è¡ °
çī© çļĦ
å°¼ åħĭ
å²ģ çļĦ
åģı å¥½
èī ³
å§Ĩ æĸ¯
åĨħ å¿ĥ
æĹł éĻĲ
äºļ é©¬
æ¯ı ä¸Ģ
ä¸į äºĨ
åĨ¥ æĥ³
æĴ° åĨĻ
æģ ¨
çļĦ è¿ĩç¨ĭä¸Ń
èįī èİĵ
åı¯ çĶ¨äºİ
å¤§ åĮº
çĶµåŃĲ åķĨåĬ¡
èī¯ å¥½
ç© ´
å°ı å¿ĥ
èī ĩ
æĬ½åıĸ åĩº
æĿ¥ æıĲé«ĺ
ä¼¦ çĲĨ
çªģ åĩº
è´¹ çĶ¨
åĪĹ ä¸¾
åıĳ åĬ¨
ä¿¡æģ¯ åĴĮ
åĪ° çļĦ
èĮ Ħ
çĽĳ ç®¡
ç¹ģ æ®ĸ
çļĦ éĢīæĭ©
I P
ä¼ ŀ
os s
ä¸ŃçļĦ åħ³éĶ®è¯į
Ġ Y
æħ °
ç¯ĩ æĸĩç«ł
( )
p t
åĪĽ ä¸ļ
è¡ Ķ
åĲį çļĦ
B A
ç¼© åĨĻ
æŃ §
éķ¿ å¤§
æĸĩæľ¬ä¸ŃçļĦ åħ³éĶ®è¯į
æĺ¯ ä¸į
ä¸Ģ æĹ¦
æĺ¥ å¤©
èĩ³åħ³ éĩįè¦ģ
å¤ļ å¹´
æĪ¿ å±ĭ
åĴĮ æ²»çĸĹ
è¾ ¨
å·¥ä½ľ çļĦ
éĿĴ æĺ¥
å¿ĥçĲĨ åŃ¦
æ¯ı ä¸Ģä¸ª
çŁ Ľ
äº ¨
æĽ¾ åľ¨
èĬĤ æĹ¥
æĻ ´
éĽ ¾
ç¬ ¼
è¿ĻäºĽ éĹ®é¢ĺ
è¿ĺ èĥ½
a th
ä¸ª æľĪ
åį §
ĊĠ ĠĠ
å¸Ĥåľº èĲ¥éĶĢ
åĴĮ åĨ³çŃĸ
è®¤ åı¯
o y
åľŁ å£¤
ç»ĵæŀĦ åĴĮ
Ġ ãĢĤ
åĩº èī²çļĦ
éĢ ¼
200 3
åı¯ä»¥ ä½¿
ç§ĳ çļĦ
å®ĥä»¬ åľ¨
åĪĨ è§£
ä¹Ł éľĢè¦ģ
åĴĮ çĲĨè§£
éģµ å¾ª
! !
å¼ķèµ· çļĦ
å¼ Ħ
å°ļ ä¹¦
æ°´ ä¸Ń
èĻļæĭŁ çİ°å®ŀ
æĭŁ åĲĪ
é»ĳ æļĹ
åı¯ä»¥å¸®åĬ© ä½ł
åıĳ å°Ħ
çŀ ¬
å¤§ å¤§
è¿Ļä¸ª è¯į
æ°´ çļĦ
åĽŀ æĿ¥
éĻ Į
å¼ ¥
S E
åĵ¥ åĵ¥
çĭ® åŃĲ
å¹¶ ä¸İ
è®® ä¼ļ
: ãĢĬ
æĹ¥å¸¸ çĶŁæ´»
Ð¾ Ð
äººå·¥æĻºèĥ½ åĴĮ
å®Į åĸĦ
Ġ lo
18 8
æł¹æį®ç»Ļå®ļçļĦ æĸĩæľ¬
è¾¹ çķĮ
åĸľ åī§
è®© äººä»¬
éĵ ĥ
å°½ éĩı
åĲ¬ è¯´
æµ·å¹³éĿ¢ ä¸Ĭåįĩ
åĸľ å¥½
i o
ur al
æĺ¯ ä¸ºäºĨ
æ³° åĽ½
è¿Ļæĺ¯ åĽłä¸º
çĥ Ĥ
æŀĦ éĢł
é±¼ çº²
å¾® ç¬ĳ
ä¸Ģ æ¬¾
äºļé©¬ éĢĬ
å¼ ĺ
çī© æµģ
åĪ© æ¶¦
æİ¥ çĿĢ
è¡ĮæĶ¿åĮº åĪĴ
a e
el lo
æ¸Ĳ æ¸Ĳ
éģ £
æ¶ Į
åħĭ åħ°
åŁº éĩĳ
å¤ªéĺ³ çļĦ
åıĭ è°Ĭ
çķ Ķ
å¿ Į
èµ° åĲĳ
è´ º
äº¤éĢļ æĭ¥åłµ
( ,),
æŃ¤ åĲİ
åĵģ å°Ŀ
è¯¦ç»Ĩ çļĦ
ä¸ĵæ³¨ äºİ
æĤ Ł
æĪĸ æľįåĬ¡
è¯´ æ³ķ
èģĮä¸ļ çĶŁæ¶¯
ä½Ľ æķĻ
ä¼ł æĦŁ
çŁ¥ åİ¿
å¹¶ æıĲé«ĺ
å³ ¡
å¼º åº¦
å¢ĥ åĨħ
åĵ ¦
èĩªçĦ¶ çļĦ
ä¸º æĤ¨
Ġ en
çĶ¨ ä½ľ
è¯Ńè¨Ģ æ¨¡åŀĭ
è®¡ç®Ĺæľº ç³»ç»Ł
äº Ń
ä¸ĭ ä¸Ģ
O p
è¾¹ çļĦ
æĹ¥å¸¸ çĶŁæ´»ä¸Ń
ä¸Ńåįİ æ°ĳåĽ½
çĶ· æĢ§
æĬĢæľ¯ çļĦåıĳå±ķ
åĮĹ æŀģ
åŃĺåľ¨ çļĦ
ä¿ Ĭ
èĦ Ĩ
åĵĪ åĵĪ
ç¡ ķ
åĪĽå§ĭ äºº
éĩĩåıĸ è¡ĮåĬ¨
çłĶç©¶ äººåĳĺ
æĿ° åħĭ
åĸ Ĭ
èīºæľ¯ å®¶
å¤Ħ çļĦ
é«ĺ è´¨éĩı
æĽ´ å¤§çļĦ
æĸ° åŀĭ
åĩĨç¡® çļĦ
å¥¥æŀĹåĮ¹ åħĭ
ç½ ©
æĮĩ ä»¤
æĪı åī§
éĤ ĵ
ç¤¾ä¼ļ çļĦ
å¯Į æľī
çº¿ è·¯
ä¸ĸçķĮ çļĦ
æī ¶
æł¹æį® é¢ĺçĽ®
ç» Ĵ
æĹ© å¹´
åĴĮ å®īåħ¨
æĹ º
æ² Ī
æĥ ĳ
åĴ ±
æīĭ æľ¯
åº¦ åģĩ
ä»¥ä¸ĭ åĩłä¸ª
åĬł åĪ©
ä¸Ģ åº§
æ¯Ķ ä¾ĭ
èĶ ¡
æĸ¹ ç¨ĭ
ow s
ä»£ è°¢
ä¹ ¾
å¤ª å¤ļ
åĩł ç§į
çĭĹ çļĦ
å®ŀä½ĵ è¯ĨåĪ«
åĩ» è´¥
èº ²
å®ŀ çĶ¨
é©± åĬ¨
Ñ ģ
åĨ ¯
åĩº ä»»
Ġh e
è¡ «
Ġw as
çľ ī
è§ģ åĪ°
ç»Ļå®ļ ä¸Ģä¸ª
è¯ Ī
çİ¯å¢ĥ åĴĮ
å¤ĸ éĥ¨
æī¾ åĪ°äºĨ
æ³ķ éĻ¢
ä¸Ģ å¼ł
åĳĬè¯ī æĪĳ
ä¸ªæĢ§ åĮĸ
åĴĮ ä¸Ģä¸ª
èĢĮ æĪĲ
åĩºçİ° äºĨ
èĤ ´
æĢİ æł·
åŁº çĿ£
å°± è¯»
ä» ²
å¹¶ éĢļè¿ĩ
tion s
çĽ¸åĲĮ çļĦ
èĢ į
åĿ Ĭ
å§ĵ åĲį
çŃĶæ¡Ī æĺ¯
æĸ¯ ç§ĳ
Ġs p
g h
å·² æĪĲä¸º
æĻºèĥ½ åĮĸ
ç»Ļå®ļçļĦ æĸĩæľ¬
æĺİæĺ¾ çļĦ
ä¼ļ æľī
æ²Ļ æ»©
å½ĵ éĢī
å± ¿
æŃ¥ è¡Į
å¯¼èĩ´ äºĨ
è¾ħ åĬ©
åĵį åºĶ
æŁ¥ è¯¢
éĴ »
å®ī éĿĻ
è¹ Ī
ä¸į æĺİ
S A
ç °
å¼ķ åħ¥
åĩº åı£
im e
ä¼łæĦŁ åĻ¨
éĺ Ĳ
æľºåĻ¨åŃ¦ä¹ł åĴĮ
æĺĨ èĻ«
æ¯ıä¸ªäºº éĥ½
çļĦ åĬŁèĥ½
æµģ éĩı
å·§åħĭ åĬĽ
æĺİ æ²»
ç§į åŃĲ
æĻ¯ è§Ĥ
èī °
pp le
æĿ Ń
å¹¶ å¯¹
çļĦä¸»è¦ģ è§ĤçĤ¹
æĥ³ èµ·
ä¸į ç®¡
å¤© æĸĩåŃ¦
åį³ åı¯
åĬ¨ æĢģ
åı¯èĥ½ æĢ§
ä¸º ä½ł
å¼º å¤§
æŃ¦ åĻ¨
ä¸ĩ åİĨ
Ġt e
è¯ķ éªĮ
åı« åģļ
ç®¡çĲĨ åĴĮ
çĶµè§Ĩ åı°
èĤ ¢
æ£ ĺ
çĽĳ æİ§
çĳ °
åįķ åħĥ
åħħ çĶµ
è¡ į
å¤ ķ
çļĦ æµ·
æİ¨ è¿Ľ
ä¸ŃçļĦ ä¸Ģä¸ª
åĬł å·¥
æľīä¸Ģ å¤©
æĺ¯ éĿŀå¸¸
ç§ĺ å¯Ĩ
åİ ī
æ²³ åĮĹ
ä¾ £
åįĩ é«ĺ
200 1
ç¦ Ħ
å¥ ´
å®¶ éĩĮ
å¹¿ å·ŀ
è® ·
èįī åİŁ
æ½ ĺ
ä¸Ĭ æľī
3 00
åľ¨ åħ¨çĲĥ
æŃ¦ ä¾ł
ç®Ģ åİĨ
è° Ĳ
éľ ¸
æ¶ ħ
ä¼° è®¡
åħ¥ åı£
æĺ¯ä¸Ģ äºĽ
å¤ĸ äº¤
äºĨ æĪĳ
æĸĩç«ł çĶŁæĪĲ
å·´ è¥¿
om m
ik e
i re
æĦŁ åĴĮ
å½ĵ æĪĳ
åĨħ åŃĺ
çĶŁ æĹ¥
é©¬æĿ¥ è¥¿äºļ
å®Į ç¾İ
åĲĦ èĩª
ç» µ
ang u
r ou
çļĦ æľºä¼ļ
èĭ± æł¼åħ°
èĮ Ĥ
æĢ ĸ
åĭ ĭ
é³į é±¼çº²
çŃ ¹
æłĸæģ¯ åľ¨
åħ¬ å¸ĥ
å¹² åĩĢ
ç¼ Ŀ
æ¯Ķ çī¹
éĢĶ å¾Ħ
å« Į
åı¤ åħ¸
ä½ĵéķ¿ åı¯è¾¾
ä½ĵ çİ°
æ¿Ģ åıĳ
æľ¬ ç«Ļ
è¿Ļ ä¸¤
èĤ Ŀ
åĪł éĻ¤
C P
% ãĢĤ
I I
åı¯ä»¥å¸®åĬ© äººä»¬
ç¬¬äºĮ æ¬¡
æ³ķ è¯Ń
ä¸»äºº åħ¬
åĨĻ ä¸Ģä¸ª
å± Ī
åĽ¢éĺŁ æĪĲåĳĺ
o st
ç» ³
å¨ģ å»ī
è¾Ĳ é³įé±¼çº²
åĲ¯ åĬ¨
è®¾è®¡ ä¸Ģä¸ª
Ġ æ¨¡åŀĭ
èĥ ĥ
ä»Ĭ å¹´
ç»Ł ä¸Ģ
èĬ± è´¹
ä¸į èī¯
æĹłè®º æĺ¯
S c
åıĪ åĲį
åħį è´¹
Art ificial
æ¸ ´
ç©º ä¸Ń
æ¸©å®¤æ°Ķä½ĵ æİĴæĶ¾
å½ °
çģŃ ç»Ŀ
è¿ĩ äºİ
çľĭ äºĨ
åĿ İ
æ´ª æ°´
ä½ł ä¼ļ
ç¤¼ çī©
å¹´ è¢«
éĿł è¿ĳ
åĸ »
éľĢæ±Ĥ åĴĮ
çŁ ¶
æķ°åŃĹ åĮĸ
éĻ¤ æŃ¤
æīĵ åį°
é³ ŀ
æĺ¯ äººç±»
åħ¶ åĲİ
èŀį åĲĪ
åľ¨è¿Ļç§į æĥħåĨµä¸ĭ
çİĭ åŃĲ
çĤ Ĵ
è¿Ļ å°±æĺ¯
æľī æĹ¶åĢĻ
å²ģ æĹ¶
çŃĽ éĢī
çĶ ¸
ĠI nt
ä¸ªäºº çļĦ
é£Ł æĿĲ
èĽĭ ç³ķ
åĮĹäº¬ å¸Ĥ
æĻ ĵ
æıĲåıĸ åĩº
å¤« äºº
çļĦäºº åı£
p l
åıĭ å¥½
å¤± æľĽ
çĽ´ å¾Ħ
æ© ĺ
ä¸Ģ éĥ¨
æĵ ħ
åŁ Ķ
æĮ ¡
æī¹ è¯Ħ
çĶŁ çĲĨ
çªģ çł´
ro s
å¤§ åľ°
ç¡® å®ŀ
ä½ł è¯´
ä½ł èĥ½
åį ĳ
å½ Ń
åĽ´ ç»ķ
çŃī åĽłç´ł
å¤ľ æĻļ
am e
äºº éĥ½
ç»Ĩ èıĮ
å¤§ èĩ£
æĦı å¤ĸ
å¾ĭ å¸Ī
æĻºèĥ½ æīĭè¡¨
ä½ľ æĽ²
å¤© ä¸ĭ
å¥ ĳ
æł¹æį® æīĢ
è¡Ģ åİĭ
è¿Ļ æĺ¯ä¸Ģç§į
ç§ģ äºº
éĢĴ å½Ĵ
åŃ ķ
åį³ å°Ĩ
å®ĮæĪĲ ä»»åĬ¡
æĺ¯ æĹ¥æľ¬
ä¼¯ çī¹
éľĢè¦ģ åľ¨
åĲĳéĩı æľº
æĻ Ĵ
æľī åĵªäºĽ
å ļ
æĹ¶éĹ´ åĨħ
ä¸ĭéĿ¢ æĺ¯
ãĢĤ '
r an
æĺ¾ å¾Ĺ
éĢļ çŁ¥
åįİ çĽĽ
åĴĮ é«ĺ
o od
å¤§æ°Ķ å±Ĥ
å»ºçŃĳ çī©
æµĭè¯ķ éĽĨ
æĺ¯ ä»¥
ç®Ĺæ³ķ çļĦ
å¸ĥ æĸ¯
éĹ´ çļĦ
æł¡ åĽŃ
ä»İèĢĮ æıĲé«ĺ
l a
è¯Ĺ äºº
åı¯ä»¥ éĢīæĭ©
ä¾¿ æį·
æĳĦ å½±
åįĹ åĮĹ
åĶ± çīĩ
å© ´
åº¦ è¿ĩ
æķĪ åºĶ
éħ ¶
åĪº åı²
å±ŀ æĢ§
æ¼Ķ åĮĸ
æģĲ æĢĸ
Ð º
on t
è ¤Ĳ
åı¯ä»¥ çĶ¨æĿ¥
å¤´ åıĳ
ä¸ª ä½ĵ
15 0
åĮºåĿĹéĵ¾ æĬĢæľ¯
æľī å¤ļ
ç¿ ģ
åŃĲ éĩĮ
åįİçĽĽ é¡¿
å¹´ èµ·
è§Ĥ æµĭ
åĲĮ ä¹īè¯į
èĳĹ ä½ľ
çļĦ åĲĮæĹ¶
åĴĮ çĽ®æłĩ
çĶ¨æĪ· ä½ĵéªĮ
å®ļ å¾ĭ
ä»¥ä¸ĭ æĸĩç«ł
æłĳ æľ¨
çĹĽ èĭ¦
åıĺ éĿ©
äº¤ æį¢
çļĦ æŃĮ
æĳ Ķ
Ġm e
å·¥ åİĤ
ç®Ģ çº¦
å¤© æ´¥
æĸĩ èīº
æĭī ä¸ģ
è¿½æº¯ åĪ°
æķ° çļĦ
7 5
éħ ·
é«ĺæķĪ çļĦ
èį£ èªī
æł¹æį®ä»¥ä¸ĭ æĸĩæľ¬
åľ¨ è®¸å¤ļ
èĤ ¿
çļĩ å®¶
è¶ĬæĿ¥è¶Ĭ å¤ļçļĦ
çľģ ä»½
åıĮ æĸ¹
æĢ ¨
åľ° åľ¨
æİ¥ å£¤
c t
æĦŁ åĬ¨
éĤ ª
ver s
åĬł åĿ¡
çĿ¡ è§ī
æľį è£ħ
å°Ķ çļĦ
åŁĥ åıĬ
åİŁ æĸĩ
èĪ Į
èĩªçĦ¶è¯Ńè¨Ģå¤ĦçĲĨ æĬĢæľ¯
é¸¡ èĽĭ
å« ©
æ©Ļ åŃĲ
å´ ©
åĴĮ çİ¯å¢ĥ
âĢ ĵ
åŁ ĭ
ç¼ ħ
çļĦ æ´»åĬ¨
ä¹Ł è¢«
æ³¨ åĨĮ
B C
çĩĥ çĥ§
åħ¨ éķ¿
åĲĮ æĦı
åĪ¶ åĵģ
åīį çļĦ
çĥŃ éĩı
è®© ä»ĸ
200 2
å¯Ĩ åĪĩ
3 6
æ¤ Ĵ
çģ« å±±
åĲ« éĩı
çī ł
è¥¿ åĵ¥
ä½ı äºĨ
çĶŁçī© åŃ¦
åĴĮ æķ°æį®
åĳ Ĩ
æĺ¯ä¸Ģ åº§
éĴ¢ çĲ´
ç¦ı åĪ©
ä¸į å¤ª
ç«ŀäºī å¯¹æīĭ
æĪĳ å¯¹
çļĦ åĪĨç±»
ak e
èĪŀ è¹Ī
åĴ ¬
ä¹ł æĢ§
åĴĮ ç»Ħç»ĩ
èĢģ é¼ł
éģ Ĥ
éĿ¢ åĲĳ
Ġ äººå·¥æĻºèĥ½
äºº èĦ¸
çļĦ åįķè¯į
èµĦ äº§
çļĦ è¯¦ç»Ĩ
éĻ¤æŃ¤ ä¹ĭå¤ĸ
åģļ å¥½
æĿ¥ è¿Ľè¡Į
éĢĲ æŃ¥
åĪĨ ç¦»
çĲĨ å¿µ
ä¹Ł åı¯èĥ½
æ¸ Ķ
è®Ńç»ĥ éĽĨ
çŃī æĬĢæľ¯
åľ¨ å¤§
åº ¸
çļĦ ä½ľçĶ¨
ä¸º è¾Ĳé³įé±¼çº²
æĪĳ è§īå¾Ĺ
å®¢ æľį
çļĦ åĲįç§°
202 3
é» Ľ
èĢģ æĿ¿
å¹¶ æł¹æį®
èĬĤ çº¦
æ° ¯
éĵģ éģĵ
åĨľ æ°ĳ
æĸ° åĬłåĿ¡
è®¾è®¡ åĴĮ
çļĦ æķ°éĩı
æĪĲ å¹´
é¤Ĳ é¦Ĩ
æį Ĳ
ç¨ĭåºı åĳĺ
çļĦ æīĭ
æ¿Ģ çĥĪ
é Ħ
æķĻ ç»ĥ
åĴĮ å»ºè®®
ç¡ «
çļĦ éĤ£
å®ŀéĻħ åºĶçĶ¨
p er
å°¼ æĸ¯
199 7
çļĦ åĲįåŃĹ
éĿ¢ æĸĻ
e y
è¿Ľ åĮĸ
æľīäºĽ äºº
O S
åį Ĵ
ä¸į è§ģ
ä¹¾ éļĨ
é«ĺçļĦ å±±å³°
ä¸¥éĩį çļĦ
è¿Ľ èĢĮ
å¿ĥ æĥ³
çļĦ æŃĮæĽ²
è± ¹
æĹ¥ çĽĬ
å¢¨ è¥¿åĵ¥
å¹¶ éĿŀ
çĩ ¥
æĬ ¬
æīĵ éĢł
åľ¨ è¯¥
å¯ ĵ
ä»¥ä¸ĭ æŃ¥éª¤
åĪĽ åĬŀ
åĬŀ æ³ķ
ä¸į æķ¢
èµĦ æł¼
åĴĮ æĥħæĦŁ
æŁ ľ
éĢļå¸¸ çĶ¨äºİ
çĶ· äºº
199 0
on d
åĲ ı
æĶ¯æĮģ åĲĳéĩıæľº
ä»İ æŃ¤
åĩı ç¼ĵ
å° ī
åĽº å®ļ
æĪĳ æ²¡æľī
åįĩ çº§
a w
çļĦ ä¸įåĲĮ
åıĹ åĪ°äºĨ
æľ¬ ç§ĳ
åĬłåĪ© ç¦ı
çļĦ éķ¿
åĨ° å·Ŀ
ä¸į çĶ¨
å¤© ä¸»æķĻ
è¡Į é©¶
åİ¨ æĪ¿
ä¸» åĬ¨
AI æĬĢæľ¯
åĳ¨ è¾¹
æĸ Ĳ
é¢Ĩ è¢ĸ
åįģ ä¸Ģ
åĬłåĪ©ç¦ı å°¼äºļ
åİ Į
æ»¡æĦı åº¦
è¿Ļæĺ¯ä¸Ģ ç¯ĩ
åģľ è½¦
æµģ åŁŁ
ç¦» åŃĲ
åħĶ åŃĲ
ou nt
åĲ »
å®ī å¾½
çŃī å¤ļä¸ª
çļĦ æııè¿°
çļĦ ä¸ľè¥¿
å·¥ä½ľ åĴĮ
ç¿ ł
ä¸ĸçķĮ ä¸Ĭ
at a
æľ¨ æĺŁ
åĻ¨ å®ĺ
çļĦçŃĶæ¡Ī æĺ¯
æĸ°éĹ» æĸĩç«ł
n ow
çİ «
å®ļ åĪ¶
éĢļå¸¸ åľ¨
ä¼ ª
ç®Ĺæ³ķ æĿ¥
åĪĨåĪ« æĺ¯
æĶ¹åıĺ äºĨ
æ¸ħ çĲĨ
æĽ´ é«ĺ
æĮ ¤
Ġc omp
199 8
åİ Ħ
éĩį å»º
æł½ åŁ¹
m e
åı¤èĢģ çļĦ
å¸Ĥ ä¸Ńå¿ĥ
åĺī éĿĸ
an a
è ¤
æĹ© é¤Ĳ
åĲĦä¸ª é¢ĨåŁŁ
éĽĨ åĲĪ
è§£éĩĬ ä»Ģä¹Īæĺ¯
ç»Ŀ å¯¹
éĢłæĪĲ äºĨ
it e
ind ows
çŁ³ å¤´
ic al
åĶĲ æľĿ
åı¶ åŃĲ
æ¨¡å¼ı åĴĮ
å¿ĥèĦı çĹħ
æĺİæľĿ æĶ¿æ²»äººçī©
èĢģ èĻİ
çĺ ¦
åıĳçĶŁ åľ¨
æ´Ľ æĿī
åı¦ ä¸Ģç§į
æł¹ æľ¬
æĪĲåĬŁ åľ°
åŁİ åĮº
å¸Ĥ çļĦ
äºĮ äºº
ĠInt elligence
èĪŀ åı°
ç½ĳ ä¸Ĭ
åĪ© çļĦ
å¤§ è±¡
ç§ĳåŃ¦å®¶ ä»¬
æĦ ¤
è´¢ å¯Į
æ´ĽæĿī çŁ¶
æĤ Ķ
è¿Ļå®¶ é¤Ĳåİħ
è¯· åĽŀçŃĶ
çļĦ æ°Ķ
éĿŀå¸¸ æľī
å¹² æĹ±
æ·±è¿ľ çļĦå½±åĵį
è¯Ń å¢ĥ
ä¸Ģå®ļ è¦ģ
å´ Ķ
è¥¿ æĸ¹
çĪ ª
åı¶ æĸ¯
a x
åıĤ èµĽ
æľ¬ è´¨
ä½¿åħ¶ æĽ´
ä¸į å¤Ł
è¢«å¹¿æ³Ľ åºĶçĶ¨äºİ
çļĦ å¤©æ°Ķ
è´ ŀ
angu age
ä¸Ģ çľĭ
çŁĽ çĽ¾
éĺŁ ä¼į
èĢĮ éĹ»åĲį
ä»Ĭ æĹ¥
åı¥åŃĲ çļĦ
åĲ ĵ
å¼ķ å¯¼
çĶŁäº§ åĬĽ
ç»´çĶŁç´ł C
èı Ĭ
å®¢æĪ· çļĦ
æ·± æ·±
èıľ åįķ
éĻª ä¼´
ä¼ļ å¯¹
ib le
åı¯ä»¥ ä»İ
æľĢ èĳĹåĲįçļĦ
çİĭ åĽ½
çıį æĥľ
éĺ¿ éĩĮ
I N
ç½ ¢
åį¡ å°Ķ
å¤§ çĨĬçĮ«
è´ ¼
å¥½ å¥½
y ou
å¦¹ å¦¹
es is
ä¸ĢäºĽ äºº
æ· ĺ
å®¶ ä¹¡
æŁ ´
åı¸ é©¬
éļĲ èĹı
æĴŃ åĩº
åĽ Ĭ
ä¸ Ļ
å°ĳ å¥³
æĹł éľĢ
çĽ¸äºĴ ä½ľçĶ¨
æł ı
è¾ °
ä¸į åľ¨
çİ© åħ·
çĿĢ ä¸Ģ
ä»£ æĽ¿
as e
è¾¹ ç¼ĺ
è¿Ļ åľº
çº¿ ä¸Ĭ
çł į
åĵª ç§į
å¾Ĺ ä»¥
æĪĸ ç¼º
Ġ å°Ĩ
æĸĩåĮĸ çļĦ
è¯Ńæ³ķ éĶĻè¯¯
åĤ ²
æĺ¯ çļĦ
ä¸į æĥ³
èĻ ¾
æĤ¨ éľĢè¦ģ
å¹¶ è§£éĩĬ
ç§ĳæĬĢ åħ¬åı¸
ä¿¡æģ¯ çļĦ
h e
ä»»åĬ¡ çļĦ
åĽ¾ çīĩ
åıĳçĶŁ äºĨ
ä¼Ł å¤§çļĦ
æİ¢ æµĭ
åĴĮ æĹ¶éĹ´
æ²Ļ æ¼ł
åħ·ä½ĵ æĿ¥è¯´
ä¸İ åħ¶
çĵ £
äºº éĻħ
éĿŀå¸¸ å¥½
äºĨ ä»ĸ
éĶ¦ æłĩ
åģ¥åº· éĹ®é¢ĺ
æģĲ é¾Ļ
ä¸»è¦ģ æĺ¯
éĩİçĶŁ åĬ¨çī©
æºĲ èĩª
ä¹Ł èĥ½
æīĢ è°ĵ
çī© èģĶç½ĳ
ä¿® æŃ£
æĢ§ éĹ®é¢ĺ
æĸ¹æ³ķ æĿ¥
è´Ŀ åı¶æĸ¯
æ¯« ç±³
ä½Ĩ å®ĥä»¬
ç¿ Ķ
çĤ ī
çļĩ åĲİ
å¤§ æ¥¼
all y
å¤§ æķ°æį®
çĵ¦ å°Ķ
æ° ¨
çī©ç§į çļĦ
èĩª è½¬
å¾· éĩĮ
ä¸ľ æĸ¹
åıĳçĶŁ çļĦ
c ess
åĽ¾ æ¡Ī
æµ ´
çİ° æľī
åĽ¾ å½¢
ä¹Ĳ åĽ¢
å²© çŁ³
æĪĳä»¬ åľ¨
æĤ² ä¼¤
çļĦäºº çī©
Ġw e
å¹¿ è¥¿
åĨ¬ å¤©
èĸ Ľ
M L
èĳ£ äºĭ
ä¿ĿæĬ¤ çİ¯å¢ĥ
è´µ çļĦ
äººç±» è¯Ńè¨Ģ
ä¼ļ çļĦ
æ¡ ¶
çİ© èĢį
éļ¾ å¿ĺ
åıª è§ģ
æĪĲä¸º ä¸Ģä¸ª
è¡ ¬
åħ¬ äº¤
è¾¾ æĪĲ
åĪ¶ æĪĲ
å¤§ éģĵ
æĸ¯ æĭī
æµģ è¡ĮçļĦ
ãĢ Ĳ
æħĪ åĸĦ
èıľ èĤ´
åħ¶ä»ĸ çļĦ
ä»¥ æŃ¤
æ¹ĸ åĮĹ
å° ¸
ç¤ ģ
åĴĮ å°ı
ç»ĺ çĶ»
ç¢³ æİĴæĶ¾
æĬĳ éĥģ
æľĢ å°ı
äººå·¥æĻºèĥ½ é¢ĨåŁŁ
æķı æĦŁ
åĲį åı«
ä¸»è¦ģ è§ĤçĤ¹
åĬ³ åĬ¨
çłĶç©¶ æīĢ
W eb
èĻ ¹
ãĢ ĳ
æĺ¯ ä¸ĸçķĮä¸ĬæľĢ
ç¬¬ åħŃ
å±Ĭ åħ¨åĽ½
æ± ª
ä¸Ģ æĿ¯
çĽ®æłĩ æĺ¯
èĩ³åħ³ éĩįè¦ģçļĦ
éĻĮ çĶŁ
æĶ¯æĮģ åĴĮ
å½ĵ ä½ł
å¥¥æŀĹåĮ¹åħĭ è¿ĲåĬ¨ä¼ļ
é¢Ħ è®¡
åĬ Ŀ
çİ°åľ¨ çļĦ
äººå·¥æĻºèĥ½ çļĦåıĳå±ķ
ä¹ĭ åŃĲ
B ob
å¼ı çļĦ
Ġ '
å°ĳ çļĦ
æ¸© æŁĶ
éĩį éĩı
ä¹Ĳ éĺŁ
é¢ĳ ç¹ģ
åĴĮ ä¼ĺåĮĸ
éĢ Ĺ
åı¯ä»¥ åĪĨä¸º
å·ŀ åºľ
æĽ´ æĶ¹
å¿ĥ è¡Ģç®¡
æłĩ çĤ¹
æł¹æį® æłĩé¢ĺ
æī ģ
çļĦ ä½ľåĵģ
è¯¯ å·®
è· Į
åĩº åıĳ
åį± æľº
100 0
æ£ķ èī²
åĢ º
é² ¨
ç¿»è¯ĳæĪĲ èĭ±æĸĩ
æ½® æµģ
æĸĩç«ł ä¸Ń
èªī ä¸º
åĮ Ģ
å°Ĩ å®ĥä»¬
çŀ¬ éĹ´
éĽ ĩ
æģ ¼
çļĦ èĬ±
åľ¨ æŁĲäºĽ
Ġm an
3 2
å½¢ çĽ®
ãĢ Ī
èĿ ´
æĸĩæľ¬ çļĦ
å¤§ èĩ´
çīĻ é½¿
å¥³ äºº
åĮº ä¸º
æĮ «
èĿ´ èĿ¶
ä¸Ģ ä»¶
åħ³ èģĶ
åĸ Ģ
éĿ¢ä¸´ çĿĢ
çİ« çĳ°
æĭĽ èģĺ
e op
çļĦå¤§ å°ı
ãĢ ī
Ġ Ċ
åİĨ ç¨ĭ
æľįåĬ¡ åĻ¨
èħ »
å¯¼ èĪª
éĶ Ĳ
çĥ ·
åĤ ¬
ä¹Į åħĭåħ°
æīĵ ç®Ĺ
çħ ¤
è°ĵ è¯Ń
è·Ł çĿĢ
æµ Ĩ
å¤ª åŃĲ
æİ¨èįĲ ç³»ç»Ł
å¼ºçĥĪ çļĦ
äººä»¬ å¯¹
éĢļè¿ĩ ä½¿çĶ¨
åŁİ åł¡
ä¸įåĲĮ ç±»åŀĭçļĦ
åĲ¦ åĪĻ
ç¾İ æĻ¯
è¿Ļ ä¹Łæĺ¯
äºĨ èµ·æĿ¥
åı£ è¯Ń
ä¸Ī å¤«
éĿ¢ è¯ķ
æł· åŃĲ
éĽ Į
...... "
è¯¥ åľ°çļĦ
åĪĹ ä¸º
åħ¶ä¸Ń ä¸Ģç§į
ä¾Ŀ æį®
199 9
ol d
çģ« è½¦
i x
çĶ» éĿ¢
èĥ½å¤Ł å¸®åĬ©
å¸Ĥ æ°ĳ
é£Ł æĢ§
th e
æķ° åĢ¼
åĬ £
èµĽ åŃ£
çļĦ å®ļä¹ī
æ´ Ĵ
ç»Ļ äºº
å·ŀ åĪºåı²
ä¿ĿæĮģ åģ¥åº·
å« ģ
å·² æľī
r es
å¼Ģ äºĨ
çŁ¿ çī©è´¨
éģ ®
åľ¨ ç»Ļå®ļçļĦ
ä¹ĺ å®¢
å¯Ĵ åĨ·
3 8
ä¸Ģ å£°
åľ¨ ä»ĸ
a u
åįĬ å²Ľ
åĤ ħ
æĺ¯ å¯¹
å½¼ å¾Ĺ
æĦŁåĪ° éĿŀå¸¸
æ·±åĪ» çļĦ
æ³ķ è§Ħ
e g
Ġf rom
e f
åľ£ æ¯į
rem ise
Ġ us
ç´§ å¯Ĩ
æľº éģĩ
è¯· æĢ»ç»ĵ
è¿Ľ äºĨ
ç»´ å°Ķ
ä¸»è¦ģ çļĦ
åīį æĿ¥
æī ĩ
åĲ ŀ
ä¸įåı¯ æĪĸç¼º
çĥŃ çĪ±
æ¼Ķ å¥ı
å¡ŀ å°Ķ
ç»ĵæŀľ è¡¨æĺİ
ç¬¬ä¸Ģ ä½į
éĺĲ è¿°
å¾Ĺ åĪĨ
å¼ķèµ· äºĨ
Ġ å¹´
çİĭ æľĿ
ç¼ĸçłģ ä¸º
ä¸Ĭ åİ»
åį· ç§¯
çĭ Ħ
è¿ĻäºĽ æĬĢæľ¯
éĿ¢ åīį
åĳ½ è¿Ĳ
é¥® çĶ¨
å´ İ
ä¹Ĳ è¶£
åĴĮ ä½¿çĶ¨
è¥¿ æ´ĭ
ä¸Ģ åĲĮ
æ° ®
è¿Ľ æĶ»
å°± èĥ½
çĽĸ èĮ¨
åľ ³
æŀľ å®ŀ
s on
ä¸Ģ çĶŁ
ç²¾ å½©
åıĺå¾Ĺ è¶ĬæĿ¥è¶Ĭ
m an
è¾ĥ é«ĺ
å®Ŀ å®Ŀ
æľī å®³
èĦ¸ ä¸Ĭ
le x
çļĦä¸Ģ åº§
è¾ĥ ä½İ
ä¸º é£Ł
åĪ¶éĢł ä¸ļ
å¹¶ ç¡®ä¿Ŀ
ä½Ĩ ä¹Ł
æłĸæģ¯ åľ°
ä½Ĩ ä¸į
an ce
éĥ Ĭ
é¦ĸ éĥ½
è¯ ±
æĶ¶ å½ķ
æģ Ń
è§Ĥ çļĦ
æľĪ äº®
éĻĦè¿ĳ çļĦ
éĻ ¨
è¶ħ è¶Ĭ
åĴĮ å¤ĦçĲĨ
in a
çĳŀ å£«
è¿Ļ åıª
ç¢ §
æł ª
18 6
åħ¬ å¼ı
çº¢ èī²çļĦ
èĪĴéĢĤ çļĦ
éģµ å®Ī
é«ĺ çŃī
ä¼Ĭ æĸ¯
åĴ± ä»¬
æĺ¯ å¦Ĥä½ķ
è¥¿ çĵľ
éĢļ è®¯
èĸ ª
çļĦ å°ıè¯´
ä»İ ä¸Ń
æ¯ı åĳ¨
å¸Ĥåľº ä¸Ĭ
çºł éĶĻ
å¿ĥ çģµ
æľĢ ä¸º
p s
éħį åĲĪ
C O
å§Ĳ å§Ĳ
å±± åĮº
éĴ ®
å½¢ çļĦ
å· ¢
çĪĨ çĤ¸
ç®Ģ åĮĸ
èĳ ±
m y
Ġ è¿Ļä¸ª
18 7
åĩºæĿ¥ çļĦ
é©¬ å°Ķ
åı¯ä»¥å¸®åĬ© æĤ¨
C E
çĶ¨ åĵģ
åĪ° åºķ
éĿĴ å°ĳå¹´
è¿Ļ ä»¶
è´¦ æĪ·
å®¶ ä¸Ń
æĺ¯åĲ¦ æľī
Ġ *
ç¥ŀç§ĺ çļĦ
è¡¥ åħħ
èıľ åĵģ
ç»ıéªĮ åĴĮ
æ°´ åĴĮ
å§ ľ
çİ° æĹ¶
æ´» è·ĥ
èĥ º
åįļ å®¢
Ġh as
æ°Ķ è±¡
æµ ©
æ¬¡ æķ°
çļĦ éĢŁåº¦
ä¿¡ çĶ¨
èĬĤ çľģ
é¢ĳ éģĵ
çļĦ åĲİ
èĲ¥éĶĢ çŃĸçķ¥
éĻ Ģ
èŃ¦ æĸ¹
åŃ©åŃĲ ä»¬
åĳĺå·¥ çļĦ
æ¶µçĽĸ äºĨ
éŁ µ
è½»æĿ¾ åľ°
è¿ĻäºĽ ä¿¡æģ¯
å°Ĩ ä¸ĭéĿ¢
æķ´ çĲĨ
åŁºæľ¬ çļĦ
å¤ªéĺ³ç³» ä¸Ń
9 9
198 0
åı¯ä»¥ èĢĥèĻĳ
è¯Ħ åĪĨ
åı£ åı·
æŃ ĩ
åĵĪåĪ© æ³¢çī¹
çĤ¹ çļĦ
éģŃ åĪ°
åģļ çļĦ
å¹¶ä¸Ķ åľ¨
åĴĮ ç»ıæµİ
æ£ µ
ä¸į åģľ
æºĲ äºİ
åľ¨å®¶ éĩĮ
çĸ ¯
è½¬ ç§»
å¥½ å¥ĩ
Ġh ave
éĽ¶ åĶ®
åĮħ è£ħ
é¢Ħ æľŁ
åĪĨ æķ°
å§ »
å¹´ å¤ıåŃ£
çĳŀ åħ¸
åĴĮ ä»ĸçļĦ
åħ¥ ä¾µ
er t
çĬ¹ å¤ª
åĪļ åĪļ
èŁ ¹
æ´» åĬĽ
çŃī å¤ļç§į
éĻĨ åĨĽ
å½± åĥı
ä»İ å°ı
å°¾ å·´
éª Ĥ
å¼ķ äºº
çİ°ä»£ ç¤¾ä¼ļ
é¥®é£Ł ä¹łæĥ¯
3 3
è¢« çĶ¨äºİ
ä¸ĭ ä¸Ģä¸ª
æ· ®
è¥¿ èĹı
ç¾İ æľ¯
ent ence
çľģ çļĦä¸Ģä¸ª
å¾Īå¤ļ äºº
e v
ç¥ŀ è¯Ŀ
ç¿ħ èĨĢ
å²Ľ å±¿
çŁ ®
åį° åĪ·
æĪ¿ åŃĲ
è´ ª
æıĲä¾Ľ ä¸ĢäºĽ
çĸĳ éĹ®
æł¹æį® æıĲä¾Ľ
yp oth
æĦŁ æ¿Ģ
äºĨ åĩł
å®ĥ æĺ¯ä¸Ģç§į
è¿Ľ ç¨ĭ
åŁİ éķĩ
é¢ ĸ
ä»ĸ è¯´
il y
äºº ç¾¤
èĽ Ļ
Ġ imp
æŀ ¢
ä»İ æľª
ç§ĭ å¤©
éĶ¦æłĩ èµĽ
Ñ Ĥ
èµ° åĪ°
ç§» æ°ĳ
è¾ ©
çº¢ æ¥¼
æĹ¶æľŁ çļĦ
ä¸Ģ åı¥è¯Ŀ
å®ĥ å°Ĩ
æĺ¯ä¸Ģ æ¬¾
ä¸ĩ äºº
åĸĦ èī¯
str ing
æıı åĨĻ
æĮĩ ç¤º
ä¸ĭ éĽ¨
éĤ£ æł·
åł ª
ç¼ĸ åı·
æĹħ å®¢
å¤ļ åħĥ
åı¯ä»¥ è¿½æº¯åĪ°
åı¯ è§ģ
or y
199 4
è¡Ģ æ¶²
åı¯ è§Ĩ
ãĢĤ ãĢį
ä¹Ł å°Ĩ
èĹ ©
è¿Ļç§į æĸ¹æ³ķ
æŃ¦ åĬŁ
çģµ æĦŁ
çĽ¸å¯¹ è®º
åĽł åħ¶
æĸĩçī© ä¿ĿæĬ¤
äºĭ é¡¹
æĹł çĽĳçĿ£åŃ¦ä¹ł
ä¸Ģ éĺµ
åĢĻ éĢī
æ¹ĸ æ³Ĭ
æĭĵ å±ķ
çĭ Ń
åĮĸçŁ³ çĩĥæĸĻ
ä¸Ĭ ä¸ĭ
å°ĳ æķ°
c i
åĨĻ åŃĹæ¯į
æ¶Ī åĮĸ
éĺ¿æĭī ä¼¯
ç§ĳæĬĢ çļĦ
çĶŁéķ¿ äºİ
è®© ä»ĸä»¬
çĸ¾çĹħ çļĦ
æľīæīĢ ä¸įåĲĮ
æ°´ åĪĨ
åĲįè¯į çŁŃè¯Ń
çłĶç©¶ åĴĮ
åĮ Ĩ
ç©¿ è¿ĩ
åĲ ģ
äº¤éĢļ å·¥åħ·
åľ¨ åħ¶
æľ¬ åľ°
èĹ »
åĪĨ åī²
å±ķç¤º äºĨ
æŀģç«¯ å¤©æ°Ķ
æĺĵ æĩĤ
çĽ ²
å¿Ĺ æĦ¿
ä»½ é¢Ŀ
ä¸Ģ é¦ĸ
ç§ĺ ä¹¦
I T
éŁ³ é¢ĳ
è·¯ æĺĵ
ç§ĭ åŃ£
ypoth esis
æĪĳ è¿ĺ
å¤ĩ åıĹ
æľºåĻ¨åŃ¦ä¹ł æĬĢæľ¯
ä¼ģä¸ļ å®¶
å· «
å»ºç«ĭ ä¸Ģä¸ª
éĿ¢ä¸´ çļĦ
ç¼ ł
åĳĪçİ° åĩº
eop le
ç²Ĵ åŃĲ
çĵ ·
è·Ł éļı
èļ Ĥ
å· ¾
åºŁ å¼ĥ
çī¹æ®Ĭ çļĦ
Ġf orm
ä¸º æĪĳä»¬
ä¸Ģ å¸¦
éĥ½ å¸Ĥ
æķĳ æı´
æ¶Ī éĻ¤
åĴĮ ä¸ªäºº
ç¦ģ æŃ¢
u g
è¦ģ çĤ¹
å®Įæķ´ çļĦ
éĢĶ ä¸Ń
éĺ ®
åĮº åĪĨ
åıĸ æ¶Ī
éĹ®é¢ĺ åĴĮ
åĪ© äºİ
éħį ç½®
çļĦ ä¸Ńå¿ĥ
æĺ¯ å°Ĩ
èĩ³ äºİ
èĵ ī
pr int
æĿ¥ å¸®åĬ©
ĊĠ Ġ
èĭ ¯
è± «
å¦ Ĩ
æŁ Ħ
å°ı çĭĹ
èī ĺ
ãĢį ãĢģ
åĲĦ åľ°çļĦ
5 5
å°Ĭ æķ¬
% ,
æī¿ è®¤
ens is
Ð »
çİ¯å¢ĥ æ±¡æŁĵ
çĿĢ æĪĳ
äºº å¤§
åħ¶ä¸Ń ä¸Ģä¸ª
å°± ç®Ĺ
éĴ ¦
åĴ ª
ç»Ļ ä»ĸ
æĭī åħĭ
å®¢æĪ· æľįåĬ¡
åĬł çĥŃ
ç¥ Ģ
å¸ĥ é²ģ
éĥ½ è¦ģ
å¦Ĥæŀľ æĪĳä»¬
æ±ī è¯Ń
èĲĿ åįľ
åĪĽ æĸ°çļĦ
åĨľ æĿĳ
ä¿ĥ éĶĢ
å®ī å¾·
æĸ¯ çļĦ
è¿Ĳ ä½ľ
ä¸ĭ å±ŀ
3 7
å·¥ äºº
èµ¢å¾Ĺ äºĨ
å°¼ æ³Ĭ
è®¾è®¡ çļĦ
å°ı å®Ŀ
åĢ ¡
å°º å¯¸
å¸ Ĳ
çĻ» å½ķ
å¥¹ ä»¬
æģĲ æĥ§
åıį å°Ħ
__ __
æĶĢ çĻ»
Op tions
4 6
å¿«éĢŁ åıĳå±ķ
çİ° ä»»
ãģ ®
è·¯ å¾Ħ
å®ŀéªĮ å®¤
ç¤¾äº¤åªĴä½ĵ å¹³åı°
æĪĳçļĦ å¿ĥ
ä¸Ń ä½¿çĶ¨
åľ¨ éĤ£éĩĮ
åİ» éĻ¤
éĩıåŃĲ åĬĽåŃ¦
æ³¢ åħ°
åĶ ĩ
æ¡Ī ä»¶
èĤ ļ
å»¶ ä¼¸
åŁº åľ°
è®²è¿° äºĨä¸Ģä¸ª
éĥ½ å¾Ī
ç½ĳ é¡µ
æĹ¥ çļĦ
åĴĮ å¯¹
äºļ åİĨ
è¿Ļæ®µ æĸĩåŃĹ
çº¢æ¥¼ æ¢¦
æµģ åĬ¨
æ²³ çķĶ
èģĶåĲĪ åĽ½
çĶŁæ´» ä¸ŃçļĦ
éŃ ħåĬĽ
æıĲä¾Ľ æĽ´å¥½çļĦ
éľĢè¦ģ ä½¿çĶ¨
çĺ ¤
æ¶ ¨
T r
åı¯éĿł æĢ§
å¯ ¨
ç¦ ħ
æķħ éļľ
A R
Ġp oss
åįĵ è¶Ĭ
æłĩçĤ¹ ç¬¦åı·
çģ« çģ¾
èĬĤ èĥ½
è´ ·
çĶ» å®¶
è¯· éĹ®
å¥ĩ æĢª
æĺ ı
é¢ ĩ
èĲ½ åľ¨
åĲ¬ èµ·æĿ¥
è¿Ļ ä»½
èµĦæºĲ çļĦ
çĶµåŃĲéĤ®ä»¶ åľ°åĿĢ
åİĺ ç±³
åĽŀ å¤į
it ion
èĮ «
ä»ĸ å¯¹
èĪª å¤©
ter n
åİļ çļĦ
ä½ľ åĩº
æľºåĻ¨åŃ¦ä¹ł çļĦ
ä½įäºİè¯¥ åĽ½
åĲĳ åīį
åıĳ çĶµ
Ġd o
äººå·¥æĻºèĥ½æĬĢæľ¯ çļĦ
å¤ ¸
èĭ į
ä¸Ģ äºº
å¯¼èĩ´ çļĦ
æº ĥ
è©¹ å§Ĩæĸ¯
åĲ¬ äºĨ
åħ¥ äºĨ
æľ¬ å±ŀ
åħ¨ æĸ°çļĦ
å¤ļ é¡¹
èĢĮ è¢«
æĬ Ľ
æķĻ ä¼ļ
çķª èĮĦ
å½ĵ æĪĳä»¬
åĽ½ ç«ĭ
æĻ¯ èī²
åĴĮ åģ¥åº·
æĪĺ å½¹
å» Ĭ
éģĹ åĿĢ
æľ¬ æĿ¥
éĥ¨ ç½²
æľºåĻ¨åŃ¦ä¹ł æ¨¡åŀĭ
æĤł ä¹ħ
ç¥ŀ å¥ĩ
Ġo ver
ä¸į åıĬ
éªĳ èĩªè¡Įè½¦
æĬ ¹
æ²¡æľī ä»»ä½ķ
ç Ģ
åį± å®³
æ¸ħ åįķ
æĽ´ æĺ¯
æĸĩçī©ä¿ĿæĬ¤ åįķä½į
ç«Ļ åı°
æĸ ¤
åįģ äºĶ
åħ³ å¿ĥ
çĸ¼ çĹĽ
èľľ èľĤ
Ġ Th
å°± åľ¨
è¿Ļ æľīåĬ©äºİ
æİ¥ ç§į
è®¢ åįķ
èģļ ä¼ļ
éĩįè¦ģ æĢ§
çī¹å¾ģ æıĲåıĸ
åŃ¦ çļĦ
å·´ å£«
ä½ł è®¤ä¸º
å¨ģ å°Ķ
é² į
æ³° åĿ¦
ç¨ »
æľī ä¸¤ä¸ª
è§£ çŃĶ
åĮ»çĸĹ é¢ĨåŁŁ
éľĢè¦ģ å¯¹
éĥ½ è¢«
ä¸į å¦Ĥ
è£ ķ
åħī ç»ª
é»Ħ éĩĳ
c l
ç»ĵ å±Ģ
çĽĳ çĭ±
ç¨³å®ļ æĢ§
æ¼Ĥ äº®
çļĦ çĪ±
æıĲä¾Ľ æĽ´
å¹´ çĶ±
é«ĺ æ¸©
çļĦ ä»£è¡¨
åľ¨è¿Ļä¸ª åı¥åŃĲä¸Ń
å¤į åħ´
èļĤ èļģ
ç´ł è´¨
å¸Ĥåľº çļĦ
æĢ»éĥ¨ ä½įäºİ
å¹´ åĲİ
æľĿ å»·
çĹ ķ
é©¬ éĩĮ
çĶµ åĬĽ
èĬ ¯
ç¼ĸ åī§
æłĳ åı¶
äººä»¬ åı¯ä»¥
è¯ĨåĪ« åĴĮ
éĢĿ ä¸ĸ
æĲ ŀ
æĭħ å¿§
çĭ¬ èĩª
æĿĲ è´¨
å¤§ å¸Ī
åĤ »
å¤© æĸĩ
åĦ Ĵ
å¤ĦçĲĨ åĻ¨
ãĢĭ( "
å½ĵ å¹´
å»º æĪĲ
æ¯Ķ åĪ©
eb ook
ç«ŀäºī åĬĽ
Al ice
çľĭ çĶµå½±
åĩ ¶
æĬ½ è±¡
éĥ¨ ä»½
æĿ¥ è§£åĨ³
æĪĳ å°Ĩ
å·² è¢«
åħ¶ä»ĸ äºº
ç¾İåĳ³ çļĦ
å¸ ĸ
éĿŀå¸¸ åĸľæ¬¢
äº§åĵģ æĪĸæľįåĬ¡
æĮī éĴ®
è¿ Ń
éĩĳ çīĮ
æī¹ åĩĨ
A nd
åįģ åħ«
åħ¬åħĥ åīį
åĴĮ äººç±»
åįķ çĭ¬
é³ Ħ
èĩªæ²» åĮº
å¿ĥ æĢģ
å¯¹ æĬĹ
æĤ£ èĢħçļĦ
ä»¥ åĩıå°ĳ
åĿĩ è¡¡
è¢« èªīä¸º
çļĦ æīĢæľī
æ¯ķä¸ļ åĲİ
Ġ å¦Ĥæŀľ
æľ´ ç´ł
äºº ä¸º
ç®Ģæ´ģ æĺİäºĨ
çī ¢
æĿĢ æŃ»
è®Ńç»ĥ åĴĮ
çļĦ æ®µèĲ½
åĲĥ é¥Ń
é²¸ é±¼
ä»ĸ ä¹Ł
å½ĵæĹ¶ çļĦ
åĩº ä¸Ģä¸ª
åĲ ¾
å¹¶ ç»Ļåĩº
æŃ£ æĺ¯
æıĲé«ĺ äºĨ
åº· çĨĻ
ä¸Ģ ä¸ĸ
åĽ¢éĺŁ åĲĪä½ľ
Ġa b
çŁŃ æļĤ
ç² ĺ
çĶµåĬ¨ æ±½è½¦
å°Ĩ æĸĩæľ¬
çºł æŃ£
æľº åħ³
å¹´ å¼Ģå§ĭ
åĬł å·ŀ
åĲ¸å¼ķ äºĨ
ä¸´ åºĬ
ç©¿ è¶Ĭ
å¤§éĩı çļĦæķ°æį®
ç½Ĺ çĲ³
åĲĦ åĽ½
çĶ· å£«
åĩł å¤©
åı¯ä»¥ çĶ¨
è¥¿ åħ°
è´¢ äº§
ä¾ ¦
ä½ĵ åŀĭ
éĢłæĪĲ çļĦ
ä¸ ŀ
æľĪ åįĩ
æħ¢ æĢ§
å¤´ éĥ¨
æĿĥ åĪ©
åĪĨ è¯į
éŁ §
3 4
äº¿ ç¾İåħĥ
ä»ĺ åĩº
çļĦ é¢ĨåŁŁ
ä¸ĭ è½½
å¥¥è¿Ĳ ä¼ļ
ä¸Ģ è¯į
æ¦Ĥ è¦ģ
å¹¶ ä»¥
è¯¥ æĸĩç«ł
n i
æľºåĻ¨åŃ¦ä¹ł æĺ¯
æī Ń
åľ°çĲĥ ä¸Ĭ
ç¬¬ ä¸ĥ
æĽ¾ ç¥ĸ
éĿŀå¸¸ å¹¿æ³Ľ
æĶ¿ åįı
å® ´
èĤī ç±»
A T
çª Ŀ
åĸ ī
å½ĵ ä¸Ń
æ·± åľ³
çļĦ å®īåħ¨
Ġt ell
å®ĩ èĪª
åįģ åħŃ
éķ¿ åŁİ
åĨ »
éĹ¨ åı£
æ¨¡æĭŁ äººç±»æĻºèĥ½
d uc
æĪĳ çŁ¥éģĵ
å¼Ģå§ĭ äºĨ
æī¿ æĭħ
th er
' t
åİĭ ç¼©
éĽĨ æĪĲ
çĶ¨æĪ· åı¯ä»¥
å¾Ĺ çŁ¥
è¡¨ è¿°
è£ħ å¤ĩ
it t
ãĢ İ
åŀ «
æ¡Ī ä¾ĭ
éĻĲ äºİ
ç©ºæ°Ķ æ±¡æŁĵ
æĪĲä¸º ä¸ĢåĲį
ä»ĸ è¿ĺ
çļĦä¸Ģä¸ª éĩįè¦ģ
æĺ¯ ä»İ
åĵ Ģ
ä¸ĸçķĮ å¤§æĪĺ
m a
å±Ĥ çļĦ
å½¢æĪĲ çļĦ
å§ Ĭ
202 4
å½ ¦
ä¸´ æĹ¶
èķ ¾
ç³ Ł
æ°ĳ éĹ´
æĺŁ æĺŁ
çİĩ åĴĮ
èĢħ åĴĮ
éĩĩçĶ¨ äºĨ
èĢģ å¹´
æıŃ ç¤º
èº º
é¥ ¿
åľ¨ ä¸Ģ
æĹĭ å¾ĭ
äººæ°ĳ æĶ¿åºľ
å°ģ éĹŃ
çļĦ è´¨éĩı
ãĢ ı
199 6
æĺİ æĺŁ
é¢Ĩ åħĪ
å¥¥æĸ¯ åį¡
ä¹Ķ å¸ĥæĸ¯
é¦ ¨
åĲİ éĿ¢
in k
æĶ¯ æµģ
åı¯èĥ½ åĮħæĭ¬
æĺŁ ç³»
èĲ¨ åħĭ
çĶŁæĪĲ æĳĺè¦ģ
ab le
å±ŀçļĦ æ¤įçī©
Ġposs ible
å»ºç«ĭ äºĨ
Ø §
éª¨ éª
æľĪ çļĦ
ç£ ·
ä¸¤ ä½į
æĿĥ éĩį
çł ĸ
åī Ĭ
æ®ĸ æ°ĳ
ä¹Ł æĺ¯ä¸Ģä¸ª
æĺ¯ ä¸įæĺ¯
åĬł åī§
æľī ä¸ª
åīį è¿Ľ
å¹³ éĿĻ
éĴ ¥
é¢Ħ æĬ¥
åĤ¨ åŃĺ
", "
è£ħ ç½®
åŃĺåľ¨ ä¸ĢäºĽ
çł Ĥ
å§ ¬
æļ ĳ
é¡º åĪ©
è¡¨ æł¼
æĲº å¸¦
äººä»¬ åľ¨
åįģäºĮ å¹´
A pple
æľī æĦıä¹ī
åħ¬ æ°ĳ
å¸¦ é¢Ĩ
æĶ¶ èĹı
å¤§åŃ¦ çļĦ
ç»Ļ æĪĳä»¬
åŃĹ çļĦ
ç»´ äºļ
åı¦ä¸Ģ æĸ¹éĿ¢
is s
æĺİç¡® çļĦ
W indows
éŁ¦ å°ıå®Ŀ
å¥³ ç¥ŀ
ic a
è¯¦ç»Ĩ åĽŀçŃĶ
åİŁ åĲį
éĢ ¢
æľĢ éĢĤåĲĪ
å¼Ł åŃĲ
åıĮ æīĭ
å¤§ å¤«
è° ¦
çĪ ¹
èµ İ
åĪĨ æķ£
éĵ¾ æİ¥
å°¼æ³Ĭ å°Ķ
ç¡ķ å£«
æĹħ ç¨ĭ
æĪĳ è¯´
å¤± åİ»äºĨ
å®¶ åħ·
åıĻ è¿°
äº§åĵģ åĴĮæľįåĬ¡
åĴĮ è°Ĳ
ä¸Ģ ä¼ļåĦ¿
çĽ¸ä¼¼ åº¦
éĩį åºĨ
il d
åŃĹ ä½ĵ
æİ¨ ç§»
åįĹæŀģ æ´²
å¤ļ ä¹Ī
3 9
åı¸ ä»¤
æľª èĥ½
æĵħ éķ¿
åĲĪçĲĨ çļĦ
éĢīæĭ© ä¸Ģä¸ª
çļĦ åħ¬åı¸
ç½ĳ çĲĥ
åĪĽéĢł åĬĽ
å·¥ä½ľ ä¸Ń
å¼ķ ç§į
çļĦ è§Ĵèī²
æĺ¯ éĿŀå¸¸éĩįè¦ģçļĦ
ä¸į ç¡®å®ļ
åįģ ä¸ī
a i
çļĦ åħ·ä½ĵ
å¢ŀåĬł äºĨ
çļĦä¸» æĹ¨
åĽł èĢĮ
ac ebook
æŀ¶ æŀĦ
æŀ ¯
åı¯ è¯»
ä¸Ĭ ä¸Ģ
åħ¬ æŃ£
æīĢ å±ŀçļĦ
å¤ĦçĲĨ åĴĮ
è¿Ļä¸ª äºº
Ġn o
æľĭåıĭ ä»¬
è¶ħ å¸Ĥ
çģ¾ éļ¾
æķ°æį® æĿ¥
åµ Į
æ¾³ éĹ¨
ãĢģ ãĢģ
199 5
l es
å©ļ å§»
çĶŁ åĬ¨
ä¸ªæĢ§ åĮĸçļĦ
at ed
åĬ «
åįł æį®
æĹ© æĻ¨
æĪĸ è®¸
å± ¯
ä½ľ æĪĺ
æĸ° æĬĢæľ¯
èĢĥèĻĳ åĪ°
å°½ å¿«
äºĨä¸Ģ ç³»åĪĹ
of t
åĽ¾åĥı åĴĮ
äº¤ å¾Ģ
éĵ Ń
åĵ¥ ä¼¦
å±ķ è§Ī
ä¸º åħ¶
å¤§ ä½¿
éª¨éª ¼
à ¤
æ³ķ åħ°
çĶ± äººå·¥
èģĮ è´£
am p
æ°´ åŁŁ
æĶ¹ åĪ¶
é©¬ ä¸Ĭ
æĶ¯ æĴĳ
ä»ħ ä»ħ
æķ£ å°Ħ
æıĲ åıĬ
8 6
åĩ ¸
Ġth is
æĸ¯ åŁº
èı² å¾ĭ
ä»¥åıĬ å¦Ĥä½ķ
å¤§ ä¼Ĺ
ig n
å¯¹ æĪĳä»¬çļĦ
å»¶ éķ¿
èı²å¾ĭ å®¾
èĢ³ æľµ
è¿ĺ æ²¡æľī
æĪĳ åİ»
l l
æ²³ çļĦ
ou ld
åĸ Ĥ
4 00
æ¤ Ń
ç²¾ åº¦
å§Ķ ä¼ļ
çļĦ è¿ĲåĬ¨
ä¹Ł è¦ģ
çī¹åĪ« æĺ¯åľ¨
ang e
æŀģ å¤§çļĦ
çĳ ļ
çİ° çĬ¶
åıĤåĬł äºĨ
è´Ł æĭħ
ç»¿ èī²çļĦ
åĲĦç§į åĲĦ
åĪ¶éĢł åķĨ
çľ¼ æ³ª
èĤ ¾
èĬ ½
å¹² çĩ¥
å®ĥä»¬ æĺ¯
æĽ °
æĹ¶éĹ´ ç®¡çĲĨ
å®ĮæĪĲ äºĨ
å½¢æĪĲ äºĨ
å°ıè¯´ çļĦ
A n
æ¾³ æ´²
èĩ Ģ
åĬŁèĥ½ åĴĮ
æĿ¥èĩª äºİ
é¢ľ èī²çļĦ
å¯¹ æ¯Ķ
è¯ŃéŁ³ åĬ©æīĭ
ä¸Ģæ®µ æĸĩæľ¬
( ,
ç¨³ å®ļçļĦ
åĪ° æĿ¥
å¾Ī å®¹æĺĵ
éĥ½ éľĢè¦ģ
åĩĨç¡® æĢ§åĴĮ
ä»¥ éģ¿åħį
ol og
ä¼ļ è¢«
åĲį åįķ
å·²ç»ı åľ¨
åĪĨå¸ĥ åľ¨
æĶ¾ ç½®
å½ĵ ä»£
4 7
f er
æĹł æķ°
çĽ¸ æľº
äººå·¥æĻºèĥ½ çļĦåºĶçĶ¨
åİĨ ä»»
éĩįè¦ģ ä½ľçĶ¨
çļĦ æľĢ
æĺ¯ ä½ł
en c
æł¡ éķ¿
åįĹ æĸ¹
æĬķ ç¥¨
åĶ ¤
æĺĵäºİ çĲĨè§£
å¾® è½¯
çķĻ åľ¨
é² ¤
å£ ¶
å¾Ĺ åĲį
å¸Ĥåľº ä»½é¢Ŀ
æŀģ åħ¶
ä¸º æŃ¢
éĿ¢ ä¸Ĭ
ä¸»é¢ĺ çļĦ
å®ļ çĲĨ
çļĦéĩįè¦ģ ç»ĦæĪĲéĥ¨åĪĨ
æĬĬ æĪĳ
æŁ ł
èĥĮ é³į
çĶµ åĻ¨
å¹¶ æľª
è´µ å·ŀ
å¹¿æ³Ľ åºĶçĶ¨äºİ
çĶµ åķĨ
æ© ¡
y s
ç¬Ķè®° æľ¬
ä¸ĵä¸ļ çļĦ
re e
å¥½ åıĭ
GP T
ç²¾ åĩĨ
å¼ķç§į æł½åŁ¹
S S
è°¨ æħİ
è¿Ļ æĿ¡
æľī ä¸įåĲĮçļĦ
èĮ İ
ç»´ å¥ĩ
éĢļå¸¸ çĶ±
äºĭä»¶ çļĦ
è®¾è®¡ å¸Ī
ç§ĳ åĬ¨çī©
é¹ ¤
æ·¡ æ°´
å¸Ī çĪ¶
éĥŃ éĿĸ
æĿĳ åºĦ
åĩıè½» åİĭåĬĽ
æ¸´ æľĽ
çļĦ çĬ¶æĢģ
åıĳ èĤ²
æ¨ ±
éļ¾ éģĵ
æĬ± æŃī
éĤ£ æĹ¶
èĴ ĭ
ç®ĢçŁŃ çļĦ
ä»İ æĿ¥
ä¸¤ æ¬¡
ä¸ŃåĽ½å¤§éĻĨ çļĦ
å¸Ĥ åĮº
çĶµåŃĲ è®¾å¤ĩ
åĶ± æŃĮ
å¾Ī é«ĺåħ´
æĢĢ çĸĳ
ç§į æĹı
äºĮ ä¸ĸ
å¿½ çĦ¶
ä¸Ģç¯ĩ åħ³äºİ
çº§ åĪ«
äºº æīį
æī¿ è¯º
æıĲ åīį
å¯ ŀ
åı¥åŃĲ ä¸ŃçļĦ
ou nd
éĩĩåıĸ æİªæĸ½
çĶ±äººå·¥ å¼ķç§įæł½åŁ¹
ä»¥ä¸ĭ æĸĩæľ¬
åĲ¯ åıĳ
éĴ ĵ
éľĢè¦ģ æĽ´å¤ļçļĦ
å¤ı å¨ģ
å¾Ī å°ĳ
çļĦ æĹ¶
çª ĥ
ç½ĳç»ľ å®īåħ¨
å¤ıå¨ģ å¤·
ä»¥ ä¸ĬçļĦ
çĽ¸ éģĩ
æ¦ Ħ
çĶŁ æ°Ķ
çļĦ ä¸Ń
å¤© åłĤ
ãģ Ħ
ä¿ ©
èĭı æł¼åħ°
ä¸½ èİİ
çİ¯ä¿Ŀ çļĦ
ä¸Ģ æľ¬
æķĮ äºº
èĩ Ń
æĺ¥ èĬĤ
æĭ Į
è½ °
æıĲ åĲį
ä¸¤ ä¸ªäºº
n a
å»º æ¨¡
è¥ Ħ
ç±³ å°Ķ
Ġa d
è¿Ļç§į æĬĢæľ¯
ä½ł è¦ģ
æĪĳä»¬ å¿ħé¡»
æİĪ äºĪ
æĿİ æĺİ
ä»ĸ è¢«
ä½ı å®ħ
åĴĮ çłĶç©¶
çļĦ é£İæł¼
é¢ ł
çŃī ä¿¡æģ¯
è¡Į èµ°
æ´»åĬ¨ çļĦ
ç¬ĳ éģĵ
éľ ľ
çĶ± æŃ¤
æĸĩ ä¸Ń
åĩł åįģå¹´
å¹³ çŃī
ver y
è´µ æĹı
ä¾¿ æĺ¯
éĢīé¡¹ ä¸ŃéĢīæĭ©
ç»Ļå®ļ çļĦä¸Ģ
çļĦ åĳ³éģĵ
æĻ ĥ
ç¥ ¸
æĪĲ ä¸Ģä¸ª
ç§ĳåŃ¦ çłĶç©¶
ä¸į åıĺ
è¯ ı
æĪª èĩ³
çī¹ æľī
æĹģ è¾¹
æĶ¾ åħ¥
ä¾į éĥİ
N BA
çĽ®åīį å°ļæľª
ä»£ çĲĨ
ä¼ļ å½±åĵį
æĺ¯ä¸Ģä¸ª éĿŀå¸¸
èĲ¥åħ» ç´ł
èģĮ åĬ¡
åĿ ª
åıĤä¸İ èĢħ
æķħäºĭ æĥħèĬĤ
è¯Ńæ³ķ åĴĮ
å©´ åĦ¿
ä½Ĩ çĶ±äºİ
Ġ 5
ä¸º æĪĳ
æĥ ¨
çĶµå½± è¯Ħè®º
æª ¬
æ³°åĿ¦ å°¼åħĭ
åħ¬ å¹³
èĵĿ èī²çļĦ
åıĳ éŁ³
åĲ¬ å¾Ĺ
éļıçĿĢ æĹ¶éĹ´çļĦ
éĢļ éģĵ
æĸ° åħ´
å¹¿ éĺĶ
åı¯æĮģç»Ń æĢ§
ä¸º çĶ¨æĪ·
å¤± ä¸ļ
æĹ¶ä»£ çļĦ
Ġ æıĲä¾Ľ
å¤įæĿĤ åº¦
ãĢįãĢģ ãĢĮ
19 50
çļĦ åģ¥åº·
çıĬ çĳļ
ä»¥ä¸ĭ æ®µèĲ½
ä¸º æŃ¤
çŃī ä»»åĬ¡
æ¸ħ æĸ°
ä¿¡ å¿ĥ
æ³°åĿ¦å°¼åħĭ åı·
åħ¶ åľ¨
ä»ª å¼ı
æĦı å¿Ĺ
æĸ° æ¬¾
ä¸Ń å±±
åķĨ äºº
çļĦ çĿ¡çľł
å½» åºķ
æĢ» çĲĨ
æĦ ģ
W h
èĢĮ æĿ¥
ç¹ģ èį£
æĦıæĢĿ æĺ¯
åħ´ å»º
åĿĩ åĮĢ
J R
S p
åħ¨ èº«
åŁºç¡Ģ è®¾æĸ½
çļĦ åħī
æŃ¤ ç«Ļ
åĵģçīĮ çļĦ
ä¸ĭè¾ĸ çļĦä¸Ģä¸ª
åĳ µ
å¤ĸ å¥Ĺ
çĶĺ èĤĥ
ä¼ĺ éĽħ
æŁł æª¬
çļĦ æİĴæĶ¾
ä¸Ģ é¢Ĺ
æĿ¥ ç¡®å®ļ
ç¥ ł
åħĭ éĩĮæĸ¯
åĴĮ æĽ´
è¯Ńè¨Ģ çļĦ
æĶ¶ è´Ń
æľįåĬ¡ åĳĺ
æĬķèµĦ èĢħ
æ¨¡åŀĭ è¿Ľè¡Į
åŃ¦ å£«
éħį å¤ĩ
è¸ ¢
å¸ĥ å±Ģ
å¤§ åİ¦
å°± è¦ģ
éĶĻè¯¯ çļĦ
æĥħ æĻ¯
) ;
çģ¯ åħī
æľī åı¯èĥ½
ç»Łè®¡ åŃ¦
ä¸ī äºº
æľīä¸Ģ æ¬¡
çľ¼ åīį
å°Ķ åħ°
ä¸İ æŃ¤
æł¹æį® æıĲä¾ĽçļĦ
ç¼ħ çĶ¸
é©¬ æĸ¯
èĸ ¯
è¿ľ çļĦ
ä½ı åľ¨
é¥ ²
çķĮ çļĦ
æ©Ļ èī²
5 6
ur n
à ½
åĴĮ åĪĽæĸ°
å®ŀ åľ¨
æĸĩç«ł çļĦ
å· ·
L E
S h
å¸ĥ æĭī
çĶŁæ´» ä¹łæĢ§
æ· ĩ
ç² ¹
é«ĺéĢŁ åħ¬è·¯
ä¸Ń å¼ı
éļ¾ é¢ĺ
m er
èģļ éĽĨ
èĦĬ æ¤İ
äºº æķ°
è¶ĬæĿ¥è¶Ĭå¤ļ çļĦäºº
åĲ µ
è°ĥ åĳ³
åĴĸåķ¡ åĽł
i er
åĳ½ åĲįä¸º
æľªæĿ¥ åıĳå±ķ
ç²ī ä¸Ŀ
èµ° è¿Ľ
åĽ½ åĬ¡
æ²¿ æµ·
å»º åĪ¶
å¯¹åħ¶ è¿Ľè¡Į
éĥ½ æ²¡æľī
æ²Ļ åıĳ
æ³ Į
çĶŁéķ¿äºİ æµ·æĭĶ
çļĦ äºĭ
åıĺæĪĲ äºĨ
ä¼ģ é¹ħ
æĶ¶ çĽĬ
åĵ ĩ
ãĥ ¼
åįł é¢Ĩ
äºº å¿ĥ
æľĢè¿ĳ çļĦ
ä¸» äºĭ
è¿Ļä¸ª æķħäºĭ
ä¸º ä½ķ
åª ļ
æ²³ éģĵ
ä¼ļ è¯ķ
å·²ç»ı è¢«
ç±³çļĦ åľ°åĮº
åĴĮ å¤§
åŃ¦ä¹ł ç¼ĸç¨ĭ
åĳ¼ åĲģ
æĿ¨ è¿ĩ
çĽ´ èĩ³
ä¸¤ä¸ª åı¥åŃĲ
ä»ĸ ä¸İ
è¿Ļä¸ª æĸĩæľ¬
H T
äºļ çĽ®
åĳ¨åĽ´ çļĦ
æľī æ²¡æľī
ä¹Ł éĿŀå¸¸
èĻļ æŀĦ
èĤ¡ ä»½
ç»ıåİĨ äºĨ
æľĢ é«ĺçļĦ
äººèĦ¸ è¯ĨåĪ«
æĿİ åĽĽ
å¹½ é»ĺ
8 8
åľº ä¸Ĭ
åĽ½ ä¼ļ
èĪ Ł
éļ §
åĴĮ æıĲé«ĺ
è¡Į äºº
å®ŀçİ° äºĨ
éĥ¨ çļĦ
ç»Ļåĩº ä½łçļĦ
ä¿ĿæĬ¤ æĪĳä»¬çļĦ
ä¸Ģ åı¥
ä»İ ç»Ļå®ļçļĦ
è¤Ĳ èī²
åıª å¥½
åŀĥåľ¾ åĪĨç±»
è°ĥ çĶ¨
ä¹¡ æĿĳ
åĩº éģĵ
çļĦ è¡¨çİ°
ä¸į è¶ħè¿ĩ
çļĦ åĦ¿åŃĲ
æĪĳ çĽ¸ä¿¡
éĢļå¸¸ è¢«
æĸ¯ å¡Ķ
è®® éĻ¢
çİĩ é¢Ĩ
ä¿ĿæĮģ èº«ä½ĵåģ¥åº·
å¹³æĸ¹ åįĥç±³
è¯·åĽŀçŃĶ ä¸ĭéĿ¢çļĦéĹ®é¢ĺ
åĴĮ ä¿¡æģ¯
at ural
å®Į ç¾İçļĦ
å£« åħµ
çļĦè¯Ŀ é¢ĺ
æľī ä»·åĢ¼
Y ou
æ¨¡åŀĭ æĿ¥
å¤į åĲĪ
çĶŁæĪĲ ä¸Ģæ®µ
æĪĳ æĹłæ³ķ
ä¸Ĭ å¸Ĥ
ä»ĸ äººçļĦ
è®° ä½ı
ä» ķ
çļĦå¥½ å¤Ħ
ç²¾ èĩ´
æĻº åĬĽ
äººéĻħ åħ³ç³»
æľĢ å¤ļ
at ch
çĭ¬ç«ĭ çļĦ
åĮ Ī
ä¸ŃåĽ½ äººæ°ĳ
çº§ çļĦ
èĥ Ģ
ä¼ģä¸ļ çļĦ
èĨ ³
åģ ¿
199 2
å°Ķ çī¹
ä¿® å»º
èĢĮ éĿŀ
æĪĳ å·²ç»ı
er v
æĿ¡ çº¦
éĩĳ å±±
å¸ Ĩ
å¸®æĪĳ çĶŁæĪĲ
ç¥ĸ åħĪ
æ¿Ģ åĬ¨
æ¨¡ ç³Ĭ
èī² åĪĹ
Ġ ac
éŁ³ä¹Ĳ çļĦ
éģĩ è§ģ
å¤§ å£°
åı¯è§Ĩ åĮĸ
åħ¶ ä½Ļ
è¿Ĳ ç®Ĺ
è´¢ æĶ¿
æĥ ©
åĲİ æľŁ
æīį åįİ
åı¸ æľº
è¦ģ ç´ł
åĪĽæĸ° åĴĮ
åĭ ¾
y st
å°¤åħ¶ æĺ¯åľ¨
äººå·¥æĻºèĥ½ æĺ¯ä¸Ģç§į
ä¹Ł ç§°ä¸º
çļĦ åŃ¦ä¹ł
æĢ» çĿ£
åĪ¶ çļĦ
èĵ ¬
æĳĩ æ»ļ
åĩł ä½ķ
æĹħæ¸¸ æĻ¯çĤ¹
A N
è¿½ è¸ª
ä¾ĭåŃĲ ä¸Ń
åģļ äºĨ
çļĦä¸Ģ é¡¹
èº« é«ĺ
è¾ĥ é«ĺçļĦ
çĥ ¯
çĹħ äºº
èĤ¥ èĥĸ
æĮ« æĬĺ
åīį éĿ¢
ä¸ľ åįĹéĥ¨
ä½¿è®¡ç®Ĺæľº èĥ½å¤Ł
ä½įäºİ æ³ķåĽ½
æĶ¿åºľ åĴĮ
ç¾İåĽ½ çļĦ
4 2
æŃ£ åĪĻ
é¸ ¿
ä»¤ çĭĲ
åĪĨå¸ĥ å¼ı
æķ° åįģ
åĴĮ é¢Ħæµĭ
éĢ ¸
æīĵ çł´
èĢĮè¨Ģ ä¹ĭ
ä¸½ çļĦ
è¿ĻäºĽ æķ°æį®
op h
ç»ıåħ¸ çļĦ
ä¸Ģ éĥ¨åĪĨ
Ġd og
è¡Įä¸ļ çļĦ
æĢĿ è·¯
åľ° è´¨
ä¸İ äººç±»
åĲĮåŃ¦ ä»¬
æľ´ç´ł è´Ŀåı¶æĸ¯
åħ³æ³¨ åĴĮ
æĢĿèĢĥ åĴĮ
ä» Ĩ
åĴĮ æĪĳ
æ¨¡åŀĭçļĦ æĢ§èĥ½
åĲİ èĢħ
ä¸į å¿ħè¦ģçļĦ
æ±ī åŃĹ
æ² ®
åľ° å¸¦
i um
å¥¥ åľ°
æ²Ļ æĭī
çīĩ æ®µ
è° ľ
ç«¥ å¹´
åĺ Ľ
ç¨ĭåº¦ ä¸Ĭ
åĳ½åĲį å®ŀä½ĵè¯ĨåĪ«
æĸ° çĸĨ
çĮ ©
æįŁ å®³
å¸¸ çĶ¨
æķ ²
ç¾İ å¦Ļ
æĹ¥ æ²»
è¿Ļ åĮħæĭ¬
Ġ +
æķĻ å®¤
ear ning
i el
çļĦ æĢ§èĥ½
æĽ´ åĲįä¸º
å¤ĸ åĽ½
ä¸¤ èĢħ
åĬł æ²¹
ç«ĭ æ³ķ
æŃ» åĲİ
æīĵ åĩ»
çľģçļĦä¸Ģä¸ª å¸Ĥéķĩ
é£İ åĲ¹
èª ĵ
Ġ ç¡®å®ļ
æĹĹ ä¸ĭ
ç±» çļĦ
å¯¹ åºĶ
è§Ĥ èµı
p ython
å¯Ĥ å¯ŀ
ä¹Ĳ åĻ¨
çļĦ æķĪæŀľ
åı¯ çĶ¨
æİ ©
ä¿Ŀ ç½Ĺ
ow n
c om
è¿Ļæ®µ è¯Ŀ
çģ« ç®Ń
çĤ¹ åĩ»
ä¸ĸçķĮ æĿ¯
å²Ĺ ä½į
c o
çŃ Ĵ
è£ ¹
æĢİä¹Ī åĬŀ
éģŃ åıĹ
çŁ³ æ²¹
æ»¡ äºĨ
çī© ä½ĵçļĦ
é£İ éĽ¨
æĺ¯ä¸Ģç§į éĿŀå¸¸
row n
åĲĥ äºĨ
ä½ľèĢħ å¯¹
Ġ åĪ¶å®ļ
å¥ ł
çĲĨ äºĭ
å¸Ĥ éķ¿
èĸ ĩ
es e
çĽ®æłĩ åĴĮ
é¡¹çĽ® çļĦ
äºļåİĨ å±±
ç¼º å¤±
æĽ´ æį¢
å®¶ åĴĮ
åŃĲ ä¸Ĭ
æļ´ åĬĽ
åĨĻ çļĦ
æĸĩæ¡Ī çĶŁæĪĲ
æ½ľåľ¨ çļĦ
ãĢĤ (
çĽ®åīįå°ļæľª çĶ±äººå·¥å¼ķç§įæł½åŁ¹
æ¯ ħ
èĥ½åĬĽ çļĦ
åħ¬åĽŃ éĩĮ
æ· Ģ
åĪĴ åĪĨ
æĽ´ æ·±åħ¥
è¾ĥ å¤§
å´ ĸ
æĽ´å¿« åľ°
æĬĬ å®ĥ
æ© Ħ
ä» ĳ
åĲ¸å¼ķ åĬĽ
en g
å® °
ç¥ ¯
åħ¨çĲĥ æ°ĶåĢĻåıĺåĮĸ
197 0
éĥ¨ èĲ½
çļĦ ä»·æł¼
æł¹æį®é¢ĺçĽ® åĴĮ
å¤§ è¥¿æ´ĭ
éĢļå¸¸ éľĢè¦ģ
èĬ ¦
å¦ĩ å¥³
æĹ© å·²
åĩº éĹ¨
æĶ¶ èİ·
ä»Ĭå¤© çļĦ
ä¸ĭéĿ¢ çļĦæĸĩæľ¬
éĺ» æŃ¢
ĠS h
è¶³çĲĥ è¿ĲåĬ¨åĳĺ
ä¸ĭæĸĩ ä¸ŃçļĦåħ³éĶ®è¯į
ri pt
æķı æį·
ä¸» å¼ł
éĢīæĭ© åĲĪéĢĤçļĦ
èĪĴ æľį
æĿĥ åĬĽ
4 4
åĲ Ĭ
éĺ² å¾¡
å¾Ĺ å¾Ī
åįģ åĽĽ
æĶ¶ åĪ°
å½±åĵį åĬĽ
çĶµåŃĲ äº§åĵģ
æĭ ¨
å°Ĩ æĪĲä¸º
è¡¨è¾¾ æĸ¹å¼ı
åİŁ åĪĽ
å®¶ åĽŃ
åĶ¯ä¸Ģ çļĦ
åĬłåĪ©ç¦ıå°¼äºļ å·ŀ
å¹¿ä¸ľ çľģ
199 3
æŃ£ éĿ¢çļĦ
åĩı èĤ¥
æŁ ¿
æĪĳä»¬åı¯ä»¥ éĢļè¿ĩ
çĶŁçī© å¤ļæł·æĢ§
å°ı æĹ¶åĢĻ
æĪ·å¤ĸ æ´»åĬ¨
æĪĺ åĲİ
ç¼ĵ æħ¢
æĮĩ æķ°
çģµ éŃĤ
çĽ¸ åºĶ
çĮ´ åŃĲ
æĸ¹ è¨Ģ
åŁĥ å°Ķ
199 1
æįķ æįī
åĽłæŃ¤ åı¯ä»¥
åľ¨ ä¸įåĲĮ
éħ ª
Ġ X
æ¬º è¯Ī
åķ¦ åķ¦
åºĶçĶ¨ åľºæĻ¯
æİĪ æĿĥ
å¹¶ è¢«
åĬł å¿«
æīĭ ä¸Ń
æµģ æµª
æ¤įçī© çļĦ
æĬĹ æ°§åĮĸ
æĿİ çĻ½
o ol
åħ Ĩ
us e
ä¿® é¥°
æ½ Ń
éĩį çļĦ
æµĵ åº¦
åı¯ä»¥ å¯¹
çĶ· å¥³
åĩº æ¼Ķ
çĭ ©
æ©Ħ æ¦Ħ
åħī çļĦ
çĹ ´
éļıçĿĢæĹ¶éĹ´çļĦ æİ¨ç§»
éĵ ħ
ä¸Ńåįİäººæ°ĳåħ±åĴĮåĽ½ æĶ¿æ²»äººçī©
ä¸Ģ éģį
æŀģ æĢ§
çº· çº·
æĺ¯ èĭ±åĽ½
ðŁ ĳ
Ã ¡
èį Ĩ
æģ¶ æĦı
åľ¨ æĪĳçļĦ
åı¯ä»¥è¢« å½Ĵç±»ä¸º
ä¸ĸçķĮä¸ĬæľĢ é«ĺçļĦå±±å³°
è¯ĨåĪ«åĩº æĸĩæľ¬ä¸ŃçļĦåħ³éĶ®è¯į
æŃ¦ä¾ł å°ıè¯´
ach ine
è¿ĩ å¤ļ
æĺ¯ çĶ±äºİ
æ¸ Ĭ
æĽ´ åħ·
æĺ¯ æľī
åī§ éĻ¢
è¯´ çļĦ
éļ ĭ
ä¸İ äºº
éĤ® æĶ¿
åįķè¯į çļĦ
åĹ £
èµĦ æľ¬
éĥİ ä¸Ń
å§¿ åĬ¿
éĻĨ åľ°
åħ¶ ä¸»è¦ģ
éļıçĿĢ æĬĢæľ¯çļĦ
M ar
åī§ æľ¬
å®ģ éĿĻ
å®ĺ èĩ³
è§£æĶ¾ åĨĽ
æĬ ĸ
è¯Ń çļĦ
un g
è¿Ľè¡Į çļĦ
è¿ľ ç¦»
ä½ľæĸĩ çĶŁæĪĲ
ĠL earning
æĬĵ ä½ı
æĭ ¯
æĭ ¾
æĺ¯ åŁºäºİ
ä¹ĺ åĿĲ
å®ĩèĪª åĳĺ
çĶ «
çĪ¬ è¡Į
b e
å°ı éķĩ
ç»Ĩ èħ»
å°¼ è¥¿äºļ
æŃ¦ å¸Ŀ
å¹³æĸ¹ ç±³
åĽ° å¢ĥ
åĽ½ éĺ²
åĴĮ æµ·
' ,
éģŃ éģĩ
ä»¥ æ»¡è¶³
ä¹Ł æ²¡
åıį å¤į
ä¸Ģä¸ª äººçļĦ
çĪ± å°Ķåħ°
ĠT r
Ġ æıĲé«ĺ
an k
çĶ¨ è¯į
ä¼¤ å¿ĥ
çłĶç©¶ åıĳçİ°
æĳĦ åĥı
èĳ¡èĲĦ çīĻ
èı² å°Ķ
çĽ´ éļ¶
æĭ ±
å¼Ģ è®¾
ä¸ŃåĽ½ åħ±äº§åħļ
æĪĸ ä¸į
é»Ħ èī²çļĦ
éĵ¶ æ²³
æĺ¯ä½įäºİ ç¾İåĽ½
æĸĩåĮĸ éģĹäº§
F acebook
å°Ĩ ç»§ç»Ń
åĽŀ æĬ¥
C D
å°ı çĮ«
196 0
A M
å®¹ éĩı
éĢļ çĶ¨
å¸Ī èĮĥ
æ°´æŀľ åĴĮ
éļ§ éģĵ
å¯¹ æĸĩæľ¬
ä¸ĩ ç¾İåħĥ
åľ¨ ä½¿çĶ¨
æĬĳ åĪ¶
éŀĭ åŃĲ
T V
æĲ ħ
é©¬æĭī éĽħ
æ¶Īè´¹ èĢħçļĦ
æ³Ħ éľ²
çĶŁæ´»ä¹łæĢ§ ä¸įæĺİ
å¦ ĸ
Ġp r
å¼ı æľĪåı°
Ġ ãĢĬ
æĢ» ä¼ļ
e x
çŃī äºİ
æķ°æį® ä¸ŃçļĦ
æ°Ķ æģ¯
å·´ å·´
ç»ĵ å°¾
æĮ ª
è¡Įä¸º åĴĮ
çļĦ éĥ¨åĪĨ
æ·± åĳ¼åĲ¸
s p
ç² ¤
è¯· æıĲä¾Ľ
åĴĮ ä½ł
æĿ¡ä»¶ ä¸ĭ
5 8
ä¼ļ åĳĺ
ç¢ Į
ä»Ģä¹Īæĺ¯ äººå·¥æĻºèĥ½
å½Ĵ ä¸º
å®ŀ è¡Į
Ġr es
ç»ĵæĿŁ åĲİ
ä»¥ èī²åĪĹ
ç»Ļå®ļ æĸĩæľ¬
èĤĸ çĶ³
å¼ķ çĶ¨
åŁºåĽł ç»Ħ
åİ» å¹´
è½¬ åŀĭ
çģ ¿
è¯ĬæĸŃ åĴĮæ²»çĸĹ
åı¯ è¡Į
æĸ¯ èĴĤ
æĸ ©
äºº åĬĽ
å¤§ å¤ļ
æ¿ Ĵ
çļĦ ä¸ī
4 9
ç» ĳ
åľ¨ ä¸įåĲĮçļĦ
è¿Ļä¸ª è¿ĩç¨ĭ
ä¸ľ åĮĹéĥ¨
) .
ä¼ļ ä¸Ĭ
ĠA r
çŃ ĭ
åľ¨ æĹ¥æľ¬
é¦ĸ å¸Ń
åĲī ä»ĸ
åĴĮ æĶ¹è¿Ľ
äºĶ æľĪ
éº¦ åħĭ
ç¼ Ģ
Ġ é¥°
at er
Ġin t
å¼¯ æĽ²
è¯´ æĺ¯
åĲ¸ çĥŁ
Ġ ent
å®¢ äºº
æĿ¥ åĪ°äºĨ
å¯¹ æŃ¤
åĸľ é©¬æĭīéĽħ
å®īåħ¨ çļĦ
æĿ¥ å®ĮæĪĲ
åįĩ èµ·
åĲĮ åĲį
å¤ĸ æĺŁ
æ°ĳ ä¼Ĺ
é¢Ĩå¯¼ èĢħ
åľ¨ ä»¥ä¸ĭ
æĶ¹ æŃ£
éĢı æ°Ķ
ç§° ä½ľ
ä»¥ä¸ĭ æĺ¯ä¸Ģä¸ª
ä¹¦ ä¸Ń
u ch
åı² èĴĤ
å° ¹
çĤİ çĥŃ
( ,)
çļĦ ä¸¤
æīĭ åĬ¨
åĽĽ å¤§
å¤į åĪ¶
éĩĳ éĴ±
ä¸º åŁºç¡Ģ
ä¸Ģ åĿĹ
çļĦ åŃĺåľ¨
åģļ åĩºäºĨ
äº² çİĭ
åı« éģĵ
ç§¯ ç´¯
åįģ åŃĹ
ä¸ļ ç»©
åĴĮ æĸ¹æ³ķ
å£° æĺİ
å§ ļ
æ¬¢ ä¹Ĳ
éĢĢ ä¼ĳ
åľ¨ åĵªéĩĮ
èĬĤ åº¦
çļĦ æĳĦåħ¥
ä¹ĭä¸Ģ æĺ¯
é¸ ¦
çĪ±å¥½ èĢħ
ç«¥ è¯Ŀ
åĵ¥ä¼¦ æ¯Ķäºļ
æĪĳä»¬åı¯ä»¥ å°Ĩ
åĪ¶ä½ľ çļĦ
åĨ° æ·ĩ
äºº æĢ§
åŀ Ĵ
æ¨¡ åĿĹ
éķ¿ è¾¾
éľĢè¦ģ çļĦ
åıį è½¬
æ³¢ åĬ¨
åĸĦ äºİ
åŃĺåľ¨ äºİ
åıĳåĬ¨ æľº
ä¸į å¤ļ
Ġw orld
æķĪ çĽĬ
åģ¥åº· çĬ¶åĨµ
æł¹æį® è¾ĵåħ¥
åĨ· éĿĻ
åħįçĸ« ç³»ç»Ł
åı¯ä»¥ èĩªåĬ¨
éĩĩ éĽĨ
çĥŃ è¯Ħ
åı¯èĥ½ä¼ļ å¯¹
æĶ¹åĪ¶ ä¸º
Ð ²
åŃ¦ä¹ł çļĦ
çĭ ł
æł ĭ
6 5
æķ° ç»Ħ
æĹł å¿Į
åħ¬åı¸ åľ¨
æ¬¾ å¼ı
åĽŀ åºĶ
198 4
èķ ´
çŁ© éĺµ
æķ´ åĲĪ
æ¯Ķçī¹ å¸ģ
ä»» èģĮ
æī Ķ
éĹ ·
æķĻèĤ² åĴĮ
ç±»ä¼¼ çļĦ
è¿ĺ åİŁ
çĿ¡çľł è´¨éĩı
æľĽ çĿĢ
18 0
éĩį åĬĽ
å¸ĥ å°Ķ
Ġh is
ä¸Ģæł· çļĦ
ä¼Ĭæĸ¯ åħ°
åĸľæ¬¢ åĲĥ
çķ ı
åħĪè¿Ľ çļĦ
æ¸© é¦¨
çİ¯å¢ĥ éĹ®é¢ĺ
éĺ¿ çĶĺ
åĩ ĳ
å¤ı ä»¤
è¿Ļ åı¯ä»¥
å¤§ è¡Ĺ
ä½ĵ åĨħ
æĦŁ åĨĴ
M ac
Ġst r
çİĭ æĺŁ
Ġform ula
s o
è§Ĥ å¿µ
èı ĩ
åĪĴ åĪĨä¸º
åĽł æĸ¯åĿ¦
åĪ« äººçļĦ
éĩĳ åº¸
åĥı äººç±»
æŀģ äºĨ
æŁı æŀĹ
è¿ĺ åĮħæĭ¬
æ¬ ł
åĬŀ äºĭ
èĭ¹æŀľ åħ¬åı¸çļĦ
æķĳ èµİ
èĩªçĦ¶ çİ¯å¢ĥ
æľī ä¸Ģç§į
éĥ¨ ä½į
æĺ¯ ä¸º
æĪĳ å¸ĮæľĽ
åĲĮæĹ¶ ä¹Łæĺ¯
ç¾İåĽ½ æĢ»ç»Ł
æĥĬ åĸľ
è¯´ äºĨ
äºĶ åįģ
æ²ī æµ¸
åĨ°æ·ĩ æ·ĭ
ä¸Ģå®ļ ä¼ļ
å±ķçİ° äºĨ
åħ¶ä¸Ń æľĢ
å®¶ éķ¿
æĬĬ è¿Ļåı¥è¯Ŀ
èĢĲ å¿ĥ
ç¤¾ä¼ļ ä¸»ä¹ī
æŃ¦ æ±ī
å¹´å¤ıåŃ£ å¥¥æŀĹåĮ¹åħĭè¿ĲåĬ¨ä¼ļ
äºº ç§°
åĪĨ è£Ĥ
åĮĹ æĸ¹
et w
çľĭ åĩº
çĶŁæ´» è´¨éĩı
å°Ĩä»¥ä¸ĭ åı¥åŃĲ
ä¾ĽåºĶ éĵ¾
æ¢ µ
åĨ³ å¿ĥ
éĴ ł
ro p
Ġp eople
198 8
éĤ£ ä¸Ģ
ä¸įä»ħ åı¯ä»¥
èĥ¡ èĲĿåįľ
ä½ĵ ç§¯
åĽ½å®¶ éĺŁ
Ġn e
æĢİä¹Ī è¯´
ç«ĭ åĪ»
èļ Ģ
æµ ĳ
æłĩ æľ¬
éĥ¨ çĶµå½±
åľ°çĲĥ ä¸ĬçļĦ
æ¡¥ æ¢ģ
æ¬¡ å¹´
çľĭ æĿ¥
åĥı æĺ¯
ç§¯æŀģ çļĦæĥħæĦŁ
å°ı é¸Ł
ç¥ Ī
å¤ļ å½©
æĢĿ å¿µ
æķ°æį® æĮĸæİĺ
å¸¸ è§Ħ
æī¿ åıĹ
æ²® ä¸§
éĩįè¦ģçļĦ ä½ľçĶ¨
é¼» åŃĲ
æīĢ å±ŀ
ç¬¬ åħ«
éĤ£ å¤©
ç§¯ åĪĨ
çª Ħ
éª Ħ
æĶ¿ åħļ
åı£ ç½©
åħ¸ åŀĭçļĦ
ä¸Ģ è·¯
çİ¯ä¿Ŀ æĦıè¯Ĩ
å¾Ī ä¹ħ
æº ľ
åİĭåĬĽåĴĮ çĦ¦èĻĳ
äºĭå®ŀ ä¸Ĭ
æĭ¯ æķĳ
o ve
ä¸ ¸
æŃ» äºĨ
åĴĮ èµĦæºĲ
ä¸Ĭ åįĪ
æ²¿ çĿĢ
åĽ¢ ç»ĵ
æĥħæĦŁ åĴĮ
è¿ĲåĬ¨ åĴĮ
p ut
å¹³ æĹ¶
é¡¾ éĹ®
-- --
Ġ åĩıå°ĳ
èľ ¥
ãĥ »
å¼ĢæĶ¾ å¼ı
an e
èĥľ åľ°
åĲĪ æ³ķ
å¨ ¶
å¦Ĥä½ķ æıĲé«ĺ
çļĦ æĥħç»ª
åĲĪ åĲĮ
è¯ģ å®ŀ
æĪĳ åĽ½
åįķ ä¸Ģ
ä½ł ä¸į
æ¼ Ĩ
åģı è§ģ
æ¹ ĺ
as h
éĵģ å¡Ķ
éľĢè¦ģ æł¹æį®
198 9
éĺ ª
ä¼Ĺ äºº
å®½ æĿ¾
åĩº åħ¥åı£
å®ī æħ°
æķ° åįĥ
æĹł èģĬ
ç§ĳçļĦ åħ¶ä¸Ńä¸Ģç§į
H ello
åĴĮ ç»´æĬ¤
åĲİ æŀľ
èĢĮ å¼Ĥ
åľ¨ è¿ĻäºĽ
éļ¾ åº¦
ä¼ĺåħĪ çº§
éĥ¨ å°ļä¹¦
éķ¿ æ±Ł
çİ° ä»Ĭ
ä»İèĢĮ å®ŀçİ°
æŃĮè¯į çĶŁæĪĲ
åħ±åĲĮ åĬªåĬĽ
é«ĺ äºİ
å®Ŀ çİī
åİ¿ çļĦ
çļĦäºº çĶŁ
ä¾Ŀ éĿł
æħ Į
æ» ¥
å°Ĭæķ¬ çļĦ
éļı èĳĹ
æľ¬ é±¼
åİŁåĽł æĺ¯
ä»ĸæĽ¾ ä»£è¡¨
ä¸Ń æī®æ¼Ķ
Ġd es
èĮ ħ
ç¢³ æ°´
çĻ¾ å§ĵ
æľī æ°§
Ġ å¯¹
èīºæľ¯ åĵģ
å®¾ è¯Ń
æµıè§Ī åĻ¨
æº ¢
A m
ä¸Ń è¢«
C l
éħ µ
åŁºçĿ£ æķĻ
çģ° èī²
çļĦ ç»ıåİĨ
æ³ ¼
éľ ŀ
ç¹ģ å¿Ļ
ç¢³æ°´ åĮĸåĲĪçī©
éĺħè¯» çĲĨè§£
è½¬ åĲĳ
ç½ĳç«Ļ çļĦ
å°Ĩä»¥ä¸ĭ æĸĩæľ¬
S V
å¤§ å¹ħ
ä¸ĸçºª åĪĿ
æ² «
ä¹ĭ æĹħ
æĸ° åĨł
è¿Ļ åı¯ä»¥éĢļè¿ĩ
æĹ¶éĹ´ è¡¨
åĪĨ æ³Į
å¯¼ å¸Ī
åıĺ ä¸º
å¤ªç©º æİ¢ç´¢
å®¡ æŁ¥
éĽ į
æııè¿° ä¸Ģä¸ª
n o
å©ļ ç¤¼
æĬ Ħ
åħįçĸ« åĬĽ
æĿ¥ åĩıå°ĳ
æĪĸ çŁŃè¯Ń
è®¤ è¯ģ
éĿ¢ç§¯ ä¸º
é»ĺ é»ĺ
æµ· è¾¹
æľĢç»Ī çļĦçŃĶæ¡Īæĺ¯
A C
å°Ĩ é¢Ĩ
æĺ¥ ç§ĭ
ĠW orld
çĪ± åĽłæĸ¯åĿ¦
Ġpl ay
w ay
äººä»¬ çļĦçĶŁæ´»
èľ ĺ
åĮĸåŃ¦ çī©è´¨
æİ ł
å§ ¥
åĲ¯ çĶ¨
æĩĤ å¾Ĺ
æĪĳ åıĪ
ä¸Ģä¸ª å°ı
å®ĩå®Ļ çļĦ
ä¸į æ»¡
çľŁçļĦ å¾Ī
ä¸º äººç±»
ä¸į å®ī
æĪĳä»¬ å¯¹
å½±åĵį äºĨ
çļĦåºĶçĶ¨ ç¨ĭåºı
è¿½ éĢĲ
æĺ¯ å¾·åĽ½
èĥ½å¤Ł æĽ´å¥½åľ°
Ġ 4
æĪĳä»¬ ä¼ļ
åĬ¨çī© çļĦ
èľĺ èĽĽ
åıį æĢĿ
çļĦ æľĢä½³
èµĦ è®¯
ä»ĸ äºİ
æľĢ åıĹæ¬¢è¿İçļĦ
çīĽ ä»Ķ
åĲĪ çº¦
åĽŀ å¤´
æĸĩç«ł åĨħå®¹
ä¹ĭ æĪĺ
åĲİ ç»Ń
åĿļ æŀľ
é«ĺ è¾¾
å¾® ä¿¡
çľģ çº§
ç¾½æ¯Ľ çĲĥ
åį·ç§¯ ç¥ŀç»ıç½ĳç»ľ
åģ¥èº« æĪ¿
è¥¿ å®ī
å¤± èĲ½
u x
æ¯Ľ åıĳ
çłĶç©¶ çļĦ
åľ¨ ä»ĸçļĦ
åģļ æ³ķ
ation al
çĥ ĺ
èĬ± æľµ
ä½įäºİ ä¸ŃåĽ½
æŀģ ä¸º
åĻª éŁ³
è¾¹ å¢ĥ
çĶµ åı°
è¿ĩ æĭŁåĲĪ
çĿĢ ä½ł
ä¸Ń ç«ĭ
å¸¦æĿ¥ æĽ´å¤ļçļĦ
çĲ ¼
è¯¥ åºĦ
æłĩ ä¸º
æĿİ åįİ
éĤ£ æĺ¯
éĢģ åĪ°
æĬµ æĬĹ
è¿Ń ä»£
çī©çĲĨ åŃ¦å®¶
çļ ±
çļĦ åŃ£èĬĤ
ä¸įæĸŃ è¿ĽæŃ¥
çŁ¥ åºľ
çļĦ æĢ»
åĸ ĩ
ä¼Ĭ æľĹ
éĢł åŀĭ
çĽĸèĮ¨ æ¯Ķ
éĶ® çĽĺ
æ± Ŀ
æīį æĺ¯
ers on
éħį éŁ³
éĿŀå¸¸ æĦŁè°¢
; ),
åĲĦç§įåĲĦ æł·çļĦ
åĬł æĭī
ä¸įå¾Ĺ ä¸į
åĪ¶ å¤ĩ
è§Ĩ éĩİ
è®¤è¯Ĩ åĪ°
ä¸Ģ æŀļ
å¥Ķ è·ĳ
éĢĹ åı·
æī© å¼ł
åİ» ä¸Ńå¿ĥ
èļ Ĭ
I S
æĺ¯ åħ¨çĲĥ
æ² ¸
åŃ¦ä¹ł å¦Ĥä½ķ
æĪĳ æľĢ
çĽ ¼
å¤§ äºİ
è¯· ä½ł
å¦Ĥ åĲĮ
åıĳ æİĺ
ç«Ł çĦ¶
çļĦ æĥ³æ³ķ
æĬ ¼
ä¸Ģä¸ª æĸ°çļĦ
d er
ing s
å·²ç»ı å¼Ģå§ĭ
è¡¨ æĥħ
ä»¥ å®ŀçİ°
åıį åĲĳ
å¯¹ å¾ħ
å¤ĸ éĿ¢
æĹħæ¸¸ çĽ®çļĦåľ°
çļĦ ä¹¦
æ¢¯ åº¦
t s
è§Ĵ èĲ½
æ²ŁéĢļ åĴĮ
è·¯ åı£
å¹¶ çĶ¨
æķĻ åĮº
Ġl a
7 6
é«ĺ å³°
éĩĮ ç¨ĭ
æĻ¯ è±¡
çĭ© çĮİ
èº« æĿĲ
, ãĢĮ
åĲ¯ ç¤º
çīł ä»¬
èŀį åĮĸ
éĢĤåĲĪ èĩªå·±çļĦ
éĺŁ çļĦ
r ic
è¿Ļ æľ¬
ä»¥åıĬ åħ¶ä»ĸ
èĦļ æŃ¥
Sc ript
èĳ¡èĲĦ éħĴ
ä»¥ä¸Ĭ å¯¹è¯Ŀ
å½¢å¼ı çļĦ
æ° Ł
çĶµè§Ĩ èĬĤçĽ®
æĦ¤ æĢĴ
Ġ èĩªçĦ¶è¯Ńè¨Ģå¤ĦçĲĨ
çĽ¸åħ³ ä¿¡æģ¯
çĶŁäº§ åĴĮ
è®© çĶ¨æĪ·
w o
æĺ¯ ç§¯æŀģçļĦ
æľĢ åħ·
èģĮ åľº
åľŁ èĢ³
æİ¢ ç©¶
åľ° äº§
åı° åįĹ
çīĽ é¡¿
çĥ¦ æģ¼
åĲĥ çļĦ
l and
å¤« å¦ĩ
æ±ī æĹı
åħ´è¶£ åĴĮ
æķ´ æķ°
åľ¨è¿Ļä¸ª ä¾ĭåŃĲä¸Ń
ä¹Ł è¢«ç§°ä¸º
è¯·æĢ»ç»ĵ ä»¥ä¸Ĭå¯¹è¯Ŀ
è¯·æĢ»ç»ĵä»¥ä¸Ĭå¯¹è¯Ŀ çļĦä¸»è¦ģåĨħå®¹
oc k
æīĢåľ¨ åľ°
åĲ ¨
åı¯ä»¥è¢« åĪĨç±»ä¸º
ç½ Ĳ
æ±Ł åįĹ
æ¶² ä½ĵ
æľºåĻ¨åŃ¦ä¹ł åľ¨
åĽłä¸º ä»ĸ
æłĳ ä¸Ĭ
å¿ħ éľĢ
é«ĺæķĪ åľ°
å§Ķ ä¹¦è®°
çī¹å¾ģ åĴĮ
å¤§ æ¡¥
åľ¨ä¸ŃåĽ½ å¤§éĻĨ
æ¯Ķ åĸ»
äºĶ ç§į
åŃ¦æł¡ çļĦ
å¾Ī é«ĺçļĦ
ç¬¬äºĮ å¤©
æĺ¯æĮĩ åľ¨
çĻ½ èī²çļĦ
å¼Ģåıĳ äººåĳĺ
er n
éĻ· åħ¥
åı¯ è¡ĮçļĦ
äºĨä¸Ģ åľº
åįİ ä¸º
æĻļ é¤Ĳ
ä»¥ å¤ĸ
åı¯ä»¥ éĻįä½İ
åĪ¶ çīĩ
çĲĥ ä¼ļ
è®©äºº æĦŁåĪ°
å¼ ĵ
åı¯æĮģç»Ń çļĦ
æĴ¤ éĶĢ
æľĪ åĪĿ
è®Ńç»ĥ æķ°æį®
é«ĺè´¨éĩı çļĦ
ä¸ªäºº ä¿¡æģ¯
åĴ ³
åħ¨ ä¸ĸçķĮ
an c
èĨ³ é£Ł
Ġw ork
Ġa m
åĢĻéĢī äºº
f or
ç¥¨ æĪ¿
å¡ĳæĸĻ è¢ĭ
çļĦ åĬĽéĩı
äº² å¯Ĩ
Ġ ä»ĸ
è¯¥ çĶµå½±
ä¸¤ ä¾§
åį¡ æĭī
å¿ĺ äºĨ
æĺł å°Ħ
å®Ī æĬ¤
ç¼º å°ĳ
le d
æĭ¼åĨĻ éĶĻè¯¯
æŃ¤ æ¬¡
æłĳ æŀĹ
è¯¥ çī©ç§įçļĦ
ä¸¤ å¹´
çŃī çº§
æĹ¥ ç¨ĭ
åħĭ å°Ķ
Th is
è¯´ ä¸į
åĬ© çĲĨ
ä»»åĬ¡ ä¸Ń
æĪĳ çĪ±
ä¿® èº«
r it
è¥¿ åĮĹéĥ¨
" )ãĢĤ
ãĢĬ ãĢĭ
åĲį è¿Ľå£«
å²ģ æľĪ
é»Ħ èĵī
åı· çłģ
ç»Ī çĤ¹
åºŁ çī©
Ġ ä½ł
çīĽ èĤī
è¾ĥ å°ı
äºĨ ä»ĸçļĦ
éĹ ¯
çļĦä¸Ģ åĪĩ
èµ· çĤ¹
æķĪ åĬĽäºİ
æĹ¥ èµ·
é¤Ĳåİħ çļĦ
è¾½ å®ģ
èµ Į
ä¹ĭ ä½ľ
åľŁèĢ³ åħ¶
æĭ¿ çĿĢ
åĩº åĶ®
è¿Ľè¡Į å¤´èĦĳé£İæļ´
çĻ½ å¤©
æľ¬ äºº
æıĲ äº¤
æĦı åĽ¾
åĻ¨ çļĦ
å¥¹ æĺ¯
å¼Ģ åĲ¯
æīĭ æĮĩ
é¼ İ
ç´« èī²
åĮ ł
åħ¨ éĿ¢çļĦ
ç§ĳåŃ¦ éĻ¢
è§Ĵèī² ä»ĭç»į
åĵĪ å¸Į
å²Ľ ä¸Ĭ
Ġ éĤ£
æĻ ķ
å¾Ī é«ĺ
I s
w ord
å¹´ æĹ¶
åºĶçĶ¨ é¢ĨåŁŁ
è´§ çī©
åĿ Ŀ
èīº äºº
åĩº ç§Ł
å¡ Į
ç»Ħç»ĩ çļĦ
åĽłä¸º æĪĳ
æŃĮ åĶ±
ans l
ç³»ç»Ł ä¸Ń
è¯¥ åħ¬åı¸çļĦ
åĶĲ ä»£
æ¯ıä¸ªäºº çļĦ
å¤§ èĩªçĦ¶
æĸĩåĮĸ ä¸Ń
èĢ³ æľº
åĬ¿ åĬĽ
å¯¹ ç§°
æĿŃ å·ŀ
åľ¨åħ¨çĲĥ èĮĥåĽ´åĨħ
æ± Ģ
åĮħæĭ¬ä»¥ä¸ĭ çī©ç§į
éħ ®
ä¹Ĳ è§Ĥ
äº² èĩª
ç±³ èĩ³
éĴ Ļ
æľĢä½³ çļĦ
Ġ å»ºç«ĭ
åģĩ æľŁ
å¹³ åİŁ
al k
Ġn ew
åı¯ä»¥ æĽ´å¥½åľ°
çļĦ ä¾ĭåŃĲ
åī¯ ä½¿
å®ĥ éĢļè¿ĩ
å¯¹ åºĶçļĦ
å¥½ æľĭåıĭ
åıĳçİ° èĩªå·±
ä¸¾ è¡ĮçļĦ
æ±Łèĭı çľģ
Ġ art
æĿ ı
æıĴ åħ¥
éĢĤ å®ľ
éĩĩ è®¿
è¯¸ å¤ļ
åı² å¯Ĩ
ä¸ŃåĽ½ åı¤ä»£
ä¸Ĭ çıŃ
å¹² é¢Ħ
é¥ ¥
æĸ ¥
ç»ĻæĪĳ è®²
æ¨¡å¼ı äº§
çĽ¸ä¼¼ çļĦ
9 5
å¾· æĭī
åĨħ ç½®
ç´ł é£Ł
æ³¢ ç½Ĺ
éĹ ½
è° £
ç¾ ŀ
åħĭ æĭī
å¿½ çķ¥
ç¤¾äº¤åªĴä½ĵ ä¸Ĭ
æµĻæ±Ł çľģ
åį° å°¼
æĩ Ī
æľ¬å±ŀ åĮħæĭ¬ä»¥ä¸ĭçī©ç§į
åºĶ å½ĵ
æ¸ Ĺ
å¤´ çĹĽ
ç²® é£Ł
åĮĹ æµ·
å¸ĥ èİ±
è·¨ è¶Ĭ
éĤ ĳ
åĬŁ å¤«
å¿½ è§Ĩ
æī« æıı
è¾ Ł
éĴ ¾
Ġle ar
åıĳ èµ·
èĢ ķ
çĻ» ä¸Ĭ
ç¼º éĻ·
å§ ¨
19 20
æ³¨ åħ¥
æĭ¥ æĬ±
å»ºçŃĳ å¸Ī
å¡ĳ éĢł
ä¸Ģ æĬĬ
å®ŀ åĬĽ
èº« åŃĲ
å¤º å¾Ĺ
