{
  "version": "1.0",
  "truncation": null,
  "padding": null,
  "added_tokens": [
    {
      "id": 0,
      "content": "<|endoftext|>",
      "single_word": false,
      "lstrip": false,
      "rstrip": false,
      "normalized": false,
      "special": true
    },
    {
      "id": 1,
      "content": "<|im_start|>",
      "single_word": false,
      "lstrip": false,
      "rstrip": false,
      "normalized": false,
      "special": true
    },
    {
      "id": 2,
      "content": "<|im_end|>",
      "single_word": false,
      "lstrip": false,
      "rstrip": false,
      "normalized": false,
      "special": true
    },
    {
      "id": 3,
      "content": "<tool_call>",
      "single_word": false,
      "lstrip": false,
      "rstrip": false,
      "normalized": false,
      "special": true
    },
    {
      "id": 4,
      "content": "</tool_call>",
      "single_word": false,
      "lstrip": false,
      "rstrip": false,
      "normalized": false,
      "special": true
    },
    {
      "id": 5,
      "content": "<tool_response>",
      "single_word": false,
      "lstrip": false,
      "rstrip": false,
      "normalized": false,
      "special": true
    },
    {
      "id": 6,
      "content": "</tool_response>",
      "single_word": false,
      "lstrip": false,
      "rstrip": false,
      "normalized": false,
      "special": true
    },
    {
      "id": 7,
      "content": "<think>",
      "single_word": false,
      "lstrip": false,
      "rstrip": false,
      "normalized": false,
      "special": true
    },
    {
      "id": 8,
      "content": "</think>",
      "single_word": false,
      "lstrip": false,
      "rstrip": false,
      "normalized": false,
      "special": true
    },
    {
      "id": 9,
      "content": "<answer>",
      "single_word": false,
      "lstrip": false,
      "rstrip": false,
      "normalized": false,
      "special": true
    },
    {
      "id": 10,
      "content": "</answer>",
      "single_word": false,
      "lstrip": false,
      "rstrip": false,
      "normalized": false,
      "special": true
    }
  ],
  "normalizer": null,
  "pre_tokenizer": {
    "type": "ByteLevel",
    "add_prefix_space": false,
    "trim_offsets": true,
    "use_regex": true
  },
  "post_processor": null,
  "decoder": {
    "type": "ByteLevel",
    "add_prefix_space": true,
    "trim_offsets": true,
    "use_regex": true
  },
  "model": {
    "type": "BPE",
    "dropout": null,
    "unk_token": null,
    "continuing_subword_prefix": null,
    "end_of_word_suffix": null,
    "fuse_unk": false,
    "byte_fallback": false,
    "ignore_merges": false,
    "vocab": {
      "<|endoftext|>": 0,
      "<|im_start|>": 1,
      "<|im_end|>": 2,
      "<tool_call>": 3,
      "</tool_call>": 4,
      "<tool_response>": 5,
      "</tool_response>": 6,
      "<think>": 7,
      "</think>": 8,
      "<answer>": 9,
      "</answer>": 10,
      "!": 11,
      "\"": 12,
      "#": 13,
      "$": 14,
      "%": 15,
      "&": 16,
      "'": 17,
      "(": 18,
      ")": 19,
      "*": 20,
      "+": 21,
      ",": 22,
      "-": 23,
      ".": 24,
      "/": 25,
      "0": 26,
      "1": 27,
      "2": 28,
      "3": 29,
      "4": 30,
      "5": 31,
      "6": 32,
      "7": 33,
      "8": 34,
      "9": 35,
      ":": 36,
      ";": 37,
      "<": 38,
      "=": 39,
      ">": 40,
      "?": 41,
      "@": 42,
      "A": 43,
      "B": 44,
      "C": 45,
      "D": 46,
      "E": 47,
      "F": 48,
      "G": 49,
      "H": 50,
      "I": 51,
      "J": 52,
      "K": 53,
      "L": 54,
      "M": 55,
      "N": 56,
      "O": 57,
      "P": 58,
      "Q": 59,
      "R": 60,
      "S": 61,
      "T": 62,
      "U": 63,
      "V": 64,
      "W": 65,
      "X": 66,
      "Y": 67,
      "Z": 68,
      "[": 69,
      "\\": 70,
      "]": 71,
      "^": 72,
      "_": 73,
      "`": 74,
      "a": 75,
      "b": 76,
      "c": 77,
      "d": 78,
      "e": 79,
      "f": 80,
      "g": 81,
      "h": 82,
      "i": 83,
      "j": 84,
      "k": 85,
      "l": 86,
      "m": 87,
      "n": 88,
      "o": 89,
      "p": 90,
      "q": 91,
      "r": 92,
      "s": 93,
      "t": 94,
      "u": 95,
      "v": 96,
      "w": 97,
      "x": 98,
      "y": 99,
      "z": 100,
      "{": 101,
      "|": 102,
      "}": 103,
      "~": 104,
      "¡": 105,
      "¢": 106,
      "£": 107,
      "¤": 108,
      "¥": 109,
      "¦": 110,
      "§": 111,
      "¨": 112,
      "©": 113,
      "ª": 114,
      "«": 115,
      "¬": 116,
      "®": 117,
      "¯": 118,
      "°": 119,
      "±": 120,
      "²": 121,
      "³": 122,
      "´": 123,
      "µ": 124,
      "¶": 125,
      "·": 126,
      "¸": 127,
      "¹": 128,
      "º": 129,
      "»": 130,
      "¼": 131,
      "½": 132,
      "¾": 133,
      "¿": 134,
      "À": 135,
      "Á": 136,
      "Â": 137,
      "Ã": 138,
      "Ä": 139,
      "Å": 140,
      "Æ": 141,
      "Ç": 142,
      "È": 143,
      "É": 144,
      "Ê": 145,
      "Ë": 146,
      "Ì": 147,
      "Í": 148,
      "Î": 149,
      "Ï": 150,
      "Ð": 151,
      "Ñ": 152,
      "Ò": 153,
      "Ó": 154,
      "Ô": 155,
      "Õ": 156,
      "Ö": 157,
      "×": 158,
      "Ø": 159,
      "Ù": 160,
      "Ú": 161,
      "Û": 162,
      "Ü": 163,
      "Ý": 164,
      "Þ": 165,
      "ß": 166,
      "à": 167,
      "á": 168,
      "â": 169,
      "ã": 170,
      "ä": 171,
      "å": 172,
      "æ": 173,
      "ç": 174,
      "è": 175,
      "é": 176,
      "ê": 177,
      "ë": 178,
      "ì": 179,
      "í": 180,
      "î": 181,
      "ï": 182,
      "ð": 183,
      "ñ": 184,
      "ò": 185,
      "ó": 186,
      "ô": 187,
      "õ": 188,
      "ö": 189,
      "÷": 190,
      "ø": 191,
      "ù": 192,
      "ú": 193,
      "û": 194,
      "ü": 195,
      "ý": 196,
      "þ": 197,
      "ÿ": 198,
      "Ā": 199,
      "ā": 200,
      "Ă": 201,
      "ă": 202,
      "Ą": 203,
      "ą": 204,
      "Ć": 205,
      "ć": 206,
      "Ĉ": 207,
      "ĉ": 208,
      "Ċ": 209,
      "ċ": 210,
      "Č": 211,
      "č": 212,
      "Ď": 213,
      "ď": 214,
      "Đ": 215,
      "đ": 216,
      "Ē": 217,
      "ē": 218,
      "Ĕ": 219,
      "ĕ": 220,
      "Ė": 221,
      "ė": 222,
      "Ę": 223,
      "ę": 224,
      "Ě": 225,
      "ě": 226,
      "Ĝ": 227,
      "ĝ": 228,
      "Ğ": 229,
      "ğ": 230,
      "Ġ": 231,
      "ġ": 232,
      "Ģ": 233,
      "ģ": 234,
      "Ĥ": 235,
      "ĥ": 236,
      "Ħ": 237,
      "ħ": 238,
      "Ĩ": 239,
      "ĩ": 240,
      "Ī": 241,
      "ī": 242,
      "Ĭ": 243,
      "ĭ": 244,
      "Į": 245,
      "į": 246,
      "İ": 247,
      "ı": 248,
      "Ĳ": 249,
      "ĳ": 250,
      "Ĵ": 251,
      "ĵ": 252,
      "Ķ": 253,
      "ķ": 254,
      "ĸ": 255,
      "Ĺ": 256,
      "ĺ": 257,
      "Ļ": 258,
      "ļ": 259,
      "Ľ": 260,
      "ľ": 261,
      "Ŀ": 262,
      "ŀ": 263,
      "Ł": 264,
      "ł": 265,
      "Ń": 266,
      "ä¸": 267,
      "ãĢ": 268,
      "çļ": 269,
      "çļĦ": 270,
      "äº": 271,
      "ãĢĤ": 272,
      "ä»": 273,
      "åı": 274,
      "æľ": 275,
      "åħ": 276,
      "è¿": 277,
      "å¤": 278,
      "ä½": 279,
      "åĪ": 280,
      "æĺ": 281,
      "åľ": 282,
      "å®": 283,
      "çĶ": 284,
      "æĪ": 285,
      "åĲ": 286,
      "ä¸Ģ": 287,
      "è¯": 288,
      "æĸ": 289,
      "åĴ": 290,
      "ä¹": 291,
      "åĴĮ": 292,
      "ç»": 293,
      "æĺ¯": 294,
      "åĬ": 295,
      "åŃ": 296,
      "å¹": 297,
      "å°": 298,
      "åĽ": 299,
      "ãĢģ": 300,
      "åľ¨": 301,
      "è®": 302,
      "æĹ": 303,
      "ä»¥": 304,
      "äºº": 305,
      "å¸": 306,
      "æĿ": 307,
      "åº": 308,
      "ä¼": 309,
      "äºĨ": 310,
      "åį": 311,
      "ä¸ª": 312,
      "ĥ½": 313,
      "ä¸Ń": 314,
      "ä¸º": 315,
      "éĩ": 316,
      "å·": 317,
      "éĢ": 318,
      "åĮ": 319,
      "æľī": 320,
      "ç§": 321,
      "è¡": 322,
      "å¼": 323,
      "åĨ": 324,
      "æķ": 325,
      "åı¯": 326,
      "å¾": 327,
      "çī": 328,
      "åĩ": 329,
      "è¿Ļ": 330,
      "æĪĳ": 331,
      "å¯": 332,
      "æī": 333,
      "ä¸į": 334,
      "è§": 335,
      "èĥ½": 336,
      "èĢ": 337,
      "æĢ": 338,
      "çĶ¨": 339,
      "å¥": 340,
      "çİ": 341,
      "æŃ": 342,
      "éĹ": 343,
      "é¢": 344,
      "æł": 345,
      "å½": 346,
      "äºİ": 347,
      "çĽ": 348,
      "çŃ": 349,
      "èĩ": 350,
      "åŃ¦": 351,
      "¦ģ": 352,
      "å¹´": 353,
      "æ³": 354,
      "è¦ģ": 355,
      "ä»¬": 356,
      "çĶŁ": 357,
      "å¤§": 358,
      "æĬ": 359,
      "æŀ": 360,
      "åİ": 361,
      "å±": 362,
      "éĿ": 363,
      "æĿ¥": 364,
      "æĸĩ": 365,
      "çĲ": 366,
      "æ°": 367,
      "æĭ": 368,
      "æĹ¶": 369,
      "åľ°": 370,
      "æĶ": 371,
      "å¿": 372,
      "æĪĲ": 373,
      "ä¿": 374,
      "åĵ": 375,
      "ä¸ĭ": 376,
      "ä»ĸ": 377,
      "èµ": 378,
      "å¦": 379,
      "çº": 380,
      "åı¯ä»¥": 381,
      "æĽ": 382,
      "åĳ": 383,
      "æµ": 384,
      "ä¸Ĭ": 385,
      "è¡Į": 386,
      "è´": 387,
      "æı": 388,
      "åĪ°": 389,
      "æĥ": 390,
      "åĪĨ": 391,
      "æĦ": 392,
      "æİ": 393,
      "ä¾": 394,
      "åĩº": 395,
      "ä¼ļ": 396,
      "åĽ½": 397,
      "å¯¹": 398,
      "è¾": 399,
      "èĩª": 400,
      "ç«": 401,
      "éĻ": 402,
      "ç±": 403,
      "ä½ľ": 404,
      "æĻ": 405,
      "ä¸Ģä¸ª": 406,
      "æ²": 407,
      "åŁ": 408,
      "æį": 409,
      "åŃĲ": 410,
      "æ¯": 411,
      "æ´": 412,
      "ç®": 413,
      "çŃī": 414,
      "å¤ļ": 415,
      "åĬ¨": 416,
      "æĸ¹": 417,
      "æĮ": 418,
      "å¹¶": 419,
      "ç§į": 420,
      "æľ¬": 421,
      "åıĳ": 422,
      "å¦Ĥ": 423,
      "è¿ĩ": 424,
      "è½": 425,
      "éĺ": 426,
      "åħ¶": 427,
      "çī©": 428,
      "çľ": 429,
      "å·¥": 430,
      "çĲĨ": 431,
      "æķ°": 432,
      "æıĲ": 433,
      "æľº": 434,
      "ä¹ĭ": 435,
      "éģ": 436,
      "è¿Ľ": 437,
      "ç±»": 438,
      "æ³ķ": 439,
      "æ¸": 440,
      "é¢ĺ": 441,
      "éĢļ": 442,
      "åĲİ": 443,
      "ä½ĵ": 444,
      "æį®": 445,
      "æĽ´": 446,
      "åī": 447,
      "éĿ¢": 448,
      "ä¹Ł": 449,
      "ä½¿": 450,
      "é«": 451,
      "å®¶": 452,
      "åĮĸ": 453,
      "é«ĺ": 454,
      "æĢ§": 455,
      "çİ°": 456,
      "æľĢ": 457,
      "äºĽ": 458,
      "å®ļ": 459,
      "ä¸»": 460,
      "éĥ": 461,
      "åĲĮ": 462,
      "ä½ł": 463,
      "å®ĥ": 464,
      "éľ": 465,
      "èĢĮ": 466,
      "åĽł": 467,
      "æ¬": 468,
      "å°Ĩ": 469,
      "æ±": 470,
      "åħ¬": 471,
      "åĲį": 472,
      "èī": 473,
      "çĿ": 474,
      "é£": 475,
      "å¸¸": 476,
      "ä¸İ": 477,
      "åħ³": 478,
      "ç½": 479,
      "å¥½": 480,
      "å¾Ĺ": 481,
      "éķ": 482,
      "å°ı": 483,
      "çŁ": 484,
      "è¯Ń": 485,
      "åģ": 486,
      "åĬĽ": 487,
      "åºĶ": 488,
      "æĪĸ": 489,
      "æĸ°": 490,
      "ç»ı": 491,
      "æĪĳä»¬": 492,
      "è¢": 493,
      "åĬł": 494,
      "çĦ": 495,
      "éĹ´": 496,
      "éĩį": 497,
      "éĹ®": 498,
      "ç¾": 499,
      "åº¦": 500,
      "è¶": 501,
      "ç¬": 502,
      "éĥ¨": 503,
      "ç¨": 504,
      "ç³": 505,
      "è¡¨": 506,
      "éľĢ": 507,
      "æĥħ": 508,
      "çĶµ": 509,
      "ä¹ł": 510,
      "å¤©": 511,
      "çī¹": 512,
      "ç¤": 513,
      "æĬĢ": 514,
      "çĦ¶": 515,
      "è·": 516,
      "éĽ": 517,
      "ç©": 518,
      "çĤ": 519,
      "éĶ": 520,
      "è®¡": 521,
      "å¼Ģ": 522,
      "å»": 523,
      "è°": 524,
      "åĵģ": 525,
      "æŃ¤": 526,
      "è¢«": 527,
      "å¿ĥ": 528,
      "è§£": 529,
      "éĥ½": 530,
      "æīĢ": 531,
      "æĦŁ": 532,
      "çĪ": 533,
      "æģ": 534,
      "ä¿Ŀ": 535,
      "ä¸ļ": 536,
      "èĬ": 537,
      "æĹ¥": 538,
      "å½±": 539,
      "çĿĢ": 540,
      "æľ¯": 541,
      "éĩı": 542,
      "éĩĮ": 543,
      "éķ¿": 544,
      "è¯´": 545,
      "éģĵ": 546,
      "è¯¥": 547,
      "éļ": 548,
      "å¢": 549,
      "æŀľ": 550,
      "èĤ": 551,
      "å¸Ĥ": 552,
      "å®ŀ": 553,
      "äºĭ": 554,
      "é¡": 555,
      "éĹ®é¢ĺ": 556,
      "å§": 557,
      "éĤ": 558,
      "æĻº": 559,
      "åıĬ": 560,
      "ç³»": 561,
      "åŃ¦ä¹ł": 562,
      "èĭ": 563,
      "ç¨ĭ": 564,
      "å¼ı": 565,
      "åĲĪ": 566,
      "åŀ": 567,
      "æĺİ": 568,
      "ç¡": 569,
      "èĢħ": 570,
      "ä½Ĩ": 571,
      "ä½į": 572,
      "çĽ¸": 573,
      "çķ": 574,
      "åĿ": 575,
      "åĮº": 576,
      "èģ": 577,
      "éľĢè¦ģ": 578,
      "åĢ": 579,
      "å»º": 580,
      "ä½¿çĶ¨": 581,
      "é¦": 582,
      "ä»»": 583,
      "åħ¨": 584,
      "ç¾İ": 585,
      "20": 586,
      "æĦı": 587,
      "åĨħ": 588,
      "åīį": 589,
      "ç´": 590,
      "ç®Ĺ": 591,
      "åĻ": 592,
      "çł": 593,
      "æ´»": 594,
      "æŁ": 595,
      "æľĪ": 596,
      "æĻºèĥ½": 597,
      "ä»İ": 598,
      "èĲ": 599,
      "åĪ¶": 600,
      "èī²": 601,
      "çĲĥ": 602,
      "ä»£": 603,
      "çĤ¹": 604,
      "ç»Ļ": 605,
      "ç¼": 606,
      "äº§": 607,
      "çĶ±": 608,
      "åĮħ": 609,
      "ç¥": 610,
      "æ¡": 611,
      "è¿Ľè¡Į": 612,
      "åħ¥": 613,
      "æ°´": 614,
      "æķ°æį®": 615,
      "æĺ¯ä¸Ģ": 616,
      "ç§ĳ": 617,
      "å°±": 618,
      "åĻ¨": 619,
      "æĸ¯": 620,
      "è¿ĺ": 621,
      "å£": 622,
      "çĽ®": 623,
      "å½ĵ": 624,
      "æ°Ķ": 625,
      "ä»¥ä¸ĭ": 626,
      "ä¿¡": 627,
      "å¤ĸ": 628,
      "in": 629,
      "åĸ": 630,
      "é©": 631,
      "åŀĭ": 632,
      "æ·": 633,
      "æĸĩæľ¬": 634,
      "æŃ£": 635,
      "èµ·": 636,
      "å¤Ħ": 637,
      "å¾Ī": 638,
      "åĬ¡": 639,
      "æĤ": 640,
      "åıĺ": 641,
      "åĪ©": 642,
      "è¿Ļä¸ª": 643,
      "èº": 644,
      "è¥": 645,
      "Â·": 646,
      "è¯į": 647,
      "æ®": 648,
      "äº¤": 649,
      "å¹³": 650,
      "æĬĢæľ¯": 651,
      "è¥¿": 652,
      "è®¾": 653,
      "åĽŀ": 654,
      "åĳĺ": 655,
      "ä¸ī": 656,
      "ç»ĵ": 657,
      "19": 658,
      "éŁ": 659,
      "æ¨": 660,
      "åĪ«": 661,
      "æīĭ": 662,
      "ä¹Ī": 663,
      "åľº": 664,
      "èº«": 665,
      "ç»Ł": 666,
      "åı¸": 667,
      "ç¬¬": 668,
      "çĻ": 669,
      "an": 670,
      "å±ķ": 671,
      "æ¯Ķ": 672,
      "ä¾Ľ": 673,
      "ç¡®": 674,
      "å°Ķ": 675,
      "çĸ": 676,
      "éª": 677,
      "åİ»": 678,
      "æłĩ": 679,
      "èİ": 680,
      "åı¯èĥ½": 681,
      "è½¦": 682,
      "åħ·": 683,
      "æ¶": 684,
      "er": 685,
      "æĹł": 686,
      "åı¥": 687,
      "æµ·": 688,
      "åķ": 689,
      "æĮģ": 690,
      "æĢ»": 691,
      "æ¨¡": 692,
      "on": 693,
      "çĥ": 694,
      "èĥ": 695,
      "æł¹": 696,
      "éĢī": 697,
      "çĭ": 698,
      "éĿŀ": 699,
      "ä¸ĸ": 700,
      "åŃĹ": 701,
      "æĥ³": 702,
      "èĦ": 703,
      "ãĢĬ": 704,
      "ãĢĭ": 705,
      "éĢļè¿ĩ": 706,
      "é¢Ĩ": 707,
      "åıĸ": 708,
      "åĬ©": 709,
      "èĪ": 710,
      "çģ": 711,
      "ä¸¤": 712,
      "æľŁ": 713,
      "å®ī": 714,
      "è¨": 715,
      "æıĲä¾Ľ": 716,
      "è¨Ģ": 717,
      "ä¾ĭ": 718,
      "èĻ": 719,
      "å·±": 720,
      "çľĭ": 721,
      "çİ¯": 722,
      "åįĹ": 723,
      "çŁ¥": 724,
      "éĤ£": 725,
      "é»": 726,
      "è®©": 727,
      "èĩªå·±": 728,
      "æĭ¬": 729,
      "ä¸ŃçļĦ": 730,
      "é£Ł": 731,
      "æ¼": 732,
      "éħ": 733,
      "äººå·¥": 734,
      "åŁº": 735,
      "èį": 736,
      "è¿°": 737,
      "ä»¶": 738,
      "å±±": 739,
      "åıĹ": 740,
      "æº": 741,
      "åħ¬åı¸": 742,
      "è¿ĻäºĽ": 743,
      "æģ¯": 744,
      "æ¬¡": 745,
      "th": 746,
      "åŁŁ": 747,
      "æ»": 748,
      "åİŁ": 749,
      "åĨ³": 750,
      "éŁ³": 751,
      "è´¨": 752,
      "æĪ·": 753,
      "çĹ": 754,
      "å°ĳ": 755,
      "ç«ł": 756,
      "æ²¡": 757,
      "ç»Ħ": 758,
      "æ®µ": 759,
      "åĮħæĭ¬": 760,
      "åįģ": 761,
      "æķĻ": 762,
      "ç¤¾": 763,
      "åĨĻ": 764,
      "äºĮ": 765,
      "æł¹æį®": 766,
      "äººå·¥æĻºèĥ½": 767,
      "å½¢": 768,
      "æĶ¹": 769,
      "åįķ": 770,
      "åħĭ": 771,
      "åĲĳ": 772,
      "ç¦": 773,
      "ç«ĭ": 774,
      "è®º": 775,
      "æĶ¿": 776,
      "æµģ": 777,
      "ä»ĸä»¬": 778,
      "å·²": 779,
      "å¤ª": 780,
      "è¾¾": 781,
      "è¿Ĳ": 782,
      "åıª": 783,
      "å²": 784,
      "ä¸ľ": 785,
      "éĵ": 786,
      "å¹¿": 787,
      "è·¯": 788,
      "ç½ĳ": 789,
      "ä¹Ĳ": 790,
      "è¯Ĩ": 791,
      "å¥¹": 792,
      "ç§°": 793,
      "åŁİ": 794,
      "æĮĩ": 795,
      "éĩįè¦ģ": 796,
      "çŃĶ": 797,
      "ä¼ł": 798,
      "åĵį": 799,
      "åģ¥": 800,
      "çº¿": 801,
      "en": 802,
      "æ¯ı": 803,
      "é£İ": 804,
      "åĮĹ": 805,
      "å¯¼": 806,
      "æĸĩç«ł": 807,
      "æĹ¶éĹ´": 808,
      "åºĶçĶ¨": 809,
      "åİĨ": 810,
      "æĳ": 811,
      "å±ŀ": 812,
      "ä¸įåĲĮ": 813,
      "æł·": 814,
      "æł¼": 815,
      "ä½ķ": 816,
      "å¸ĥ": 817,
      "æķĪ": 818,
      "å¼º": 819,
      "å¸®": 820,
      "çĪ±": 821,
      "æ°ĳ": 822,
      "åĪĽ": 823,
      "å¢ĥ": 824,
      "åĶ": 825,
      "ç®¡": 826,
      "ä¸ĢäºĽ": 827,
      "åĲĦ": 828,
      "æİ¥": 829,
      "åı£": 830,
      "å®¹": 831,
      "æľºåĻ¨": 832,
      "æĶ¾": 833,
      "è¯Ŀ": 834,
      "å¾·": 835,
      "è®¡ç®Ĺ": 836,
      "..": 837,
      "äºļ": 838,
      "èĩ³": 839,
      "æ·±": 840,
      "é¥": 841,
      "or": 842,
      "åĪĹ": 843,
      "ä»Ģ": 844,
      "éĩĳ": 845,
      "éĴ": 846,
      "å·¥ä½ľ": 847,
      "),": 848,
      "ç²": 849,
      "æĪĺ": 850,
      "åº·": 851,
      "å¤Ł": 852,
      "æ¡Ī": 853,
      "è¯Ńè¨Ģ": 854,
      "è§Ĩ": 855,
      "çķĮ": 856,
      "æ£": 857,
      "çłĶ": 858,
      "é©¬": 859,
      "åı°": 860,
      "ar": 861,
      "å¸¦": 862,
      "è®¸": 863,
      "èĬĤ": 864,
      "è®¤": 865,
      "ç¥ŀ": 866,
      ":\"": 867,
      "æŀģ": 868,
      "ä¾ĭå¦Ĥ": 869,
      "ä¹ī": 870,
      "æľį": 871,
      "å½±åĵį": 872,
      "ç«Ļ": 873,
      "äººç±»": 874,
      "éĿŀå¸¸": 875,
      "éĢĤ": 876,
      "æĭī": 877,
      "å¤´": 878,
      "çĶŁæ´»": 879,
      "è±": 880,
      "åĨĽ": 881,
      "æŃ¥": 882,
      "æľª": 883,
      "æºĲ": 884,
      "ä¸ŃåĽ½": 885,
      "åıĳå±ķ": 886,
      "ä»Ģä¹Ī": 887,
      "åĬŁ": 888,
      "æ¸¸": 889,
      "è§Ĥ": 890,
      "æĤ¨": 891,
      "åı²": 892,
      "åħī": 893,
      "åħ±": 894,
      "ç¤º": 895,
      "å¤ĦçĲĨ": 896,
      "çĬ": 897,
      "ç©¶": 898,
      "éĽĨ": 899,
      "æĺŁ": 900,
      "åĪĨç±»": 901,
      "è¯·": 902,
      "æµĭ": 903,
      "ä¿¡æģ¯": 904,
      "åĽłæŃ¤": 905,
      "çĮ": 906,
      "å¥³": 907,
      "es": 908,
      "æİ¨": 909,
      "ä¹¦": 910,
      "å§ĭ": 911,
      "è®®": 912,
      "å®ĥä»¬": 913,
      "éĢł": 914,
      "èĭ±": 915,
      "è§ģ": 916,
      "ç©º": 917,
      "é¦ĸ": 918,
      "ç³»ç»Ł": 919,
      "é¢ĨåŁŁ": 920,
      "çĶµå½±": 921,
      "åĽłä¸º": 922,
      "ç¿": 923,
      "æ³¨": 924,
      "æ²¡æľī": 925,
      "æ±Ĥ": 926,
      "åĥ": 927,
      "èģĶ": 928,
      "çłĶç©¶": 929,
      "è£": 930,
      "æ¼Ķ": 931,
      "å¸®åĬ©": 932,
      "ç´ł": 933,
      "åĪĻ": 934,
      "åģ¥åº·": 935,
      "åĸľ": 936,
      "ç®Ģ": 937,
      "is": 938,
      "è°ĥ": 939,
      "èĮ": 940,
      "ä¸»è¦ģ": 941,
      "ç¯": 942,
      "èĩªçĦ¶": 943,
      "åŃĺ": 944,
      "çº¦": 945,
      "æ¸ħ": 946,
      "å·ŀ": 947,
      "at": 948,
      "å®¢": 949,
      "åħ¶ä»ĸ": 950,
      "åħĥ": 951,
      "çİĭ": 952,
      "ç»´": 953,
      "éĺŁ": 954,
      "èĥ½å¤Ł": 955,
      "åıĤ": 956,
      "åĽĽ": 957,
      "æıĲé«ĺ": 958,
      "åķĨ": 959,
      "å¡": 960,
      "çĽ´": 961,
      "æ²»": 962,
      "è¯Ħ": 963,
      "å¼ķ": 964,
      "ä¸Ķ": 965,
      "è¶Ĭ": 966,
      "æĸŃ": 967,
      "å®Į": 968,
      "ä»¥åıĬ": 969,
      "è®°": 970,
      "èĳ": 971,
      "æ¬¢": 972,
      "èµĦ": 973,
      "åĩı": 974,
      "åı¥åŃĲ": 975,
      "çľŁ": 976,
      "é¡¹": 977,
      "al": 978,
      "é¢Ħ": 979,
      "èĬ±": 980,
      "åĥı": 981,
      "æĢĿ": 982,
      "èĢĥ": 983,
      "æŀĦ": 984,
      "å¿«": 985,
      "ç¼ĸ": 986,
      "æĶ¯": 987,
      "æĸ¹å¼ı": 988,
      "æĬ¤": 989,
      "çİ¯å¢ĥ": 990,
      "èµĽ": 991,
      "ä¹ĭä¸Ģ": 992,
      "åĽ¾": 993,
      "æļ": 994,
      "æĺ¯ä¸Ģç§į": 995,
      "å¨": 996,
      "æıı": 997,
      "éĺ³": 998,
      "æĻ¯": 999,
      "å¤į": 1000,
      "æĪĲä¸º": 1001,
      "åħĪ": 1002,
      "æĺ¯ä¸Ģä¸ª": 1003,
      "å¤ĩ": 1004,
      "è¯ķ": 1005,
      "éªĮ": 1006,
      "åıį": 1007,
      "åºı": 1008,
      "åĮ»": 1009,
      "åĳ½": 1010,
      "æŃĮ": 1011,
      "æĸ¹æ³ķ": 1012,
      "å¸Ī": 1013,
      "æ¢": 1014,
      "çļĦä¸Ģ": 1015,
      "èİ·": 1016,
      "èĢģ": 1017,
      "èı": 1018,
      "çİĩ": 1019,
      "å¢ŀ": 1020,
      "åĩĨ": 1021,
      "äººä»¬": 1022,
      "æ¨¡åŀĭ": 1023,
      "éĹ¨": 1024,
      "åıĪ": 1025,
      "åģļ": 1026,
      "åı·": 1027,
      "ä¾¿": 1028,
      "èĩ´": 1029,
      "æ¹": 1030,
      "ä¼ĺ": 1031,
      "æĢģ": 1032,
      "çĻ½": 1033,
      "è®¸å¤ļ": 1034,
      "åĢĻ": 1035,
      "çĹħ": 1036,
      "æĭ©": 1037,
      "è®¡ç®Ĺæľº": 1038,
      "å£«": 1039,
      "ç§¯": 1040,
      "éĶ®": 1041,
      "æī¾": 1042,
      "éĢīæĭ©": 1043,
      "ç½Ĺ": 1044,
      "éĢļå¸¸": 1045,
      "åĪĴ": 1046,
      "ç¯ĩ": 1047,
      "éļı": 1048,
      "00": 1049,
      "åĲĮæĹ¶": 1050,
      "è½¬": 1051,
      "è¶³": 1052,
      "å¦Ĥæŀľ": 1053,
      "çľģ": 1054,
      "æĶ¶": 1055,
      "æŀĹ": 1056,
      "æĸĻ": 1057,
      "ç»Ń": 1058,
      "åĩł": 1059,
      "ä»·": 1060,
      "è¿ĳ": 1061,
      "æŀĲ": 1062,
      "æīĵ": 1063,
      "ä¸ĸçķĮ": 1064,
      "æľºåĻ¨åŃ¦ä¹ł": 1065,
      "äº§åĵģ": 1066,
      "å¥½çļĦ": 1067,
      "ãĢĤ\"": 1068,
      "ãĢĮ": 1069,
      "çĶŁæĪĲ": 1070,
      "ç±³": 1071,
      "æķ´": 1072,
      "æķħ": 1073,
      "æĿ¡": 1074,
      "ãĢį": 1075,
      "è§ī": 1076,
      "èĲ½": 1077,
      "æııè¿°": 1078,
      "è§Ħ": 1079,
      "è§Ĵ": 1080,
      "æ¸©": 1081,
      "ç»Ĩ": 1082,
      "é²": 1083,
      "è¾ĵ": 1084,
      "èĩªå·±çļĦ": 1085,
      "éĢŁ": 1086,
      "åĪĨæŀĲ": 1087,
      "ç»ĥ": 1088,
      "å®ļçļĦ": 1089,
      "åĲ«": 1090,
      "å£°": 1091,
      "éĻ¢": 1092,
      "æ²³": 1093,
      "åĨį": 1094,
      "å·´": 1095,
      "åįİ": 1096,
      "åħ³éĶ®": 1097,
      "æĺĵ": 1098,
      "åİ¿": 1099,
      "le": 1100,
      "æĴ": 1101,
      "è±¡": 1102,
      "çı": 1103,
      "çīĩ": 1104,
      "æ»¡": 1105,
      "è¯»": 1106,
      "éĺ¿": 1107,
      "å¼ł": 1108,
      "åĪ°äºĨ": 1109,
      "å°¼": 1110,
      "åĽ¢": 1111,
      "æĽ¾": 1112,
      "ä»Ĭ": 1113,
      "çļĦäºº": 1114,
      "è½»": 1115,
      "ic": 1116,
      "å¼Ģå§ĭ": 1117,
      "ç¾İåĽ½": 1118,
      "åĨµ": 1119,
      "æİĴ": 1120,
      "åºľ": 1121,
      "ing": 1122,
      "åĦ": 1123,
      "çĬ¶": 1124,
      "æĸ¹éĿ¢": 1125,
      "Ġth": 1126,
      "è¾ĥ": 1127,
      "åĽŀçŃĶ": 1128,
      "éĩĩ": 1129,
      "çĥŃ": 1130,
      "çĶ¨æĪ·": 1131,
      "åĢ¼": 1132,
      "201": 1133,
      "äºĶ": 1134,
      "åĭ": 1135,
      "å¦Ĥä½ķ": 1136,
      "çŃĸ": 1137,
      "å·²ç»ı": 1138,
      "çŁŃ": 1139,
      "ç®Ĺæ³ķ": 1140,
      "åł": 1141,
      "ä¸ĵ": 1142,
      "åı¤": 1143,
      "åĲ¬": 1144,
      "ä¸»é¢ĺ": 1145,
      "æľįåĬ¡": 1146,
      "èĲ¥": 1147,
      "ç¢": 1148,
      "åĦ¿": 1149,
      "é¸": 1150,
      "æħ": 1151,
      "å¤§çļĦ": 1152,
      "æĬ¥": 1153,
      "æĥħæĦŁ": 1154,
      "æ¶Ī": 1155,
      "çĸĹ": 1156,
      "åĬ¨çī©": 1157,
      "åİĨåı²": 1158,
      "è¿ĲåĬ¨": 1159,
      "æĬĬ": 1160,
      "æĽ´åĬł": 1161,
      "é¾": 1162,
      "Ġs": 1163,
      "åĸľæ¬¢": 1164,
      "åŁİå¸Ĥ": 1165,
      "è¾¹": 1166,
      "èģĮ": 1167,
      "æĸĩåĮĸ": 1168,
      "éļ¾": 1169,
      "æ´»åĬ¨": 1170,
      "åĳ¨": 1171,
      "çº¢": 1172,
      "äºĨä¸Ģ": 1173,
      "ç¦»": 1174,
      "çº§": 1175,
      "åĳ³": 1176,
      "å¾ģ": 1177,
      "è®¾è®¡": 1178,
      "è®Ń": 1179,
      "èĤ²": 1180,
      "ä»»åĬ¡": 1181,
      "åį³": 1182,
      "è§£åĨ³": 1183,
      "åħ·æľī": 1184,
      "el": 1185,
      "åºĶè¯¥": 1186,
      "æľĽ": 1187,
      "æ¤": 1188,
      "æ¦": 1189,
      "è¿Ļç§į": 1190,
      "ä½įäºİ": 1191,
      "çŁ³": 1192,
      "åıĭ": 1193,
      "åĩıå°ĳ": 1194,
      "éĶĢ": 1195,
      "æīį": 1196,
      "ä¹ĭéĹ´": 1197,
      "ç²¾": 1198,
      "çħ": 1199,
      "it": 1200,
      "æ¯į": 1201,
      "ä¸ªäºº": 1202,
      "åıĳçİ°": 1203,
      "çĶ¨äºİ": 1204,
      "åħ´": 1205,
      "å¤±": 1206,
      "åħ°": 1207,
      "æľªæĿ¥": 1208,
      "ç´¢": 1209,
      "æĪĳçļĦ": 1210,
      "éĻħ": 1211,
      "çª": 1212,
      "èħ": 1213,
      "æĸ½": 1214,
      "åĨħå®¹": 1215,
      "ä½İ": 1216,
      "æŁ¥": 1217,
      "èµ°": 1218,
      "ç§ĳåŃ¦": 1219,
      "è¿ŀ": 1220,
      "ou": 1221,
      "re": 1222,
      "è®¤ä¸º": 1223,
      "æĹħ": 1224,
      "ç»Ī": 1225,
      "ç¤¾ä¼ļ": 1226,
      "ä½Ĩæĺ¯": 1227,
      "åī§": 1228,
      "äºĴ": 1229,
      "æĽ²": 1230,
      "ç½®": 1231,
      "ç»ľ": 1232,
      "åĳĬ": 1233,
      "çĶ·": 1234,
      "è¯ĨåĪ«": 1235,
      "èĳĹ": 1236,
      "ä¿ĿæĬ¤": 1237,
      "æĸ°çļĦ": 1238,
      "äº²": 1239,
      "å¯¹äºİ": 1240,
      "åħ¶ä¸Ń": 1241,
      "çĭ¬": 1242,
      "åį¡": 1243,
      "å±Ĥ": 1244,
      "éĥ¨åĪĨ": 1245,
      "é¦Ļ": 1246,
      "ä¸ĩ": 1247,
      "è´¹": 1248,
      "åįĩ": 1249,
      "å¾Ģ": 1250,
      "éĻ©": 1251,
      "ä¸įåĲĮçļĦ": 1252,
      "ç½ĳç»ľ": 1253,
      "æł¡": 1254,
      ")ãĢĤ": 1255,
      "èº«ä½ĵ": 1256,
      "è¿ĩç¨ĭ": 1257,
      "ä»ĸçļĦ": 1258,
      "åħ¨çĲĥ": 1259,
      "å¯Ĩ": 1260,
      "ç®¡çĲĨ": 1261,
      "å¦Ī": 1262,
      "Ġt": 1263,
      "åĽ´": 1264,
      "200": 1265,
      "é±": 1266,
      "åĲ¸": 1267,
      "èĥ½åĬĽ": 1268,
      "è¿ľ": 1269,
      "æĲ": 1270,
      "èĴ": 1271,
      "æİ¢": 1272,
      "é±¼": 1273,
      "as": 1274,
      "é»ĳ": 1275,
      "ç¦ı": 1276,
      "å®ŀçİ°": 1277,
      "æİ§": 1278,
      "\",": 1279,
      "æĥħåĨµ": 1280,
      "åıĺåĮĸ": 1281,
      "èİ·å¾Ĺ": 1282,
      "å¿ħ": 1283,
      "ç¿»": 1284,
      "å¸Ĥåľº": 1285,
      "éĶĻ": 1286,
      "è¯ĳ": 1287,
      "å®īåħ¨": 1288,
      "ä½łçļĦ": 1289,
      "ä¸¤ä¸ª": 1290,
      "åĲĦç§į": 1291,
      "æīĢæľī": 1292,
      "æ³Ľ": 1293,
      "è¯ģ": 1294,
      "ä»ħ": 1295,
      "å¯¼èĩ´": 1296,
      "å°½": 1297,
      "åŃ£": 1298,
      "æĪĳä»¬çļĦ": 1299,
      "æĻ®": 1300,
      "å®ĺ": 1301,
      "Ġc": 1302,
      "ä¼¼": 1303,
      "æĹ©": 1304,
      "éĩĬ": 1305,
      "è£ħ": 1306,
      "å±ħ": 1307,
      "æĽ´å¤ļ": 1308,
      "å¤§åŃ¦": 1309,
      "çĵ": 1310,
      "æľĿ": 1311,
      "æķħäºĭ": 1312,
      "çºª": 1313,
      "¤Ĳ": 1314,
      "10": 1315,
      "éŁ³ä¹Ĳ": 1316,
      "åĽŃ": 1317,
      "Ġthe": 1318,
      "ä¼Ĺ": 1319,
      "çĽ¸åħ³": 1320,
      "å¤«": 1321,
      "ç¨ĭåºı": 1322,
      "çĲĨè§£": 1323,
      "éĻ¤": 1324,
      "ä½ľä¸º": 1325,
      "èīº": 1326,
      "åľ°åĮº": 1327,
      "ä»½": 1328,
      "éħį": 1329,
      "éķĩ": 1330,
      "è´Ł": 1331,
      "çľ¼": 1332,
      "èĩªåĬ¨": 1333,
      "ä¿®": 1334,
      "äººçļĦ": 1335,
      "æ³¢": 1336,
      "åİĭ": 1337,
      "é»Ħ": 1338,
      "om": 1339,
      "è®Ńç»ĥ": 1340,
      "æĪı": 1341,
      "æĺ¾": 1342,
      "ç¬¬ä¸Ģ": 1343,
      "æĿİ": 1344,
      "Ġp": 1345,
      "çĽ®æłĩ": 1346,
      "æĵ": 1347,
      "æŁĲ": 1348,
      "æ±Ł": 1349,
      "éĻį": 1350,
      "çģ«": 1351,
      "ä¸ĬçļĦ": 1352,
      "æłĳ": 1353,
      "äº¤éĢļ": 1354,
      "çĶ»": 1355,
      "å¸Į": 1356,
      "åĪĿ": 1357,
      "ac": 1358,
      "ä¿ĿæĮģ": 1359,
      "èĽ": 1360,
      "è¶ħ": 1361,
      "å¹¿æ³Ľ": 1362,
      "å¹¶ä¸Ķ": 1363,
      "éĩįè¦ģçļĦ": 1364,
      "å¿µ": 1365,
      "åĵĪ": 1366,
      "çĪ¶": 1367,
      "å®¤": 1368,
      "åħį": 1369,
      "è®¡åĪĴ": 1370,
      "é¤Ĳ": 1371,
      "èĩªçĦ¶è¯Ńè¨Ģ": 1372,
      "æĹı": 1373,
      "ä»¤": 1374,
      "äº¬": 1375,
      "äºī": 1376,
      "çĨ": 1377,
      "ä½ı": 1378,
      "\"ãĢĤ": 1379,
      "éĵģ": 1380,
      "æ´²": 1381,
      "æĳĺ": 1382,
      "å¹²": 1383,
      "èĦĳ": 1384,
      "æ¦Ĥ": 1385,
      "çłģ": 1386,
      "æ½": 1387,
      "çĽĳ": 1388,
      "ä¸½": 1389,
      "é¼": 1390,
      "ä»ĭ": 1391,
      "çħ§": 1392,
      "åĬ¿": 1393,
      "å¯Į": 1394,
      "åĲĥ": 1395,
      "ä¸¾": 1396,
      "ä¸įæĸŃ": 1397,
      "å½Ĵ": 1398,
      "èĻĳ": 1399,
      "åħ»": 1400,
      "æĿ¾": 1401,
      "æµİ": 1402,
      "é¥®": 1403,
      "åħ³äºİ": 1404,
      "æĭ¥": 1405,
      "åĲ¦": 1406,
      "å²Ľ": 1407,
      "ä¸Ģç§į": 1408,
      "äºĨè§£": 1409,
      "çīĮ": 1410,
      "Ġw": 1411,
      "ion": 1412,
      "å¤ªéĺ³": 1413,
      "çī¹å¾ģ": 1414,
      "é¾Ļ": 1415,
      "Ġd": 1416,
      "and": 1417,
      "åı¦": 1418,
      "åħħ": 1419,
      "éĺ²": 1420,
      "æŃ¤å¤ĸ": 1421,
      "ç»ĩ": 1422,
      "ç¬¦": 1423,
      "âĢ": 1424,
      "æĶ¯æĮģ": 1425,
      "éĹ»": 1426,
      "å¥¥": 1427,
      "åľ°çĲĥ": 1428,
      "ä¹Łæĺ¯": 1429,
      "18": 1430,
      "çĶ±äºİ": 1431,
      "ä¸įæĺ¯": 1432,
      "åĸĦ": 1433,
      "ed": 1434,
      "ç»ĵæŀľ": 1435,
      "Ġa": 1436,
      "çĳ": 1437,
      "å»ºè®®": 1438,
      "æŃ¦": 1439,
      "æ¤į": 1440,
      "åĵª": 1441,
      "éĻĲ": 1442,
      "çļĦæĺ¯": 1443,
      "äº§çĶŁ": 1444,
      "èŀ": 1445,
      "çļĦä¸Ģä¸ª": 1446,
      "æĪĲåĬŁ": 1447,
      "çº³": 1448,
      "äº«": 1449,
      "æĬķ": 1450,
      "åº§": 1451,
      "åĶ®": 1452,
      "é£ŀ": 1453,
      "è´Ń": 1454,
      "è®¨": 1455,
      "Ġb": 1456,
      "ç¿»è¯ĳ": 1457,
      "çĭĹ": 1458,
      "å½ķ": 1459,
      "Ġf": 1460,
      "èıľ": 1461,
      "æıĲåıĸ": 1462,
      "åŃĺåľ¨": 1463,
      "åį´": 1464,
      "åĬŁèĥ½": 1465,
      "æĳĺè¦ģ": 1466,
      "ç¾¤": 1467,
      "åĩºçİ°": 1468,
      "ç§¯æŀģ": 1469,
      "æĪ¿": 1470,
      "èĮĥ": 1471,
      "å±ŀäºİ": 1472,
      "åĩ»": 1473,
      "å¥ĩ": 1474,
      "è¡¨ç¤º": 1475,
      "å³": 1476,
      "å¾Īå¤ļ": 1477,
      "çīĪ": 1478,
      "....": 1479,
      "åįı": 1480,
      "Ġo": 1481,
      "åı¯èĥ½ä¼ļ": 1482,
      "è´¨éĩı": 1483,
      "ç¡®ä¿Ŀ": 1484,
      "ro": 1485,
      "éĿĴ": 1486,
      "èĹ": 1487,
      "æĿĤ": 1488,
      "åħ³ç³»": 1489,
      "ĠS": 1490,
      "å¢ŀåĬł": 1491,
      "åĪ©çĶ¨": 1492,
      "å¾ĭ": 1493,
      "è½¯": 1494,
      "ç»Ļå®ļçļĦ": 1495,
      "ä¼ģ": 1496,
      "åį°": 1497,
      "åĺ": 1498,
      "us": 1499,
      "åª": 1500,
      "åĬŀ": 1501,
      "éŃ": 1502,
      "æĭħ": 1503,
      "èĻ½": 1504,
      "æŃ»": 1505,
      "ä¸ºäºĨ": 1506,
      "çĻ¾": 1507,
      "æĮĳ": 1508,
      "æ¿": 1509,
      "å¸¦æĿ¥": 1510,
      "ç¤¾äº¤": 1511,
      "èįī": 1512,
      "æĹ¥æľ¬": 1513,
      "å®¢æĪ·": 1514,
      "æ¥": 1515,
      "æĶ¿åºľ": 1516,
      "åŃ©": 1517,
      "åı¯ä»¥å¸®åĬ©": 1518,
      "æĽ´å¥½": 1519,
      "äºĳ": 1520,
      "æĿĥ": 1521,
      "ä»İèĢĮ": 1522,
      "é¢Ħæµĭ": 1523,
      "æķĻèĤ²": 1524,
      "æĿĲ": 1525,
      "éĥ½æĺ¯": 1526,
      "æľĢåĲİ": 1527,
      "æ¬¾": 1528,
      "è¡¨è¾¾": 1529,
      "å°ıè¯´": 1530,
      "å¤ı": 1531,
      "çļĦå½±åĵį": 1532,
      "çŃĶæ¡Ī": 1533,
      "èĥĮ": 1534,
      "ç»ĵæŀĦ": 1535,
      "å¨ģ": 1536,
      "åħŃ": 1537,
      "æľ¨": 1538,
      "å¼Ģåıĳ": 1539,
      "æ¸¸æĪı": 1540,
      "åľŁ": 1541,
      "è¯¯": 1542,
      "å®Ŀ": 1543,
      "ç»Ħç»ĩ": 1544,
      "ä¸ĭéĿ¢": 1545,
      "å§Ķ": 1546,
      "è¶£": 1547,
      "æį¢": 1548,
      "è§£éĩĬ": 1549,
      "å¾®": 1550,
      "åı¶": 1551,
      "å®³": 1552,
      "å°±æĺ¯": 1553,
      "å±Ģ": 1554,
      "ä»£è¡¨": 1555,
      "å®ĮæĪĲ": 1556,
      "ãģ": 1557,
      "ç»ıæµİ": 1558,
      "åį«": 1559,
      "å¥ĸ": 1560,
      "ĊĠ": 1561,
      "AI": 1562,
      "Ġm": 1563,
      "æİ§åĪ¶": 1564,
      "æĿĳ": 1565,
      "ä¹°": 1566,
      "èĩªçĦ¶è¯Ńè¨Ģå¤ĦçĲĨ": 1567,
      "çķ¥": 1568,
      "il": 1569,
      "çĮ«": 1570,
      "é¦Ĩ": 1571,
      "æĹ¶åĢĻ": 1572,
      "ä¸Ģèµ·": 1573,
      "å¯»": 1574,
      "åħ³éĶ®è¯į": 1575,
      "åİħ": 1576,
      "æ²Ļ": 1577,
      "çļ®": 1578,
      "è°¢": 1579,
      "ç§ĳæĬĢ": 1580,
      "åıĮ": 1581,
      "è®²": 1582,
      "çķĻ": 1583,
      "ç¥ŀç»ı": 1584,
      "å¿Ĺ": 1585,
      "æ±ī": 1586,
      "åıĳçĶŁ": 1587,
      "åŃ¦çĶŁ": 1588,
      "æĪĸèĢħ": 1589,
      "âĢĶ": 1590,
      "æŁĵ": 1591,
      "æĮī": 1592,
      "åªĴ": 1593,
      "çŃĳ": 1594,
      "ent": 1595,
      "æĽ´å¥½åľ°": 1596,
      "åĮ»çĸĹ": 1597,
      "å»ºç«ĭ": 1598,
      "èī¯": 1599,
      "åĤ": 1600,
      "Ġ\"": 1601,
      "æ¸¯": 1602,
      "æī§": 1603,
      "å¼Ĥ": 1604,
      "ä¼ģä¸ļ": 1605,
      "ä¼¤": 1606,
      "è¡Įä¸º": 1607,
      "è¾ĵåħ¥": 1608,
      "åįļ": 1609,
      "æĮĳæĪĺ": 1610,
      "æ°ĶåĢĻ": 1611,
      "ä¸Ńå¿ĥ": 1612,
      "è¿Ļæł·": 1613,
      "am": 1614,
      "æ¿Ģ": 1615,
      "çĶµåŃĲ": 1616,
      "æ³¨æĦı": 1617,
      "ç»į": 1618,
      "çªģ": 1619,
      "ĠC": 1620,
      "åħ«": 1621,
      "åįĬ": 1622,
      "æĿ¥è¯´": 1623,
      "æĴŃ": 1624,
      "å¤§éĩı": 1625,
      "èĵ": 1626,
      "æ¯ıä¸ª": 1627,
      "èĻ½çĦ¶": 1628,
      "å©": 1629,
      "æĺ¯åĲ¦": 1630,
      "ç¬¬äºĮ": 1631,
      "æ·±åº¦": 1632,
      "çĻ»": 1633,
      "èĭı": 1634,
      "èŀį": 1635,
      "åĮħåĲ«": 1636,
      "æĻļ": 1637,
      "åħ¸": 1638,
      "èĤī": 1639,
      "éľĢæ±Ĥ": 1640,
      "ä¼¦": 1641,
      "12": 1642,
      "è¿ĺæĺ¯": 1643,
      "ä¹ĭéĹ´çļĦ": 1644,
      "ä¸Ģç¯ĩ": 1645,
      "çļĦéĹ®é¢ĺ": 1646,
      "åĿĩ": 1647,
      "æľĭ": 1648,
      "å¡Ķ": 1649,
      "çĦ¶åĲİ": 1650,
      "æ´ĭ": 1651,
      "æĪĳä»¬åı¯ä»¥": 1652,
      "åºŃ": 1653,
      "åĽ½å®¶": 1654,
      "å°Ħ": 1655,
      "et": 1656,
      "åĪĩ": 1657,
      "ä½ľçĶ¨": 1658,
      "éģ¿": 1659,
      "ç»¿": 1660,
      "èĢĥèĻĳ": 1661,
      "åı¥è¯Ŀ": 1662,
      "ç±»åŀĭ": 1663,
      "ä»ĸä»¬çļĦ": 1664,
      "ç§°ä¸º": 1665,
      "åľ£": 1666,
      "æĭ¥æľī": 1667,
      "çģµ": 1668,
      "éļıçĿĢ": 1669,
      "çŁ¥éģĵ": 1670,
      "éº": 1671,
      "ä¹¡": 1672,
      "éĻĨ": 1673,
      "æ¹ĸ": 1674,
      "è´£": 1675,
      "Ġh": 1676,
      "æ±½": 1677,
      "æ£Ģ": 1678,
      "å»ºçŃĳ": 1679,
      "æĢ»ä¹ĭ": 1680,
      "15": 1681,
      "è¿½": 1682,
      "çİ°åľ¨": 1683,
      "åªĴä½ĵ": 1684,
      "ol": 1685,
      "åĪ»": 1686,
      "æĺ¥": 1687,
      "ç»§": 1688,
      "åĵ¥": 1689,
      "åħļ": 1690,
      "è¾ĳ": 1691,
      "æľĭåıĭ": 1692,
      "ä¼Ĭ": 1693,
      "ç¬ĳ": 1694,
      "æ¹¾": 1695,
      "Ġin": 1696,
      "ä¸´": 1697,
      "æīĢä»¥": 1698,
      "çİ©": 1699,
      "è¡Ģ": 1700,
      "é¢ĳ": 1701,
      "å®ĥçļĦ": 1702,
      "è®¾å¤ĩ": 1703,
      "èµĦæºĲ": 1704,
      "æ¤įçī©": 1705,
      "ç§»": 1706,
      "èĲ¨": 1707,
      "æĸ°éĹ»": 1708,
      "çĿ¡": 1709,
      "æ®µèĲ½": 1710,
      "éħĴ": 1711,
      "çĶŁäº§": 1712,
      "ç¡®å®ļ": 1713,
      "å·®": 1714,
      "èī²çļĦ": 1715,
      "å¸Ŀ": 1716,
      "æĢ§çļĦ": 1717,
      "æ´¾": 1718,
      "æĽ´å¤ļçļĦ": 1719,
      "èį¯": 1720,
      "Ġof": 1721,
      "æķĪçİĩ": 1722,
      "çŃīçŃī": 1723,
      "çĶŁçī©": 1724,
      "æĮģç»Ń": 1725,
      "åĨľ": 1726,
      "çł´": 1727,
      "åºĹ": 1728,
      "èµ·æĿ¥": 1729,
      "ç¼º": 1730,
      "åįķè¯į": 1731,
      "ä¸ĥ": 1732,
      "èľ": 1733,
      "åºķ": 1734,
      "æļĸ": 1735,
      "æľĢç»Ī": 1736,
      "ä¾Ŀ": 1737,
      "åħ·ä½ĵ": 1738,
      "ä»ĭç»į": 1739,
      "æĭŁ": 1740,
      "è¡¨çİ°": 1741,
      "åºĵ": 1742,
      "åįĥ": 1743,
      "æİª": 1744,
      "æŃ£åľ¨": 1745,
      "æĹłæ³ķ": 1746,
      "åı«": 1747,
      "å³°": 1748,
      "ä»į": 1749,
      "ç»ĦæĪĲ": 1750,
      "çŁ¥è¯Ĩ": 1751,
      "åŁºäºİ": 1752,
      "çļĦåľ°": 1753,
      "åĿĹ": 1754,
      "å·¥åħ·": 1755,
      "å®Ĺ": 1756,
      "å²ģ": 1757,
      "åħµ": 1758,
      "199": 1759,
      "æĸ¹æ¡Ī": 1760,
      "éĤ®": 1761,
      "ç«¯": 1762,
      "éģĩ": 1763,
      "éĽ¨": 1764,
      "é¢ľ": 1765,
      "è¡Ĺ": 1766,
      "ä¼łç»Ł": 1767,
      "éĻĪ": 1768,
      "æľīæķĪ": 1769,
      "çĽĬ": 1770,
      "çıŃ": 1771,
      "æ£®": 1772,
      "ul": 1773,
      "æ°ı": 1774,
      "çİ¯ä¿Ŀ": 1775,
      "ä½ľåĵģ": 1776,
      "åĶ±": 1777,
      "æŃ¢": 1778,
      "æĦŁåĪ°": 1779,
      "å¾ħ": 1780,
      "è¡£": 1781,
      "ç´§": 1782,
      "è¿Ļæĺ¯": 1783,
      "è·Ł": 1784,
      "ch": 1785,
      "æķ£": 1786,
      "åĪ¶ä½ľ": 1787,
      "æ¬§": 1788,
      "éĺħ": 1789,
      "åĽłç´ł": 1790,
      "æ¯Ľ": 1791,
      "æł¸": 1792,
      "é¹": 1793,
      "ç»Ļåĩº": 1794,
      "é£Łçī©": 1795,
      "å®£": 1796,
      "çİ°ä»£": 1797,
      "åĩĨç¡®": 1798,
      "æīĭæľº": 1799,
      "çļĦåıĳå±ķ": 1800,
      "åĨ³çŃĸ": 1801,
      "ä¸¥": 1802,
      "æľīä¸Ģ": 1803,
      "æĢ§åĴĮ": 1804,
      "å¯Ł": 1805,
      "éĶĢåĶ®": 1806,
      "äºĨä¸Ģä¸ª": 1807,
      "åı¯ä»¥éĢļè¿ĩ": 1808,
      "ĠA": 1809,
      "æ¯ĶèµĽ": 1810,
      "æĢİ": 1811,
      "ä½ĵéªĮ": 1812,
      "ç»Ļå®ļ": 1813,
      "æ±½è½¦": 1814,
      "çĿ£": 1815,
      "ç©¿": 1816,
      "èĪ¬": 1817,
      "åģĩ": 1818,
      "æķ°åŃĹ": 1819,
      "å·¦": 1820,
      "åĪĨå¸ĥ": 1821,
      "çĶµè§Ĩ": 1822,
      "ä¼¯": 1823,
      "æ´Ľ": 1824,
      "ä¸įä»ħ": 1825,
      "ä¹ħ": 1826,
      "èīºæľ¯": 1827,
      "æĺ¯æĮĩ": 1828,
      "ä¹ĭåĲİ": 1829,
      "çļĦä¸»è¦ģ": 1830,
      "è¯Ħè®º": 1831,
      "ĠM": 1832,
      "äººæ°ĳ": 1833,
      "å®¶åºŃ": 1834,
      "æī¾åĪ°": 1835,
      "çīĽ": 1836,
      "éĨ": 1837,
      "ä»»ä½ķ": 1838,
      "çļĦéĩįè¦ģ": 1839,
      "è´Ŀ": 1840,
      "å¼Ł": 1841,
      "å°ļ": 1842,
      "çĸ¾": 1843,
      "ä½³": 1844,
      "é¡»": 1845,
      "æĵį": 1846,
      "ç®Ģåįķ": 1847,
      "Ġand": 1848,
      "åıĤåĬł": 1849,
      "æĭ¿": 1850,
      "åıĹåĪ°": 1851,
      "å¤įæĿĤ": 1852,
      "è¿Ļä¸Ģ": 1853,
      "æİªæĸ½": 1854,
      "æ°§": 1855,
      "ä¹Ŀ": 1856,
      "åī¯": 1857,
      "åĬª": 1858,
      "çĽĸ": 1859,
      "è¿Ļæ®µ": 1860,
      "åģľ": 1861,
      "ĠP": 1862,
      "ä¸ĸçºª": 1863,
      "æ¸Ĳ": 1864,
      "åĲī": 1865,
      "åĲĹ": 1866,
      "æĺ¯åľ¨": 1867,
      "å¤ľ": 1868,
      "é¸Ł": 1869,
      "åłĤ": 1870,
      "ur": 1871,
      "æ¨¡å¼ı": 1872,
      "äºĭä»¶": 1873,
      "éĩĩåıĸ": 1874,
      "åħ³æ³¨": 1875,
      "éĽ·": 1876,
      "æ²¹": 1877,
      "ä¸°": 1878,
      "çĦ¶èĢĮ": 1879,
      "æľĹ": 1880,
      "æĬĢèĥ½": 1881,
      "æ¢¦": 1882,
      "çĶ°": 1883,
      "æĿ¥è¶Ĭ": 1884,
      "åı³": 1885,
      "å¾ĹåĪ°": 1886,
      "æħ¢": 1887,
      "éĿĻ": 1888,
      "é³": 1889,
      "èĪª": 1890,
      "åİŁåĽł": 1891,
      "è¶ĬæĿ¥è¶Ĭ": 1892,
      "çĽ®åīį": 1893,
      "æī¿": 1894,
      "ä¼°": 1895,
      "11": 1896,
      "id": 1897,
      "åİĭåĬĽ": 1898,
      "å°Ŀ": 1899,
      "åĪ¤": 1900,
      "è¡¨æĺİ": 1901,
      "èĭ¹": 1902,
      "æĳĦ": 1903,
      "æĿĢ": 1904,
      "åĽ¢éĺŁ": 1905,
      "éĢĲ": 1906,
      "è½¦ç«Ļ": 1907,
      "st": 1908,
      "åĳ¼": 1909,
      "è¿ĺæľī": 1910,
      "Ġto": 1911,
      "èĭ¹æŀľ": 1912,
      "åĿļ": 1913,
      "å¥¶": 1914,
      "åĵģçīĮ": 1915,
      "é¥®é£Ł": 1916,
      "æłĩé¢ĺ": 1917,
      "éĺħè¯»": 1918,
      "éĤ£ä¹Ī": 1919,
      "ç¥ĸ": 1920,
      "éĩĩçĶ¨": 1921,
      "æŃ£ç¡®": 1922,
      "åŃ¦æł¡": 1923,
      "å§Ĩ": 1924,
      "é¦ĸåħĪ": 1925,
      "Ġ-": 1926,
      "ä¸īä¸ª": 1927,
      "çļĩ": 1928,
      "èĹı": 1929,
      "æĢ»ç»ĵ": 1930,
      "åĲįç§°": 1931,
      "ä¸ĢçĽ´": 1932,
      "lo": 1933,
      "æĶ»": 1934,
      "çļĦåºĶçĶ¨": 1935,
      "éħ¸": 1936,
      "éģ¿åħį": 1937,
      "éĩİ": 1938,
      "å·§": 1939,
      "å·Ŀ": 1940,
      "ä¸įèĥ½": 1941,
      "éĢģ": 1942,
      "éĶĻè¯¯": 1943,
      "é¡¹çĽ®": 1944,
      "ç³»åĪĹ": 1945,
      "åħ¬åı¸çļĦ": 1946,
      "é¡º": 1947,
      "å·¨": 1948,
      "äººçī©": 1949,
      "è¯º": 1950,
      "äº®": 1951,
      "é£İéĻ©": 1952,
      "åĩºäºĨ": 1953,
      "æ°¸": 1954,
      "ä»·åĢ¼": 1955,
      "ç¼ĸç¨ĭ": 1956,
      "æĤ¨çļĦ": 1957,
      "æľīåħ³": 1958,
      "æ·±åº¦åŃ¦ä¹ł": 1959,
      "èĥľ": 1960,
      "æ¯Ĵ": 1961,
      "èĽĭ": 1962,
      "æĿ¿": 1963,
      "èŃ": 1964,
      "åĲĪä½ľ": 1965,
      "åĭĴ": 1966,
      "ä½Ľ": 1967,
      "ä¿ĥ": 1968,
      "é¡¿": 1969,
      "èĥ½æºĲ": 1970,
      "åĴĸ": 1971,
      "å´": 1972,
      "éĵ¶": 1973,
      "è¯ŃéŁ³": 1974,
      "ä»¥ä¸ĭæĺ¯": 1975,
      "ig": 1976,
      "çĩ": 1977,
      "?\"": 1978,
      "å¸ĮæľĽ": 1979,
      "Th": 1980,
      "èĵĿ": 1981,
      "ç¤¼": 1982,
      "èŃ¦": 1983,
      "åĽ½éĻħ": 1984,
      "åķ¡": 1985,
      "çĵ¦": 1986,
      "ä½¿å¾Ĺ": 1987,
      "æ¶ī": 1988,
      "èģļ": 1989,
      "å°Ĩåħ¶": 1990,
      "è¦ģæ±Ĥ": 1991,
      "å¦Īå¦Ī": 1992,
      "æ³ķåĽ½": 1993,
      "å°ģ": 1994,
      "èģĮä¸ļ": 1995,
      "ç»¼": 1996,
      "é½": 1997,
      ",\"": 1998,
      "Ġn": 1999,
      "éĢĤåĲĪ": 2000,
      "æĹħæ¸¸": 2001,
      "ç³ĸ": 2002,
      "é²ģ": 2003,
      "æ¥¼": 2004,
      "éĴĪ": 2005,
      "çĸ¾çĹħ": 2006,
      "æ°´æŀľ": 2007,
      "å®Ī": 2008,
      "è·ĳ": 2009,
      "åĲ¸å¼ķ": 2010,
      "æĦ¿": 2011,
      "æĶ¹åıĺ": 2012,
      "æ´ģ": 2013,
      "åĬ±": 2014,
      "ç§ģ": 2015,
      "æīĺ": 2016,
      "åĴĸåķ¡": 2017,
      "çĶ²": 2018,
      "æİĪ": 2019,
      "èĳĹåĲį": 2020,
      "èĶ": 2021,
      "ä¸įä¼ļ": 2022,
      "æ²»çĸĹ": 2023,
      "æ±¡": 2024,
      "åĪĽéĢł": 2025,
      "çīĻ": 2026,
      "éĿ©": 2027,
      "çİĽ": 2028,
      "çĶŁåĳ½": 2029,
      "å½ĵåľ°": 2030,
      "um": 2031,
      "é©¶": 2032,
      "ĠB": 2033,
      "èİ±": 2034,
      ")ãĢģ": 2035,
      "åĩ½": 2036,
      "æķ°æį®éĽĨ": 2037,
      "ä¸ĢæŃ¥": 2038,
      "éĤ®ä»¶": 2039,
      "çĹĩ": 2040,
      "æ¯Ķè¾ĥ": 2041,
      "åĨ°": 2042,
      "å¡ŀ": 2043,
      "çĪ¸": 2044,
      "è¯¦": 2045,
      "åĳĺå·¥": 2046,
      "çī¹åĪ«": 2047,
      "åŁºç¡": 2048,
      "éļĲ": 2049,
      "ad": 2050,
      "ä½ľèĢħ": 2051,
      "é©¾": 2052,
      "å½¢æĪĲ": 2053,
      "èĭ±åĽ½": 2054,
      "im": 2055,
      "åŁºç¡Ģ": 2056,
      "æĸĩæľ¬ä¸Ń": 2057,
      "æľºä¼ļ": 2058,
      "æ³°": 2059,
      "16": 2060,
      "å¸¸è§ģ": 2061,
      "è§Ĵèī²": 2062,
      "åı¯ä»¥åľ¨": 2063,
      "é²ľ": 2064,
      "åĽ°": 2065,
      "å¿ĥçĲĨ": 2066,
      "çĶŁæĢģ": 2067,
      "å¤ļä¸ª": 2068,
      "åŁºæľ¬": 2069,
      "å¹¸": 2070,
      "é«ĺçļĦ": 2071,
      "è¿Ļç¯ĩ": 2072,
      "åĬªåĬĽ": 2073,
      "éģĹ": 2074,
      "é¥°": 2075,
      "ç«ŀ": 2076,
      "å¹´çļĦ": 2077,
      "æµª": 2078,
      "è¡ĮåĬ¨": 2079,
      "éĿł": 2080,
      "æ°ĶåĢĻåıĺåĮĸ": 2081,
      "ç£": 2082,
      "æģ©": 2083,
      "un": 2084,
      "ç»Ŀ": 2085,
      "è¿İ": 2086,
      "çĮ®": 2087,
      "è¯Ĺ": 2088,
      "åŃ¦åĲį": 2089,
      "åıĤä¸İ": 2090,
      "ç¤¾äº¤åªĴä½ĵ": 2091,
      "å½ĵæĹ¶": 2092,
      "åĨ²": 2093,
      "æĶ¿æ²»": 2094,
      "è¯¾": 2095,
      "èĪĴ": 2096,
      "åĽ¾åĥı": 2097,
      "æĭħä»»": 2098,
      "å¤©æ°Ķ": 2099,
      "è½½": 2100,
      "Ġ(": 2101,
      "åı°æ¹¾": 2102,
      "çľĭåĪ°": 2103,
      "æİĮ": 2104,
      "ve": 2105,
      "åĩ½æķ°": 2106,
      "å®«": 2107,
      "æĬĹ": 2108,
      "èĮĥåĽ´": 2109,
      "è½¯ä»¶": 2110,
      "åĬ©äºİ": 2111,
      "ce": 2112,
      "ay": 2113,
      "202": 2114,
      "!\"": 2115,
      "ä¸Ģæł·": 2116,
      "å¿«éĢŁ": 2117,
      "åĲ§": 2118,
      "ä¼ĺåĮĸ": 2119,
      "æµĭè¯ķ": 2120,
      "æĺ¯ä»Ģä¹Ī": 2121,
      "å®ŀéĻħ": 2122,
      "ä»¥ä¸Ĭ": 2123,
      "ç¼ĵ": 2124,
      "äººåĳĺ": 2125,
      "ä¸ĵä¸ļ": 2126,
      "è¡¡": 2127,
      "ç»ıéªĮ": 2128,
      "åıĺå¾Ĺ": 2129,
      "è´µ": 2130,
      "çī©è´¨": 2131,
      "è°ģ": 2132,
      "å½¢å¼ı": 2133,
      "æĢĿèĢĥ": 2134,
      "åľĨ": 2135,
      "é£Łåĵģ": 2136,
      "æĹ¶æľŁ": 2137,
      "å¿ħé¡»": 2138,
      "éĴŁ": 2139,
      "èĴĻ": 2140,
      "å®ĩ": 2141,
      "é¢Ŀ": 2142,
      "çļĦæĸ¹æ³ķ": 2143,
      "yth": 2144,
      "ä½Ļ": 2145,
      "ãĤ": 2146,
      "ot": 2147,
      "ä¼ĳ": 2148,
      "ä¾§": 2149,
      "åĩłä¸ª": 2150,
      "æ±ĩ": 2151,
      "éª¤": 2152,
      "æ¡¥": 2153,
      "å½©": 2154,
      "åĨ³å®ļ": 2155,
      "ãĥ": 2156,
      "åºĦ": 2157,
      "éĢı": 2158,
      "17": 2159,
      "èĢĮä¸Ķ": 2160,
      "åķĨåĵģ": 2161,
      "å·¥ç¨ĭ": 2162,
      "æĤ£": 2163,
      "é¢ľèī²": 2164,
      "éĢłæĪĲ": 2165,
      "ç»ª": 2166,
      "ç¥ŀç»ıç½ĳç»ľ": 2167,
      "æĦŁè§ī": 2168,
      "éĻĦ": 2169,
      "ä½įç½®": 2170,
      "éĵ¾": 2171,
      "åĨ·": 2172,
      "åľ¨è¿Ļä¸ª": 2173,
      "ç¥¨": 2174,
      "äº¦": 2175,
      "æİ¢ç´¢": 2176,
      "è®¨è®º": 2177,
      "è´¢": 2178,
      "å®ģ": 2179,
      "åĪĺ": 2180,
      "198": 2181,
      "çļĦå¤§": 2182,
      "åŃ©åŃĲ": 2183,
      "æĢ§èĥ½": 2184,
      "æ½ľ": 2185,
      "åºĶçĶ¨ç¨ĭåºı": 2186,
      "åĪ¶å®ļ": 2187,
      "æī§è¡Į": 2188,
      "æ±¡æŁĵ": 2189,
      "åķĬ": 2190,
      "æľīåĬ©äºİ": 2191,
      "çľł": 2192,
      "æľŁéĹ´": 2193,
      "ĠI": 2194,
      "èĻļ": 2195,
      "é¦Ļæ¸¯": 2196,
      "å®¹æĺĵ": 2197,
      "æŃ¥éª¤": 2198,
      "åĩºæĿ¥": 2199,
      "åĪĨä¸º": 2200,
      "åĿĲ": 2201,
      "åıªæľī": 2202,
      "çĥĪ": 2203,
      "è§ĤçĤ¹": 2204,
      "Ġis": 2205,
      "åŁ¹": 2206,
      "åĨł": 2207,
      "è¡Įä¸ļ": 2208,
      "ç»ıåİĨ": 2209,
      "æĵįä½ľ": 2210,
      "è·Ŀ": 2211,
      "é¼ĵ": 2212,
      "çĸ«": 2213,
      "éĩĳèŀį": 2214,
      "äººå·¥æĻºèĥ½æĬĢæľ¯": 2215,
      "Ġl": 2216,
      "ç½ĳç«Ļ": 2217,
      "æ¯Ķå¦Ĥ": 2218,
      "ç±»åĪ«": 2219,
      "è´Ńä¹°": 2220,
      "ython": 2221,
      "æĪĳä»¬éľĢè¦ģ": 2222,
      "æĥħåĨµä¸ĭ": 2223,
      "ä¹Łåı¯ä»¥": 2224,
      "ver": 2225,
      "éĢĶ": 2226,
      "è¯Ħä¼°": 2227,
      "å¹¶åľ¨": 2228,
      "é¡¶": 2229,
      "æĢİä¹Ī": 2230,
      "åħ¬éĩĮ": 2231,
      "ç§ĭ": 2232,
      "è°·": 2233,
      "æĶ¹åĸĦ": 2234,
      "è¾ĵåĩº": 2235,
      "éĽª": 2236,
      "è¯ī": 2237,
      "æĿ¡ä»¶": 2238,
      "ä»Ĭå¤©": 2239,
      "ä»¥ä¾¿": 2240,
      "èįĲ": 2241,
      "å¹³åı°": 2242,
      "åŁĥ": 2243,
      "çī©ç§į": 2244,
      "å¥¹çļĦ": 2245,
      "æĩ": 2246,
      "ag": 2247,
      "æĥĬ": 2248,
      "ir": 2249,
      "èĨ": 2250,
      "èĤ¡": 2251,
      "éĥ½æľī": 2252,
      "è¿ª": 2253,
      "ä¸Ńæĸĩ": 2254,
      "èĦļ": 2255,
      "éĻįä½İ": 2256,
      "é¡¾": 2257,
      "è¸": 2258,
      "åħ±åĲĮ": 2259,
      "æķĳ": 2260,
      "æ¾": 2261,
      "æ¶īåıĬ": 2262,
      "ĠL": 2263,
      "å¯»æī¾": 2264,
      "æ´ŀ": 2265,
      "è¿ĩç¨ĭä¸Ń": 2266,
      "åĲİæĿ¥": 2267,
      "æĿ¯": 2268,
      "æļ´": 2269,
      "è¿ĩåİ»": 2270,
      "ç§ĺ": 2271,
      "åĪº": 2272,
      "30": 2273,
      "ä¸Ģæ®µ": 2274,
      "os": 2275,
      "è¿Ľåħ¥": 2276,
      "æĺ¯çĶ±": 2277,
      "çĬ¶æĢģ": 2278,
      "æĿĲæĸĻ": 2279,
      "è¿ĻéĩĮ": 2280,
      "ter": 2281,
      "å°Ŀè¯ķ": 2282,
      "å¤ļç§į": 2283,
      "æĸĩåŃ¦": 2284,
      "è¯¦ç»Ĩ": 2285,
      "åĮĹäº¬": 2286,
      "èĩªçĶ±": 2287,
      "åĤ¨": 2288,
      "çļĦæķ°æį®": 2289,
      "æ¼«": 2290,
      "éĴ±": 2291,
      "çļĦæĹ¶åĢĻ": 2292,
      "é¤Ĳåİħ": 2293,
      "æĲľ": 2294,
      "ä¸ĢèĪ¬": 2295,
      "è´¥": 2296,
      "ä¸ģ": 2297,
      "æĿ°": 2298,
      "èĪŀ": 2299,
      "é¢ĺçĽ®": 2300,
      "ä¸ºä»Ģä¹Ī": 2301,
      "æĦıä¹ī": 2302,
      "å°¾": 2303,
      "åĳ¢": 2304,
      "æ©": 2305,
      "è´ŁéĿ¢": 2306,
      "åĩĨå¤ĩ": 2307,
      "äººåı£": 2308,
      "åĶĲ": 2309,
      "éĢŁåº¦": 2310,
      "æŀ¶": 2311,
      "èĸ": 2312,
      "æĪĲåĳĺ": 2313,
      "ec": 2314,
      "æ¦Ĥå¿µ": 2315,
      "......": 2316,
      "æİ¨èįĲ": 2317,
      "ĊĊ": 2318,
      "æĽ¼": 2319,
      "å¿Ĩ": 2320,
      "æĢ¥": 2321,
      "éĩįæĸ°": 2322,
      "æļĹ": 2323,
      "é£İæł¼": 2324,
      "é©¾é©¶": 2325,
      "æķ´ä¸ª": 2326,
      "ç§Ģ": 2327,
      "çĽ¸åħ³çļĦ": 2328,
      "æī©": 2329,
      "åĪĽæĸ°": 2330,
      "ç¨³": 2331,
      "ä¹Į": 2332,
      "æķ°éĩı": 2333,
      "ç¼©": 2334,
      "æ¶Īè´¹": 2335,
      "éª¨": 2336,
      "æľĢä½³": 2337,
      "åĪļ": 2338,
      "åĬłåħ¥": 2339,
      "ä»£çłģ": 2340,
      "æīįèĥ½": 2341,
      "åķĨä¸ļ": 2342,
      "ç»§ç»Ń": 2343,
      "å¹´è½»": 2344,
      "æĿ¥èĩª": 2345,
      "ç«¥": 2346,
      "ä¹İ": 2347,
      "æĬķèµĦ": 2348,
      "åĮĸçļĦ": 2349,
      "çĹĽ": 2350,
      "åı¯ä»¥ä½¿çĶ¨": 2351,
      "åĿ¦": 2352,
      "åŀĥ": 2353,
      "æ²Ł": 2354,
      "è¶ĭ": 2355,
      "åľ¾": 2356,
      "åŀĥåľ¾": 2357,
      "æĹħè¡Į": 2358,
      "ä¹ĭåīį": 2359,
      "å°½ç®¡": 2360,
      "çŃ¾": 2361,
      "å®ĥä»¬çļĦ": 2362,
      "ç¾İä¸½": 2363,
      "ä¸Ńåįİ": 2364,
      "èķ": 2365,
      "od": 2366,
      "æĶ¹è¿Ľ": 2367,
      "èģĶç½ĳ": 2368,
      "ow": 2369,
      "åıįåºĶ": 2370,
      "ç¹": 2371,
      "æľ«": 2372,
      "if": 2373,
      "èĭ±æĸĩ": 2374,
      "è§Ĩè§ī": 2375,
      "åľºæĻ¯": 2376,
      "ä»¥ä¸ĭéĹ®é¢ĺ": 2377,
      "èĦ¸": 2378,
      "\")": 2379,
      "æĥ¯": 2380,
      "åĿı": 2381,
      "æĽ´å¥½çļĦ": 2382,
      "æĹ§": 2383,
      "ä¸įåı¯": 2384,
      "æĪĲç«ĭ": 2385,
      "èĪ¹": 2386,
      "çĶļ": 2387,
      "çī¹çĤ¹": 2388,
      "æĹ¨": 2389,
      "æ¯ķ": 2390,
      "çļĦå°ı": 2391,
      "ç¹ģ": 2392,
      "åŃ¦éĻ¢": 2393,
      "å»¶": 2394,
      "è¿Ļåı¥è¯Ŀ": 2395,
      "æĸĹ": 2396,
      "éĢĢ": 2397,
      "çĶ¨çļĦ": 2398,
      "éĢĤåºĶ": 2399,
      "è¯Ħä»·": 2400,
      "æıĲä¾ĽäºĨ": 2401,
      "åį±": 2402,
      "éŃĶ": 2403,
      "åĲ¯": 2404,
      "éĿ¢ç§¯": 2405,
      "ç¢³": 2406,
      "ä¿ĥè¿Ľ": 2407,
      "åĲįä¸º": 2408,
      "åºĨ": 2409,
      "ä¸»ä¹ī": 2410,
      "åģı": 2411,
      "æłĩåĩĨ": 2412,
      "ä¸Ŀ": 2413,
      "æĭĶ": 2414,
      "æĮ¥": 2415,
      "åĬ³": 2416,
      "åħ¬åĽŃ": 2417,
      "è¿ŀæİ¥": 2418,
      "åįł": 2419,
      "è®©æĪĳ": 2420,
      "åħ´è¶£": 2421,
      "éĽħ": 2422,
      "ĠR": 2423,
      "æĽ¿": 2424,
      "ä»ĺ": 2425,
      "åĳĪ": 2426,
      "çĿ¡çľł": 2427,
      "ä¸ĬæľĢ": 2428,
      "14": 2429,
      "äº¤æµģ": 2430,
      "50": 2431,
      "ation": 2432,
      "çŃĸçķ¥": 2433,
      "ç©ºéĹ´": 2434,
      "±ä¹Ĳ": 2435,
      "å®ļä¹ī": 2436,
      "èĭ¥": 2437,
      "ç±į": 2438,
      "ä¹³": 2439,
      "èĿ": 2440,
      "èĥŀ": 2441,
      "åħĥç´ł": 2442,
      "å§Ķåĳĺ": 2443,
      "ç¬Ķ": 2444,
      "ç¼ĸåĨĻ": 2445,
      "çģ¯": 2446,
      "èĢģå¸Ī": 2447,
      "ä»·æł¼": 2448,
      "æĸĩæ¡Ī": 2449,
      "è·³": 2450,
      "æľĢè¿ĳ": 2451,
      "éŀ": 2452,
      "åı¯æĮģç»Ń": 2453,
      "ä¼´": 2454,
      "æĸ¹åĲĳ": 2455,
      "ä¸ĭæĿ¥": 2456,
      "å¤§åĪ©": 2457,
      "æ´Ĺ": 2458,
      "æ²ī": 2459,
      "å¯º": 2460,
      "çļĦæĥħæĦŁ": 2461,
      "èĭ±è¯Ń": 2462,
      "èİ«": 2463,
      "æľīäºĽ": 2464,
      "æķĪæŀľ": 2465,
      "çĤ¼": 2466,
      "çıł": 2467,
      "éĽĦ": 2468,
      "è°ĥæķ´": 2469,
      "è¡ĮæĶ¿": 2470,
      "åĨ¬": 2471,
      "è§£åĨ³æĸ¹æ¡Ī": 2472,
      "è¿·": 2473,
      "è¶ĭåĬ¿": 2474,
      "çİī": 2475,
      "éľ²": 2476,
      "æ»¡è¶³": 2477,
      "èģĶç³»": 2478,
      "ç¬¬ä¸ī": 2479,
      "çļĦçĶŁæ´»": 2480,
      "æĹ¶ä»£": 2481,
      "ç»ıå¸¸": 2482,
      "ä¸°å¯Į": 2483,
      "ä¸Ģæ¬¡": 2484,
      "å¹´ä»£": 2485,
      "æĭį": 2486,
      "è¿Ļéĥ¨": 2487,
      "èĥ¡": 2488,
      "ä¸įè¦ģ": 2489,
      "å¾Ħ": 2490,
      "çĶŁå¹³": 2491,
      "çī©çĲĨ": 2492,
      "æĺł": 2493,
      "çº½": 2494,
      "åŃĹç¬¦": 2495,
      "æıĲåĩº": 2496,
      "åĪ¶éĢł": 2497,
      "æ¯ıå¤©": 2498,
      "æ°´å¹³": 2499,
      "èĲ¥éĶĢ": 2500,
      "èĢ³": 2501,
      "èĭ¦": 2502,
      "èĥĮæĻ¯": 2503,
      "å®ŀä½ĵ": 2504,
      "è¿Ľä¸ĢæŃ¥": 2505,
      "é«ĺåº¦": 2506,
      "em": 2507,
      "åıĸå¾Ĺ": 2508,
      "åĴĮåħ¶ä»ĸ": 2509,
      "å¼ºè°ĥ": 2510,
      "å¼ķèµ·": 2511,
      "ap": 2512,
      "åħ¬åħ±": 2513,
      "ut": 2514,
      "è¡ĮæĺŁ": 2515,
      "çĨĬ": 2516,
      "æľºæŀĦ": 2517,
      "åĢĴ": 2518,
      "ĠT": 2519,
      "æŃĮæĽ²": 2520,
      "æĿ¨": 2521,
      "è´§": 2522,
      "èĴĤ": 2523,
      "å¢ŀå¼º": 2524,
      "ell": 2525,
      "ç²ī": 2526,
      "äºĭæĥħ": 2527,
      "çĨŁ": 2528,
      "è¿Ļä¸ªéĹ®é¢ĺ": 2529,
      "æĥħç»ª": 2530,
      "éŁ©": 2531,
      "op": 2532,
      "``": 2533,
      "æ··": 2534,
      "èª": 2535,
      "ä¸¹": 2536,
      "æī¹": 2537,
      "éĺ¶": 2538,
      "èĢħçļĦ": 2539,
      "æĢĢ": 2540,
      "å¿ĺ": 2541,
      "è¶³çĲĥ": 2542,
      "çģ¾": 2543,
      "è½®": 2544,
      "åħħæ»¡": 2545,
      "çĳŀ": 2546,
      "å¡ĳ": 2547,
      "ä¹Łæľī": 2548,
      "ĠD": 2549,
      "çĭ¬çī¹": 2550,
      "çļĦä¿¡æģ¯": 2551,
      "åĽº": 2552,
      "å¼¹": 2553,
      "åŃĻ": 2554,
      "åĮºåŁŁ": 2555,
      "og": 2556,
      "äººç±»çļĦ": 2557,
      "å¸Ń": 2558,
      "è¯Ĭ": 2559,
      "æĬ¥éģĵ": 2560,
      "çŀ": 2561,
      "ä¼ļè®®": 2562,
      "çĶ¨æĿ¥": 2563,
      "éĥ¡": 2564,
      "çļĦæĹ¶éĹ´": 2565,
      "èļ": 2566,
      "ä¸Ģå®ļ": 2567,
      "èĲ¥åħ»": 2568,
      "çĽĳçĿ£": 2569,
      "é»İ": 2570,
      "æįŁ": 2571,
      "13": 2572,
      "ä¹łæĥ¯": 2573,
      "è®¿": 2574,
      "ä»ĸåľ¨": 2575,
      "æ¢ħ": 2576,
      "è¿Ļç¯ĩæĸĩç«ł": 2577,
      "å°º": 2578,
      "åł¡": 2579,
      "ĠW": 2580,
      "ĠH": 2581,
      "æĬĢå·§": 2582,
      "çļĦæĬĢæľ¯": 2583,
      "å°ıæĺİ": 2584,
      "è®°å½ķ": 2585,
      "æĲľç´¢": 2586,
      "ä¹ĺ": 2587,
      "æĦıæĢĿ": 2588,
      "éº¦": 2589,
      "ä¸Ģä¸ĭ": 2590,
      "éĻ¤äºĨ": 2591,
      "å¤®": 2592,
      "çĽŁ": 2593,
      "æ¸©åº¦": 2594,
      "è´¡": 2595,
      "ç»ıè¿ĩ": 2596,
      "è¿Ľè¡ĮåĪĨç±»": 2597,
      "The": 2598,
      "åĲİçļĦ": 2599,
      "çĽĺ": 2600,
      "åŃĹæ¯į": 2601,
      "ĠG": 2602,
      "çĽ¸ä¼¼": 2603,
      "æģ¶": 2604,
      "100": 2605,
      "å¯¹è¯Ŀ": 2606,
      "Python": 2607,
      "éļĨ": 2608,
      "åĬĽåĴĮ": 2609,
      "å©ļ": 2610,
      "ä½¿åħ¶": 2611,
      "è¾Ĩ": 2612,
      "ç¡¬": 2613,
      "è§īå¾Ĺ": 2614,
      "äºĮåįģ": 2615,
      "ç©ºæ°Ķ": 2616,
      "å°Ĭ": 2617,
      "éĴĪå¯¹": 2618,
      "çĦ¦": 2619,
      "çĶµèĦĳ": 2620,
      "ç«ŀäºī": 2621,
      "åħ±åĴĮ": 2622,
      "è¾ĸ": 2623,
      "è¯´æĺİ": 2624,
      "åĪĽå»º": 2625,
      "èĪĴéĢĤ": 2626,
      "ä¸²": 2627,
      "Ġg": 2628,
      "è´Łè´£": 2629,
      "ä¿Ħ": 2630,
      "çļĦå·¥ä½ľ": 2631,
      "æĬ½": 2632,
      "çĽ´æİ¥": 2633,
      "ç¤¾åĮº": 2634,
      "èī¾": 2635,
      "çĸĳ": 2636,
      "197": 2637,
      "è¿ĺåı¯ä»¥": 2638,
      "å¹¿åĳĬ": 2639,
      "orm": 2640,
      "èĮ¶": 2641,
      "æ¼Ķåĳĺ": 2642,
      "éĿ¢çļĦ": 2643,
      "è·Ŀç¦»": 2644,
      "ç©Ĩ": 2645,
      "åĲįåŃĹ": 2646,
      "åį·": 2647,
      "æ±ł": 2648,
      "å®½": 2649,
      "èį£": 2650,
      "åĩºçĶŁ": 2651,
      "èĩªæĪĳ": 2652,
      "åĮĸåŃ¦": 2653,
      "æł¹æį®ç»Ļå®ļçļĦ": 2654,
      "ä»Ģä¹Īæĺ¯": 2655,
      "æĥ³æ³ķ": 2656,
      "æĮīçħ§": 2657,
      "æŁĶ": 2658,
      "åĿĢ": 2659,
      "æİĴæĶ¾": 2660,
      "æĿŁ": 2661,
      "æŁĲäºĽ": 2662,
      "äº¡": 2663,
      "çĪ¶äº²": 2664,
      "æĦıè¯Ĩ": 2665,
      "åľ°æĸ¹": 2666,
      "éģį": 2667,
      "éĺµ": 2668,
      "ä¸įè¿ĩ": 2669,
      "åĪĨåĪ«": 2670,
      "å£°éŁ³": 2671,
      "å¼Ĺ": 2672,
      "éĢĴ": 2673,
      "å±Ĭ": 2674,
      "èĻ«": 2675,
      "æİ¥åıĹ": 2676,
      "æ¬¢è¿İ": 2677,
      "éĢĲæ¸Ĳ": 2678,
      "é¸¡": 2679,
      "å±ĭ": 2680,
      "çº¸": 2681,
      "æ²¿": 2682,
      "é»ĺ": 2683,
      "ç±»ä¼¼": 2684,
      "æĳ©": 2685,
      "åģļåĩº": 2686,
      "çļĦæĸĩç«ł": 2687,
      "ç»Ĩèĥŀ": 2688,
      "éļľ": 2689,
      "æĢķ": 2690,
      "âĢĶâĢĶ": 2691,
      "éĶ»": 2692,
      "çĭ¬ç«ĭ": 2693,
      "åĮ»çĶŁ": 2694,
      "å²¸": 2695,
      "åŃ¦ä¹łåĴĮ": 2696,
      "çļĦæĸ¹å¼ı": 2697,
      "èµı": 2698,
      "åį°åº¦": 2699,
      "èĦ±": 2700,
      "å§ĵ": 2701,
      "ä¸ļåĬ¡": 2702,
      "ia": 2703,
      "å«": 2704,
      "çŁŃè¯Ń": 2705,
      "æĭĽ": 2706,
      "åºŁ": 2707,
      "æľºåĻ¨äºº": 2708,
      "æķ°åŃ¦": 2709,
      "å°¤": 2710,
      "æĹ¥å¸¸": 2711,
      "åĺī": 2712,
      "èµŀ": 2713,
      "è¯Ńæ³ķ": 2714,
      "åįĪ": 2715,
      "éĶ»çĤ¼": 2716,
      "å®Įåħ¨": 2717,
      "è®²è¿°": 2718,
      "çĲĨè®º": 2719,
      "ç¿»è¯ĳæĪĲ": 2720,
      "æĬĺ": 2721,
      "äºĴèģĶç½ĳ": 2722,
      "äº«åıĹ": 2723,
      "åĭĩ": 2724,
      "ä¸¥éĩį": 2725,
      "åĸĿ": 2726,
      "èı²": 2727,
      "é¥Ń": 2728,
      "éĢīé¡¹": 2729,
      "åħĦ": 2730,
      "å°¼äºļ": 2731,
      "ri": 2732,
      "åºĶçĶ¨äºİ": 2733,
      "ãĢĭ(": 2734,
      "çİ°å®ŀ": 2735,
      "æ·»": 2736,
      "ä¸Ńå¤®": 2737,
      "è¶ħè¿ĩ": 2738,
      "åħ±åĴĮåĽ½": 2739,
      "é«ĺæķĪ": 2740,
      "çĽ¸å¯¹": 2741,
      "å¦Ĥä¸ĭ": 2742,
      "çļĦä¸Ģç§į": 2743,
      "é½Ĳ": 2744,
      "è¡¥": 2745,
      "çĶľ": 2746,
      "æĦıåĳ³": 2747,
      "éĤ£äºĽ": 2748,
      "çĽĽ": 2749,
      "åĬłå¼º": 2750,
      "ĠF": 2751,
      "æł¹æį®ä»¥ä¸ĭ": 2752,
      "æĬĢæľ¯çļĦ": 2753,
      "Ġe": 2754,
      "çļĦæĸĩæľ¬": 2755,
      "è§ĦåĪĻ": 2756,
      "æ°Ķä½ĵ": 2757,
      "è¡ĮçļĦ": 2758,
      "èĳĹåĲįçļĦ": 2759,
      "åı¦å¤ĸ": 2760,
      "ç»©": 2761,
      "ä¹±": 2762,
      "æ°§åĮĸ": 2763,
      "åĵªäºĽ": 2764,
      "é¼ĵåĬ±": 2765,
      "æķı": 2766,
      "å¹¶ä¸į": 2767,
      "ä¹Łä¸į": 2768,
      "ä¹Ķ": 2769,
      "æĺİç¡®": 2770,
      "ç§ĳåŃ¦å®¶": 2771,
      "èªī": 2772,
      "å¾ª": 2773,
      "åĹ": 2774,
      "åıªæĺ¯": 2775,
      "å¹¸ç¦ı": 2776,
      "ç»ĻæĪĳ": 2777,
      "196": 2778,
      "ç½ª": 2779,
      "ç¨ĭåº¦": 2780,
      "åĽłä¸ºå®ĥ": 2781,
      "ä¸Ģä½į": 2782,
      "åĳĬè¯ī": 2783,
      "av": 2784,
      "æ¶²": 2785,
      "æ½®": 2786,
      "å®ŀéªĮ": 2787,
      "å¸¸è§ģçļĦ": 2788,
      "ä¸ľè¥¿": 2789,
      "é¢Ĩå¯¼": 2790,
      "ç²¾ç¥ŀ": 2791,
      "åıĳå¸ĥ": 2792,
      "çĩĥ": 2793,
      "æ»ĳ": 2794,
      "éķ¿çļĦ": 2795,
      "åºĶå¯¹": 2796,
      "å¼ĥ": 2797,
      "åĪ¤æĸŃ": 2798,
      "åĪĽä½ľ": 2799,
      "æı¡": 2800,
      "æ²ŁéĢļ": 2801,
      "ä»įçĦ¶": 2802,
      "æĪĲæľ¬": 2803,
      "éªĳ": 2804,
      "å¿Ļ": 2805,
      "åıĺæļĸ": 2806,
      "ä¸ĢåĲį": 2807,
      "å¦¹": 2808,
      "éĨĴ": 2809,
      "æŃ£å¼ı": 2810,
      "çĶļèĩ³": 2811,
      "åīĳ": 2812,
      "ang": 2813,
      "è§¦": 2814,
      "è¿Ļéĥ¨çĶµå½±": 2815,
      "ä»¥ä¸ĭæĺ¯ä¸Ģ": 2816,
      "åĨĻä½ľ": 2817,
      "å®Ļ": 2818,
      "éĥİ": 2819,
      "å¥ı": 2820,
      "åĪĹè¡¨": 2821,
      "ĠE": 2822,
      "çŃīæĸ¹éĿ¢": 2823,
      "éĿ¢ä¸´": 2824,
      "çĪ·": 2825,
      "çĬ¯": 2826,
      "åĩºçļĦ": 2827,
      "å¥Ĺ": 2828,
      "æĶ¿çŃĸ": 2829,
      "æİ¢è®¨": 2830,
      "å¹ķ": 2831,
      "æĦıåĳ³çĿĢ": 2832,
      "éľĩ": 2833,
      "èıĮ": 2834,
      "è¢«è®¤ä¸º": 2835,
      "çľŁçļĦ": 2836,
      "æľīçļĦ": 2837,
      "å·¥ä¸ļ": 2838,
      "ãĢĭ,": 2839,
      "èĤ¯": 2840,
      "åĬĽçļĦ": 2841,
      "æĶ¾æĿ¾": 2842,
      "å¹»": 2843,
      "çĽ¸åĲĮ": 2844,
      "è¯¢": 2845,
      "å²©": 2846,
      "est": 2847,
      "æ£ĢæŁ¥": 2848,
      "çŃīé¢ĨåŁŁ": 2849,
      "éĢĥ": 2850,
      "å¹³è¡¡": 2851,
      "æ¯ķä¸ļ": 2852,
      "åİļ": 2853,
      "æ¸ħæĻ": 2854,
      "ĠN": 2855,
      "çĪ±æĥħ": 2856,
      "èĶ¬": 2857,
      "å°Ĩä»¥ä¸ĭ": 2858,
      "æİ¨å¹¿": 2859,
      "è°Ī": 2860,
      "èī¯å¥½çļĦ": 2861,
      "):": 2862,
      "è±Ĩ": 2863,
      "å¾·åĽ½": 2864,
      "æŃ£ç¡®çļĦ": 2865,
      "åħ¨åĽ½": 2866,
      "æĲŃ": 2867,
      "ãĢį,": 2868,
      "ĠĠ": 2869,
      "æ¨¡æĭŁ": 2870,
      "å¤ļçļĦ": 2871,
      "æĸĩåŃĹ": 2872,
      "ä¹Łä¼ļ": 2873,
      "æľ±": 2874,
      "è¯ĬæĸŃ": 2875,
      "ðŁ": 2876,
      "å¸Ĥéķĩ": 2877,
      "äºİæĺ¯": 2878,
      "åŃ¤": 2879,
      "èĦī": 2880,
      "æģĲ": 2881,
      "ä¸Ĭæµ·": 2882,
      "çļĦæķħäºĭ": 2883,
      "å®ĭ": 2884,
      "æµ·æ´ĭ": 2885,
      "æ£®æŀĹ": 2886,
      "ä»¿": 2887,
      "ä»¤äºº": 2888,
      "çī¹å®ļ": 2889,
      "å¼ĢæĶ¾": 2890,
      "æĹłè®º": 2891,
      "æĺ¾ç¤º": 2892,
      "è¯ŃéŁ³è¯ĨåĪ«": 2893,
      "é¢Ĺ": 2894,
      "åį¢": 2895,
      "åŃ¦å®¶": 2896,
      "åĽŀçŃĶä»¥ä¸ĭéĹ®é¢ĺ": 2897,
      "æľīè¶£": 2898,
      "è§ĦåĪĴ": 2899,
      "æľīä¸Ģä¸ª": 2900,
      "æľĢå¤§çļĦ": 2901,
      "å®ĩå®Ļ": 2902,
      "å¹³æĸ¹": 2903,
      "æł¸å¿ĥ": 2904,
      "éĹŃ": 2905,
      "å¤§å®¶": 2906,
      "å¯¿": 2907,
      "åŃĲçļĦ": 2908,
      "æłĸ": 2909,
      "è¾¾åĪ°": 2910,
      "è¢«ç§°ä¸º": 2911,
      "æĹĭ": 2912,
      "æľªæĿ¥çļĦ": 2913,
      "åľ¨çº¿": 2914,
      "è½¬æį¢": 2915,
      "ab": 2916,
      "ess": 2917,
      "åīĤ": 2918,
      "ç¿°": 2919,
      "çİ°è±¡": 2920,
      "åºĬ": 2921,
      "æĢĿæĥ³": 2922,
      "qu": 2923,
      "èĶ¬èıľ": 2924,
      "è¶³å¤Ł": 2925,
      "åīįå¾Ģ": 2926,
      ",),": 2927,
      "oh": 2928,
      "æĪĲä¸ºäºĨ": 2929,
      "194": 2930,
      "èĥ½éĩı": 2931,
      "æİī": 2932,
      "all": 2933,
      "åı¯èĥ½æĺ¯": 2934,
      "æĬ¥åĳĬ": 2935,
      "å¿«ä¹Ĳ": 2936,
      "æ¯ıä¸ªäºº": 2937,
      "è°ĥæŁ¥": 2938,
      "ä»¥ç¡®ä¿Ŀ": 2939,
      "çļĦä¸»é¢ĺ": 2940,
      "å®¾": 2941,
      "æĪĺäºī": 2942,
      "éĢĤå½ĵ": 2943,
      "25": 2944,
      "å¤§éĻĨ": 2945,
      "æĥ³è¦ģ": 2946,
      "è´Ńçī©": 2947,
      "åĪĨäº«": 2948,
      "ç¾İé£Ł": 2949,
      "å¨±ä¹Ĳ": 2950,
      "é¼ł": 2951,
      "è¯įæ±ĩ": 2952,
      "é¡µ": 2953,
      "æĽ¾ç»ı": 2954,
      "æ¬§æ´²": 2955,
      "è¿¹": 2956,
      "éŀĭ": 2957,
      "æį·": 2958,
      "å¿ł": 2959,
      "Ġre": 2960,
      "éĻĲåĪ¶": 2961,
      "åĸľæ¬¢çļĦ": 2962,
      "éģŃ": 2963,
      "æĿ¥æºĲ": 2964,
      "äºĪ": 2965,
      "çļĦåľ°æĸ¹": 2966,
      "å¿ħè¦ģ": 2967,
      "èµĸ": 2968,
      "æĭ¼": 2969,
      "çĶŁéķ¿": 2970,
      "è¿Ļæ®µæĸĩæľ¬": 2971,
      "ç»ĺ": 2972,
      "åĽŀçŃĶéĹ®é¢ĺ": 2973,
      "èĩªè¡Į": 2974,
      "æĹĹ": 2975,
      "æĥħèĬĤ": 2976,
      "æķ°æį®çļĦ": 2977,
      "å±ķç¤º": 2978,
      "è¿ĽæŃ¥": 2979,
      "éĥ½ä¼ļ": 2980,
      "èĦĤ": 2981,
      "éĵģè·¯": 2982,
      "çıį": 2983,
      "æ·¡": 2984,
      "ç»ĵåĲĪ": 2985,
      "åĽ°éļ¾": 2986,
      "è¯»èĢħ": 2987,
      "çĬ¶åĨµ": 2988,
      "è´¡çĮ®": 2989,
      "åįģåĪĨ": 2990,
      "æ·±åħ¥": 2991,
      "åĳ¼åĲ¸": 2992,
      "åĪĨç±»ä¸º": 2993,
      "åĢŁ": 2994,
      "éĤ¦": 2995,
      "ä½ĵèĤ²": 2996,
      "åĲ´": 2997,
      "æľīçĿĢ": 2998,
      "åĨĴ": 2999,
      "æ¾³": 3000,
      "æŃ£éĿ¢": 3001,
      "æĹģ": 3002,
      "è®¾ç½®": 3003,
      "æįķ": 3004,
      "åĮ»åŃ¦": 3005,
      "è¢ĭ": 3006,
      "åĲĮæĹ¶ä¹Ł": 3007,
      "è¯¸": 3008,
      "ç»¿èī²": 3009,
      "çº½çº¦": 3010,
      "åįķä½į": 3011,
      "çĥŁ": 3012,
      "ä½łä»¬": 3013,
      "èµ«": 3014,
      "åħ¨çĲĥåıĺæļĸ": 3015,
      "æ£Ĵ": 3016,
      "æĸĩæľ¬ä¸ŃçļĦ": 3017,
      "åħ¼": 3018,
      "æĸ¯çī¹": 3019,
      "ç»ĥä¹ł": 3020,
      "åŃĺåĤ¨": 3021,
      "ence": 3022,
      "åı¯ä»¥è¢«": 3023,
      "å¹³åĿĩ": 3024,
      "éĹ®é¢ĺçļĦ": 3025,
      "é¾Ħ": 3026,
      "æ»©": 3027,
      "å¸ģ": 3028,
      "èĬĤçĽ®": 3029,
      "éķľ": 3030,
      "æĬ±": 3031,
      "æµ·æĭĶ": 3032,
      "è§Ĩé¢ĳ": 3033,
      "è¿ĲåĬ¨åĳĺ": 3034,
      "åĪĨå¸ĥäºİ": 3035,
      "çĥ§": 3036,
      "çī©åĵģ": 3037,
      "çļĦä¸»": 3038,
      "é³į": 3039,
      "éŁ¦": 3040,
      "ç¦ģ": 3041,
      "æ´ª": 3042,
      "åĵº": 3043,
      "ç§»åĬ¨": 3044,
      "ä¸ĭçļĦ": 3045,
      "éģĵè·¯": 3046,
      "è¿Ķ": 3047,
      "è®©äºº": 3048,
      "èĢ¶": 3049,
      "åĶ¯": 3050,
      "æķ¢": 3051,
      "çĽ´åĪ°": 3052,
      "èį·": 3053,
      "åİĤ": 3054,
      "ä¸Ģä¸ªäºº": 3055,
      "ç¦»å¼Ģ": 3056,
      "å¤ļæł·": 3057,
      "æ¸ħæĻ°": 3058,
      "èĽĭçĻ½": 3059,
      "éĺ³åħī": 3060,
      "æĹ¨åľ¨": 3061,
      "å°ıæĹ¶": 3062,
      "ä¾ĭåŃĲ": 3063,
      "èĢĲ": 3064,
      "å»ºè®¾": 3065,
      "æ¡£": 3066,
      "è§Ħæ¨¡": 3067,
      "èĮ¨": 3068,
      "one": 3069,
      "æµĵ": 3070,
      "åģ¥åº·çļĦ": 3071,
      "çģŃ": 3072,
      "æ¯įäº²": 3073,
      "éĩĮçļĦ": 3074,
      "æĺ¯ä¸ŃåĽ½": 3075,
      "ant": 3076,
      "ç¼ĺ": 3077,
      "éĽ¶": 3078,
      "åĩºçīĪ": 3079,
      "è®ºæĸĩ": 3080,
      "å¤§éĩıçļĦ": 3081,
      "åĨħçļĦ": 3082,
      "äº¿": 3083,
      "ç½Ĺæĸ¯": 3084,
      "èĩªåĬ¨åĮĸ": 3085,
      "å°Ĩä¼ļ": 3086,
      "æİ¨åĬ¨": 3087,
      "äººå·¥æĻºèĥ½çļĦ": 3088,
      "195": 3089,
      "çĹħæ¯Ĵ": 3090,
      "çĿĽ": 3091,
      "éķ¿æľŁ": 3092,
      "åĬĽéĩı": 3093,
      "åĲĪéĢĤ": 3094,
      "è®°å¿Ĩ": 3095,
      "æ±¤": 3096,
      "å¥ĭ": 3097,
      "èģĶåĲĪ": 3098,
      "ä»Ķ": 3099,
      "æĢĿç»´": 3100,
      "åŃĹç¬¦ä¸²": 3101,
      "å®ł": 3102,
      "ak": 3103,
      "èĻİ": 3104,
      "ç»ıåħ¸": 3105,
      "åľ°çļĦ": 3106,
      "åįĹéĥ¨": 3107,
      "å§Ĳ": 3108,
      "åĮ¹": 3109,
      "ç«¹": 3110,
      "å¾¡": 3111,
      "å¥³æĢ§": 3112,
      "ä»ª": 3113,
      "è¿ģ": 3114,
      "çªģçĦ¶": 3115,
      "ç¬¦åĲĪ": 3116,
      "åĩıè½»": 3117,
      "æĭľ": 3118,
      "æĸ¹ä¾¿": 3119,
      "Ġst": 3120,
      "ç¨³å®ļ": 3121,
      "è¯ļ": 3122,
      "æĥł": 3123,
      "æĦŁåıĹ": 3124,
      "éļĲç§ģ": 3125,
      "çĶŁæĢģç³»ç»Ł": 3126,
      "éº»": 3127,
      "æķ¬": 3128,
      "çŁ¿": 3129,
      "çĪĨ": 3130,
      "çģ°": 3131,
      "ä¸ĸçķĮä¸ĬæľĢ": 3132,
      "æīĢè¿°": 3133,
      "æĪ´": 3134,
      "å¼±": 3135,
      "Ġåľ¨": 3136,
      "å®¶æĹı": 3137,
      "æľĢå¤§": 3138,
      "å®¡": 3139,
      "æ²ĥ": 3140,
      "åĪĢ": 3141,
      "æĢ»çļĦ": 3142,
      "Ġy": 3143,
      "ç§¯æŀģçļĦ": 3144,
      "çĽĲ": 3145,
      "çĥ¤": 3146,
      "æĻĭ": 3147,
      "æ³½": 3148,
      "æĪĳä¼ļ": 3149,
      "ith": 3150,
      "æ·»åĬł": 3151,
      "åįģäºĮ": 3152,
      "ç»¼ä¸Ĭ": 3153,
      "è·¨": 3154,
      "åĮĹéĥ¨": 3155,
      "çĶĺ": 3156,
      "ä½ĵçļĦ": 3157,
      "åĵºä¹³": 3158,
      "çľŁæŃ£": 3159,
      "èĦı": 3160,
      "äº¤æĺĵ": 3161,
      "çĽ¸ä¿¡": 3162,
      "æĢª": 3163,
      "éĻĦè¿ĳ": 3164,
      "å¢ŀéķ¿": 3165,
      "ãĢįãĢĤ": 3166,
      "è½¨": 3167,
      "éľį": 3168,
      "çĽ¸äºĴ": 3169,
      "are": 3170,
      "è¿Ļæĺ¯ä¸Ģ": 3171,
      "äºĨè®¸å¤ļ": 3172,
      "æ¢ģ": 3173,
      "Ġr": 3174,
      "æĢ»çļĦæĿ¥è¯´": 3175,
      "000": 3176,
      "çĽ®çļĦ": 3177,
      "æĩĤ": 3178,
      "æĦıå¤§åĪ©": 3179,
      "æľ¬æĸĩ": 3180,
      "éĿ¢å¯¹": 3181,
      "æĺ¯ä¸Ģä½į": 3182,
      "è½¦è¾Ĩ": 3183,
      "ä¸ĭæĸĩ": 3184,
      "èĩ³å°ĳ": 3185,
      "å®¶å±ħ": 3186,
      "çº¯": 3187,
      "çļĦä¸Ģéĥ¨åĪĨ": 3188,
      "çº¢èī²": 3189,
      "éļĶ": 3190,
      "åı¯ä»¥è®©": 3191,
      "æģĴ": 3192,
      "çľ¼çĿĽ": 3193,
      "æĶ¶éĽĨ": 3194,
      "åıĹæ¬¢è¿İ": 3195,
      "è§Ĥä¼Ĺ": 3196,
      "ĠJ": 3197,
      "éĤ»": 3198,
      "ä¸Ģä»½": 3199,
      "è®¢": 3200,
      "NA": 3201,
      "ist": 3202,
      "åºĻ": 3203,
      "è·µ": 3204,
      "æĢ»æĺ¯": 3205,
      "åıĳæĺİ": 3206,
      "ä¿Ŀåģ¥": 3207,
      "ç»Łè®¡": 3208,
      "åĲįè¯į": 3209,
      "éļ¶": 3210,
      "æľīéĻĲ": 3211,
      "ers": 3212,
      "å§Ķåĳĺä¼ļ": 3213,
      "åľ¨ä¸Ģèµ·": 3214,
      "è¡¨éĿ¢": 3215,
      "æķ¦": 3216,
      "pp": 3217,
      "è¿Ļæĺ¯ä¸Ģä¸ª": 3218,
      "åº¦åĴĮ": 3219,
      "Ġde": 3220,
      "æ®Ĭ": 3221,
      "çļĦçłĶç©¶": 3222,
      "èĩ£": 3223,
      "çĶ·åŃĲ": 3224,
      "ä¼łæĴŃ": 3225,
      "çĶŁæ´»ä¸Ń": 3226,
      "åİ»äºĨ": 3227,
      "å½Ĵç±»": 3228,
      "åŃĶ": 3229,
      "åŁºåĽł": 3230,
      "åĢ¾": 3231,
      "æ³³": 3232,
      "å®ľ": 3233,
      "åĨłåĨĽ": 3234,
      "å¾Īå¥½": 3235,
      "å¤ıåŃ£": 3236,
      "æ¹¿": 3237,
      "æĦī": 3238,
      "å·´é»İ": 3239,
      "å¤ļæķ°": 3240,
      "åĲĦä¸ª": 3241,
      "ä¸Ĭåįĩ": 3242,
      "è§Ī": 3243,
      "æĪĲéķ¿": 3244,
      "ç¼ĸè¾ĳ": 3245,
      "èĤ¥": 3246,
      "éĺ´": 3247,
      "çĶµåŃĲéĤ®ä»¶": 3248,
      "æ¥ļ": 3249,
      "çĶŁæĪĲä¸Ģä¸ª": 3250,
      "è®¾æĸ½": 3251,
      "å®ĥæĺ¯": 3252,
      "eb": 3253,
      "å°ıçļĦ": 3254,
      "24": 3255,
      "æŃĮè¯į": 3256,
      "çĪ¸çĪ¸": 3257,
      "æĢ»ç»Ł": 3258,
      "åĨħéĥ¨": 3259,
      "çĶ³": 3260,
      "ç®Ģæ´ģ": 3261,
      "è¿Ļé¦ĸ": 3262,
      "é¦Ī": 3263,
      "åĮºåĿĹ": 3264,
      "å¡ĳæĸĻ": 3265,
      "æ¶Īè´¹èĢħ": 3266,
      "ain": 3267,
      "çĶŁåŃĺ": 3268,
      "èĩªåĬ¨é©¾é©¶": 3269,
      "åı¥åŃĲä¸Ń": 3270,
      "å¤ªç©º": 3271,
      "éĴ¢": 3272,
      "å¸ķ": 3273,
      "åĳ¨åĽ´": 3274,
      "ill": 3275,
      "æ³¡": 3276,
      "ç®±": 3277,
      "äº§åĵģçļĦ": 3278,
      "ç»¼ä¸ĬæīĢè¿°": 3279,
      "åĪĨéĴŁ": 3280,
      "åĵ²": 3281,
      "ä¸Ģå¹´": 3282,
      "äººæ°ĳåħ±åĴĮåĽ½": 3283,
      "å®ŀè·µ": 3284,
      "å¦ĤæŃ¤": 3285,
      "éĩıåŃĲ": 3286,
      "æºª": 3287,
      "ç´«": 3288,
      "ç»ķ": 3289,
      "éĢ»": 3290,
      "åĩ¯": 3291,
      "äººåĲį": 3292,
      "ohn": 3293,
      "åľĪ": 3294,
      "å¤§èĦĳ": 3295,
      "åĳ½åĲį": 3296,
      "åıĤæķ°": 3297,
      "åįĸ": 3298,
      "æĹ¢": 3299,
      "å±ŀçļĦ": 3300,
      "ä¸ªæĢ§": 3301,
      "uc": 3302,
      "å¿½": 3303,
      "æ¬£": 3304,
      "ok": 3305,
      "åĲĽ": 3306,
      "å¦Ĥæŀľä½ł": 3307,
      "æ¨¡åŀĭçļĦ": 3308,
      "oc": 3309,
      "èµµ": 3310,
      "form": 3311,
      "åĬ¨ä½ľ": 3312,
      "æ»¡æĦı": 3313,
      "èĤ¤": 3314,
      "å½¢å®¹": 3315,
      "art": 3316,
      "ä¸īå¹´": 3317,
      "å¦»": 3318,
      "ä½¿çĶ¨çļĦ": 3319,
      "æī¬": 3320,
      "æ¶¦": 3321,
      "å¤§æ°Ķ": 3322,
      "è®¡ç®Ĺæľºç§ĳåŃ¦": 3323,
      "ä¸ĭåĪĹ": 3324,
      "å½¼": 3325,
      "åĬŀåħ¬": 3326,
      "æ´¥": 3327,
      "à¸": 3328,
      "æıĲåĪ°": 3329,
      "æĿľ": 3330,
      "ãĢģ\"": 3331,
      "ç»¼åĲĪ": 3332,
      "æĺİæĺ¾": 3333,
      "è¡¨æ¼Ķ": 3334,
      "è¿ħ": 3335,
      "çł´åĿı": 3336,
      "ç®ĢåįķçļĦ": 3337,
      "ä¼¸": 3338,
      "è¹": 3339,
      "æıĲåįĩ": 3340,
      "èĤĮ": 3341,
      "ç»ĵæĿŁ": 3342,
      "è½»æĿ¾": 3343,
      "ç¾½": 3344,
      "çº¹": 3345,
      "ä½©": 3346,
      "çĪ±çļĦ": 3347,
      "å°¤åħ¶": 3348,
      "åŃ¦ä¼ļ": 3349,
      "çº¦ç¿°": 3350,
      "æ³ķå¾ĭ": 3351,
      "æĪĳä¸į": 3352,
      "å¹¼": 3353,
      "ä¸ŃæľĢ": 3354,
      "çĺ": 3355,
      "çªĹ": 3356,
      "our": 3357,
      "åįļçī©": 3358,
      "çļĦåħ³éĶ®": 3359,
      "å·¨å¤§çļĦ": 3360,
      "èĩªè¡Įè½¦": 3361,
      "çĭ¬çī¹çļĦ": 3362,
      "æľµ": 3363,
      "æłĸæģ¯": 3364,
      "æķĮ": 3365,
      "ãĢĭãĢĤ": 3366,
      "çĵľ": 3367,
      "ula": 3368,
      "æīĢæľīçļĦ": 3369,
      "ç»´æĬ¤": 3370,
      "ans": 3371,
      "äºĨä¸ĢäºĽ": 3372,
      "è¯¾ç¨ĭ": 3373,
      "ç»ĦåĲĪ": 3374,
      "æ¶¯": 3375,
      "ç´¯": 3376,
      "ç»ĨèĬĤ": 3377,
      "äºĴåĬ¨": 3378,
      "çĮİ": 3379,
      "193": 3380,
      "åįģå¹´": 3381,
      "çĶµè¯Ŀ": 3382,
      "å»·": 3383,
      "ä»ģ": 3384,
      "å¢Ļ": 3385,
      "åĪĨåŃĲ": 3386,
      "å¨ľ": 3387,
      "éĹ²": 3388,
      "äºĭå®ŀ": 3389,
      "ä¸Ńåįİäººæ°ĳåħ±åĴĮåĽ½": 3390,
      "å¾Ĵ": 3391,
      "æİ¨çĲĨ": 3392,
      "è¾Ľ": 3393,
      "åħ¹": 3394,
      "ob": 3395,
      "çĶŁç´ł": 3396,
      "ie": 3397,
      "è®¾æľī": 3398,
      "æİĴåºı": 3399,
      "åģ¥èº«": 3400,
      "ç²Ĵ": 3401,
      "ç¥Ŀ": 3402,
      "æ®ĸ": 3403,
      "ç¾İä¸½çļĦ": 3404,
      "æĪĳæĥ³": 3405,
      "ç½²": 3406,
      "åĩĢ": 3407,
      "çĲ´": 3408,
      "åĵºä¹³åĬ¨çī©": 3409,
      "å®¶äºº": 3410,
      "æİĮæı¡": 3411,
      "èĭĹ": 3412,
      "åľ°çĲĨ": 3413,
      "ä½ľå®¶": 3414,
      "è¸ª": 3415,
      "åĿ¡": 3416,
      "åı¯èĥ½çļĦ": 3417,
      "çīĪæľ¬": 3418,
      "åĲ«ä¹ī": 3419,
      "çĤİ": 3420,
      "nt": 3421,
      "åĨľä¸ļ": 3422,
      "ä¸Ģåıª": 3423,
      "åıįé¦Ī": 3424,
      "åħ¶æ¬¡": 3425,
      "å¼Ģå¤´": 3426,
      "æľºåĻ¨åŃ¦ä¹łç®Ĺæ³ķ": 3427,
      "èĳ¡": 3428,
      "éĢĤå½ĵçļĦ": 3429,
      "èİ·åıĸ": 3430,
      "æłĩçŃ¾": 3431,
      "è®¤è¯Ĩ": 3432,
      "å®£å¸ĥ": 3433,
      "åľ¨å®¶": 3434,
      "21": 3435,
      "åĢ¼å¾Ĺ": 3436,
      "æľĢé«ĺ": 3437,
      "è§Ĩä¸º": 3438,
      "å±ħæ°ĳ": 3439,
      "Ġfor": 3440,
      "éĢ»è¾ĳ": 3441,
      "è¿½æ±Ĥ": 3442,
      "è®¯": 3443,
      "åŃ£èĬĤ": 3444,
      "çļĦè¯Ŀ": 3445,
      "æ¡Į": 3446,
      "ine": 3447,
      "èĥģ": 3448,
      "çī¹æ®Ĭ": 3449,
      "çº²": 3450,
      "èĩªä¸»": 3451,
      "æ¸©å®¤": 3452,
      "è§Ĥå¯Ł": 3453,
      "å¸®æĪĳ": 3454,
      "å±ı": 3455,
      "é½¿": 3456,
      "çĽĳçĿ£åŃ¦ä¹ł": 3457,
      "éĵ¶è¡Į": 3458,
      "ä»¥ä¸ĭæĺ¯ä¸ĢäºĽ": 3459,
      "åıĺæĪĲ": 3460,
      "é«ĺåħ´": 3461,
      "å®£ä¼ł": 3462,
      "æ©Ļ": 3463,
      "åĪ©äºļ": 3464,
      "èİī": 3465,
      "ç±»åŀĭçļĦ": 3466,
      "å®łçī©": 3467,
      "çĴ": 3468,
      "æ®¿": 3469,
      "çļĦæĸ°": 3470,
      "æľīå¾Īå¤ļ": 3471,
      "éªĮè¯ģ": 3472,
      "èĢĹ": 3473,
      "è¢«è®¤ä¸ºæĺ¯": 3474,
      "æģĭ": 3475,
      "è±ª": 3476,
      "å¤ªéĺ³ç³»": 3477,
      "èĪį": 3478,
      "å·¦åı³": 3479,
      "æ·±åĪ»": 3480,
      "è´£ä»»": 3481,
      "èµ¢": 3482,
      "åıĬåħ¶": 3483,
      "èĻļæĭŁ": 3484,
      "åºĶçļĦ": 3485,
      "ç¬¬ä¸Ģä¸ª": 3486,
      "çĦ¦èĻĳ": 3487,
      "éĿ©åĳ½": 3488,
      "tion": 3489,
      "æĶ»åĩ»": 3490,
      "åĿļæĮģ": 3491,
      "ãĢģãĢĬ": 3492,
      "æĹ¶éĹ´åĴĮ": 3493,
      "ä¹ı": 3494,
      "å¯Ĵ": 3495,
      "æķĻæİĪ": 3496,
      "å°±ä¼ļ": 3497,
      "å£®": 3498,
      "å¤©çļĦ": 3499,
      "åľ°çĤ¹": 3500,
      "åı¯æĺ¯": 3501,
      "çķħ": 3502,
      "åı¯ä»¥å°Ĩ": 3503,
      "æ³ª": 3504,
      "nd": 3505,
      "åıĳè¡Į": 3506,
      "åĦ¿åŃĲ": 3507,
      "æľ¬ä¹¦": 3508,
      "å¹ħ": 3509,
      "ä¼ĺç§Ģ": 3510,
      "åĪĻæĺ¯": 3511,
      "åĲĮåŃ¦": 3512,
      "èį¯çī©": 3513,
      "é©»": 3514,
      "æŁĲä¸ª": 3515,
      "åĵĪåĪ©": 3516,
      "è§Ħå¾ĭ": 3517,
      "å¤įæĿĤçļĦ": 3518,
      "te": 3519,
      "åĲĳéĩı": 3520,
      "åįļçī©é¦Ĩ": 3521,
      "\"(": 3522,
      "æİ¨åĩº": 3523,
      "æľĢåĪĿ": 3524,
      "åº¦çļĦ": 3525,
      "è¿Ļä¹Ī": 3526,
      "ç«Ł": 3527,
      "æłĩå¿Ĺ": 3528,
      "è¿Ĳè¡Į": 3529,
      "æĤ²": 3530,
      "åĲ«æľī": 3531,
      "å¤©ç©º": 3532,
      "æµ®": 3533,
      "å®Įæķ´": 3534,
      "æ½ľåľ¨": 3535,
      "ens": 3536,
      "åĲĪçī©": 3537,
      "ç¯®": 3538,
      "éĢĬ": 3539,
      "åĳ³éģĵ": 3540,
      "å¥ī": 3541,
      "èĲĦ": 3542,
      "åĮ»éĻ¢": 3543,
      "å·®å¼Ĥ": 3544,
      "éĤ£ä¸ª": 3545,
      "èĳ¡èĲĦ": 3546,
      "ial": 3547,
      "åıĺéĩı": 3548,
      "æĳĩ": 3549,
      "çĲĥéĺŁ": 3550,
      "è¾ħ": 3551,
      "ä¾µ": 3552,
      "çļĦå¥½": 3553,
      "ç»ĵè®º": 3554,
      "åĲĪçĲĨ": 3555,
      "åĮ»çĸĹä¿Ŀåģ¥": 3556,
      "åıĳæĮ¥": 3557,
      "\"ãĢģ\"": 3558,
      "æĮĩåĩº": 3559,
      "å¤ļå°ĳ": 3560,
      "èĢĮä¸įæĺ¯": 3561,
      "åī§æĥħ": 3562,
      "å¥³åŃĲ": 3563,
      "ä¿Ĺ": 3564,
      "å¨ĺ": 3565,
      "ä¼Ł": 3566,
      "ä»Ļ": 3567,
      "å°ĨåĨĽ": 3568,
      "åı¦ä¸Ģä¸ª": 3569,
      "éĺ»": 3570,
      "ä¼ĺåĬ¿": 3571,
      "æĶ¿æ²»äººçī©": 3572,
      "ear": 3573,
      "åĺ´": 3574,
      "çŁ¥åĲį": 3575,
      "å¨ģèĥģ": 3576,
      "ä¸ĵè¾ĳ": 3577,
      "èĢĮè¨Ģ": 3578,
      "é¢ĨåŁŁçļĦ": 3579,
      "æĿ¥çļĦ": 3580,
      "æ¶µ": 3581,
      "æī°": 3582,
      "åħģ": 3583,
      "ä¼½": 3584,
      "æ£Ģæµĭ": 3585,
      "æ±Ĺ": 3586,
      "è¿Ļä¸ªåı¥åŃĲ": 3587,
      "èĢĮæĺ¯": 3588,
      "éĩįåĨĻ": 3589,
      "æ¸¸æ³³": 3590,
      "ä¸Ģå®¶": 3591,
      "æıĲåĪ°äºĨ": 3592,
      "å¯¼æ¼Ķ": 3593,
      "æĤ¦": 3594,
      "çºł": 3595,
      "éĹª": 3596,
      "ate": 3597,
      "æīİ": 3598,
      "ä»İä»¥ä¸ĭ": 3599,
      "å¹´é¾Ħ": 3600,
      "éĻ·": 3601,
      "çļĨ": 3602,
      "çĬ¬": 3603,
      "ç¼ĸç¨ĭè¯Ńè¨Ģ": 3604,
      "__": 3605,
      "è¿Ľè¡ĮäºĨ": 3606,
      "ud": 3607,
      "éĺ¶æ®µ": 3608,
      "æĸĩä»¶": 3609,
      "ç¾Ĭ": 3610,
      "ä¹ĭå¤ĸ": 3611,
      "æľīäºº": 3612,
      "ld": 3613,
      "è¥¿äºļ": 3614,
      "æłĩè®°": 3615,
      "é¢Ħéĺ²": 3616,
      "å¦ĩ": 3617,
      "åķ¦": 3618,
      "æ¯«": 3619,
      "Ġv": 3620,
      "åİŁå§ĭ": 3621,
      "çļĦé£İéĻ©": 3622,
      "è°ĵ": 3623,
      "äºĨä¸Ģç§į": 3624,
      "æħ§": 3625,
      "æĹ©æľŁ": 3626,
      "è®¡ç®Ĺæľºè§Ĩè§ī": 3627,
      "ç»´çĶŁç´ł": 3628,
      "å¾ªçİ¯": 3629,
      "çľŁå®ŀ": 3630,
      "ç®ĢçŁŃ": 3631,
      "åĽŀå½Ĵ": 3632,
      "è®¿éĹ®": 3633,
      "Ġæııè¿°": 3634,
      "äººçĶŁ": 3635,
      "èģĬ": 3636,
      "åı¤ä»£": 3637,
      "å¤º": 3638,
      "åĮºåĿĹéĵ¾": 3639,
      "çĪ¬": 3640,
      "è°±": 3641,
      "ä¿Ħç½Ĺæĸ¯": 3642,
      "è¢«å¹¿æ³Ľ": 3643,
      "çĶŁæ¶¯": 3644,
      "å¹¶æıĲä¾Ľ": 3645,
      "åĴĮæĸĩåĮĸ": 3646,
      "ä¸Ģç»Ħ": 3647,
      "éĻª": 3648,
      "é¦ĸæ¬¡": 3649,
      "ind": 3650,
      "ä¿¡åı·": 3651,
      "æĹ¶å°ļ": 3652,
      "æŀª": 3653,
      "æľĢå¥½çļĦ": 3654,
      "æĸ¯åĿ¦": 3655,
      "å®ļæľŁ": 3656,
      "å¾ĹåĪ°äºĨ": 3657,
      "çŁŃæĸĩ": 3658,
      "æ¨ª": 3659,
      "åĶ¯ä¸Ģ": 3660,
      "æł·çļĦ": 3661,
      "åĲĪéĢĤçļĦ": 3662,
      "æĪĲç»©": 3663,
      "çĻĮ": 3664,
      "ard": 3665,
      "ä¸İåħ¶ä»ĸ": 3666,
      "å½ĵåīį": 3667,
      "ä¿Ŀè¯ģ": 3668,
      "å¢¨": 3669,
      "æıĲä¾ĽçļĦ": 3670,
      "åľ¨ä¸ŃåĽ½": 3671,
      "è¦": 3672,
      "æŀĦå»º": 3673,
      "æ¸©æļĸ": 3674,
      "èķī": 3675,
      "è¿«": 3676,
      "ä¿®æĶ¹": 3677,
      "æ¡ĥ": 3678,
      "ä¸¤ç§į": 3679,
      "ä¸°å¯ĮçļĦ": 3680,
      "æ¸©å®¤æ°Ķä½ĵ": 3681,
      "ly": 3682,
      "ä¼Ļ": 3683,
      "å¹¶æ²¡æľī": 3684,
      "æľīæĹ¶": 3685,
      "éĩįçĤ¹": 3686,
      "çĲĨè§£åĴĮ": 3687,
      "éŃı": 3688,
      "æīĢåľ¨": 3689,
      "éĺ¿å°Ķ": 3690,
      "èº«ä»½": 3691,
      "å¤§åŀĭ": 3692,
      "ç¥ŀç§ĺ": 3693,
      "å®īæİĴ": 3694,
      "éĽĨåĽ¢": 3695,
      "22": 3696,
      "æĻļä¸Ĭ": 3697,
      "è¯ģæĺİ": 3698,
      "å½Ĵç±»ä¸º": 3699,
      "ç¾İçļĦ": 3700,
      "åľ¨ä¸Ģä¸ª": 3701,
      "è¾Ĳ": 3702,
      "2019": 3703,
      "Ð°": 3704,
      "é©±": 3705,
      "æĻ¯çĤ¹": 3706,
      "è¿Ļä¸¤ä¸ª": 3707,
      "èº«ä½ĵåģ¥åº·": 3708,
      "æĺĵäºİ": 3709,
      "æĺĮ": 3710,
      "å½¢è±¡": 3711,
      "åı¯éĿł": 3712,
      "åĨįæ¬¡": 3713,
      "æķ°æį®ä¸Ń": 3714,
      "å½¹": 3715,
      "çļĦçŃĶæ¡Ī": 3716,
      "é£ŀè¡Į": 3717,
      "èľľ": 3718,
      "æĳĦåħ¥": 3719,
      "æľīè®¸å¤ļ": 3720,
      "ç³»ç»ŁçļĦ": 3721,
      "åĳĪçİ°": 3722,
      "äº¤äºĴ": 3723,
      "å¯¹è±¡": 3724,
      "æĺ¯ä¸Ģéĥ¨": 3725,
      "éĥŃ": 3726,
      "æĬĢæľ¯åĴĮ": 3727,
      "åĪĹåĩº": 3728,
      "åĩī": 3729,
      "éĩįå¤į": 3730,
      "ord": 3731,
      "å¤§çº¦": 3732,
      "æµģè¡Į": 3733,
      "æı´": 3734,
      ".\"": 3735,
      "çī©ä½ĵ": 3736,
      "åľ¨æŃ¤": 3737,
      "ub": 3738,
      "æĸ¹éĿ¢çļĦ": 3739,
      "å½ĵçĦ¶": 3740,
      "ç»Īäºİ": 3741,
      "ä½łåı¯ä»¥": 3742,
      "åĽŀåĪ°": 3743,
      "ä»¥åĲİ": 3744,
      "å®¶çļĦ": 3745,
      "åĦ¿ç«¥": 3746,
      "å¹¶å°Ĩ": 3747,
      "è¦Ĩ": 3748,
      "äººä»¬çļĦ": 3749,
      "æĻºèĥ½æīĭæľº": 3750,
      "è¡¨è¾¾äºĨ": 3751,
      "John": 3752,
      "éģµ": 3753,
      "23": 3754,
      "æ£ĭ": 3755,
      "åħĦå¼Ł": 3756,
      "æĸĳ": 3757,
      "å®ĥåı¯ä»¥": 3758,
      "éļ¾ä»¥": 3759,
      "è¿Ļæł·çļĦ": 3760,
      "å£ģ": 3761,
      "æĤ£èĢħ": 3762,
      "éĥ¨éĹ¨": 3763,
      "æµĻ": 3764,
      "ç¿¼": 3765,
      "éģĩåĪ°": 3766,
      "éľĢè¦ģæ³¨æĦı": 3767,
      "å®ŀæĸ½": 3768,
      "èĬ¬": 3769,
      "è£¤": 3770,
      "éĥĳ": 3771,
      "ĠK": 3772,
      "ç»´æĮģ": 3773,
      "æĦŁè°¢": 3774,
      "éĤ£éĩĮ": 3775,
      "æģ¢": 3776,
      "å¼ºçĥĪ": 3777,
      "åłµ": 3778,
      "ãĢĭãĢģãĢĬ": 3779,
      "çĪµ": 3780,
      "åĵģè´¨": 3781,
      "Ġbe": 3782,
      "éĽĨä¸Ń": 3783,
      "æµģç¨ĭ": 3784,
      "å¦Ļ": 3785,
      "çļĦéĩįè¦ģæĢ§": 3786,
      "å¡«": 3787,
      "åĽĽå¹´": 3788,
      "ach": 3789,
      "å°ĸ": 3790,
      "æĬµ": 3791,
      "ort": 3792,
      "çĭĲ": 3793,
      "çº¤": 3794,
      "å©Ĩ": 3795,
      "ä»¥æĿ¥": 3796,
      "æī®": 3797,
      "å¯Ĩçłģ": 3798,
      "å½¢çĬ¶": 3799,
      "æ³ī": 3800,
      "æ°¸è¿ľ": 3801,
      "60": 3802,
      "èİ·å¾ĹäºĨ": 3803,
      "çī¹å®ļçļĦ": 3804,
      "çĶ¨æĪ·çļĦ": 3805,
      "28": 3806,
      "çĪ¶æ¯į": 3807,
      "29": 3808,
      "æĮĩå¯¼": 3809,
      "Ġon": 3810,
      "åİ»ä¸ĸ": 3811,
      "åľ¨è¿Ļ": 3812,
      "å·¡": 3813,
      "è¶³å¤ŁçļĦ": 3814,
      "ĠO": 3815,
      "æŀļ": 3816,
      "è·ĥ": 3817,
      "æĢģåº¦": 3818,
      "æ²³æµģ": 3819,
      "å¥³åŃ©": 3820,
      "ç¬¬ä¸Ģæ¬¡": 3821,
      "åĪĽæĦı": 3822,
      "åĵŃ": 3823,
      "2018": 3824,
      "åĿĳ": 3825,
      "å£¤": 3826,
      "èİİ": 3827,
      "Ã©": 3828,
      "åĪĨæŀĲåĴĮ": 3829,
      "èģĶçĽŁ": 3830,
      "```": 3831,
      "è²": 3832,
      "é¦Ļèķī": 3833,
      "40": 3834,
      "è£Ĥ": 3835,
      "ç»ŃåĨĻ": 3836,
      "åģ¶": 3837,
      "å§ĳ": 3838,
      "ç¾İåĳ³": 3839,
      "éŃĶæ³ķ": 3840,
      "åĩ¡": 3841,
      "èµ¶": 3842,
      "çĹĩçĬ¶": 3843,
      "æ¶Īæŀģ": 3844,
      "åı¬": 3845,
      "æĻºèĥ½å®¶å±ħ": 3846,
      "å¤§å¤ļæķ°": 3847,
      "åħ¶å®ŀ": 3848,
      "æ¢¦æĥ³": 3849,
      "LP": 3850,
      "åĨĻä¸Ģç¯ĩ": 3851,
      "åĪĳ": 3852,
      "Ġthat": 3853,
      "ç£¨": 3854,
      "æŃ£å¸¸": 3855,
      "ä¸»è§Ĵ": 3856,
      "æľĢéĩįè¦ģçļĦ": 3857,
      "å¹´æĿ¥": 3858,
      "èħ¿": 3859,
      "åĪĨæĶ¯": 3860,
      "è¡£æľį": 3861,
      "éĿĸ": 3862,
      "ç¬¦åı·": 3863,
      "åıªèĥ½": 3864,
      "æľīæīĢ": 3865,
      "éĢļå¸¸æĺ¯": 3866,
      "å¹³éĿ¢": 3867,
      "ity": 3868,
      "æ¶īåıĬåĪ°": 3869,
      "çļĦåİŁåĽł": 3870,
      "æ¡ĳ": 3871,
      "èĽĭçĻ½è´¨": 3872,
      "æģ¢å¤į": 3873,
      "ice": 3874,
      "ä¾į": 3875,
      "çĤ¸": 3876,
      "æ¸ħæ´ģ": 3877,
      "åı¦ä¸Ģ": 3878,
      "ik": 3879,
      "ç¼ĵè§£": 3880,
      "åľ°åĿĢ": 3881,
      "çļĦèĥ½åĬĽ": 3882,
      "ä»ĭç»įäºĨ": 3883,
      "åĬ¨è¯į": 3884,
      "æ³¢çī¹": 3885,
      "ä¹¦ç±į": 3886,
      "åĳĢ": 3887,
      "ä¸¤äºº": 3888,
      "æĬĵ": 3889,
      "éĥģ": 3890,
      "æ¦Ĥæĭ¬": 3891,
      "æĹ¶çļĦ": 3892,
      "ib": 3893,
      "åŁ¹è®Ń": 3894,
      "ä¼Ĳ": 3895,
      "2021": 3896,
      "igh": 3897,
      "æľīæķĪçļĦ": 3898,
      "åĨĮ": 3899,
      "è¿ĶåĽŀ": 3900,
      "çŃīåľ°": 3901,
      "æĸ°éĹ»æĬ¥éģĵ": 3902,
      "å¥Ķ": 3903,
      "å¸¸å¸¸": 3904,
      "ä¸įåĪ°": 3905,
      "è¿ħéĢŁ": 3906,
      "é¬": 3907,
      "è®©æĪĳä»¬": 3908,
      "æĺ¨": 3909,
      "æĪĳåľ¨": 3910,
      "çĳľ": 3911,
      "æħĪ": 3912,
      "äºĶå¹´": 3913,
      "ä¼ĺçĤ¹": 3914,
      "å¸¦æĿ¥äºĨ": 3915,
      "è¯įè¯Ń": 3916,
      "çļĦåı¥åŃĲ": 3917,
      "å¿ĥçļĦ": 3918,
      "æĭĵ": 3919,
      "éĻµ": 3920,
      "ä¸įåĨį": 3921,
      "26": 3922,
      "æĽ´æĸ°": 3923,
      "ry": 3924,
      "èµĦæĸĻ": 3925,
      "æĴŀ": 3926,
      "æĺĨ": 3927,
      "æĥħæĦŁåĪĨæŀĲ": 3928,
      "ç§įç±»": 3929,
      "æĶ¾åľ¨": 3930,
      "è¿Ľå£«": 3931,
      "å°±åĥı": 3932,
      "æīĵå¼Ģ": 3933,
      "ç½Ĺé©¬": 3934,
      "æīĢéľĢ": 3935,
      "éĩıçļĦ": 3936,
      "æĪĲå°±": 3937,
      "æ³Ĭ": 3938,
      "ä¸Ģå¤©": 3939,
      "åį«çĶŁ": 3940,
      "å´ĩ": 3941,
      "åĨĽäºĭ": 3942,
      "åİŁçĲĨ": 3943,
      "ä»¥ä¸ĭåı¥åŃĲ": 3944,
      "ä¸Ĭè¿°": 3945,
      "ip": 3946,
      "ä¸įéĶĻ": 3947,
      "äºļæ´²": 3948,
      "åľ¨æľªæĿ¥": 3949,
      "æ¸¸å®¢": 3950,
      "ä¸ĭéĻį": 3951,
      "ç¼ºä¹ı": 3952,
      "ä¸ĭçļĦä¸Ģä¸ª": 3953,
      "æ°ĳæĹı": 3954,
      "å¿§": 3955,
      "se": 3956,
      "ä¸»äºº": 3957,
      "è®¤çŁ¥": 3958,
      "èħ¹": 3959,
      "Ġwh": 3960,
      "æıĴ": 3961,
      "åį±éĻ©": 3962,
      "ä¼¦æķ¦": 3963,
      "èħĬ": 3964,
      "æĺ¯æĪĳ": 3965,
      "190": 3966,
      "æŀĿ": 3967,
      "çĮª": 3968,
      "åħ¶ä¸ŃçļĦ": 3969,
      "æĻ®éĢļ": 3970,
      "æľºåĻ¨ç¿»è¯ĳ": 3971,
      "å¾Ĳ": 3972,
      "ç®Ģç§°": 3973,
      "é£İæļ´": 3974,
      "æĪĲåĪĨ": 3975,
      "ä¼ĳæģ¯": 3976,
      "ä¼¼ä¹İ": 3977,
      "åľ¨äºİ": 3978,
      "äºĭçī©": 3979,
      "éķ¿åº¦": 3980,
      "åĬ¨åĬĽ": 3981,
      "åĪĨéħį": 3982,
      "çĸ²": 3983,
      "æĺĤ": 3984,
      "ç¼ĸçłģ": 3985,
      "ä¾ł": 3986,
      "ä¸ĬäºĨ": 3987,
      "æİĺ": 3988,
      "åħĪçĶŁ": 3989,
      "ä¸ĢçĤ¹": 3990,
      "èģª": 3991,
      "å±±å³°": 3992,
      "è®©ä½ł": 3993,
      "å¹¶ä¸º": 3994,
      "çļĦçİ¯å¢ĥ": 3995,
      "åıªè¦ģ": 3996,
      "è¢Ń": 3997,
      "é»ĳæ´ŀ": 3998,
      "æĿ¥åĪ°": 3999,
      "æĸĩåĮĸåĴĮ": 4000,
      "å¯»æ±Ĥ": 4001,
      "æŃĮæīĭ": 4002,
      "æ±ģ": 4003,
      "2010": 4004,
      "åħ·å¤ĩ": 4005,
      "çĶµå½±çļĦ": 4006,
      "age": 4007,
      "å¯¹çİ¯å¢ĥ": 4008,
      "åħĶ": 4009,
      "çĶŁæ´»æĸ¹å¼ı": 4010,
      "'s": 4011,
      "èĥ¸": 4012,
      "çıłç©Ĩ": 4013,
      "å®¿": 4014,
      "27": 4015,
      "æľīæķĪåľ°": 4016,
      "æĬ½åıĸ": 4017,
      "æľĹçİĽ": 4018,
      "æĵİ": 4019,
      "é«ĺçº§": 4020,
      "è¥¿çıŃ": 4021,
      "å°ĳå¹´": 4022,
      "æĶ¶åħ¥": 4023,
      "2020": 4024,
      "é¼»": 4025,
      "è¿ĻæĦıåĳ³çĿĢ": 4026,
      "çıłç©ĨæľĹçİĽ": 4027,
      "æ³¨éĩį": 4028,
      "æł¼åħ°": 4029,
      "é£ŁçĶ¨": 4030,
      "è°ĭ": 4031,
      "è¥¿çıŃçīĻ": 4032,
      "èĤª": 4033,
      "èĦĤèĤª": 4034,
      "ç¢į": 4035,
      "åĲ¹": 4036,
      "åıī": 4037,
      "è²Į": 4038,
      "å±±èĦī": 4039,
      "åįıè®®": 4040,
      "åı¯æĮģç»Ńåıĳå±ķ": 4041,
      "åŃ¦ç§ĳ": 4042,
      "æŃ»äº¡": 4043,
      "çķª": 4044,
      "çº·": 4045,
      "æ¬²": 4046,
      "ç¾İåħĥ": 4047,
      "ç£ģ": 4048,
      "ä¸¾è¡Į": 4049,
      "ä¸Ĭä¸ĭæĸĩ": 4050,
      "ä¸ĵæ³¨": 4051,
      "æ°ĳåĽ½": 4052,
      "ä¹Ļ": 4053,
      "ä¸īåįģ": 4054,
      "çļĦåİĨåı²": 4055,
      "å¼ķæĵİ": 4056,
      "æľĢåĸľæ¬¢çļĦ": 4057,
      "èĤº": 4058,
      "è´´": 4059,
      "èĩ³åħ³": 4060,
      "æ°Ķæ¸©": 4061,
      "çļĦçĽ®æłĩ": 4062,
      "æĴ°": 4063,
      "åį³ä½¿": 4064,
      "2016": 4065,
      "çļĦè¿ĩç¨ĭ": 4066,
      "è·¯çº¿": 4067,
      "æµĻæ±Ł": 4068,
      "æĹ¶éĹ´çļĦ": 4069,
      "æĺ¯ä¸ĢåĲį": 4070,
      "åĽĽå·Ŀ": 4071,
      "æ¼Ĥ": 4072,
      "æĪª": 4073,
      "æĶ¯ä»ĺ": 4074,
      "æ¯ģ": 4075,
      "ä¼łéĢĴ": 4076,
      "æĹ¥æľŁ": 4077,
      "é¡ºåºı": 4078,
      "åĽĽä¸ª": 4079,
      "ä¸įè¶³": 4080,
      "ä»°": 4081,
      "ç³ķ": 4082,
      "åģ·": 4083,
      "å¥Ī": 4084,
      "å¤§å°ı": 4085,
      "åĪ°è¾¾": 4086,
      "åį«æĺŁ": 4087,
      "ep": 4088,
      "å¿ĥèĦı": 4089,
      "çĶµæ±ł": 4090,
      "çĬ¹": 4091,
      "åĬ¨çĶ»": 4092,
      "ä¼łç»ŁçļĦ": 4093,
      "å¹¿ä¸ľ": 4094,
      "çĪ±å¥½": 4095,
      "çıłç©ĨæľĹçİĽå³°": 4096,
      "æĿ¥å®ŀçİ°": 4097,
      "åĩºçĶŁäºİ": 4098,
      "åľ°çĲĥçļĦ": 4099,
      "Al": 4100,
      "iP": 4101,
      "æıĲä¾Ľä¸Ģä¸ª": 4102,
      "iv": 4103,
      "è¿Ļé¡¹": 4104,
      "æĬĳ": 4105,
      "å¤Ħäºİ": 4106,
      "ç¢ĳ": 4107,
      "äºĶä¸ª": 4108,
      "80": 4109,
      "æµĭéĩı": 4110,
      "åħħåĪĨ": 4111,
      "åı¯ä»¥æıĲé«ĺ": 4112,
      "ra": 4113,
      "å®īè£ħ": 4114,
      "æµªè´¹": 4115,
      "äº§çĶŁäºĨ": 4116,
      "æĽ´å®¹æĺĵ": 4117,
      "è´¾": 4118,
      "èĽĩ": 4119,
      "éĶ¦": 4120,
      "ä½Ĩåľ¨": 4121,
      "æ®ĭ": 4122,
      "å¦ĤæŀľæĤ¨": 4123,
      "è¿Ļå°Ĩ": 4124,
      "èµ¢å¾Ĺ": 4125,
      "å¢ĵ": 4126,
      "æľºåĪ¶": 4127,
      "èģĶèµĽ": 4128,
      "çĥŃå¸¦": 4129,
      "ä¸įå¾Ĺ": 4130,
      "çģ¾å®³": 4131,
      "Ġ=": 4132,
      "å¿ĥéĩĮ": 4133,
      "åı£æĦŁ": 4134,
      "zh": 4135,
      "åĬĽäºİ": 4136,
      "æĮĤ": 4137,
      "æķĪçİĩåĴĮ": 4138,
      "å¤ªå¹³": 4139,
      "æĻ®éģį": 4140,
      "æĮ¯": 4141,
      "èĪ°": 4142,
      "çģµæ´»": 4143,
      "æĺİæľĿ": 4144,
      "è¿Ļé¦ĸæŃĮ": 4145,
      "åıĶ": 4146,
      "end": 4147,
      "åħįçĸ«": 4148,
      "éŁ©åĽ½": 4149,
      "ive": 4150,
      "Ch": 4151,
      "ä¸įçŁ¥": 4152,
      "åħģè®¸": 4153,
      "å£³": 4154,
      "æĪĲåĬŁçļĦ": 4155,
      "ne": 4156,
      "æ¢¯": 4157,
      "è´ŁéĿ¢å½±åĵį": 4158,
      "çĳľä¼½": 4159,
      "èľĤ": 4160,
      "éĵľ": 4161,
      "ä¸ĢæĿ¡": 4162,
      "æĸĩæľ¬è¿Ľè¡Į": 4163,
      "è´¸": 4164,
      "çļĦåĨħå®¹": 4165,
      "åĪ·": 4166,
      ",)": 4167,
      "Ð¾": 4168,
      "åĲĮå¹´": 4169,
      "åĴĮæľįåĬ¡": 4170,
      "æĽ¹": 4171,
      "æľīä»Ģä¹Ī": 4172,
      "ä¸ľäº¬": 4173,
      "æĻ¶": 4174,
      "çĭ¼": 4175,
      "å¿ħè¦ģçļĦ": 4176,
      "éļıæľº": 4177,
      "éĺ²æŃ¢": 4178,
      "åıĳè¡¨": 4179,
      "æĤī": 4180,
      "ä»¥åīį": 4181,
      "æĤ¨åı¯ä»¥": 4182,
      "æĢĴ": 4183,
      "2013": 4184,
      "æĳĨ": 4185,
      "é¸Łç±»": 4186,
      "ç§¦": 4187,
      "ç´§å¼ł": 4188,
      "è®©è®¡ç®Ĺæľº": 4189,
      "åħ±äº«": 4190,
      "è£ģ": 4191,
      "æŀĦæĪĲ": 4192,
      "æ°Ľ": 4193,
      "å¹´éĹ´": 4194,
      "æĮĸ": 4195,
      "ä¹ĭå¤Ħ": 4196,
      "çļĦåŁºç¡Ģ": 4197,
      "çĭ®": 4198,
      "ä¸ºä¸»": 4199,
      "è½¬åĮĸ": 4200,
      "çļ®èĤ¤": 4201,
      "Ġit": 4202,
      "è¡Ĺéģĵ": 4203,
      "åħĭæĸ¯": 4204,
      "éģĵå¾·": 4205,
      "ich": 4206,
      "å¸ĿåĽ½": 4207,
      "éĿŀå¸¸éĩįè¦ģçļĦ": 4208,
      "èĵĿèī²": 4209,
      "çĽ¸å½ĵ": 4210,
      "åĽ¾ä¹¦": 4211,
      "ä¾Ŀèµĸ": 4212,
      "èĴĻåı¤": 4213,
      "å¼ºå¤§çļĦ": 4214,
      "Ġpro": 4215,
      "æ³¥": 4216,
      "çļĦçĶµå½±": 4217,
      "åĵªä¸ª": 4218,
      "é»Ħèī²": 4219,
      "ä¼łè¾¾": 4220,
      "çĭ±": 4221,
      "åĵģç§į": 4222,
      "åĪ«äºº": 4223,
      "æľĪåı°": 4224,
      "æ¶Īæģ¯": 4225,
      "2017": 4226,
      "åı¯ä»¥çĶ¨äºİ": 4227,
      "2014": 4228,
      "æĦŁæŁĵ": 4229,
      "éĿŀæ´²": 4230,
      "åĲ¬åĪ°": 4231,
      "äºķ": 4232,
      "æļĤ": 4233,
      "ä¸ĵå®¶": 4234,
      "å±±ä¸ľ": 4235,
      "ä½¿çĶ¨äºĨ": 4236,
      "å¼ºè°ĥäºĨ": 4237,
      "ĠV": 4238,
      "åĨįçĶŁ": 4239,
      "çºªå¿µ": 4240,
      "åİŁæĿ¥": 4241,
      "çº¤ç»´": 4242,
      "å¾Ģå¾Ģ": 4243,
      "2015": 4244,
      "çī©çĲĨåŃ¦": 4245,
      "æĪĳä¹Ł": 4246,
      "åĴĮç¤¾ä¼ļ": 4247,
      "Ġcon": 4248,
      "åĩ¤": 4249,
      "2012": 4250,
      "å¤ıå¤©": 4251,
      "è§£åĨ³éĹ®é¢ĺ": 4252,
      "è¿ĩåº¦": 4253,
      "ç§Ł": 4254,
      "ç¢İ": 4255,
      "é¹¿": 4256,
      "å¯¹æĸ¹": 4257,
      "åĪĨç±»åĻ¨": 4258,
      "ack": 4259,
      "éĩĬæĶ¾": 4260,
      "æĬ«": 4261,
      "é¬¼": 4262,
      "åŃ¤çĭ¬": 4263,
      "åĪĹè½¦": 4264,
      "çļĦä½¿çĶ¨": 4265,
      "NLP": 4266,
      "å»ºéĢł": 4267,
      "æµħ": 4268,
      "ä¸Ģç³»åĪĹ": 4269,
      "å°½åı¯èĥ½": 4270,
      "è§Ĵåº¦": 4271,
      "åĴĮåıĳå±ķ": 4272,
      "çĲ³": 4273,
      "çľĭçĿĢ": 4274,
      "çĻ½èī²": 4275,
      "åľŁåľ°": 4276,
      "å¿į": 4277,
      "2008": 4278,
      "å±ķçİ°": 4279,
      "çĵ¶": 4280,
      "æĪĳæĺ¯": 4281,
      "çĽ¸æ¯Ķ": 4282,
      "90": 4283,
      "ä¸įçŁ¥éģĵ": 4284,
      "æĻºæħ§": 4285,
      "åľ°åĮºçļĦ": 4286,
      "formula": 4287,
      "äººä½ĵ": 4288,
      "ä¾¯": 4289,
      "ç¬¬åĽĽ": 4290,
      "ä¸§": 4291,
      "å½±çīĩ": 4292,
      "éĤĢ": 4293,
      "è®¤çľŁ": 4294,
      "åľ°ä¸ĭ": 4295,
      "æ¡Ĩ": 4296,
      "åºıåĪĹ": 4297,
      "åıĬæĹ¶": 4298,
      "Ġwith": 4299,
      "éĿŀå¸¸éĩįè¦ģ": 4300,
      "åķĨåĬ¡": 4301,
      "åħ¬åħ±äº¤éĢļ": 4302,
      "éĻ¶": 4303,
      "åŃ¦æľ¯": 4304,
      "ä»ĸæĺ¯": 4305,
      "æľºåľº": 4306,
      "æŀģç«¯": 4307,
      "çķĻä¸ĭ": 4308,
      "æ··åĲĪ": 4309,
      "ä¸ŃåŃ¦": 4310,
      "æħ¢æħ¢": 4311,
      "æĢ§è´¨": 4312,
      "åĽŀæĶ¶": 4313,
      "åı¹": 4314,
      "äººåľ¨": 4315,
      "(\"": 4316,
      "çļĦæĳĺè¦ģ": 4317,
      "é²¸": 4318,
      "è¿Ļæ¬¾": 4319,
      "--": 4320,
      "è¿Ľå±ķ": 4321,
      "2011": 4322,
      "åģ¥åº·åĴĮ": 4323,
      "åĵªéĩĮ": 4324,
      "æ¬£èµı": 4325,
      "è¾ŀ": 4326,
      "æķ°æį®è¿Ľè¡Į": 4327,
      "åľ¨æĪĳ": 4328,
      "èĿ¶": 4329,
      "å±ħä½ı": 4330,
      "åıĺå¾ĹæĽ´åĬł": 4331,
      "çĶ¨éĢĶ": 4332,
      "æī®æ¼Ķ": 4333,
      "éĽķ": 4334,
      "Ġare": 4335,
      "è¿Ĳè¾ĵ": 4336,
      "åĮĸåĲĪçī©": 4337,
      "äººå£«": 4338,
      "ĠCh": 4339,
      "æĥľ": 4340,
      "éĺĶ": 4341,
      "åŃ¦èĢħ": 4342,
      "è¿Ļå®¶": 4343,
      "æī©å±ķ": 4344,
      "åħ¬è·¯": 4345,
      "æĪ·å¤ĸ": 4346,
      "åĮĸçŁ³": 4347,
      "èĪªç©º": 4348,
      "çļĦæĦıæĢĿ": 4349,
      "è¢ĸ": 4350,
      "è½¬æį¢ä¸º": 4351,
      "åĭ¤": 4352,
      "çİĽä¸½": 4353,
      "å°¿": 4354,
      "èĸĦ": 4355,
      "åľ°ä½į": 4356,
      "æĪĸåħ¶ä»ĸ": 4357,
      "æīĭè¡¨": 4358,
      "è°¢è°¢": 4359,
      "æ¯ıå¹´": 4360,
      "åĨĴéĻ©": 4361,
      "ome": 4362,
      "åĲĮæł·": 4363,
      "è´¦": 4364,
      "æĪĳåĸľæ¬¢": 4365,
      "æĭįæĳĦ": 4366,
      "åĽ½çİĭ": 4367,
      "éĢĿ": 4368,
      "ue": 4369,
      "ä¸ŃæıĲåıĸ": 4370,
      "çļĦæĥħåĨµä¸ĭ": 4371,
      "çİ©å®¶": 4372,
      "äº§ä¸ļ": 4373,
      "èĩªèº«": 4374,
      "èĨľ": 4375,
      "è¯´è¯Ŀ": 4376,
      "éĢļä¿¡": 4377,
      "å¥³åĦ¿": 4378,
      "å¹¿æ³ĽçļĦ": 4379,
      "è¿ĩçļĦ": 4380,
      "æĺ¾èĳĹ": 4381,
      "æŁ±": 4382,
      "æľªçŁ¥": 4383,
      "çİ¯å¢ĥä¿ĿæĬ¤": 4384,
      "æĶ¾å¼ĥ": 4385,
      "æķ°æį®åĴĮ": 4386,
      "è¡ĮæĶ¿åĮº": 4387,
      "é¥¼": 4388,
      "ä¸»æķĻ": 4389,
      "è¿Ī": 4390,
      "å¿ĥä¸Ń": 4391,
      "ong": 4392,
      "ä¸»å¸Ń": 4393,
      "å¾Ĺåĩº": 4394,
      "æııè¿°äºĨ": 4395,
      "åĩłä¹İ": 4396,
      "ä¼į": 4397,
      "æĺ¯ä½įäºİ": 4398,
      "çĳŁ": 4399,
      "éľĢè¦ģèĢĥèĻĳ": 4400,
      "æ»¤": 4401,
      "è´¢åĬ¡": 4402,
      "ç¾İå¥½": 4403,
      "å¯¹æīĭ": 4404,
      "æ¶µçĽĸ": 4405,
      "åıĹæ¬¢è¿İçļĦ": 4406,
      "æĽ¾ä»»": 4407,
      "ific": 4408,
      "åĽŀå¿Ĩ": 4409,
      "è½¨éģĵ": 4410,
      "ç¿ħ": 4411,
      "pr": 4412,
      "åı¯èĥ½å¯¼èĩ´": 4413,
      "500": 4414,
      "70": 4415,
      "åı¯ä»¥æł¹æį®": 4416,
      "XX": 4417,
      "æĦŁçŁ¥": 4418,
      "åħ·ä½ĵçļĦ": 4419,
      "åĢį": 4420,
      "åī²": 4421,
      "int": 4422,
      "çĭĤ": 4423,
      "ä¸Ĭæĸĩ": 4424,
      "å¤ļæ¬¡": 4425,
      "æĪĳä»¬åºĶè¯¥": 4426,
      "Ar": 4427,
      "æ²³åįĹ": 4428,
      "çĶŁäºİ": 4429,
      "éļıåĲİ": 4430,
      "å»ī": 4431,
      "ä¸ľåĮĹ": 4432,
      "çŃīå¾ħ": 4433,
      "åĴĮæĬĢæľ¯": 4434,
      "Ġan": 4435,
      "up": 4436,
      "çĽ®çļĦåľ°": 4437,
      "ä¼ı": 4438,
      "æĮĩæłĩ": 4439,
      "æī¾åĩº": 4440,
      "äºĭä¸ļ": 4441,
      "é¡¾å®¢": 4442,
      "çļĦè®¾è®¡": 4443,
      "éĥ½åľ¨": 4444,
      "èī²å½©": 4445,
      "èĴ¸": 4446,
      "é¢ĨåŁŁä¸Ń": 4447,
      "æĺ¯æľĢ": 4448,
      "æĪĳå¾Ī": 4449,
      "åŁİå¸ĤçļĦ": 4450,
      "æĦıè§ģ": 4451,
      "æĹ¦": 4452,
      "è¯ķåĽ¾": 4453,
      "åĮĸåĴĮ": 4454,
      "æĽ´ä¸º": 4455,
      "èĢĥè¯ķ": 4456,
      "æ»ļ": 4457,
      "æĿ¥äºĨ": 4458,
      "èĤĮèĤī": 4459,
      "åįıä¼ļ": 4460,
      "è¡¨çİ°åĩº": 4461,
      "æľīæľº": 4462,
      "åĪĨæĪĲ": 4463,
      "èĮĥåĽ´åĨħ": 4464,
      "èģĺ": 4465,
      "è´Ŀå°Ķ": 4466,
      "æ°¢": 4467,
      "çľĭè§ģ": 4468,
      "çļĦé£Łçī©": 4469,
      "çĽ¸åºĶçļĦ": 4470,
      "äºĳåįĹ": 4471,
      "ç¯®çĲĥ": 4472,
      "ç®Ģè¦ģ": 4473,
      "åıĤèĢĥ": 4474,
      "åıĪç§°": 4475,
      "æĹłäºº": 4476,
      "å¹¿åľº": 4477,
      "åħĥå¹´": 4478,
      "è§Ħå®ļ": 4479,
      "ä¼ĳéĹ²": 4480,
      "2009": 4481,
      "ä¸¾åĬŀ": 4482,
      "å¸ĮèħĬ": 4483,
      "çļĦéľĢæ±Ĥ": 4484,
      "æī©å¤§": 4485,
      "æĺ¯ç¾İåĽ½": 4486,
      "è¿Ļæ¬¡": 4487,
      "æĽ´å¿«": 4488,
      "ä¸»ä»»": 4489,
      "çºµ": 4490,
      "è¯Ŀé¢ĺ": 4491,
      "è¯´éģĵ": 4492,
      "æµ·æ»©": 4493,
      "æĦ¿æĦı": 4494,
      "æŁı": 4495,
      "åĽŀå®¶": 4496,
      "å±ķå¼Ģ": 4497,
      "DNA": 4498,
      "Ð¸": 4499,
      "-{": 4500,
      "äºĮå¹´": 4501,
      "æ»´": 4502,
      "åľĨå½¢": 4503,
      "ä¸ĺ": 4504,
      "åľºæīĢ": 4505,
      "å¯¹åħ¶": 4506,
      "éĶħ": 4507,
      "çĩķ": 4508,
      "éĻĪè¿°": 4509,
      "çĽĳæµĭ": 4510,
      "ä¸īç§į": 4511,
      "ç»ıèĲ¥": 4512,
      "çĲĥåĳĺ": 4513,
      "èĬĤçĤ¹": 4514,
      "æľĢæĸ°": 4515,
      "çļĦäºĭæĥħ": 4516,
      "çĽĹ": 4517,
      "åħ´å¥ĭ": 4518,
      "å¹¶å°Ĩåħ¶": 4519,
      "ä¸įä¹ħ": 4520,
      "åĵ²åŃ¦": 4521,
      "æł·æľ¬": 4522,
      "æĪ¿éĹ´": 4523,
      "ava": 4524,
      "åĬłæĭ¿": 4525,
      "ç¥ŀç»ıåħĥ": 4526,
      "çĽ®çļĦæĺ¯": 4527,
      "æľ¯è¯Ń": 4528,
      "åįļå£«": 4529,
      "æķ°æį®åĪĨæŀĲ": 4530,
      "å¼Ĥå¸¸": 4531,
      "èĩªä¿¡": 4532,
      "}-": 4533,
      "è¿ŀç»Ń": 4534,
      "èµ¤": 4535,
      "èĳ£": 4536,
      "ç¨İ": 4537,
      "é«ĺéĢŁ": 4538,
      "åŁ¹åħ»": 4539,
      "æĪĳåı¯ä»¥": 4540,
      "ä»ĸäºº": 4541,
      "äºĭæķħ": 4542,
      "ore": 4543,
      "ä¸įéľĢè¦ģ": 4544,
      "ç¤ºä¾ĭ": 4545,
      "åĪºæ¿Ģ": 4546,
      "æĸĩæľ¬åĨħå®¹": 4547,
      "é»ĳèī²": 4548,
      "str": 4549,
      "omp": 4550,
      "æľĪçĲĥ": 4551,
      "å¼ºåĮĸ": 4552,
      "åħŃå¹´": 4553,
      "tr": 4554,
      "ä¾ĽåºĶ": 4555,
      "æĻ®åıĬ": 4556,
      "å¿ĥæĥħ": 4557,
      "æĬļ": 4558,
      "ass": 4559,
      "çĶŁæ´»çļĦ": 4560,
      "æĺ¯åĽłä¸º": 4561,
      "ç»Ļä½ł": 4562,
      "è¿ĩäºĨ": 4563,
      "å¤±åİ»": 4564,
      "æĪĪ": 4565,
      "ä¸ľåįĹ": 4566,
      "å¤±è´¥": 4567,
      "åĮºçļĦ": 4568,
      "ä½ĵéĩį": 4569,
      "åĽ¾åĥıè¯ĨåĪ«": 4570,
      "ä¿¡ä»»": 4571,
      "ç»ĦæĪĲçļĦ": 4572,
      "éĶĢåĶ®é¢Ŀ": 4573,
      "æĶ¹ä¸º": 4574,
      "æİ¥è§¦": 4575,
      "å®ĺæĸ¹": 4576,
      "ãĢį(": 4577,
      "åħ³éĶ®ä¿¡æģ¯": 4578,
      "ä¸ĭè¾ĸ": 4579,
      "æĭ¥åłµ": 4580,
      "æĥ³è±¡": 4581,
      "åİ¨": 4582,
      "å½¢å®¹è¯į": 4583,
      "çļĦå¤ĸ": 4584,
      "èĭ±éĽĦ": 4585,
      "ook": 4586,
      "èģĮä½į": 4587,
      "å¾½": 4588,
      "ew": 4589,
      "è¥¿éĥ¨": 4590,
      "ç¼ºçĤ¹": 4591,
      "åıĻ": 4592,
      "çĥ¦": 4593,
      "é¥®æĸĻ": 4594,
      "éĿĴå¹´": 4595,
      "æĭ¼åĨĻ": 4596,
      "èµ·æºĲ": 4597,
      "é£ŀæľº": 4598,
      "çľĭèµ·æĿ¥": 4599,
      "Ġch": 4600,
      "æľ¬èº«": 4601,
      "é¢Ī": 4602,
      "æ°ĳä¸»": 4603,
      "2000": 4604,
      "åĨ³äºİ": 4605,
      "ä¸ĢåĪĩ": 4606,
      "çĶŁæĪĲä¸Ģç¯ĩ": 4607,
      "åĪĬ": 4608,
      "åıĸä»£": 4609,
      "æ¯ıæ¬¡": 4610,
      "iz": 4611,
      "æ¢°": 4612,
      "èĥĨ": 4613,
      "è·ĳæŃ¥": 4614,
      "out": 4615,
      "ä½¿è®¡ç®Ĺæľº": 4616,
      "çĸ«æĥħ": 4617,
      "ä½Ĳ": 4618,
      "çļĦç»ĵæŀľ": 4619,
      "åıĸåĨ³äºİ": 4620,
      "çĸ¼": 4621,
      "ph": 4622,
      "æķĻåłĤ": 4623,
      "Ġnot": 4624,
      "è®¨è®ºäºĨ": 4625,
      "æĪĳå°±": 4626,
      "çº¿çļĦ": 4627,
      "ff": 4628,
      "ä¸Ģé¡¹": 4629,
      "å¤ªéĺ³èĥ½": 4630,
      "éħ±": 4631,
      "åŃ¦ä½į": 4632,
      "è®¸å¤ļäºº": 4633,
      "éĥ½åı¯ä»¥": 4634,
      "ect": 4635,
      "çļĦåŁºæľ¬": 4636,
      "æ³¨æĦıåĬĽ": 4637,
      "æİĴåĲį": 4638,
      "ise": 4639,
      "æĸĩæĺİ": 4640,
      "åģ¥åº·é¥®é£Ł": 4641,
      "å¿ĥçĲĨåģ¥åº·": 4642,
      "æĸĩæ¡£": 4643,
      "ç®Ģä»ĭ": 4644,
      "å·¥ç¨ĭå¸Ī": 4645,
      "ä½ĵç³»": 4646,
      "èµł": 4647,
      "è¯¥åħ¬åı¸": 4648,
      "æĬķåħ¥": 4649,
      "æľŁå¾ħ": 4650,
      "åīª": 4651,
      "æ¦ľ": 4652,
      "åĬ©æīĭ": 4653,
      "äººå·¥æĻºèĥ½åľ¨": 4654,
      "èģªæĺİ": 4655,
      "åĴĮåºĶçĶ¨": 4656,
      "çĶº": 4657,
      "æ¸¡": 4658,
      "åĴĮæĮĳæĪĺ": 4659,
      "çĶµåĬ¨": 4660,
      "å¹´èĩ³": 4661,
      "ä¸ŃåĽ½å¤§éĻĨ": 4662,
      "é£ĺ": 4663,
      "æī«": 4664,
      "ä¾¿åĪ©": 4665,
      "åľ°ä¸Ĭ": 4666,
      "æķ´ä½ĵ": 4667,
      "è¶ħçº§": 4668,
      "æĹ¶åħī": 4669,
      "éħĴåºĹ": 4670,
      "çī§": 4671,
      "åį°è±¡": 4672,
      "ç¾İå¥½çļĦ": 4673,
      "éĩĳå±ŀ": 4674,
      "ç¾İæ´²": 4675,
      "å°Ĭéĩį": 4676,
      "æıĲéĨĴ": 4677,
      "çº¿æĢ§": 4678,
      "æ»¨": 4679,
      "äºĮæ°§åĮĸ": 4680,
      "é±¼ç±»": 4681,
      "è®¾ç«ĭ": 4682,
      "èº«è¾¹": 4683,
      "å¼¯": 4684,
      "æĮĩçļĦæĺ¯": 4685,
      "æĢ»éĥ¨": 4686,
      "æ¼Ķåĩº": 4687,
      "ment": 4688,
      "ä¹Łåľ¨": 4689,
      "åĨ¬åŃ£": 4690,
      "æľĢæĹ©": 4691,
      "å¤§éĥ¨åĪĨ": 4692,
      "çŃīéĹ®é¢ĺ": 4693,
      "ä¼ļåľ¨": 4694,
      "éĶĭ": 4695,
      "å¹³æĸ¹åħ¬éĩĮ": 4696,
      "åŀĭçļĦ": 4697,
      "åħ¬ä¸»": 4698,
      "çļĦå»ºè®®": 4699,
      "çļĦåīį": 4700,
      "çĸ«èĭĹ": 4701,
      "æĤł": 4702,
      "ä¼łè¾ĵ": 4703,
      "èŀº": 4704,
      "ç¦ıå»º": 4705,
      "åłĨ": 4706,
      "æİ¥ä¸ĭæĿ¥": 4707,
      "è¾½": 4708,
      "åįĵ": 4709,
      "ä¹īè¯į": 4710,
      "å±ŀä¸ĭçļĦä¸Ģä¸ª": 4711,
      "åŃĲåĴĮ": 4712,
      "çĶµè§Ĩåī§": 4713,
      "çīĽå¥¶": 4714,
      "ç®Ń": 4715,
      "èº«ä¸Ĭ": 4716,
      "ER": 4717,
      "éĶģ": 4718,
      "ge": 4719,
      "æĦŁæĥħ": 4720,
      "åıĸå¾ĹäºĨ": 4721,
      "æīĭæ®µ": 4722,
      "èĲ§": 4723,
      "æıĲåĩºäºĨ": 4724,
      "æĴĴ": 4725,
      "æĻ¨": 4726,
      "è®°è½½": 4727,
      "æĭĨ": 4728,
      "éĢīä¸¾": 4729,
      "åķĨåĵģæĸĩæ¡Ī": 4730,
      "å¤ĸçļĦ": 4731,
      "ere": 4732,
      "æĺİçĻ½": 4733,
      "è¦ĨçĽĸ": 4734,
      "è¿ĻæĹ¶": 4735,
      "æķĻåŃ¦": 4736,
      "è´¸æĺĵ": 4737,
      "æĸ°é²ľ": 4738,
      "**": 4739,
      "æĭĴ": 4740,
      "æĺ¯éĢļè¿ĩ": 4741,
      "ç§ĳå¹»": 4742,
      "å¼ķåıĳ": 4743,
      "çİ»": 4744,
      "éĩįè§Ĩ": 4745,
      "Ġle": 4746,
      "çī¹èī²": 4747,
      "æİ¥è¿ĳ": 4748,
      "å·²ç»ıæĪĲä¸º": 4749,
      "çĶ·åŃ©": 4750,
      "å§¿": 4751,
      "æĤ¬": 4752,
      "ĠSt": 4753,
      "è±¡å¾ģ": 4754,
      "æĪĲæŀľ": 4755,
      "çļĦæĥħåĨµ": 4756,
      "çĥ¹": 4757,
      "æĺŁçĲĥ": 4758,
      "èĩªæ²»": 4759,
      "è¿ĳå¹´æĿ¥": 4760,
      "ning": 4761,
      "è´«": 4762,
      "èĤł": 4763,
      "åĲ¸æĶ¶": 4764,
      "ä¹ĭä¸Ń": 4765,
      "åģĩè®¾": 4766,
      "å¼Ģå¿ĥ": 4767,
      "è·¯ä¸Ĭ": 4768,
      "åĸ·": 4769,
      "å¯¸": 4770,
      "çī¹æĢ§": 4771,
      "å¤´èĦĳ": 4772,
      "åħ±æľī": 4773,
      "ä¸»æ¼Ķ": 4774,
      "ĠçļĦ": 4775,
      "åįĹäº¬": 4776,
      "èĥ¶": 4777,
      "çĨĬçĮ«": 4778,
      "èĤ¡ç¥¨": 4779,
      "å¾Īå¿«": 4780,
      "å¾Īå¤§çļĦ": 4781,
      "åĩĨç¡®æĢ§": 4782,
      "å°Ķæĸ¯": 4783,
      "äººç±»æĻºèĥ½": 4784,
      "æĸľ": 4785,
      "çĩĥæĸĻ": 4786,
      "çļĦé¦ĸ": 4787,
      "çļĦä»»åĬ¡": 4788,
      "æĪĳè®¤ä¸º": 4789,
      "éĺ¿æĭī": 4790,
      "æł¼å¼ı": 4791,
      "æľīéĻĲåħ¬åı¸": 4792,
      "è¯Ńåı¥": 4793,
      "é¢ĳçİĩ": 4794,
      "åı¯è¾¾": 4795,
      "æ¸ł": 4796,
      "è´¯": 4797,
      "oth": 4798,
      "é¢Ħå¤ĦçĲĨ": 4799,
      "åħ¬ä¼Ĺ": 4800,
      "æº¶": 4801,
      "çļĦé«ĺ": 4802,
      "æıĲç¤º": 4803,
      "æ¼«çĶ»": 4804,
      "åĬłæĭ¿å¤§": 4805,
      "å¯¿åĳ½": 4806,
      "æĹ¶åĪ»": 4807,
      "æĸĩæľ¬åĪĨç±»": 4808,
      "åįıä½ľ": 4809,
      "ä¸įå°ĳ": 4810,
      "hone": 4811,
      "æĪĳä»¬å°Ĩ": 4812,
      "å¥½åĥı": 4813,
      "è¥¿åįĹ": 4814,
      "ä¹¦è®°": 4815,
      "æĺ¯ä¸Ģé¡¹": 4816,
      "ç¡®è®¤": 4817,
      "å¯¹è¯ĿåĨħå®¹": 4818,
      "çļĦä¸ĢäºĽ": 4819,
      "ä¸Ģå®ļçļĦ": 4820,
      "ç¿»è¯ĳæĪĲä¸Ńæĸĩ": 4821,
      "æ¯Ķäºļ": 4822,
      "æĲŃéħį": 4823,
      "åı¯åĨįçĶŁ": 4824,
      "äºĴçĽ¸": 4825,
      "è£ħé¥°": 4826,
      "éļ¶å±ŀäºİ": 4827,
      "ä¸įæĸŃåľ°": 4828,
      "ç²Ĺ": 4829,
      "èŁ": 4830,
      "çļĦæĦŁè§ī": 4831,
      "éĻķ": 4832,
      "è®°å¾Ĺ": 4833,
      "éļľç¢į": 4834,
      "åħ¨éĥ¨": 4835,
      "Ġk": 4836,
      "Ðµ": 4837,
      "èĭ¹æŀľåħ¬åı¸": 4838,
      "è¥¿åĮĹ": 4839,
      "åĪ¶åº¦": 4840,
      "æľ´": 4841,
      "åľ¨ç¾İåĽ½": 4842,
      "åľ¨è¿ĻéĩĮ": 4843,
      "çļĦæ°´": 4844,
      "èĬ³": 4845,
      "æ£ī": 4846,
      "ä¸Ńåħ±": 4847,
      "ies": 4848,
      "æĦıä¸º": 4849,
      "çĮ´": 4850,
      "åı¯ä»¥å¸®åĬ©æĪĳä»¬": 4851,
      "æİ¢è®¨äºĨ": 4852,
      "éĢĨ": 4853,
      "å¹¶ä¸įæĺ¯": 4854,
      "ä»¥ä¸º": 4855,
      "ight": 4856,
      "ä¼ļå¯¼èĩ´": 4857,
      "åĮºåĪ«": 4858,
      "æĲº": 4859,
      "æ¬º": 4860,
      "æĪĳåĴĮ": 4861,
      "å®ĹæķĻ": 4862,
      "å®īåħ¨æĢ§": 4863,
      "æĸĩçī©": 4864,
      "Ġtr": 4865,
      "å°±ä¸ļ": 4866,
      "2022": 4867,
      "è¿Ļæľ¬ä¹¦": 4868,
      "æħķ": 4869,
      "èİĵ": 4870,
      "éĹ¹": 4871,
      "åı£åĳ³": 4872,
      "Go": 4873,
      "2007": 4874,
      "ace": 4875,
      "æ£ķ": 4876,
      "ãĢĤãĢĬ": 4877,
      "çī¹åĪ«æĺ¯": 4878,
      "çļĦäº§åĵģ": 4879,
      "åĽ¾ä¹¦é¦Ĩ": 4880,
      "az": 4881,
      "ure": 4882,
      "åĬŀåħ¬å®¤": 4883,
      "å°ĺ": 4884,
      "æ¶ĪèĢĹ": 4885,
      "åŃŁ": 4886,
      "ä¸ľéĥ¨": 4887,
      "å¤§è§Ħæ¨¡": 4888,
      "å¸¦æľī": 4889,
      "æĶ¹ç¼ĸ": 4890,
      "åħ¬åħĥ": 4891,
      "ç»ĦæĪĲéĥ¨åĪĨ": 4892,
      "è¿Ł": 4893,
      "åı¤èĢģ": 4894,
      "å½¼æŃ¤": 4895,
      "xt": 4896,
      "æįŁå¤±": 4897,
      "å½¢æĢģ": 4898,
      "ork": 4899,
      "çĭ¸": 4900,
      "çĨĻ": 4901,
      "ç©¿çĿĢ": 4902,
      "æŁ³": 4903,
      "æ¦Ĥè¿°": 4904,
      "æĽ´å¥½åľ°çĲĨè§£": 4905,
      "è¿ĲçĶ¨": 4906,
      "éĩĮæĸ¯": 4907,
      "çĥŃæĥħ": 4908,
      "ä¸ºäºº": 4909,
      "2006": 4910,
      "åħ½": 4911,
      "çļĩå¸Ŀ": 4912,
      "åĲĪå¹¶": 4913,
      "æıŃ": 4914,
      "æĦīæĤ¦": 4915,
      "å°±åı¯ä»¥": 4916,
      "å¹´åīį": 4917,
      "æĪĲçļĦ": 4918,
      "Ġby": 4919,
      "çļĦè¯Ńè¨Ģ": 4920,
      "åı¯èĥ½éľĢè¦ģ": 4921,
      "æĪĲäºĨ": 4922,
      "æľĢå¥½": 4923,
      "ĠÐ": 4924,
      "ä»İäºĭ": 4925,
      "æĺ¯ä¸ª": 4926,
      "é¸£": 4927,
      "èµ·äºĨ": 4928,
      "åı¯ä»¥æĺ¯": 4929,
      "èħº": 4930,
      "çłĶç©¶è¡¨æĺİ": 4931,
      "æĦŁåıĹåĪ°": 4932,
      "çļĦåŁİå¸Ĥ": 4933,
      "low": 4934,
      "æģĴæĺŁ": 4935,
      "è¿ĲèĲ¥": 4936,
      "å¤¹": 4937,
      "åĴĮåĪĨæŀĲ": 4938,
      "æİĴåĪĹ": 4939,
      "å¯¹äººç±»": 4940,
      "æķĻå¸Ī": 4941,
      ",ãĢĬ": 4942,
      "ä¹Łå¾Ī": 4943,
      "ç¾¤ä½ĵ": 4944,
      "éĩįå¤§": 4945,
      "åľ°éľĩ": 4946,
      "åŃĿ": 4947,
      "åįľ": 4948,
      "åĩĿ": 4949,
      "èħ¾": 4950,
      "èĬ±åĽŃ": 4951,
      "åħ±äº§": 4952,
      "åºĶè¯¥æĺ¯": 4953,
      "ä¿ĿçķĻ": 4954,
      "Ġj": 4955,
      "è¯ģæį®": 4956,
      "æĶ¹åĨĻ": 4957,
      "çļĦçī¹å¾ģ": 4958,
      "ä¸ŃåĽ½çļĦ": 4959,
      "åħĪè¿Ľ": 4960,
      "æĪĺæĸĹ": 4961,
      "äºĮæ°§åĮĸç¢³": 4962,
      "è®²è¿°äºĨ": 4963,
      "åįĹæŀģ": 4964,
      "è¯ĨåĪ«åĩº": 4965,
      "æĶĢ": 4966,
      "åĨĽéĺŁ": 4967,
      "ç»ıçĲĨ": 4968,
      "ç¬¬åįģ": 4969,
      "åĴĮå¹³": 4970,
      "çľĭçľĭ": 4971,
      "æ¡Ĥ": 4972,
      "èµĦéĩĳ": 4973,
      "åĭĥ": 4974,
      "åĮħæĭ¬ä»¥ä¸ĭ": 4975,
      "å¼łä¸ī": 4976,
      "éĶ¡": 4977,
      "ä¸Ī": 4978,
      "äººåĴĮ": 4979,
      "æº¯": 4980,
      "èįĴ": 4981,
      "çļĦä¸»è¦ģåĨħå®¹": 4982,
      "å»ºäºİ": 4983,
      "æĭ³": 4984,
      "yp": 4985,
      "ust": 4986,
      "æİªæĸ½æĿ¥": 4987,
      "å¦®": 4988,
      "çŃīäºº": 4989,
      "æĥ³åĪ°": 4990,
      "éĢıæĺİ": 4991,
      "åĽłä¸ºå®ĥä»¬": 4992,
      "ðŁĺ": 4993,
      "åħ¬å¼Ģ": 4994,
      "ogle": 4995,
      "ç§Ĵ": 4996,
      "åıįå¯¹": 4997,
      "æĭħå¿ĥ": 4998,
      "å¸ħ": 4999,
      "åĩºè¡Į": 5000,
      "åĨ¥": 5001,
      "èµĭ": 5002,
      "çļĦéŁ³ä¹Ĳ": 5003,
      "åĬłä¸Ĭ": 5004,
      "æ°§æ°Ķ": 5005,
      "ç¾¤å²Ľ": 5006,
      "è¾£": 5007,
      "çĲĨæĥ³": 5008,
      "çħ®": 5009,
      "åĽ½æ°ĳ": 5010,
      "èĲĿ": 5011,
      "æ·±è¿ľ": 5012,
      "æĽ´æľī": 5013,
      "çļĦæł¸å¿ĥ": 5014,
      "orld": 5015,
      "ng": 5016,
      "åĨ³çŃĸæłĳ": 5017,
      "ç¥ĸçĪ¶": 5018,
      "ä¸įå¥½": 5019,
      "åľ°åĲį": 5020,
      "æĢ»ä½ĵ": 5021,
      "çłĶåıĳ": 5022,
      "æĮĩæĮ¥": 5023,
      "çľĭæ³ķ": 5024,
      "ä¸įæĸŃåıĳå±ķ": 5025,
      "æī§å¯¼": 5026,
      "é£İæĻ¯": 5027,
      "åĬĽåŃ¦": 5028,
      "èħ°": 5029,
      "çĸı": 5030,
      "å±ıå¹ķ": 5031,
      "åħīçº¿": 5032,
      "èĥĸ": 5033,
      "çļĦåıĺåĮĸ": 5034,
      "ĠæĪĳ": 5035,
      "act": 5036,
      "å½ĵåľ°çļĦ": 5037,
      "å¤©çĦ¶": 5038,
      "å°ıåŀĭ": 5039,
      "ä¸ºä¸Ģ": 5040,
      "æµ·å¹³éĿ¢": 5041,
      "æĺŃ": 5042,
      "åı¯èĥ½ä¼ļå¯¼èĩ´": 5043,
      "ç¥Ń": 5044,
      "ä¸ĭåįĪ": 5045,
      "æĬ¢": 5046,
      "ĠU": 5047,
      "è¿Ŀ": 5048,
      "æĢ§åĪ«": 5049,
      "å·ŀå¸Ĥ": 5050,
      "å¥½å¤Ħ": 5051,
      "æĺ¯è°ģ": 5052,
      "æľīçĤ¹": 5053,
      "è¿Ļåº§": 5054,
      "è¡Ģç®¡": 5055,
      "Tom": 5056,
      "åīįæĻ¯": 5057,
      "é©¬æĿ¥": 5058,
      "èº«ä½ĵåĴĮ": 5059,
      "è¢«è§Ĩä¸º": 5060,
      "çļĦçĶŁæ´»æĸ¹å¼ı": 5061,
      "ah": 5062,
      "å¸¦æĿ¥çļĦ": 5063,
      "åĽ½åĨħ": 5064,
      "çŁ¥è¯ĨåĴĮ": 5065,
      "åĿĽ": 5066,
      "èµĽäºĭ": 5067,
      "åľ°éĵģ": 5068,
      "è´¨éĩıåĴĮ": 5069,
      "è½´": 5070,
      "æŁ¥æī¾": 5071,
      "æ¼ł": 5072,
      "å·²çŁ¥": 5073,
      "ian": 5074,
      "åįķæĽ²": 5075,
      "ast": 5076,
      "å¹¿æ³ĽçļĦåºĶçĶ¨": 5077,
      "å¼ķåĬĽ": 5078,
      "çĴĥ": 5079,
      "åĩºçİ°åľ¨": 5080,
      "åĨĪ": 5081,
      "é¥°æ¼Ķ": 5082,
      "æľīä¸ĢäºĽ": 5083,
      "åıł": 5084,
      "å®ļä½į": 5085,
      "æĵįä½ľç³»ç»Ł": 5086,
      "ä¿Ŀéļľ": 5087,
      "æİ¢éĻ©": 5088,
      "åħ¨éĿ¢": 5089,
      "éģĹäº§": 5090,
      "éĢļå¸¸ä¼ļ": 5091,
      "æĹ©ä¸Ĭ": 5092,
      "çļĦå£°éŁ³": 5093,
      "åħĭæľį": 5094,
      "iPhone": 5095,
      "å°¤åħ¶æĺ¯": 5096,
      "åıįæĺł": 5097,
      "å¥¶å¥¶": 5098,
      "æľīçĽĬ": 5099,
      "åħħæ»¡äºĨ": 5100,
      "èº«å¿ĥ": 5101,
      "ellig": 5102,
      "åĽ¢ä½ĵ": 5103,
      "åĴĮå·¥ä½ľ": 5104,
      "ä»·åĢ¼è§Ĥ": 5105,
      "å¤ªå¹³æ´ĭ": 5106,
      "æĴ¤": 5107,
      "äºīè®®": 5108,
      "ç»Ļåĩºä¸Ģä¸ª": 5109,
      "èĩªåĬ¨é©¾é©¶æ±½è½¦": 5110,
      "ä¸ĥå¹´": 5111,
      "æ·ĭ": 5112,
      "åŀĤ": 5113,
      "èĥľåĪ©": 5114,
      "å¤©ä½ĵ": 5115,
      "In": 5116,
      "éĩĮéĿ¢": 5117,
      "å¯ĮåĲ«": 5118,
      "åħ¶ä¸ŃåĮħæĭ¬": 5119,
      "å¹¿æĴŃ": 5120,
      "èĬĴ": 5121,
      "Ð½": 5122,
      "ark": 5123,
      "æª": 5124,
      "çĶŁæ´»åľ¨": 5125,
      "å¹´åľ¨": 5126,
      "31": 5127,
      "åĽ½çļĦ": 5128,
      "é¾Ł": 5129,
      "çŃīæĸ¹å¼ı": 5130,
      "æĽ´é«ĺçļĦ": 5131,
      "æķ£æŃ¥": 5132,
      "æ¦Ĥçİĩ": 5133,
      "ä¸ŃæĢ§": 5134,
      "è¿ĲåĬ¨ä¼ļ": 5135,
      "èĦĬ": 5136,
      "åĻª": 5137,
      "èĢĢ": 5138,
      "è¿Ļä¹Ł": 5139,
      "èĤ¯å®ļ": 5140,
      "ick": 5141,
      "ä¿±ä¹Ĳ": 5142,
      "èģĶéĤ¦": 5143,
      "äºĭåĬ¡": 5144,
      "èİ²": 5145,
      "å½»": 5146,
      "åľ¨è¿ĩåİ»": 5147,
      "éĢĤçĶ¨äºİ": 5148,
      "ä»ĵ": 5149,
      "ä¿±ä¹Ĳéĥ¨": 5150,
      "çĮĽ": 5151,
      "éĹ»åĲį": 5152,
      "æĬĢèĥ½åĴĮ": 5153,
      "èĢĮåľ¨": 5154,
      "Ġas": 5155,
      "æĭĸ": 5156,
      "äººç±»æ´»åĬ¨": 5157,
      "çľŁæĺ¯": 5158,
      "æµªæ¼«": 5159,
      "ä¼Ļä¼´": 5160,
      "èĩ´åĬĽäºİ": 5161,
      "çīµ": 5162,
      "æµ·åĨĽ": 5163,
      "ç»ĻäºĨ": 5164,
      "Ġsh": 5165,
      "è¯·æ±Ĥ": 5166,
      "æ¸ħæ¥ļ": 5167,
      "æľīäºĨ": 5168,
      "åī©": 5169,
      "æĮĸæİĺ": 5170,
      "ä¹ĥ": 5171,
      "åĲĦåľ°": 5172,
      "æ¼ı": 5173,
      "éĥ¨éķ¿": 5174,
      "ä¸Ģåľº": 5175,
      "æķ°æį®åºĵ": 5176,
      "å¹½": 5177,
      "ãĢĤãĢĤ": 5178,
      "æĪĺçķ¥": 5179,
      "è£Ķ": 5180,
      "éĩİçĶŁ": 5181,
      "ç§įæ¤į": 5182,
      "è¿ĺéľĢè¦ģ": 5183,
      "å®ħ": 5184,
      "å·ŀçļĦ": 5185,
      "çİĦ": 5186,
      "èģļç±»": 5187,
      "æĶ¹éĿ©": 5188,
      "ä¸»æĮģ": 5189,
      "èĤ©": 5190,
      "çħ§çīĩ": 5191,
      "éģĹä¼ł": 5192,
      "åİĨåı²ä¸Ĭ": 5193,
      "å®ª": 5194,
      "\"),": 5195,
      "ç¢°": 5196,
      "çļĦä¸į": 5197,
      "åĥ§": 5198,
      "ä¼łè¯´": 5199,
      "è¢ģ": 5200,
      "è¾Ī": 5201,
      "æľĿé²ľ": 5202,
      "çļĦåĲ«ä¹ī": 5203,
      "è¶ĬåįĹ": 5204,
      "å®ŀéĻħä¸Ĭ": 5205,
      "æ§": 5206,
      "ä½łå¥½": 5207,
      "å¸¦çĿĢ": 5208,
      "éķ¿æĹ¶éĹ´": 5209,
      "ç¡¬ä»¶": 5210,
      "èĬĿ": 5211,
      "æĸĩæľ¬ä¸ŃæıĲåıĸ": 5212,
      "éĤĢè¯·": 5213,
      "å²³": 5214,
      "å²Ĺ": 5215,
      "èĤĥ": 5216,
      "æĺŁæľŁ": 5217,
      "åħ¬åĪĨ": 5218,
      "æĦĪ": 5219,
      "è§ĦèĮĥ": 5220,
      "çĽĨ": 5221,
      "èĩªçĦ¶çģ¾å®³": 5222,
      "åĭĩæ°Ķ": 5223,
      "æĺ¨å¤©": 5224,
      "åĪĽå§ĭ": 5225,
      "æĦīå¿«": 5226,
      "ide": 5227,
      "çĽ¾": 5228,
      "å¤§æĪĺ": 5229,
      "åı¯ä»¥ä¸º": 5230,
      "éĥ½ä¸į": 5231,
      "åĢ¾åĲĳ": 5232,
      "åĨ²çªģ": 5233,
      "å§ĳå¨ĺ": 5234,
      "èµ°äºĨ": 5235,
      "éľĢè¦ģæ³¨æĦıçļĦæĺ¯": 5236,
      "åħ³éĶ®åŃĹ": 5237,
      "ä»İæķ°æį®ä¸Ń": 5238,
      "ä¼ĺåħĪ": 5239,
      "ä¸ŃéĹ´": 5240,
      "ä¸Ĭæĺł": 5241,
      "å®ĥåľ¨": 5242,
      "ä»ĸæĽ¾": 5243,
      "åĲķ": 5244,
      "åĪĽç«ĭ": 5245,
      "Ġ,": 5246,
      "éĨĩ": 5247,
      "åľ¨è¿Ļç§į": 5248,
      "äº¤åıī": 5249,
      "åĲĮäºĭ": 5250,
      "å¹¶äºİ": 5251,
      "ç½ļ": 5252,
      "å¼ºçļĦ": 5253,
      "Java": 5254,
      "æ°ĽåĽ´": 5255,
      "å·¨å¤§": 5256,
      "ç®Ĺæ³ķåĴĮ": 5257,
      "çĶŁæĪĲåķĨåĵģæĸĩæ¡Ī": 5258,
      "åĩŃ": 5259,
      "æĪĲçĨŁ": 5260,
      "èĹ¤": 5261,
      "åĩłå¹´": 5262,
      "åĩĨç¡®åľ°": 5263,
      "çĪ½": 5264,
      "æĳ¸": 5265,
      "æĵ¦": 5266,
      "å°ļæľª": 5267,
      "ä¸Ľ": 5268,
      "æĿī": 5269,
      "Â°": 5270,
      "åı¯åĨįçĶŁèĥ½æºĲ": 5271,
      "åĩºèº«": 5272,
      "ä¸Ģç¯ĩæĸĩç«ł": 5273,
      "éĿ¢åĮħ": 5274,
      "rom": 5275,
      "åĪ©çĽĬ": 5276,
      "å§ĭç»Ī": 5277,
      "ile": 5278,
      "æĦŁåħ´è¶£": 5279,
      "èĤĸ": 5280,
      "å¥¥æĸ¯": 5281,
      "ä»¿ä½Ľ": 5282,
      "éī": 5283,
      "æĿĤå¿Ĺ": 5284,
      "èį¡": 5285,
      "ç´§æĢ¥": 5286,
      "ä»ĸä»¬åľ¨": 5287,
      "æ¸ħæľĿ": 5288,
      "æŁĶè½¯": 5289,
      "åĳ¨æľŁ": 5290,
      "åİĺ": 5291,
      "çº¦ä¸º": 5292,
      "ä¿®å¤į": 5293,
      "èº«ä½ĵçļĦ": 5294,
      "è¯¥æĸĩæľ¬": 5295,
      "æīĳ": 5296,
      "æŁ¥çľĭ": 5297,
      "Ġal": 5298,
      "éĺģ": 5299,
      "äº®çļĦ": 5300,
      "è½»è½»": 5301,
      "è°·æŃĮ": 5302,
      "çĬ¯ç½ª": 5303,
      "æĿ¥çľĭ": 5304,
      "åĬłéĢŁ": 5305,
      "ç³Ĭ": 5306,
      "æĢ§æł¼": 5307,
      "åİŁåŃĲ": 5308,
      "å¹´è½»çļĦ": 5309,
      "æľīçĶ¨çļĦ": 5310,
      "é¹ħ": 5311,
      "æµı": 5312,
      "è½¬åĮĸä¸º": 5313,
      "ä¸»è¯Ń": 5314,
      "ä½łéľĢè¦ģ": 5315,
      "ç¾½æ¯Ľ": 5316,
      "å¦»åŃĲ": 5317,
      "ä¹Łè®¸": 5318,
      "åĮħåĲ«äºĨ": 5319,
      "æ¼ĶåĶ±": 5320,
      "åĪł": 5321,
      "ä»Ķç»Ĩ": 5322,
      "åıĳåĩº": 5323,
      "çİ°åľº": 5324,
      "ç»ĻäºĪ": 5325,
      "æĺ¯ä¸Ģå®¶": 5326,
      "çĽ¸åıį": 5327,
      "ÑĢ": 5328,
      "èĥ½å¤Łåľ¨": 5329,
      "ov": 5330,
      "Ġæĺ¯": 5331,
      "å±±è¥¿": 5332,
      "æĽ¿ä»£": 5333,
      "åĲĲ": 5334,
      "éĻķè¥¿": 5335,
      "ary": 5336,
      "æĲľç´¢å¼ķæĵİ": 5337,
      "elligence": 5338,
      "äºĳè®¡ç®Ĺ": 5339,
      "é¢Ħç®Ĺ": 5340,
      "æĮº": 5341,
      "Ġex": 5342,
      "è´¤": 5343,
      "ä¼ĺç§ĢçļĦ": 5344,
      "æįī": 5345,
      "ä¹ĭéĹ´çļĦåħ³ç³»": 5346,
      "ä¼ĺè´¨": 5347,
      "çľĭåĪ°äºĨ": 5348,
      "é¢ģ": 5349,
      "çŀ§": 5350,
      "æµģçķħ": 5351,
      "å¤ļæł·æĢ§": 5352,
      "æĪĸæĺ¯": 5353,
      "éªĹ": 5354,
      "è¿½æº¯": 5355,
      "æĽ´å¥½åľ°äºĨè§£": 5356,
      "NN": 5357,
      "æĸĩçĮ®": 5358,
      "è°Ĭ": 5359,
      "é¸Ń": 5360,
      "åĿĲåľ¨": 5361,
      "æ¤ħ": 5362,
      "æ¾³å¤§åĪ©": 5363,
      "æµ·æĭĶé«ĺåº¦": 5364,
      "å®¤åĨħ": 5365,
      "ber": 5366,
      "åµ": 5367,
      "ä»¥æıĲé«ĺ": 5368,
      "å¼Ģå±ķ": 5369,
      "ĠåĴĮ": 5370,
      "è¿Ļä½į": 5371,
      "è°ĥèĬĤ": 5372,
      "ä¸ĭåİ»": 5373,
      "è´§å¸ģ": 5374,
      "ä½ĵéķ¿": 5375,
      "æŁĲç§į": 5376,
      "...": 5377,
      "åŃ¦çĶŁçļĦ": 5378,
      "å¥¹åľ¨": 5379,
      "åıĳéĢģ": 5380,
      "æ³Ħ": 5381,
      "åįıåĬ©": 5382,
      "ç¬¬äºĶ": 5383,
      "æ¾³å¤§åĪ©äºļ": 5384,
      "è¯¢éĹ®": 5385,
      "æĪĳè¦ģ": 5386,
      "èŃ¦å¯Ł": 5387,
      "ç®¡è¾ĸ": 5388,
      "ç¥¥": 5389,
      "éĵº": 5390,
      "éģ¥": 5391,
      "ä¸Ģçīĩ": 5392,
      "ç±³çļĦ": 5393,
      "éī´": 5394,
      "Ġqu": 5395,
      "åŀĥåľ¾éĤ®ä»¶": 5396,
      "ave": 5397,
      "å¾Īå¥½çļĦ": 5398,
      "çĶŁçļĦ": 5399,
      "ä½ľæĸĩ": 5400,
      "æĽ¿æį¢": 5401,
      "é©¬æĭī": 5402,
      "åİĭåĬĽåĴĮ": 5403,
      "å¾Īæľī": 5404,
      "è¯»ä¹¦": 5405,
      "é¡µéĿ¢": 5406,
      "ç¼ĸåĨĻä¸Ģä¸ª": 5407,
      "å¾Īå¤§": 5408,
      "å¥¥è¿Ĳ": 5409,
      "åĨ³èµĽ": 5410,
      "æľºæ¢°": 5411,
      "2005": 5412,
      "åĬ²": 5413,
      "å¯Ħ": 5414,
      "ä½Ĩä»ĸ": 5415,
      "ä¼Ĺå¤ļ": 5416,
      "å¥½äºĨ": 5417,
      "çĭĲçĭ¸": 5418,
      "æııç»ĺ": 5419,
      "å¯¹ä»¥ä¸ĭ": 5420,
      "è©": 5421,
      "æĦıè¯ĨåĪ°": 5422,
      "app": 5423,
      "è¿ĩæĿ¥": 5424,
      "ificial": 5425,
      "å¯¹æĪĳ": 5426,
      "é«ĺä¸Ń": 5427,
      "å°ıåŃ¦": 5428,
      "å±Ĥæ¬¡": 5429,
      "å®ı": 5430,
      "ä¸įèµ·": 5431,
      "ä¹ĭä¸ĭ": 5432,
      "åħĭçļĦ": 5433,
      "ä¸ŃéĢīæĭ©": 5434,
      "ç²®": 5435,
      "ä¸īè§Ĵ": 5436,
      "ç»Łæ²»": 5437,
      "çĪ·çĪ·": 5438,
      "åĪĽå»ºä¸Ģä¸ª": 5439,
      "ä¼¤å®³": 5440,
      "ç»ĵå©ļ": 5441,
      "æĭīæĸ¯": 5442,
      "ous": 5443,
      "åĴ¨": 5444,
      "ä¸ĭéĿ¢çļĦéĹ®é¢ĺ": 5445,
      "åĴĮæ°´": 5446,
      "æĺİäºĨ": 5447,
      "è®¾å®ļ": 5448,
      "éļıæĹ¶": 5449,
      "\"\"": 5450,
      "æµıè§Ī": 5451,
      "åħ¬å°º": 5452,
      "èĭıèģĶ": 5453,
      "å¿ĺè®°": 5454,
      "å¼¦": 5455,
      "è¿Ļè¡¨æĺİ": 5456,
      "è¾ĥä¸º": 5457,
      "åħ³éĹŃ": 5458,
      "çİ»çĴĥ": 5459,
      "æ±Łèĭı": 5460,
      "ult": 5461,
      "æľīè¶£çļĦ": 5462,
      "æķ°çĻ¾": 5463,
      "æ¶Ĥ": 5464,
      "è¶ĬæĿ¥è¶Ĭå¤ļ": 5465,
      "çĶ³è¯·": 5466,
      "é¥ª": 5467,
      "å·¥èīº": 5468,
      "èĩ³ä»Ĭ": 5469,
      "AP": 5470,
      "Ġpl": 5471,
      "çĥ¹é¥ª": 5472,
      "æĺİå¤©": 5473,
      "è¿ĺåľ¨": 5474,
      "æľĢæĸ°çļĦ": 5475,
      "è©¹": 5476,
      "æĪĴ": 5477,
      "å¿łè¯ļ": 5478,
      "çĪĨåıĳ": 5479,
      "åĲĪæĪĲ": 5480,
      "æĥħæĦŁåĪĨç±»": 5481,
      ":'": 5482,
      "ä½łåľ¨": 5483,
      "è§Ĥçľĭ": 5484,
      "æŁ¯": 5485,
      "è®°èĢħ": 5486,
      "åį¿": 5487,
      "çļĦè¡Įä¸º": 5488,
      "ç©·": 5489,
      "èĥİ": 5490,
      "åİ¿äºº": 5491,
      "æ¯ĶèµĽä¸Ń": 5492,
      "æĮĩå®ļ": 5493,
      "çĽĪ": 5494,
      "æĹ¥åŃĲ": 5495,
      "ç¬¬äºĮä¸ª": 5496,
      "å¹¿æ³ĽåºĶçĶ¨": 5497,
      "ç±»ä¼¼äºİ": 5498,
      "to": 5499,
      "æī£": 5500,
      "åĮ¹éħį": 5501,
      "è¾Ĳå°Ħ": 5502,
      "å¥ĸé¡¹": 5503,
      "ä¸įä»ħä»ħ": 5504,
      "åĳ½ä»¤": 5505,
      "çĻ»å±±": 5506,
      "èģĬå¤©": 5507,
      "æĹ±": 5508,
      "æµ·å²¸": 5509,
      "éĨī": 5510,
      "éŃĤ": 5511,
      "èĭ±å°º": 5512,
      "çģĮ": 5513,
      "åĬłå¯Ĩ": 5514,
      "åĲĮä¸Ģ": 5515,
      "ç²¾åĬĽ": 5516,
      "GP": 5517,
      "èĳ¬": 5518,
      "çĸĨ": 5519,
      "ç¨į": 5520,
      "æĲ¬": 5521,
      "åįµ": 5522,
      "çİ¯å¢ĥä¸Ń": 5523,
      "æ¼Ķè®²": 5524,
      "å¡ĺ": 5525,
      "ST": 5526,
      "çºªå½ķ": 5527,
      "çľŁæŃ£çļĦ": 5528,
      "èĢĮä¸į": 5529,
      "æĬĢæľ¯æĿ¥": 5530,
      "æĮĳæĪĺåĴĮ": 5531,
      "äº§çĶŁçļĦ": 5532,
      "35": 5533,
      "çıĬ": 5534,
      "åıĽ": 5535,
      "åħ«å¹´": 5536,
      "åĪĿæľŁ": 5537,
      "æ¶Īå¤±": 5538,
      "æİ¥æĶ¶": 5539,
      "imp": 5540,
      "ä¸ºä»¥ä¸ĭ": 5541,
      "å¦Ĥä»Ĭ": 5542,
      "çº½çº¦å¸Ĥ": 5543,
      "æĥħå¢ĥ": 5544,
      "å¹´è½»äºº": 5545,
      "æł½": 5546,
      "ä¸ĬéĿ¢": 5547,
      "æľºåĻ¨åŃ¦ä¹łæĺ¯ä¸Ģç§į": 5548,
      "çĤ®": 5549,
      "æ¢¨": 5550,
      "æĹłçº¿": 5551,
      "å¤´èĦĳé£İæļ´": 5552,
      "ĠAI": 5553,
      "æĸ°äº§åĵģ": 5554,
      "å½ĵä»Ĭ": 5555,
      "éĥ¨éĺŁ": 5556,
      "ç¨¿": 5557,
      "ä¿¡ä»°": 5558,
      "è£Ļ": 5559,
      "åĩĮ": 5560,
      "è¯ĹæŃĮ": 5561,
      "Ġä½¿çĶ¨": 5562,
      "æĩĴ": 5563,
      "ish": 5564,
      "æ¹ĸåįĹ": 5565,
      "éĢıè¿ĩ": 5566,
      "ç²¾ç¡®": 5567,
      "2004": 5568,
      "çĪ±ä½ł": 5569,
      "æ±¤å§Ĩ": 5570,
      "é¥±": 5571,
      "åıĳå±ķçļĦ": 5572,
      "æŃ¤æĹ¶": 5573,
      "éĹ®çŃĶ": 5574,
      "èħĲ": 5575,
      "æĸ¹çļĦ": 5576,
      "å²Ń": 5577,
      "ä½ľä¸ºä¸Ģä¸ª": 5578,
      "ä¾ĿçĦ¶": 5579,
      "ä¹Łæ²¡æľī": 5580,
      "å°Ĩåľ¨": 5581,
      "å¯Ĥ": 5582,
      "èµĲ": 5583,
      "çģ«æĺŁ": 5584,
      "æ¿ĢåĬ±": 5585,
      "æĤĦ": 5586,
      "Ġor": 5587,
      "çĽĴ": 5588,
      "æĪĳä»¬çļĦçĶŁæ´»": 5589,
      "åĴ¸": 5590,
      "St": 5591,
      "è¿ĺä¼ļ": 5592,
      "éĢļè¿ĩå¯¹": 5593,
      "çĶŁåĳ½çļĦ": 5594,
      "Ġun": 5595,
      "ä½įäºİè¯¥": 5596,
      "ç¢±": 5597,
      "å¤·": 5598,
      "ä»ĩ": 5599,
      "éĥ½èĥ½": 5600,
      "åľ°éĿ¢": 5601,
      "ç«ĭåį³": 5602,
      "åįıè°ĥ": 5603,
      "å®ĺåĳĺ": 5604,
      "å¤§ä¼ļ": 5605,
      "çŁ©": 5606,
      "æ¡Ĩæŀ¶": 5607,
      "æĺ¯åħ³äºİ": 5608,
      "Ġcan": 5609,
      "å¹¶è¿Ľè¡Į": 5610,
      "è¿ľç¨ĭ": 5611,
      "åľ°è¯´": 5612,
      "å±ŀä¸ĭçļĦä¸Ģä¸ªç§į": 5613,
      "åľ°åĽ¾": 5614,
      "å¹¶ä½¿çĶ¨": 5615,
      "ä¸įä½ı": 5616,
      "ä¿ĿéĻ©": 5617,
      "ID": 5618,
      "å¨ĥ": 5619,
      "çĲĨçĶ±": 5620,
      "åĴĮæĶ¯æĮģ": 5621,
      "èĨĢ": 5622,
      "48": 5623,
      "åĩºåİ»": 5624,
      "çĥŃéĹ¨": 5625,
      "æĹ¥åľ¨": 5626,
      "æµ¸": 5627,
      "å¸½": 5628,
      "åı¯ä»¥åĩıå°ĳ": 5629,
      "åºŀ": 5630,
      "çĮľ": 5631,
      "ä¹Łå°±æĺ¯": 5632,
      "ä»¥å¸®åĬ©": 5633,
      "å¦Ĥä½ķåľ¨": 5634,
      "ä¹Ķæ²»": 5635,
      "åĴĮè¡Įä¸º": 5636,
      "çļĦä½įç½®": 5637,
      "æĨ": 5638,
      "çļĦé¢ľèī²": 5639,
      "æľŁæľĽ": 5640,
      "å¥ĸåĬ±": 5641,
      "æµ¦": 5642,
      "è¯Ńä¹ī": 5643,
      "ĠPro": 5644,
      "ä¿ĿåŃĺ": 5645,
      "åħ¶å®ĥ": 5646,
      "ç¢Ĺ": 5647,
      "éĽĢ": 5648,
      "åı¯ä»¥æıĲä¾Ľ": 5649,
      "ä¹Ŀå¹´": 5650,
      "è¸ı": 5651,
      "çļĦåĬ¨çī©": 5652,
      "æĺ¯æĪĳä»¬": 5653,
      "åľºåĲĪ": 5654,
      "å¸¸çĶ¨çļĦ": 5655,
      "ä»¬çļĦ": 5656,
      "æĥ§": 5657,
      "Ġ2": 5658,
      "çŃĽ": 5659,
      "æ½ľåĬĽ": 5660,
      ":ãĢĮ": 5661,
      "åĽŀçŃĶè¿Ļä¸ªéĹ®é¢ĺ": 5662,
      "éĢīæīĭ": 5663,
      "è¾ī": 5664,
      "å¥¥æŀĹ": 5665,
      "ee": 5666,
      "ä½Ĩå®ĥ": 5667,
      "èĩĤ": 5668,
      "çļĦå½¢å¼ı": 5669,
      "ä¸Ńæľī": 5670,
      "ä¼ļåĦ¿": 5671,
      "èĳĽ": 5672,
      "éģĩåĪ°äºĨ": 5673,
      "æ¨¡ä»¿": 5674,
      "ä¸ŃçļĦåºĶçĶ¨": 5675,
      "æĭĴç»Ŀ": 5676,
      "è¿Ļä½¿å¾Ĺ": 5677,
      "çĨŁæĤī": 5678,
      "åĽĽåįģ": 5679,
      "ä¸ºä¸Ģä¸ª": 5680,
      "æĴĳ": 5681,
      "åĩºèī²": 5682,
      "æĴŃæĶ¾": 5683,
      "çļĦåħ³ç³»": 5684,
      "åı¯çĪ±": 5685,
      "ä¸¥æł¼": 5686,
      "ä¸¢": 5687,
      "äºĨå¾Īå¤ļ": 5688,
      "ram": 5689,
      "é¹°": 5690,
      "åıĹä¼¤": 5691,
      "è¿ĩæ»¤": 5692,
      "æļĹç¤º": 5693,
      "å¹²æī°": 5694,
      "åĪ¸": 5695,
      "ä½ľä¸ļ": 5696,
      "èĥ½åĬĽåĴĮ": 5697,
      "áĢ": 5698,
      "æ¸ħæ´Ĺ": 5699,
      "æħİ": 5700,
      "åıĹä¼Ĺ": 5701,
      "è¯ŀ": 5702,
      "åİ¦": 5703,
      "æĿĨ": 5704,
      "ä»¥åħ¶": 5705,
      "45": 5706,
      "æŃī": 5707,
      "æ¸łéģĵ": 5708,
      "çļĦå¿ĥ": 5709,
      "æ»ĭ": 5710,
      "ç«Ļåľ¨": 5711,
      "åĴ¨è¯¢": 5712,
      "ox": 5713,
      "åĴĮä¸į": 5714,
      "æĪĲç«ĭäºİ": 5715,
      "æłĩæ³¨": 5716,
      "åģľæŃ¢": 5717,
      "ç½ķ": 5718,
      "å¼ºåĮĸåŃ¦ä¹ł": 5719,
      "å¯Ĩåº¦": 5720,
      "çļĦæľįåĬ¡": 5721,
      "æ¤İ": 5722,
      "çĻĮçĹĩ": 5723,
      "ç»§æī¿": 5724,
      "çħ§é¡¾": 5725,
      "åĸľçĪ±": 5726,
      "åı·çº¿": 5727,
      "çķĮéĿ¢": 5728,
      "of": 5729,
      "è®Ńç»ĥæ¨¡åŀĭ": 5730,
      "å·§åħĭ": 5731,
      "Ġyou": 5732,
      "åıĤè§Ĥ": 5733,
      "æ±Łè¥¿": 5734,
      "Ġat": 5735,
      "ĠThe": 5736,
      "çĸ²åĬ³": 5737,
      "çļĦæ¦Ĥå¿µ": 5738,
      "Google": 5739,
      "rem": 5740,
      "sh": 5741,
      "åįĥç±³": 5742,
      "Ġ3": 5743,
      "çİ¯å¢ĥçļĦ": 5744,
      "ä½ĨæĪĳ": 5745,
      "èļģ": 5746,
      "åħħè¶³": 5747,
      "è·Łè¸ª": 5748,
      "ä¸Ģè¾¹": 5749,
      "åĴĮç®¡çĲĨ": 5750,
      "æĪĳä»¬åı¯ä»¥ä½¿çĶ¨": 5751,
      "ä¸ĭéĿ¢çļĦ": 5752,
      "èħĶ": 5753,
      "ä½łæĺ¯": 5754,
      "å¤ĸè§Ĥ": 5755,
      "çļĦçī¹çĤ¹": 5756,
      "ä¸Ģèĩ´": 5757,
      "è®®åĳĺ": 5758,
      "æİ¨æĸŃ": 5759,
      "Ġ1": 5760,
      "å¹´åº¦": 5761,
      "ä»»åĳ½": 5762,
      "å¿ĥåĴĮ": 5763,
      "æµ·åŁŁ": 5764,
      "189": 5765,
      "æĮĩåįĹ": 5766,
      "åı°åĮĹ": 5767,
      "å·¥ä½ľæķĪçİĩ": 5768,
      "æ¯ķä¸ļäºİ": 5769,
      "å°ıçº¢": 5770,
      "å®³æĢķ": 5771,
      "ä¸ĵéĹ¨": 5772,
      "çļĦä¸ĸçķĮ": 5773,
      "å¾Īéļ¾": 5774,
      "çļĦç¬¬ä¸Ģ": 5775,
      "å°ıç»Ħ": 5776,
      "ä¹¡è¯ķ": 5777,
      "éľĢè¦ģè¿Ľè¡Į": 5778,
      "ç³ĸå°¿": 5779,
      "åĭĩæķ¢": 5780,
      "æīĢéľĢçļĦ": 5781,
      "åĳ¨æľ«": 5782,
      "èį·åħ°": 5783,
      "ç³ĸå°¿çĹħ": 5784,
      "row": 5785,
      "å¾¡åı²": 5786,
      "ä¸Ńéĥ¨": 5787,
      "ç¨Ģ": 5788,
      "åıĳçİ°äºĨ": 5789,
      "æĺ¯æ³ķåĽ½": 5790,
      "èĢģäºº": 5791,
      "åĴĮåŃ¦ä¹ł": 5792,
      "æģ°": 5793,
      "ä¸ĭäºĨ": 5794,
      "å¼Łå¼Ł": 5795,
      "è¯Ńæ°Ķ": 5796,
      "åķĨåºĹ": 5797,
      "å¦ĥ": 5798,
      "ä¼ĺæĥł": 5799,
      "ä¸ĢçĽ´åľ¨": 5800,
      "å¥¥æŀĹåĮ¹": 5801,
      "åħ±äº§åħļ": 5802,
      "åİŁåĪĻ": 5803,
      "ä¸¾äºº": 5804,
      "ħåĬĽ": 5805,
      "å®īåħ¨åĴĮ": 5806,
      "è°¨": 5807,
      "èĽĽ": 5808,
      "èµ´": 5809,
      "Art": 5810,
      "ç¬Ķè®°": 5811,
      "åħĪåĲİ": 5812,
      "è¿ĺè¦ģ": 5813,
      "æĬ«èĲ¨": 5814,
      "ä½¿åħ¶æĽ´åĬł": 5815,
      "åĩºçİ°çļĦ": 5816,
      "æĹĭè½¬": 5817,
      "åİŁæľ¬": 5818,
      "è®¡ç®Ĺæľºç¨ĭåºı": 5819,
      "åºĨç¥Ŀ": 5820,
      "è§£æĶ¾": 5821,
      "ĠIn": 5822,
      "å®ŀæĹ¶": 5823,
      "èĬĤå¥ı": 5824,
      "Ġæķ°æį®": 5825,
      "ä¸ĳ": 5826,
      "å°Ķå¾·": 5827,
      "é©¬åħĭ": 5828,
      "è¡°": 5829,
      "çī©çļĦ": 5830,
      "å°¼åħĭ": 5831,
      "å²ģçļĦ": 5832,
      "åģıå¥½": 5833,
      "èī³": 5834,
      "å§Ĩæĸ¯": 5835,
      "åĨħå¿ĥ": 5836,
      "æĹłéĻĲ": 5837,
      "äºļé©¬": 5838,
      "æ¯ıä¸Ģ": 5839,
      "ä¸įäºĨ": 5840,
      "åĨ¥æĥ³": 5841,
      "æĴ°åĨĻ": 5842,
      "æģ¨": 5843,
      "çļĦè¿ĩç¨ĭä¸Ń": 5844,
      "èįīèİĵ": 5845,
      "åı¯çĶ¨äºİ": 5846,
      "å¤§åĮº": 5847,
      "çĶµåŃĲåķĨåĬ¡": 5848,
      "èī¯å¥½": 5849,
      "ç©´": 5850,
      "å°ıå¿ĥ": 5851,
      "èīĩ": 5852,
      "æĬ½åıĸåĩº": 5853,
      "æĿ¥æıĲé«ĺ": 5854,
      "ä¼¦çĲĨ": 5855,
      "çªģåĩº": 5856,
      "è´¹çĶ¨": 5857,
      "åĪĹä¸¾": 5858,
      "åıĳåĬ¨": 5859,
      "ä¿¡æģ¯åĴĮ": 5860,
      "åĪ°çļĦ": 5861,
      "èĮĦ": 5862,
      "çĽĳç®¡": 5863,
      "ç¹ģæ®ĸ": 5864,
      "çļĦéĢīæĭ©": 5865,
      "IP": 5866,
      "ä¼ŀ": 5867,
      "oss": 5868,
      "ä¸ŃçļĦåħ³éĶ®è¯į": 5869,
      "ĠY": 5870,
      "æħ°": 5871,
      "ç¯ĩæĸĩç«ł": 5872,
      "()": 5873,
      "pt": 5874,
      "åĪĽä¸ļ": 5875,
      "è¡Ķ": 5876,
      "åĲįçļĦ": 5877,
      "BA": 5878,
      "ç¼©åĨĻ": 5879,
      "æŃ§": 5880,
      "éķ¿å¤§": 5881,
      "æĸĩæľ¬ä¸ŃçļĦåħ³éĶ®è¯į": 5882,
      "æĺ¯ä¸į": 5883,
      "ä¸ĢæĹ¦": 5884,
      "æĺ¥å¤©": 5885,
      "èĩ³åħ³éĩįè¦ģ": 5886,
      "å¤ļå¹´": 5887,
      "æĪ¿å±ĭ": 5888,
      "åĴĮæ²»çĸĹ": 5889,
      "è¾¨": 5890,
      "å·¥ä½ľçļĦ": 5891,
      "éĿĴæĺ¥": 5892,
      "å¿ĥçĲĨåŃ¦": 5893,
      "æ¯ıä¸Ģä¸ª": 5894,
      "çŁĽ": 5895,
      "äº¨": 5896,
      "æĽ¾åľ¨": 5897,
      "èĬĤæĹ¥": 5898,
      "æĻ´": 5899,
      "éĽ¾": 5900,
      "ç¬¼": 5901,
      "è¿ĻäºĽéĹ®é¢ĺ": 5902,
      "è¿ĺèĥ½": 5903,
      "ath": 5904,
      "ä¸ªæľĪ": 5905,
      "åį§": 5906,
      "ĊĠĠĠ": 5907,
      "å¸ĤåľºèĲ¥éĶĢ": 5908,
      "åĴĮåĨ³çŃĸ": 5909,
      "è®¤åı¯": 5910,
      "oy": 5911,
      "åľŁå£¤": 5912,
      "ç»ĵæŀĦåĴĮ": 5913,
      "ĠãĢĤ": 5914,
      "åĩºèī²çļĦ": 5915,
      "éĢ¼": 5916,
      "2003": 5917,
      "åı¯ä»¥ä½¿": 5918,
      "ç§ĳçļĦ": 5919,
      "å®ĥä»¬åľ¨": 5920,
      "åĪĨè§£": 5921,
      "ä¹ŁéľĢè¦ģ": 5922,
      "åĴĮçĲĨè§£": 5923,
      "éģµå¾ª": 5924,
      "!!": 5925,
      "å¼ķèµ·çļĦ": 5926,
      "å¼Ħ": 5927,
      "å°ļä¹¦": 5928,
      "æ°´ä¸Ń": 5929,
      "èĻļæĭŁçİ°å®ŀ": 5930,
      "æĭŁåĲĪ": 5931,
      "é»ĳæļĹ": 5932,
      "åı¯ä»¥å¸®åĬ©ä½ł": 5933,
      "åıĳå°Ħ": 5934,
      "çŀ¬": 5935,
      "å¤§å¤§": 5936,
      "è¿Ļä¸ªè¯į": 5937,
      "æ°´çļĦ": 5938,
      "åĽŀæĿ¥": 5939,
      "éĻĮ": 5940,
      "å¼¥": 5941,
      "SE": 5942,
      "åĵ¥åĵ¥": 5943,
      "çĭ®åŃĲ": 5944,
      "å¹¶ä¸İ": 5945,
      "è®®ä¼ļ": 5946,
      ":ãĢĬ": 5947,
      "æĹ¥å¸¸çĶŁæ´»": 5948,
      "Ð¾Ð": 5949,
      "äººå·¥æĻºèĥ½åĴĮ": 5950,
      "å®ĮåĸĦ": 5951,
      "Ġlo": 5952,
      "188": 5953,
      "æł¹æį®ç»Ļå®ļçļĦæĸĩæľ¬": 5954,
      "è¾¹çķĮ": 5955,
      "åĸľåī§": 5956,
      "è®©äººä»¬": 5957,
      "éĵĥ": 5958,
      "å°½éĩı": 5959,
      "åĲ¬è¯´": 5960,
      "æµ·å¹³éĿ¢ä¸Ĭåįĩ": 5961,
      "åĸľå¥½": 5962,
      "io": 5963,
      "ural": 5964,
      "æĺ¯ä¸ºäºĨ": 5965,
      "æ³°åĽ½": 5966,
      "è¿Ļæĺ¯åĽłä¸º": 5967,
      "çĥĤ": 5968,
      "æŀĦéĢł": 5969,
      "é±¼çº²": 5970,
      "å¾®ç¬ĳ": 5971,
      "ä¸Ģæ¬¾": 5972,
      "äºļé©¬éĢĬ": 5973,
      "å¼ĺ": 5974,
      "çī©æµģ": 5975,
      "åĪ©æ¶¦": 5976,
      "æİ¥çĿĢ": 5977,
      "è¡ĮæĶ¿åĮºåĪĴ": 5978,
      "ae": 5979,
      "ello": 5980,
      "æ¸Ĳæ¸Ĳ": 5981,
      "éģ£": 5982,
      "æ¶Į": 5983,
      "åħĭåħ°": 5984,
      "åŁºéĩĳ": 5985,
      "å¤ªéĺ³çļĦ": 5986,
      "åıĭè°Ĭ": 5987,
      "çķĶ": 5988,
      "å¿Į": 5989,
      "èµ°åĲĳ": 5990,
      "è´º": 5991,
      "äº¤éĢļæĭ¥åłµ": 5992,
      "(,),": 5993,
      "æŃ¤åĲİ": 5994,
      "åĵģå°Ŀ": 5995,
      "è¯¦ç»ĨçļĦ": 5996,
      "ä¸ĵæ³¨äºİ": 5997,
      "æĤŁ": 5998,
      "æĪĸæľįåĬ¡": 5999,
      "è¯´æ³ķ": 6000,
      "èģĮä¸ļçĶŁæ¶¯": 6001,
      "ä½ĽæķĻ": 6002,
      "ä¼łæĦŁ": 6003,
      "çŁ¥åİ¿": 6004,
      "å¹¶æıĲé«ĺ": 6005,
      "å³¡": 6006,
      "å¼ºåº¦": 6007,
      "å¢ĥåĨħ": 6008,
      "åĵ¦": 6009,
      "èĩªçĦ¶çļĦ": 6010,
      "ä¸ºæĤ¨": 6011,
      "Ġen": 6012,
      "çĶ¨ä½ľ": 6013,
      "è¯Ńè¨Ģæ¨¡åŀĭ": 6014,
      "è®¡ç®Ĺæľºç³»ç»Ł": 6015,
      "äºŃ": 6016,
      "ä¸ĭä¸Ģ": 6017,
      "Op": 6018,
      "è¾¹çļĦ": 6019,
      "æĹ¥å¸¸çĶŁæ´»ä¸Ń": 6020,
      "ä¸Ńåįİæ°ĳåĽ½": 6021,
      "çĶ·æĢ§": 6022,
      "æĬĢæľ¯çļĦåıĳå±ķ": 6023,
      "åĮĹæŀģ": 6024,
      "åŃĺåľ¨çļĦ": 6025,
      "ä¿Ĭ": 6026,
      "èĦĨ": 6027,
      "åĵĪåĵĪ": 6028,
      "ç¡ķ": 6029,
      "åĪĽå§ĭäºº": 6030,
      "éĩĩåıĸè¡ĮåĬ¨": 6031,
      "çłĶç©¶äººåĳĺ": 6032,
      "æĿ°åħĭ": 6033,
      "åĸĬ": 6034,
      "èīºæľ¯å®¶": 6035,
      "å¤ĦçļĦ": 6036,
      "é«ĺè´¨éĩı": 6037,
      "æĽ´å¤§çļĦ": 6038,
      "æĸ°åŀĭ": 6039,
      "åĩĨç¡®çļĦ": 6040,
      "å¥¥æŀĹåĮ¹åħĭ": 6041,
      "ç½©": 6042,
      "æĮĩä»¤": 6043,
      "æĪıåī§": 6044,
      "éĤĵ": 6045,
      "ç¤¾ä¼ļçļĦ": 6046,
      "å¯Įæľī": 6047,
      "çº¿è·¯": 6048,
      "ä¸ĸçķĮçļĦ": 6049,
      "æī¶": 6050,
      "æł¹æį®é¢ĺçĽ®": 6051,
      "ç»Ĵ": 6052,
      "æĹ©å¹´": 6053,
      "åĴĮå®īåħ¨": 6054,
      "æĹº": 6055,
      "æ²Ī": 6056,
      "æĥĳ": 6057,
      "åĴ±": 6058,
      "æīĭæľ¯": 6059,
      "åº¦åģĩ": 6060,
      "ä»¥ä¸ĭåĩłä¸ª": 6061,
      "åĬłåĪ©": 6062,
      "ä¸Ģåº§": 6063,
      "æ¯Ķä¾ĭ": 6064,
      "èĶ¡": 6065,
      "æĸ¹ç¨ĭ": 6066,
      "ows": 6067,
      "ä»£è°¢": 6068,
      "ä¹¾": 6069,
      "å¤ªå¤ļ": 6070,
      "åĩłç§į": 6071,
      "çĭĹçļĦ": 6072,
      "å®ŀä½ĵè¯ĨåĪ«": 6073,
      "åĩ»è´¥": 6074,
      "èº²": 6075,
      "å®ŀçĶ¨": 6076,
      "é©±åĬ¨": 6077,
      "Ñģ": 6078,
      "åĨ¯": 6079,
      "åĩºä»»": 6080,
      "Ġhe": 6081,
      "è¡«": 6082,
      "Ġwas": 6083,
      "çľī": 6084,
      "è§ģåĪ°": 6085,
      "ç»Ļå®ļä¸Ģä¸ª": 6086,
      "è¯Ī": 6087,
      "çİ¯å¢ĥåĴĮ": 6088,
      "å¤ĸéĥ¨": 6089,
      "æī¾åĪ°äºĨ": 6090,
      "æ³ķéĻ¢": 6091,
      "ä¸Ģå¼ł": 6092,
      "åĳĬè¯īæĪĳ": 6093,
      "ä¸ªæĢ§åĮĸ": 6094,
      "åĴĮä¸Ģä¸ª": 6095,
      "èĢĮæĪĲ": 6096,
      "åĩºçİ°äºĨ": 6097,
      "èĤ´": 6098,
      "æĢİæł·": 6099,
      "åŁºçĿ£": 6100,
      "å°±è¯»": 6101,
      "ä»²": 6102,
      "å¹¶éĢļè¿ĩ": 6103,
      "tions": 6104,
      "çĽ¸åĲĮçļĦ": 6105,
      "èĢį": 6106,
      "åĿĬ": 6107,
      "å§ĵåĲį": 6108,
      "çŃĶæ¡Īæĺ¯": 6109,
      "æĸ¯ç§ĳ": 6110,
      "Ġsp": 6111,
      "gh": 6112,
      "å·²æĪĲä¸º": 6113,
      "æĻºèĥ½åĮĸ": 6114,
      "ç»Ļå®ļçļĦæĸĩæľ¬": 6115,
      "æĺİæĺ¾çļĦ": 6116,
      "ä¼ļæľī": 6117,
      "æ²Ļæ»©": 6118,
      "å½ĵéĢī": 6119,
      "å±¿": 6120,
      "æŃ¥è¡Į": 6121,
      "å¯¼èĩ´äºĨ": 6122,
      "è¾ħåĬ©": 6123,
      "åĵįåºĶ": 6124,
      "æŁ¥è¯¢": 6125,
      "éĴ»": 6126,
      "å®īéĿĻ": 6127,
      "è¹Ī": 6128,
      "ä¸įæĺİ": 6129,
      "SA": 6130,
      "ç°": 6131,
      "å¼ķåħ¥": 6132,
      "åĩºåı£": 6133,
      "ime": 6134,
      "ä¼łæĦŁåĻ¨": 6135,
      "éĺĲ": 6136,
      "æľºåĻ¨åŃ¦ä¹łåĴĮ": 6137,
      "æĺĨèĻ«": 6138,
      "æ¯ıä¸ªäººéĥ½": 6139,
      "çļĦåĬŁèĥ½": 6140,
      "æµģéĩı": 6141,
      "å·§åħĭåĬĽ": 6142,
      "æĺİæ²»": 6143,
      "ç§įåŃĲ": 6144,
      "æĻ¯è§Ĥ": 6145,
      "èī°": 6146,
      "pple": 6147,
      "æĿŃ": 6148,
      "å¹¶å¯¹": 6149,
      "çļĦä¸»è¦ģè§ĤçĤ¹": 6150,
      "æĥ³èµ·": 6151,
      "ä¸įç®¡": 6152,
      "å¤©æĸĩåŃ¦": 6153,
      "åį³åı¯": 6154,
      "åĬ¨æĢģ": 6155,
      "åı¯èĥ½æĢ§": 6156,
      "ä¸ºä½ł": 6157,
      "å¼ºå¤§": 6158,
      "æŃ¦åĻ¨": 6159,
      "ä¸ĩåİĨ": 6160,
      "Ġte": 6161,
      "è¯ķéªĮ": 6162,
      "åı«åģļ": 6163,
      "ç®¡çĲĨåĴĮ": 6164,
      "çĶµè§Ĩåı°": 6165,
      "èĤ¢": 6166,
      "æ£ĺ": 6167,
      "çĽĳæİ§": 6168,
      "çĳ°": 6169,
      "åįķåħĥ": 6170,
      "åħħçĶµ": 6171,
      "è¡į": 6172,
      "å¤ķ": 6173,
      "çļĦæµ·": 6174,
      "æİ¨è¿Ľ": 6175,
      "ä¸ŃçļĦä¸Ģä¸ª": 6176,
      "åĬłå·¥": 6177,
      "æľīä¸Ģå¤©": 6178,
      "æĺ¯éĿŀå¸¸": 6179,
      "ç§ĺå¯Ĩ": 6180,
      "åİī": 6181,
      "æ²³åĮĹ": 6182,
      "ä¾£": 6183,
      "åįĩé«ĺ": 6184,
      "2001": 6185,
      "ç¦Ħ": 6186,
      "å¥´": 6187,
      "å®¶éĩĮ": 6188,
      "å¹¿å·ŀ": 6189,
      "è®·": 6190,
      "èįīåİŁ": 6191,
      "æ½ĺ": 6192,
      "ä¸Ĭæľī": 6193,
      "300": 6194,
      "åľ¨åħ¨çĲĥ": 6195,
      "æŃ¦ä¾ł": 6196,
      "ç®ĢåİĨ": 6197,
      "è°Ĳ": 6198,
      "éľ¸": 6199,
      "æ¶ħ": 6200,
      "ä¼°è®¡": 6201,
      "åħ¥åı£": 6202,
      "æĺ¯ä¸ĢäºĽ": 6203,
      "å¤ĸäº¤": 6204,
      "äºĨæĪĳ": 6205,
      "æĸĩç«łçĶŁæĪĲ": 6206,
      "å·´è¥¿": 6207,
      "omm": 6208,
      "ike": 6209,
      "ire": 6210,
      "æĦŁåĴĮ": 6211,
      "å½ĵæĪĳ": 6212,
      "åĨħåŃĺ": 6213,
      "çĶŁæĹ¥": 6214,
      "é©¬æĿ¥è¥¿äºļ": 6215,
      "å®Įç¾İ": 6216,
      "åĲĦèĩª": 6217,
      "ç»µ": 6218,
      "angu": 6219,
      "rou": 6220,
      "çļĦæľºä¼ļ": 6221,
      "èĭ±æł¼åħ°": 6222,
      "èĮĤ": 6223,
      "æĢĸ": 6224,
      "åĭĭ": 6225,
      "é³įé±¼çº²": 6226,
      "çŃ¹": 6227,
      "æłĸæģ¯åľ¨": 6228,
      "åħ¬å¸ĥ": 6229,
      "å¹²åĩĢ": 6230,
      "ç¼Ŀ": 6231,
      "æ¯Ķçī¹": 6232,
      "éĢĶå¾Ħ": 6233,
      "å«Į": 6234,
      "åı¤åħ¸": 6235,
      "ä½ĵéķ¿åı¯è¾¾": 6236,
      "ä½ĵçİ°": 6237,
      "æ¿Ģåıĳ": 6238,
      "æľ¬ç«Ļ": 6239,
      "è¿Ļä¸¤": 6240,
      "èĤĿ": 6241,
      "åĪłéĻ¤": 6242,
      "CP": 6243,
      "%ãĢĤ": 6244,
      "II": 6245,
      "åı¯ä»¥å¸®åĬ©äººä»¬": 6246,
      "ç¬¬äºĮæ¬¡": 6247,
      "æ³ķè¯Ń": 6248,
      "ä¸»äººåħ¬": 6249,
      "åĨĻä¸Ģä¸ª": 6250,
      "å±Ī": 6251,
      "åĽ¢éĺŁæĪĲåĳĺ": 6252,
      "ost": 6253,
      "ç»³": 6254,
      "å¨ģå»ī": 6255,
      "è¾Ĳé³įé±¼çº²": 6256,
      "åĲ¯åĬ¨": 6257,
      "è®¾è®¡ä¸Ģä¸ª": 6258,
      "Ġæ¨¡åŀĭ": 6259,
      "èĥĥ": 6260,
      "ä»Ĭå¹´": 6261,
      "ç»Łä¸Ģ": 6262,
      "èĬ±è´¹": 6263,
      "ä¸įèī¯": 6264,
      "æĹłè®ºæĺ¯": 6265,
      "Sc": 6266,
      "åıĪåĲį": 6267,
      "åħįè´¹": 6268,
      "Artificial": 6269,
      "æ¸´": 6270,
      "ç©ºä¸Ń": 6271,
      "æ¸©å®¤æ°Ķä½ĵæİĴæĶ¾": 6272,
      "å½°": 6273,
      "çģŃç»Ŀ": 6274,
      "è¿ĩäºİ": 6275,
      "çľĭäºĨ": 6276,
      "åĿİ": 6277,
      "æ´ªæ°´": 6278,
      "ä½łä¼ļ": 6279,
      "ç¤¼çī©": 6280,
      "å¹´è¢«": 6281,
      "éĿłè¿ĳ": 6282,
      "åĸ»": 6283,
      "éľĢæ±ĤåĴĮ": 6284,
      "çŁ¶": 6285,
      "æķ°åŃĹåĮĸ": 6286,
      "éĻ¤æŃ¤": 6287,
      "æīĵåį°": 6288,
      "é³ŀ": 6289,
      "æĺ¯äººç±»": 6290,
      "åħ¶åĲİ": 6291,
      "èŀįåĲĪ": 6292,
      "åľ¨è¿Ļç§įæĥħåĨµä¸ĭ": 6293,
      "çİĭåŃĲ": 6294,
      "çĤĴ": 6295,
      "è¿Ļå°±æĺ¯": 6296,
      "æľīæĹ¶åĢĻ": 6297,
      "å²ģæĹ¶": 6298,
      "çŃĽéĢī": 6299,
      "çĶ¸": 6300,
      "ĠInt": 6301,
      "ä¸ªäººçļĦ": 6302,
      "é£ŁæĿĲ": 6303,
      "èĽĭç³ķ": 6304,
      "åĮĹäº¬å¸Ĥ": 6305,
      "æĻĵ": 6306,
      "æıĲåıĸåĩº": 6307,
      "å¤«äºº": 6308,
      "çļĦäººåı£": 6309,
      "pl": 6310,
      "åıĭå¥½": 6311,
      "å¤±æľĽ": 6312,
      "çĽ´å¾Ħ": 6313,
      "æ©ĺ": 6314,
      "ä¸Ģéĥ¨": 6315,
      "æĵħ": 6316,
      "åŁĶ": 6317,
      "æĮ¡": 6318,
      "æī¹è¯Ħ": 6319,
      "çĶŁçĲĨ": 6320,
      "çªģçł´": 6321,
      "ros": 6322,
      "å¤§åľ°": 6323,
      "ç¡®å®ŀ": 6324,
      "ä½łè¯´": 6325,
      "ä½łèĥ½": 6326,
      "åįĳ": 6327,
      "å½Ń": 6328,
      "åĽ´ç»ķ": 6329,
      "çŃīåĽłç´ł": 6330,
      "å¤ľæĻļ": 6331,
      "ame": 6332,
      "äººéĥ½": 6333,
      "ç»ĨèıĮ": 6334,
      "å¤§èĩ£": 6335,
      "æĦıå¤ĸ": 6336,
      "å¾ĭå¸Ī": 6337,
      "æĻºèĥ½æīĭè¡¨": 6338,
      "ä½ľæĽ²": 6339,
      "å¤©ä¸ĭ": 6340,
      "å¥ĳ": 6341,
      "æł¹æį®æīĢ": 6342,
      "è¡Ģåİĭ": 6343,
      "è¿Ļæĺ¯ä¸Ģç§į": 6344,
      "ç§ģäºº": 6345,
      "éĢĴå½Ĵ": 6346,
      "åŃķ": 6347,
      "åį³å°Ĩ": 6348,
      "å®ĮæĪĲä»»åĬ¡": 6349,
      "æĺ¯æĹ¥æľ¬": 6350,
      "ä¼¯çī¹": 6351,
      "éľĢè¦ģåľ¨": 6352,
      "åĲĳéĩıæľº": 6353,
      "æĻĴ": 6354,
      "æľīåĵªäºĽ": 6355,
      "åļ": 6356,
      "æĹ¶éĹ´åĨħ": 6357,
      "ä¸ĭéĿ¢æĺ¯": 6358,
      "ãĢĤ'": 6359,
      "ran": 6360,
      "æĺ¾å¾Ĺ": 6361,
      "éĢļçŁ¥": 6362,
      "åįİçĽĽ": 6363,
      "åĴĮé«ĺ": 6364,
      "ood": 6365,
      "å¤§æ°Ķå±Ĥ": 6366,
      "å»ºçŃĳçī©": 6367,
      "æµĭè¯ķéĽĨ": 6368,
      "æĺ¯ä»¥": 6369,
      "ç®Ĺæ³ķçļĦ": 6370,
      "å¸ĥæĸ¯": 6371,
      "éĹ´çļĦ": 6372,
      "æł¡åĽŃ": 6373,
      "ä»İèĢĮæıĲé«ĺ": 6374,
      "la": 6375,
      "è¯Ĺäºº": 6376,
      "åı¯ä»¥éĢīæĭ©": 6377,
      "ä¾¿æį·": 6378,
      "æĳĦå½±": 6379,
      "åįĹåĮĹ": 6380,
      "åĶ±çīĩ": 6381,
      "å©´": 6382,
      "åº¦è¿ĩ": 6383,
      "æķĪåºĶ": 6384,
      "éħ¶": 6385,
      "åĪºåı²": 6386,
      "å±ŀæĢ§": 6387,
      "æ¼ĶåĮĸ": 6388,
      "æģĲæĢĸ": 6389,
      "Ðº": 6390,
      "ont": 6391,
      "è¤Ĳ": 6392,
      "åı¯ä»¥çĶ¨æĿ¥": 6393,
      "å¤´åıĳ": 6394,
      "ä¸ªä½ĵ": 6395,
      "150": 6396,
      "åĮºåĿĹéĵ¾æĬĢæľ¯": 6397,
      "æľīå¤ļ": 6398,
      "ç¿ģ": 6399,
      "åŃĲéĩĮ": 6400,
      "åįİçĽĽé¡¿": 6401,
      "å¹´èµ·": 6402,
      "è§Ĥæµĭ": 6403,
      "åĲĮä¹īè¯į": 6404,
      "èĳĹä½ľ": 6405,
      "çļĦåĲĮæĹ¶": 6406,
      "åĴĮçĽ®æłĩ": 6407,
      "çĶ¨æĪ·ä½ĵéªĮ": 6408,
      "å®ļå¾ĭ": 6409,
      "ä»¥ä¸ĭæĸĩç«ł": 6410,
      "æłĳæľ¨": 6411,
      "çĹĽèĭ¦": 6412,
      "åıĺéĿ©": 6413,
      "äº¤æį¢": 6414,
      "çļĦæŃĮ": 6415,
      "æĳĶ": 6416,
      "Ġme": 6417,
      "å·¥åİĤ": 6418,
      "ç®Ģçº¦": 6419,
      "å¤©æ´¥": 6420,
      "æĸĩèīº": 6421,
      "æĭīä¸ģ": 6422,
      "è¿½æº¯åĪ°": 6423,
      "æķ°çļĦ": 6424,
      "75": 6425,
      "éħ·": 6426,
      "é«ĺæķĪçļĦ": 6427,
      "èį£èªī": 6428,
      "æł¹æį®ä»¥ä¸ĭæĸĩæľ¬": 6429,
      "åľ¨è®¸å¤ļ": 6430,
      "èĤ¿": 6431,
      "çļĩå®¶": 6432,
      "è¶ĬæĿ¥è¶Ĭå¤ļçļĦ": 6433,
      "çľģä»½": 6434,
      "åıĮæĸ¹": 6435,
      "æĢ¨": 6436,
      "åľ°åľ¨": 6437,
      "æİ¥å£¤": 6438,
      "ct": 6439,
      "æĦŁåĬ¨": 6440,
      "éĤª": 6441,
      "vers": 6442,
      "åĬłåĿ¡": 6443,
      "çĿ¡è§ī": 6444,
      "æľįè£ħ": 6445,
      "å°ĶçļĦ": 6446,
      "åŁĥåıĬ": 6447,
      "åİŁæĸĩ": 6448,
      "èĪĮ": 6449,
      "èĩªçĦ¶è¯Ńè¨Ģå¤ĦçĲĨæĬĢæľ¯": 6450,
      "é¸¡èĽĭ": 6451,
      "å«©": 6452,
      "æ©ĻåŃĲ": 6453,
      "å´©": 6454,
      "åĴĮçİ¯å¢ĥ": 6455,
      "âĢĵ": 6456,
      "åŁĭ": 6457,
      "ç¼ħ": 6458,
      "çļĦæ´»åĬ¨": 6459,
      "ä¹Łè¢«": 6460,
      "æ³¨åĨĮ": 6461,
      "BC": 6462,
      "çĩĥçĥ§": 6463,
      "åħ¨éķ¿": 6464,
      "åĲĮæĦı": 6465,
      "åĪ¶åĵģ": 6466,
      "åīįçļĦ": 6467,
      "çĥŃéĩı": 6468,
      "è®©ä»ĸ": 6469,
      "2002": 6470,
      "å¯ĨåĪĩ": 6471,
      "36": 6472,
      "æ¤Ĵ": 6473,
      "çģ«å±±": 6474,
      "åĲ«éĩı": 6475,
      "çīł": 6476,
      "è¥¿åĵ¥": 6477,
      "ä½ıäºĨ": 6478,
      "çĶŁçī©åŃ¦": 6479,
      "åĴĮæķ°æį®": 6480,
      "åĳĨ": 6481,
      "æĺ¯ä¸Ģåº§": 6482,
      "éĴ¢çĲ´": 6483,
      "ç¦ıåĪ©": 6484,
      "ä¸įå¤ª": 6485,
      "ç«ŀäºīå¯¹æīĭ": 6486,
      "æĪĳå¯¹": 6487,
      "çļĦåĪĨç±»": 6488,
      "ake": 6489,
      "èĪŀè¹Ī": 6490,
      "åĴ¬": 6491,
      "ä¹łæĢ§": 6492,
      "åĴĮç»Ħç»ĩ": 6493,
      "èĢģé¼ł": 6494,
      "éģĤ": 6495,
      "éĿ¢åĲĳ": 6496,
      "Ġäººå·¥æĻºèĥ½": 6497,
      "äººèĦ¸": 6498,
      "çļĦåįķè¯į": 6499,
      "èµĦäº§": 6500,
      "çļĦè¯¦ç»Ĩ": 6501,
      "éĻ¤æŃ¤ä¹ĭå¤ĸ": 6502,
      "åģļå¥½": 6503,
      "æĿ¥è¿Ľè¡Į": 6504,
      "éĢĲæŃ¥": 6505,
      "åĪĨç¦»": 6506,
      "çĲĨå¿µ": 6507,
      "ä¹Łåı¯èĥ½": 6508,
      "æ¸Ķ": 6509,
      "è®Ńç»ĥéĽĨ": 6510,
      "çŃīæĬĢæľ¯": 6511,
      "åľ¨å¤§": 6512,
      "åº¸": 6513,
      "çļĦä½ľçĶ¨": 6514,
      "ä¸ºè¾Ĳé³įé±¼çº²": 6515,
      "æĪĳè§īå¾Ĺ": 6516,
      "å®¢æľį": 6517,
      "çļĦåĲįç§°": 6518,
      "2023": 6519,
      "é»Ľ": 6520,
      "èĢģæĿ¿": 6521,
      "å¹¶æł¹æį®": 6522,
      "èĬĤçº¦": 6523,
      "æ°¯": 6524,
      "éĵģéģĵ": 6525,
      "åĨľæ°ĳ": 6526,
      "æĸ°åĬłåĿ¡": 6527,
      "è®¾è®¡åĴĮ": 6528,
      "çļĦæķ°éĩı": 6529,
      "æĪĲå¹´": 6530,
      "é¤Ĳé¦Ĩ": 6531,
      "æįĲ": 6532,
      "ç¨ĭåºıåĳĺ": 6533,
      "çļĦæīĭ": 6534,
      "æ¿ĢçĥĪ": 6535,
      "éĦ": 6536,
      "æķĻç»ĥ": 6537,
      "åĴĮå»ºè®®": 6538,
      "ç¡«": 6539,
      "çļĦéĤ£": 6540,
      "å®ŀéĻħåºĶçĶ¨": 6541,
      "per": 6542,
      "å°¼æĸ¯": 6543,
      "1997": 6544,
      "çļĦåĲįåŃĹ": 6545,
      "éĿ¢æĸĻ": 6546,
      "ey": 6547,
      "è¿ĽåĮĸ": 6548,
      "æľīäºĽäºº": 6549,
      "OS": 6550,
      "åįĴ": 6551,
      "ä¸įè§ģ": 6552,
      "ä¹¾éļĨ": 6553,
      "é«ĺçļĦå±±å³°": 6554,
      "ä¸¥éĩįçļĦ": 6555,
      "è¿ĽèĢĮ": 6556,
      "å¿ĥæĥ³": 6557,
      "çļĦæŃĮæĽ²": 6558,
      "è±¹": 6559,
      "æĹ¥çĽĬ": 6560,
      "å¢¨è¥¿åĵ¥": 6561,
      "å¹¶éĿŀ": 6562,
      "çĩ¥": 6563,
      "æĬ¬": 6564,
      "æīĵéĢł": 6565,
      "åľ¨è¯¥": 6566,
      "å¯ĵ": 6567,
      "ä»¥ä¸ĭæŃ¥éª¤": 6568,
      "åĪĽåĬŀ": 6569,
      "åĬŀæ³ķ": 6570,
      "ä¸įæķ¢": 6571,
      "èµĦæł¼": 6572,
      "åĴĮæĥħæĦŁ": 6573,
      "æŁľ": 6574,
      "éĢļå¸¸çĶ¨äºİ": 6575,
      "çĶ·äºº": 6576,
      "1990": 6577,
      "ond": 6578,
      "åĲı": 6579,
      "æĶ¯æĮģåĲĳéĩıæľº": 6580,
      "ä»İæŃ¤": 6581,
      "åĩıç¼ĵ": 6582,
      "å°ī": 6583,
      "åĽºå®ļ": 6584,
      "æĪĳæ²¡æľī": 6585,
      "åįĩçº§": 6586,
      "aw": 6587,
      "çļĦä¸įåĲĮ": 6588,
      "åıĹåĪ°äºĨ": 6589,
      "æľ¬ç§ĳ": 6590,
      "åĬłåĪ©ç¦ı": 6591,
      "çļĦéķ¿": 6592,
      "åĨ°å·Ŀ": 6593,
      "ä¸įçĶ¨": 6594,
      "å¤©ä¸»æķĻ": 6595,
      "è¡Įé©¶": 6596,
      "åİ¨æĪ¿": 6597,
      "ä¸»åĬ¨": 6598,
      "AIæĬĢæľ¯": 6599,
      "åĳ¨è¾¹": 6600,
      "æĸĲ": 6601,
      "é¢Ĩè¢ĸ": 6602,
      "åįģä¸Ģ": 6603,
      "åĬłåĪ©ç¦ıå°¼äºļ": 6604,
      "åİĮ": 6605,
      "æ»¡æĦıåº¦": 6606,
      "è¿Ļæĺ¯ä¸Ģç¯ĩ": 6607,
      "åģľè½¦": 6608,
      "æµģåŁŁ": 6609,
      "ç¦»åŃĲ": 6610,
      "åħĶåŃĲ": 6611,
      "ount": 6612,
      "åĲ»": 6613,
      "å®īå¾½": 6614,
      "çŃīå¤ļä¸ª": 6615,
      "çļĦæııè¿°": 6616,
      "çļĦä¸ľè¥¿": 6617,
      "å·¥ä½ľåĴĮ": 6618,
      "ç¿ł": 6619,
      "ä¸ĸçķĮä¸Ĭ": 6620,
      "ata": 6621,
      "æľ¨æĺŁ": 6622,
      "åĻ¨å®ĺ": 6623,
      "çļĦçŃĶæ¡Īæĺ¯": 6624,
      "æĸ°éĹ»æĸĩç«ł": 6625,
      "now": 6626,
      "çİ«": 6627,
      "å®ļåĪ¶": 6628,
      "éĢļå¸¸åľ¨": 6629,
      "ä¼ª": 6630,
      "ç®Ĺæ³ķæĿ¥": 6631,
      "åĪĨåĪ«æĺ¯": 6632,
      "æĶ¹åıĺäºĨ": 6633,
      "æ¸ħçĲĨ": 6634,
      "æĽ´é«ĺ": 6635,
      "æĮ¤": 6636,
      "Ġcomp": 6637,
      "1998": 6638,
      "åİĦ": 6639,
      "éĩįå»º": 6640,
      "æł½åŁ¹": 6641,
      "me": 6642,
      "åı¤èĢģçļĦ": 6643,
      "å¸Ĥä¸Ńå¿ĥ": 6644,
      "åĺīéĿĸ": 6645,
      "ana": 6646,
      "è¤": 6647,
      "æĹ©é¤Ĳ": 6648,
      "åĲĦä¸ªé¢ĨåŁŁ": 6649,
      "éĽĨåĲĪ": 6650,
      "è§£éĩĬä»Ģä¹Īæĺ¯": 6651,
      "ç»Ŀå¯¹": 6652,
      "éĢłæĪĲäºĨ": 6653,
      "ite": 6654,
      "indows": 6655,
      "çŁ³å¤´": 6656,
      "ical": 6657,
      "åĶĲæľĿ": 6658,
      "åı¶åŃĲ": 6659,
      "æ¨¡å¼ıåĴĮ": 6660,
      "å¿ĥèĦıçĹħ": 6661,
      "æĺİæľĿæĶ¿æ²»äººçī©": 6662,
      "èĢģèĻİ": 6663,
      "çĺ¦": 6664,
      "åıĳçĶŁåľ¨": 6665,
      "æ´ĽæĿī": 6666,
      "åı¦ä¸Ģç§į": 6667,
      "æł¹æľ¬": 6668,
      "æĪĲåĬŁåľ°": 6669,
      "åŁİåĮº": 6670,
      "å¸ĤçļĦ": 6671,
      "äºĮäºº": 6672,
      "ĠIntelligence": 6673,
      "èĪŀåı°": 6674,
      "ç½ĳä¸Ĭ": 6675,
      "åĪ©çļĦ": 6676,
      "å¤§è±¡": 6677,
      "ç§ĳåŃ¦å®¶ä»¬": 6678,
      "æĦ¤": 6679,
      "è´¢å¯Į": 6680,
      "æ´ĽæĿīçŁ¶": 6681,
      "æĤĶ": 6682,
      "è¿Ļå®¶é¤Ĳåİħ": 6683,
      "è¯·åĽŀçŃĶ": 6684,
      "çļĦæ°Ķ": 6685,
      "éĿŀå¸¸æľī": 6686,
      "å¹²æĹ±": 6687,
      "æ·±è¿ľçļĦå½±åĵį": 6688,
      "è¯Ńå¢ĥ": 6689,
      "ä¸Ģå®ļè¦ģ": 6690,
      "å´Ķ": 6691,
      "è¥¿æĸ¹": 6692,
      "çĪª": 6693,
      "åı¶æĸ¯": 6694,
      "ax": 6695,
      "åıĤèµĽ": 6696,
      "æľ¬è´¨": 6697,
      "ä½¿åħ¶æĽ´": 6698,
      "ä¸įå¤Ł": 6699,
      "è¢«å¹¿æ³ĽåºĶçĶ¨äºİ": 6700,
      "çļĦå¤©æ°Ķ": 6701,
      "è´ŀ": 6702,
      "anguage": 6703,
      "ä¸Ģçľĭ": 6704,
      "çŁĽçĽ¾": 6705,
      "éĺŁä¼į": 6706,
      "èĢĮéĹ»åĲį": 6707,
      "ä»ĬæĹ¥": 6708,
      "åı¥åŃĲçļĦ": 6709,
      "åĲĵ": 6710,
      "å¼ķå¯¼": 6711,
      "çĶŁäº§åĬĽ": 6712,
      "ç»´çĶŁç´łC": 6713,
      "èıĬ": 6714,
      "å®¢æĪ·çļĦ": 6715,
      "æ·±æ·±": 6716,
      "èıľåįķ": 6717,
      "éĻªä¼´": 6718,
      "ä¼ļå¯¹": 6719,
      "ible": 6720,
      "åı¯ä»¥ä»İ": 6721,
      "æľĢèĳĹåĲįçļĦ": 6722,
      "çİĭåĽ½": 6723,
      "çıįæĥľ": 6724,
      "éĺ¿éĩĮ": 6725,
      "IN": 6726,
      "ç½¢": 6727,
      "åį¡å°Ķ": 6728,
      "å¤§çĨĬçĮ«": 6729,
      "è´¼": 6730,
      "å¥½å¥½": 6731,
      "you": 6732,
      "å¦¹å¦¹": 6733,
      "esis": 6734,
      "ä¸ĢäºĽäºº": 6735,
      "æ·ĺ": 6736,
      "å®¶ä¹¡": 6737,
      "æŁ´": 6738,
      "åı¸é©¬": 6739,
      "éļĲèĹı": 6740,
      "æĴŃåĩº": 6741,
      "åĽĬ": 6742,
      "ä¸Ļ": 6743,
      "å°ĳå¥³": 6744,
      "æĹłéľĢ": 6745,
      "çĽ¸äºĴä½ľçĶ¨": 6746,
      "æłı": 6747,
      "è¾°": 6748,
      "ä¸įåľ¨": 6749,
      "çİ©åħ·": 6750,
      "çĿĢä¸Ģ": 6751,
      "ä»£æĽ¿": 6752,
      "ase": 6753,
      "è¾¹ç¼ĺ": 6754,
      "è¿Ļåľº": 6755,
      "çº¿ä¸Ĭ": 6756,
      "çłį": 6757,
      "åĵªç§į": 6758,
      "å¾Ĺä»¥": 6759,
      "æĪĸç¼º": 6760,
      "Ġå°Ĩ": 6761,
      "æĸĩåĮĸçļĦ": 6762,
      "è¯Ńæ³ķéĶĻè¯¯": 6763,
      "åĤ²": 6764,
      "æĺ¯çļĦ": 6765,
      "ä¸įæĥ³": 6766,
      "èĻ¾": 6767,
      "æĤ¨éľĢè¦ģ": 6768,
      "å¹¶è§£éĩĬ": 6769,
      "ç§ĳæĬĢåħ¬åı¸": 6770,
      "ä¿¡æģ¯çļĦ": 6771,
      "he": 6772,
      "ä»»åĬ¡çļĦ": 6773,
      "åĽ¾çīĩ": 6774,
      "åıĳçĶŁäºĨ": 6775,
      "ä¼Łå¤§çļĦ": 6776,
      "æİ¢æµĭ": 6777,
      "åĴĮæĹ¶éĹ´": 6778,
      "æ²Ļæ¼ł": 6779,
      "åħ·ä½ĵæĿ¥è¯´": 6780,
      "ä¸İåħ¶": 6781,
      "çĵ£": 6782,
      "äººéĻħ": 6783,
      "éĿŀå¸¸å¥½": 6784,
      "äºĨä»ĸ": 6785,
      "éĶ¦æłĩ": 6786,
      "åģ¥åº·éĹ®é¢ĺ": 6787,
      "æģĲé¾Ļ": 6788,
      "ä¸»è¦ģæĺ¯": 6789,
      "éĩİçĶŁåĬ¨çī©": 6790,
      "æºĲèĩª": 6791,
      "ä¹Łèĥ½": 6792,
      "æīĢè°ĵ": 6793,
      "çī©èģĶç½ĳ": 6794,
      "ä¿®æŃ£": 6795,
      "æĢ§éĹ®é¢ĺ": 6796,
      "æĸ¹æ³ķæĿ¥": 6797,
      "è´Ŀåı¶æĸ¯": 6798,
      "æ¯«ç±³": 6799,
      "ä½Ĩå®ĥä»¬": 6800,
      "ç¿Ķ": 6801,
      "çĤī": 6802,
      "çļĩåĲİ": 6803,
      "å¤§æ¥¼": 6804,
      "ally": 6805,
      "å¤§æķ°æį®": 6806,
      "çĵ¦å°Ķ": 6807,
      "æ°¨": 6808,
      "çī©ç§įçļĦ": 6809,
      "èĩªè½¬": 6810,
      "å¾·éĩĮ": 6811,
      "ä¸ľæĸ¹": 6812,
      "åıĳçĶŁçļĦ": 6813,
      "cess": 6814,
      "åĽ¾æ¡Ī": 6815,
      "æµ´": 6816,
      "çİ°æľī": 6817,
      "åĽ¾å½¢": 6818,
      "ä¹ĲåĽ¢": 6819,
      "å²©çŁ³": 6820,
      "æĪĳä»¬åľ¨": 6821,
      "æĤ²ä¼¤": 6822,
      "çļĦäººçī©": 6823,
      "Ġwe": 6824,
      "å¹¿è¥¿": 6825,
      "åĨ¬å¤©": 6826,
      "èĸĽ": 6827,
      "ML": 6828,
      "èĳ£äºĭ": 6829,
      "ä¿ĿæĬ¤çİ¯å¢ĥ": 6830,
      "è´µçļĦ": 6831,
      "äººç±»è¯Ńè¨Ģ": 6832,
      "ä¼ļçļĦ": 6833,
      "æ¡¶": 6834,
      "çİ©èĢį": 6835,
      "éļ¾å¿ĺ": 6836,
      "åıªè§ģ": 6837,
      "æĪĲä¸ºä¸Ģä¸ª": 6838,
      "è¡¬": 6839,
      "åħ¬äº¤": 6840,
      "è¾¾æĪĲ": 6841,
      "åĪ¶æĪĲ": 6842,
      "å¤§éģĵ": 6843,
      "æĸ¯æĭī": 6844,
      "æµģè¡ĮçļĦ": 6845,
      "ãĢĲ": 6846,
      "æħĪåĸĦ": 6847,
      "èıľèĤ´": 6848,
      "åħ¶ä»ĸçļĦ": 6849,
      "ä»¥æŃ¤": 6850,
      "æ¹ĸåĮĹ": 6851,
      "å°¸": 6852,
      "ç¤ģ": 6853,
      "åĴĮå°ı": 6854,
      "ç»ĺçĶ»": 6855,
      "ç¢³æİĴæĶ¾": 6856,
      "æĬĳéĥģ": 6857,
      "æľĢå°ı": 6858,
      "äººå·¥æĻºèĥ½é¢ĨåŁŁ": 6859,
      "æķıæĦŁ": 6860,
      "åĲįåı«": 6861,
      "ä¸»è¦ģè§ĤçĤ¹": 6862,
      "åĬ³åĬ¨": 6863,
      "çłĶç©¶æīĢ": 6864,
      "Web": 6865,
      "èĻ¹": 6866,
      "ãĢĳ": 6867,
      "æĺ¯ä¸ĸçķĮä¸ĬæľĢ": 6868,
      "ç¬¬åħŃ": 6869,
      "å±Ĭåħ¨åĽ½": 6870,
      "æ±ª": 6871,
      "ä¸ĢæĿ¯": 6872,
      "çĽ®æłĩæĺ¯": 6873,
      "èĩ³åħ³éĩįè¦ģçļĦ": 6874,
      "éĻĮçĶŁ": 6875,
      "æĶ¯æĮģåĴĮ": 6876,
      "å½ĵä½ł": 6877,
      "å¥¥æŀĹåĮ¹åħĭè¿ĲåĬ¨ä¼ļ": 6878,
      "é¢Ħè®¡": 6879,
      "åĬĿ": 6880,
      "çİ°åľ¨çļĦ": 6881,
      "äººå·¥æĻºèĥ½çļĦåıĳå±ķ": 6882,
      "ä¹ĭåŃĲ": 6883,
      "Bob": 6884,
      "å¼ıçļĦ": 6885,
      "Ġ'": 6886,
      "å°ĳçļĦ": 6887,
      "æ¸©æŁĶ": 6888,
      "éĩįéĩı": 6889,
      "ä¹ĲéĺŁ": 6890,
      "é¢ĳç¹ģ": 6891,
      "åĴĮä¼ĺåĮĸ": 6892,
      "éĢĹ": 6893,
      "åı¯ä»¥åĪĨä¸º": 6894,
      "å·ŀåºľ": 6895,
      "æĽ´æĶ¹": 6896,
      "å¿ĥè¡Ģç®¡": 6897,
      "æłĩçĤ¹": 6898,
      "æł¹æį®æłĩé¢ĺ": 6899,
      "æīģ": 6900,
      "çļĦä½ľåĵģ": 6901,
      "è¯¯å·®": 6902,
      "è·Į": 6903,
      "åĩºåıĳ": 6904,
      "åį±æľº": 6905,
      "1000": 6906,
      "æ£ķèī²": 6907,
      "åĢº": 6908,
      "é²¨": 6909,
      "ç¿»è¯ĳæĪĲèĭ±æĸĩ": 6910,
      "æ½®æµģ": 6911,
      "æĸĩç«łä¸Ń": 6912,
      "èªīä¸º": 6913,
      "åĮĢ": 6914,
      "å°Ĩå®ĥä»¬": 6915,
      "çŀ¬éĹ´": 6916,
      "éĽĩ": 6917,
      "æģ¼": 6918,
      "çļĦèĬ±": 6919,
      "åľ¨æŁĲäºĽ": 6920,
      "Ġman": 6921,
      "32": 6922,
      "å½¢çĽ®": 6923,
      "ãĢĪ": 6924,
      "èĿ´": 6925,
      "æĸĩæľ¬çļĦ": 6926,
      "å¤§èĩ´": 6927,
      "çīĻé½¿": 6928,
      "å¥³äºº": 6929,
      "åĮºä¸º": 6930,
      "æĮ«": 6931,
      "èĿ´èĿ¶": 6932,
      "ä¸Ģä»¶": 6933,
      "åħ³èģĶ": 6934,
      "åĸĢ": 6935,
      "éĿ¢ä¸´çĿĢ": 6936,
      "çİ«çĳ°": 6937,
      "æĭĽèģĺ": 6938,
      "eop": 6939,
      "çļĦå¤§å°ı": 6940,
      "ãĢī": 6941,
      "ĠĊ": 6942,
      "åİĨç¨ĭ": 6943,
      "æľįåĬ¡åĻ¨": 6944,
      "èħ»": 6945,
      "å¯¼èĪª": 6946,
      "éĶĲ": 6947,
      "çĥ·": 6948,
      "åĤ¬": 6949,
      "ä¹Įåħĭåħ°": 6950,
      "æīĵç®Ĺ": 6951,
      "çħ¤": 6952,
      "è°ĵè¯Ń": 6953,
      "è·ŁçĿĢ": 6954,
      "æµĨ": 6955,
      "å¤ªåŃĲ": 6956,
      "æİ¨èįĲç³»ç»Ł": 6957,
      "å¼ºçĥĪçļĦ": 6958,
      "äººä»¬å¯¹": 6959,
      "éĢļè¿ĩä½¿çĶ¨": 6960,
      "åŁİåł¡": 6961,
      "ä¸įåĲĮç±»åŀĭçļĦ": 6962,
      "åĲ¦åĪĻ": 6963,
      "ç¾İæĻ¯": 6964,
      "è¿Ļä¹Łæĺ¯": 6965,
      "äºĨèµ·æĿ¥": 6966,
      "åı£è¯Ń": 6967,
      "ä¸Īå¤«": 6968,
      "éĿ¢è¯ķ": 6969,
      "æł·åŃĲ": 6970,
      "éĽĮ": 6971,
      "......\"": 6972,
      "è¯¥åľ°çļĦ": 6973,
      "åĪĹä¸º": 6974,
      "åħ¶ä¸Ńä¸Ģç§į": 6975,
      "ä¾Ŀæį®": 6976,
      "1999": 6977,
      "old": 6978,
      "çģ«è½¦": 6979,
      "ix": 6980,
      "çĶ»éĿ¢": 6981,
      "èĥ½å¤Łå¸®åĬ©": 6982,
      "å¸Ĥæ°ĳ": 6983,
      "é£ŁæĢ§": 6984,
      "the": 6985,
      "æķ°åĢ¼": 6986,
      "åĬ£": 6987,
      "èµĽåŃ£": 6988,
      "çļĦå®ļä¹ī": 6989,
      "æ´Ĵ": 6990,
      "ç»Ļäºº": 6991,
      "å·ŀåĪºåı²": 6992,
      "ä¿ĿæĮģåģ¥åº·": 6993,
      "å«ģ": 6994,
      "å·²æľī": 6995,
      "res": 6996,
      "å¼ĢäºĨ": 6997,
      "çŁ¿çī©è´¨": 6998,
      "éģ®": 6999,
      "åľ¨ç»Ļå®ļçļĦ": 7000,
      "ä¹ĺå®¢": 7001,
      "å¯ĴåĨ·": 7002,
      "38": 7003,
      "ä¸Ģå£°": 7004,
      "åľ¨ä»ĸ": 7005,
      "au": 7006,
      "åįĬå²Ľ": 7007,
      "åĤħ": 7008,
      "æĺ¯å¯¹": 7009,
      "å½¼å¾Ĺ": 7010,
      "æĦŁåĪ°éĿŀå¸¸": 7011,
      "æ·±åĪ»çļĦ": 7012,
      "æ³ķè§Ħ": 7013,
      "eg": 7014,
      "Ġfrom": 7015,
      "ef": 7016,
      "åľ£æ¯į": 7017,
      "remise": 7018,
      "Ġus": 7019,
      "ç´§å¯Ĩ": 7020,
      "æľºéģĩ": 7021,
      "è¯·æĢ»ç»ĵ": 7022,
      "è¿ĽäºĨ": 7023,
      "ç»´å°Ķ": 7024,
      "ä¸»è¦ģçļĦ": 7025,
      "åīįæĿ¥": 7026,
      "æīĩ": 7027,
      "åĲŀ": 7028,
      "ä¸įåı¯æĪĸç¼º": 7029,
      "çĥŃçĪ±": 7030,
      "æ¼Ķå¥ı": 7031,
      "å¡ŀå°Ķ": 7032,
      "ç»ĵæŀľè¡¨æĺİ": 7033,
      "ç¬¬ä¸Ģä½į": 7034,
      "éĺĲè¿°": 7035,
      "å¾ĹåĪĨ": 7036,
      "å¼ķèµ·äºĨ": 7037,
      "Ġå¹´": 7038,
      "çİĭæľĿ": 7039,
      "ç¼ĸçłģä¸º": 7040,
      "ä¸Ĭåİ»": 7041,
      "åį·ç§¯": 7042,
      "çĭĦ": 7043,
      "è¿ĻäºĽæĬĢæľ¯": 7044,
      "éĿ¢åīį": 7045,
      "åĳ½è¿Ĳ": 7046,
      "é¥®çĶ¨": 7047,
      "å´İ": 7048,
      "ä¹Ĳè¶£": 7049,
      "åĴĮä½¿çĶ¨": 7050,
      "è¥¿æ´ĭ": 7051,
      "ä¸ĢåĲĮ": 7052,
      "æ°®": 7053,
      "è¿ĽæĶ»": 7054,
      "å°±èĥ½": 7055,
      "çĽĸèĮ¨": 7056,
      "åľ³": 7057,
      "æŀľå®ŀ": 7058,
      "son": 7059,
      "ä¸ĢçĶŁ": 7060,
      "ç²¾å½©": 7061,
      "åıĺå¾Ĺè¶ĬæĿ¥è¶Ĭ": 7062,
      "man": 7063,
      "è¾ĥé«ĺ": 7064,
      "å®Ŀå®Ŀ": 7065,
      "æľīå®³": 7066,
      "èĦ¸ä¸Ĭ": 7067,
      "lex": 7068,
      "çļĦä¸Ģåº§": 7069,
      "è¾ĥä½İ": 7070,
      "ä¸ºé£Ł": 7071,
      "åĪ¶éĢłä¸ļ": 7072,
      "å¹¶ç¡®ä¿Ŀ": 7073,
      "ä½Ĩä¹Ł": 7074,
      "æłĸæģ¯åľ°": 7075,
      "ä½Ĩä¸į": 7076,
      "ance": 7077,
      "éĥĬ": 7078,
      "é¦ĸéĥ½": 7079,
      "è¯±": 7080,
      "æĶ¶å½ķ": 7081,
      "æģŃ": 7082,
      "è§ĤçļĦ": 7083,
      "æľĪäº®": 7084,
      "éĻĦè¿ĳçļĦ": 7085,
      "éĻ¨": 7086,
      "è¶ħè¶Ĭ": 7087,
      "åĴĮå¤ĦçĲĨ": 7088,
      "ina": 7089,
      "çĳŀå£«": 7090,
      "è¿Ļåıª": 7091,
      "ç¢§": 7092,
      "æłª": 7093,
      "186": 7094,
      "åħ¬å¼ı": 7095,
      "çº¢èī²çļĦ": 7096,
      "èĪĴéĢĤçļĦ": 7097,
      "éģµå®Ī": 7098,
      "é«ĺçŃī": 7099,
      "ä¼Ĭæĸ¯": 7100,
      "åĴ±ä»¬": 7101,
      "æĺ¯å¦Ĥä½ķ": 7102,
      "è¥¿çĵľ": 7103,
      "éĢļè®¯": 7104,
      "èĸª": 7105,
      "çļĦå°ıè¯´": 7106,
      "ä»İä¸Ń": 7107,
      "æ¯ıåĳ¨": 7108,
      "å¸Ĥåľºä¸Ĭ": 7109,
      "çºłéĶĻ": 7110,
      "å¿ĥçģµ": 7111,
      "æľĢä¸º": 7112,
      "ps": 7113,
      "éħįåĲĪ": 7114,
      "CO": 7115,
      "å§Ĳå§Ĳ": 7116,
      "å±±åĮº": 7117,
      "éĴ®": 7118,
      "å½¢çļĦ": 7119,
      "å·¢": 7120,
      "çĪĨçĤ¸": 7121,
      "ç®ĢåĮĸ": 7122,
      "èĳ±": 7123,
      "my": 7124,
      "Ġè¿Ļä¸ª": 7125,
      "187": 7126,
      "åĩºæĿ¥çļĦ": 7127,
      "é©¬å°Ķ": 7128,
      "åı¯ä»¥å¸®åĬ©æĤ¨": 7129,
      "CE": 7130,
      "çĶ¨åĵģ": 7131,
      "åĪ°åºķ": 7132,
      "éĿĴå°ĳå¹´": 7133,
      "è¿Ļä»¶": 7134,
      "è´¦æĪ·": 7135,
      "å®¶ä¸Ń": 7136,
      "æĺ¯åĲ¦æľī": 7137,
      "Ġ*": 7138,
      "ç¥ŀç§ĺçļĦ": 7139,
      "è¡¥åħħ": 7140,
      "èıľåĵģ": 7141,
      "ç»ıéªĮåĴĮ": 7142,
      "æ°´åĴĮ": 7143,
      "å§ľ": 7144,
      "çİ°æĹ¶": 7145,
      "æ´»è·ĥ": 7146,
      "èĥº": 7147,
      "åįļå®¢": 7148,
      "Ġhas": 7149,
      "æ°Ķè±¡": 7150,
      "æµ©": 7151,
      "æ¬¡æķ°": 7152,
      "çļĦéĢŁåº¦": 7153,
      "ä¿¡çĶ¨": 7154,
      "èĬĤçľģ": 7155,
      "é¢ĳéģĵ": 7156,
      "çļĦåĲİ": 7157,
      "èĲ¥éĶĢçŃĸçķ¥": 7158,
      "éĻĢ": 7159,
      "èŃ¦æĸ¹": 7160,
      "åŃ©åŃĲä»¬": 7161,
      "åĳĺå·¥çļĦ": 7162,
      "æ¶µçĽĸäºĨ": 7163,
      "éŁµ": 7164,
      "è½»æĿ¾åľ°": 7165,
      "è¿ĻäºĽä¿¡æģ¯": 7166,
      "å°Ĩä¸ĭéĿ¢": 7167,
      "æķ´çĲĨ": 7168,
      "åŁºæľ¬çļĦ": 7169,
      "å¤ªéĺ³ç³»ä¸Ń": 7170,
      "99": 7171,
      "1980": 7172,
      "åı¯ä»¥èĢĥèĻĳ": 7173,
      "è¯ĦåĪĨ": 7174,
      "åı£åı·": 7175,
      "æŃĩ": 7176,
      "åĵĪåĪ©æ³¢çī¹": 7177,
      "çĤ¹çļĦ": 7178,
      "éģŃåĪ°": 7179,
      "åģļçļĦ": 7180,
      "å¹¶ä¸Ķåľ¨": 7181,
      "åĴĮç»ıæµİ": 7182,
      "æ£µ": 7183,
      "ä¸įåģľ": 7184,
      "æºĲäºİ": 7185,
      "åľ¨å®¶éĩĮ": 7186,
      "çĸ¯": 7187,
      "è½¬ç§»": 7188,
      "å¥½å¥ĩ": 7189,
      "Ġhave": 7190,
      "éĽ¶åĶ®": 7191,
      "åĮħè£ħ": 7192,
      "é¢ĦæľŁ": 7193,
      "åĪĨæķ°": 7194,
      "å§»": 7195,
      "å¹´å¤ıåŃ£": 7196,
      "çĳŀåħ¸": 7197,
      "åĴĮä»ĸçļĦ": 7198,
      "åħ¥ä¾µ": 7199,
      "ert": 7200,
      "çĬ¹å¤ª": 7201,
      "åĪļåĪļ": 7202,
      "èŁ¹": 7203,
      "æ´»åĬĽ": 7204,
      "çŃīå¤ļç§į": 7205,
      "éĻĨåĨĽ": 7206,
      "å½±åĥı": 7207,
      "ä»İå°ı": 7208,
      "å°¾å·´": 7209,
      "éªĤ": 7210,
      "å¼ķäºº": 7211,
      "çİ°ä»£ç¤¾ä¼ļ": 7212,
      "é¥®é£Łä¹łæĥ¯": 7213,
      "33": 7214,
      "è¢«çĶ¨äºİ": 7215,
      "ä¸ĭä¸Ģä¸ª": 7216,
      "æ·®": 7217,
      "è¥¿èĹı": 7218,
      "ç¾İæľ¯": 7219,
      "entence": 7220,
      "çľģçļĦä¸Ģä¸ª": 7221,
      "å¾Īå¤ļäºº": 7222,
      "ev": 7223,
      "ç¥ŀè¯Ŀ": 7224,
      "ç¿ħèĨĢ": 7225,
      "å²Ľå±¿": 7226,
      "çŁ®": 7227,
      "åį°åĪ·": 7228,
      "æĪ¿åŃĲ": 7229,
      "è´ª": 7230,
      "æıĲä¾Ľä¸ĢäºĽ": 7231,
      "çĸĳéĹ®": 7232,
      "æł¹æį®æıĲä¾Ľ": 7233,
      "ypoth": 7234,
      "æĦŁæ¿Ģ": 7235,
      "äºĨåĩł": 7236,
      "å®ĥæĺ¯ä¸Ģç§į": 7237,
      "è¿Ľç¨ĭ": 7238,
      "åŁİéķĩ": 7239,
      "é¢ĸ": 7240,
      "ä»ĸè¯´": 7241,
      "ily": 7242,
      "äººç¾¤": 7243,
      "èĽĻ": 7244,
      "Ġimp": 7245,
      "æŀ¢": 7246,
      "ä»İæľª": 7247,
      "ç§ĭå¤©": 7248,
      "éĶ¦æłĩèµĽ": 7249,
      "ÑĤ": 7250,
      "èµ°åĪ°": 7251,
      "ç§»æ°ĳ": 7252,
      "è¾©": 7253,
      "çº¢æ¥¼": 7254,
      "æĹ¶æľŁçļĦ": 7255,
      "ä¸Ģåı¥è¯Ŀ": 7256,
      "å®ĥå°Ĩ": 7257,
      "æĺ¯ä¸Ģæ¬¾": 7258,
      "ä¸ĩäºº": 7259,
      "åĸĦèī¯": 7260,
      "string": 7261,
      "æııåĨĻ": 7262,
      "æĮĩç¤º": 7263,
      "ä¸ĭéĽ¨": 7264,
      "éĤ£æł·": 7265,
      "åłª": 7266,
      "ç¼ĸåı·": 7267,
      "æĹħå®¢": 7268,
      "å¤ļåħĥ": 7269,
      "åı¯ä»¥è¿½æº¯åĪ°": 7270,
      "åı¯è§ģ": 7271,
      "ory": 7272,
      "1994": 7273,
      "è¡Ģæ¶²": 7274,
      "åı¯è§Ĩ": 7275,
      "ãĢĤãĢį": 7276,
      "ä¹Łå°Ĩ": 7277,
      "èĹ©": 7278,
      "è¿Ļç§įæĸ¹æ³ķ": 7279,
      "æŃ¦åĬŁ": 7280,
      "çģµæĦŁ": 7281,
      "çĽ¸å¯¹è®º": 7282,
      "åĽłåħ¶": 7283,
      "æĸĩçī©ä¿ĿæĬ¤": 7284,
      "äºĭé¡¹": 7285,
      "æĹłçĽĳçĿ£åŃ¦ä¹ł": 7286,
      "ä¸Ģéĺµ": 7287,
      "åĢĻéĢī": 7288,
      "æ¹ĸæ³Ĭ": 7289,
      "æĭĵå±ķ": 7290,
      "çĭŃ": 7291,
      "åĮĸçŁ³çĩĥæĸĻ": 7292,
      "ä¸Ĭä¸ĭ": 7293,
      "å°ĳæķ°": 7294,
      "ci": 7295,
      "åĨĻåŃĹæ¯į": 7296,
      "æ¶ĪåĮĸ": 7297,
      "éĺ¿æĭīä¼¯": 7298,
      "ç§ĳæĬĢçļĦ": 7299,
      "çĶŁéķ¿äºİ": 7300,
      "è®©ä»ĸä»¬": 7301,
      "çĸ¾çĹħçļĦ": 7302,
      "æľīæīĢä¸įåĲĮ": 7303,
      "æ°´åĪĨ": 7304,
      "åĲįè¯įçŁŃè¯Ń": 7305,
      "çłĶç©¶åĴĮ": 7306,
      "åĮĨ": 7307,
      "ç©¿è¿ĩ": 7308,
      "åĲģ": 7309,
      "äº¤éĢļå·¥åħ·": 7310,
      "åľ¨åħ¶": 7311,
      "æľ¬åľ°": 7312,
      "èĹ»": 7313,
      "åĪĨåī²": 7314,
      "å±ķç¤ºäºĨ": 7315,
      "æŀģç«¯å¤©æ°Ķ": 7316,
      "æĺĵæĩĤ": 7317,
      "çĽ²": 7318,
      "å¿ĹæĦ¿": 7319,
      "ä»½é¢Ŀ": 7320,
      "ä¸Ģé¦ĸ": 7321,
      "ç§ĺä¹¦": 7322,
      "IT": 7323,
      "éŁ³é¢ĳ": 7324,
      "è·¯æĺĵ": 7325,
      "ç§ĭåŃ£": 7326,
      "ypothesis": 7327,
      "æĪĳè¿ĺ": 7328,
      "å¤ĩåıĹ": 7329,
      "æľºåĻ¨åŃ¦ä¹łæĬĢæľ¯": 7330,
      "ä¼ģä¸ļå®¶": 7331,
      "å·«": 7332,
      "å»ºç«ĭä¸Ģä¸ª": 7333,
      "éĿ¢ä¸´çļĦ": 7334,
      "ç¼ł": 7335,
      "åĳĪçİ°åĩº": 7336,
      "eople": 7337,
      "ç²ĴåŃĲ": 7338,
      "çĵ·": 7339,
      "è·Łéļı": 7340,
      "èļĤ": 7341,
      "å·¾": 7342,
      "åºŁå¼ĥ": 7343,
      "çī¹æ®ĬçļĦ": 7344,
      "Ġform": 7345,
      "ä¸ºæĪĳä»¬": 7346,
      "ä¸Ģå¸¦": 7347,
      "éĥ½å¸Ĥ": 7348,
      "æķĳæı´": 7349,
      "æ¶ĪéĻ¤": 7350,
      "åĴĮä¸ªäºº": 7351,
      "ç¦ģæŃ¢": 7352,
      "ug": 7353,
      "è¦ģçĤ¹": 7354,
      "å®Įæķ´çļĦ": 7355,
      "éĢĶä¸Ń": 7356,
      "éĺ®": 7357,
      "åĮºåĪĨ": 7358,
      "åıĸæ¶Ī": 7359,
      "éĹ®é¢ĺåĴĮ": 7360,
      "åĪ©äºİ": 7361,
      "éħįç½®": 7362,
      "çļĦä¸Ńå¿ĥ": 7363,
      "æĺ¯å°Ĩ": 7364,
      "èĩ³äºİ": 7365,
      "èĵī": 7366,
      "print": 7367,
      "æĿ¥å¸®åĬ©": 7368,
      "ĊĠĠ": 7369,
      "èĭ¯": 7370,
      "è±«": 7371,
      "å¦Ĩ": 7372,
      "æŁĦ": 7373,
      "å°ıçĭĹ": 7374,
      "èīĺ": 7375,
      "ãĢįãĢģ": 7376,
      "åĲĦåľ°çļĦ": 7377,
      "55": 7378,
      "å°Ĭæķ¬": 7379,
      "%,": 7380,
      "æī¿è®¤": 7381,
      "ensis": 7382,
      "Ð»": 7383,
      "çİ¯å¢ĥæ±¡æŁĵ": 7384,
      "çĿĢæĪĳ": 7385,
      "äººå¤§": 7386,
      "åħ¶ä¸Ńä¸Ģä¸ª": 7387,
      "å°±ç®Ĺ": 7388,
      "éĴ¦": 7389,
      "åĴª": 7390,
      "ç»Ļä»ĸ": 7391,
      "æĭīåħĭ": 7392,
      "å®¢æĪ·æľįåĬ¡": 7393,
      "åĬłçĥŃ": 7394,
      "ç¥Ģ": 7395,
      "å¸ĥé²ģ": 7396,
      "éĥ½è¦ģ": 7397,
      "å¦ĤæŀľæĪĳä»¬": 7398,
      "æ±īè¯Ń": 7399,
      "èĲĿåįľ": 7400,
      "åĪĽæĸ°çļĦ": 7401,
      "åĨľæĿĳ": 7402,
      "ä¿ĥéĶĢ": 7403,
      "å®īå¾·": 7404,
      "æĸ¯çļĦ": 7405,
      "è¿Ĳä½ľ": 7406,
      "ä¸ĭå±ŀ": 7407,
      "37": 7408,
      "å·¥äºº": 7409,
      "èµ¢å¾ĹäºĨ": 7410,
      "å°¼æ³Ĭ": 7411,
      "è®¾è®¡çļĦ": 7412,
      "å°ıå®Ŀ": 7413,
      "åĢ¡": 7414,
      "å°ºå¯¸": 7415,
      "å¸Ĳ": 7416,
      "çĻ»å½ķ": 7417,
      "å¥¹ä»¬": 7418,
      "æģĲæĥ§": 7419,
      "åıįå°Ħ": 7420,
      "____": 7421,
      "æĶĢçĻ»": 7422,
      "Options": 7423,
      "46": 7424,
      "å¿«éĢŁåıĳå±ķ": 7425,
      "çİ°ä»»": 7426,
      "ãģ®": 7427,
      "è·¯å¾Ħ": 7428,
      "å®ŀéªĮå®¤": 7429,
      "ç¤¾äº¤åªĴä½ĵå¹³åı°": 7430,
      "æĪĳçļĦå¿ĥ": 7431,
      "ä¸Ńä½¿çĶ¨": 7432,
      "åľ¨éĤ£éĩĮ": 7433,
      "åİ»éĻ¤": 7434,
      "éĩıåŃĲåĬĽåŃ¦": 7435,
      "æ³¢åħ°": 7436,
      "åĶĩ": 7437,
      "æ¡Īä»¶": 7438,
      "èĤļ": 7439,
      "å»¶ä¼¸": 7440,
      "åŁºåľ°": 7441,
      "è®²è¿°äºĨä¸Ģä¸ª": 7442,
      "éĥ½å¾Ī": 7443,
      "ç½ĳé¡µ": 7444,
      "æĹ¥çļĦ": 7445,
      "åĴĮå¯¹": 7446,
      "äºļåİĨ": 7447,
      "è¿Ļæ®µæĸĩåŃĹ": 7448,
      "çº¢æ¥¼æ¢¦": 7449,
      "æµģåĬ¨": 7450,
      "æ²³çķĶ": 7451,
      "èģĶåĲĪåĽ½": 7452,
      "çĶŁæ´»ä¸ŃçļĦ": 7453,
      "éŃħåĬĽ": 7454,
      "æıĲä¾ĽæĽ´å¥½çļĦ": 7455,
      "éľĢè¦ģä½¿çĶ¨": 7456,
      "çĺ¤": 7457,
      "æ¶¨": 7458,
      "Tr": 7459,
      "åı¯éĿłæĢ§": 7460,
      "å¯¨": 7461,
      "ç¦ħ": 7462,
      "æķħéļľ": 7463,
      "AR": 7464,
      "Ġposs": 7465,
      "åįĵè¶Ĭ": 7466,
      "æłĩçĤ¹ç¬¦åı·": 7467,
      "çģ«çģ¾": 7468,
      "èĬĤèĥ½": 7469,
      "è´·": 7470,
      "çĶ»å®¶": 7471,
      "è¯·éĹ®": 7472,
      "å¥ĩæĢª": 7473,
      "æĺı": 7474,
      "é¢ĩ": 7475,
      "èĲ½åľ¨": 7476,
      "åĲ¬èµ·æĿ¥": 7477,
      "è¿Ļä»½": 7478,
      "èµĦæºĲçļĦ": 7479,
      "çĶµåŃĲéĤ®ä»¶åľ°åĿĢ": 7480,
      "åİĺç±³": 7481,
      "åĽŀå¤į": 7482,
      "ition": 7483,
      "èĮ«": 7484,
      "ä»ĸå¯¹": 7485,
      "èĪªå¤©": 7486,
      "tern": 7487,
      "åİļçļĦ": 7488,
      "ä½ľåĩº": 7489,
      "æľºåĻ¨åŃ¦ä¹łçļĦ": 7490,
      "ä½įäºİè¯¥åĽ½": 7491,
      "åĲĳåīį": 7492,
      "åıĳçĶµ": 7493,
      "Ġdo": 7494,
      "äººå·¥æĻºèĥ½æĬĢæľ¯çļĦ": 7495,
      "å¤¸": 7496,
      "èĭį": 7497,
      "ä¸Ģäºº": 7498,
      "å¯¼èĩ´çļĦ": 7499,
      "æºĥ": 7500,
      "è©¹å§Ĩæĸ¯": 7501,
      "åĲ¬äºĨ": 7502,
      "åħ¥äºĨ": 7503,
      "æľ¬å±ŀ": 7504,
      "åħ¨æĸ°çļĦ": 7505,
      "å¤ļé¡¹": 7506,
      "èĢĮè¢«": 7507,
      "æĬĽ": 7508,
      "æķĻä¼ļ": 7509,
      "çķªèĮĦ": 7510,
      "å½ĵæĪĳä»¬": 7511,
      "åĽ½ç«ĭ": 7512,
      "æĻ¯èī²": 7513,
      "åĴĮåģ¥åº·": 7514,
      "æĪĺå½¹": 7515,
      "å»Ĭ": 7516,
      "éģĹåĿĢ": 7517,
      "æľ¬æĿ¥": 7518,
      "éĥ¨ç½²": 7519,
      "æľºåĻ¨åŃ¦ä¹łæ¨¡åŀĭ": 7520,
      "æĤłä¹ħ": 7521,
      "ç¥ŀå¥ĩ": 7522,
      "Ġover": 7523,
      "ä¸įåıĬ": 7524,
      "éªĳèĩªè¡Įè½¦": 7525,
      "æĬ¹": 7526,
      "æ²¡æľīä»»ä½ķ": 7527,
      "çĢ": 7528,
      "åį±å®³": 7529,
      "æ¸ħåįķ": 7530,
      "æĽ´æĺ¯": 7531,
      "æĸĩçī©ä¿ĿæĬ¤åįķä½į": 7532,
      "ç«Ļåı°": 7533,
      "æĸ¤": 7534,
      "åįģäºĶ": 7535,
      "åħ³å¿ĥ": 7536,
      "çĸ¼çĹĽ": 7537,
      "èľľèľĤ": 7538,
      "ĠTh": 7539,
      "å°±åľ¨": 7540,
      "è¿ĻæľīåĬ©äºİ": 7541,
      "æİ¥ç§į": 7542,
      "è®¢åįķ": 7543,
      "èģļä¼ļ": 7544,
      "éĩįè¦ģæĢ§": 7545,
      "çī¹å¾ģæıĲåıĸ": 7546,
      "åŃ¦çļĦ": 7547,
      "å·´å£«": 7548,
      "ä½łè®¤ä¸º": 7549,
      "å¨ģå°Ķ": 7550,
      "é²į": 7551,
      "æ³°åĿ¦": 7552,
      "ç¨»": 7553,
      "æľīä¸¤ä¸ª": 7554,
      "è§£çŃĶ": 7555,
      "åĮ»çĸĹé¢ĨåŁŁ": 7556,
      "éľĢè¦ģå¯¹": 7557,
      "éĥ½è¢«": 7558,
      "ä¸įå¦Ĥ": 7559,
      "è£ķ": 7560,
      "åħīç»ª": 7561,
      "é»Ħéĩĳ": 7562,
      "cl": 7563,
      "ç»ĵå±Ģ": 7564,
      "çĽĳçĭ±": 7565,
      "ç¨³å®ļæĢ§": 7566,
      "æ¼Ĥäº®": 7567,
      "çļĦçĪ±": 7568,
      "æıĲä¾ĽæĽ´": 7569,
      "å¹´çĶ±": 7570,
      "é«ĺæ¸©": 7571,
      "çļĦä»£è¡¨": 7572,
      "åľ¨è¿Ļä¸ªåı¥åŃĲä¸Ń": 7573,
      "å¤įåħ´": 7574,
      "èļĤèļģ": 7575,
      "ç´łè´¨": 7576,
      "å¸ĤåľºçļĦ": 7577,
      "æĢ»éĥ¨ä½įäºİ": 7578,
      "å¹´åĲİ": 7579,
      "æľĿå»·": 7580,
      "çĹķ": 7581,
      "é©¬éĩĮ": 7582,
      "çĶµåĬĽ": 7583,
      "èĬ¯": 7584,
      "ç¼ĸåī§": 7585,
      "æłĳåı¶": 7586,
      "äººä»¬åı¯ä»¥": 7587,
      "è¯ĨåĪ«åĴĮ": 7588,
      "éĢĿä¸ĸ": 7589,
      "æĲŀ": 7590,
      "æĭħå¿§": 7591,
      "çĭ¬èĩª": 7592,
      "æĿĲè´¨": 7593,
      "å¤§å¸Ī": 7594,
      "åĤ»": 7595,
      "å¤©æĸĩ": 7596,
      "åĦĴ": 7597,
      "å¤ĦçĲĨåĻ¨": 7598,
      "ãĢĭ(\"": 7599,
      "å½ĵå¹´": 7600,
      "å»ºæĪĲ": 7601,
      "æ¯ĶåĪ©": 7602,
      "ebook": 7603,
      "ç«ŀäºīåĬĽ": 7604,
      "Alice": 7605,
      "çľĭçĶµå½±": 7606,
      "åĩ¶": 7607,
      "æĬ½è±¡": 7608,
      "éĥ¨ä»½": 7609,
      "æĿ¥è§£åĨ³": 7610,
      "æĪĳå°Ĩ": 7611,
      "å·²è¢«": 7612,
      "åħ¶ä»ĸäºº": 7613,
      "ç¾İåĳ³çļĦ": 7614,
      "å¸ĸ": 7615,
      "éĿŀå¸¸åĸľæ¬¢": 7616,
      "äº§åĵģæĪĸæľįåĬ¡": 7617,
      "æĮīéĴ®": 7618,
      "è¿Ń": 7619,
      "éĩĳçīĮ": 7620,
      "æī¹åĩĨ": 7621,
      "And": 7622,
      "åįģåħ«": 7623,
      "åħ¬åħĥåīį": 7624,
      "åĴĮäººç±»": 7625,
      "åįķçĭ¬": 7626,
      "é³Ħ": 7627,
      "èĩªæ²»åĮº": 7628,
      "å¿ĥæĢģ": 7629,
      "å¯¹æĬĹ": 7630,
      "æĤ£èĢħçļĦ": 7631,
      "ä»¥åĩıå°ĳ": 7632,
      "åĿĩè¡¡": 7633,
      "è¢«èªīä¸º": 7634,
      "çļĦæīĢæľī": 7635,
      "æ¯ķä¸ļåĲİ": 7636,
      "Ġå¦Ĥæŀľ": 7637,
      "æľ´ç´ł": 7638,
      "äººä¸º": 7639,
      "ç®Ģæ´ģæĺİäºĨ": 7640,
      "çī¢": 7641,
      "æĿĢæŃ»": 7642,
      "è®Ńç»ĥåĴĮ": 7643,
      "çļĦæ®µèĲ½": 7644,
      "åĲĥé¥Ń": 7645,
      "é²¸é±¼": 7646,
      "ä»ĸä¹Ł": 7647,
      "å½ĵæĹ¶çļĦ": 7648,
      "åĩºä¸Ģä¸ª": 7649,
      "åĲ¾": 7650,
      "å¹¶ç»Ļåĩº": 7651,
      "æŃ£æĺ¯": 7652,
      "æıĲé«ĺäºĨ": 7653,
      "åº·çĨĻ": 7654,
      "ä¸Ģä¸ĸ": 7655,
      "åĽ¢éĺŁåĲĪä½ľ": 7656,
      "Ġab": 7657,
      "çŁŃæļĤ": 7658,
      "ç²ĺ": 7659,
      "çĶµåĬ¨æ±½è½¦": 7660,
      "å°Ĩæĸĩæľ¬": 7661,
      "çºłæŃ£": 7662,
      "æľºåħ³": 7663,
      "å¹´å¼Ģå§ĭ": 7664,
      "åĬłå·ŀ": 7665,
      "åĲ¸å¼ķäºĨ": 7666,
      "ä¸´åºĬ": 7667,
      "ç©¿è¶Ĭ": 7668,
      "å¤§éĩıçļĦæķ°æį®": 7669,
      "ç½ĹçĲ³": 7670,
      "åĲĦåĽ½": 7671,
      "çĶ·å£«": 7672,
      "åĩłå¤©": 7673,
      "åı¯ä»¥çĶ¨": 7674,
      "è¥¿åħ°": 7675,
      "è´¢äº§": 7676,
      "ä¾¦": 7677,
      "ä½ĵåŀĭ": 7678,
      "éĢłæĪĲçļĦ": 7679,
      "ä¸ŀ": 7680,
      "æľĪåįĩ": 7681,
      "æħ¢æĢ§": 7682,
      "å¤´éĥ¨": 7683,
      "æĿĥåĪ©": 7684,
      "åĪĨè¯į": 7685,
      "éŁ§": 7686,
      "34": 7687,
      "äº¿ç¾İåħĥ": 7688,
      "ä»ĺåĩº": 7689,
      "çļĦé¢ĨåŁŁ": 7690,
      "ä¸ĭè½½": 7691,
      "å¥¥è¿Ĳä¼ļ": 7692,
      "ä¸Ģè¯į": 7693,
      "æ¦Ĥè¦ģ": 7694,
      "å¹¶ä»¥": 7695,
      "è¯¥æĸĩç«ł": 7696,
      "ni": 7697,
      "æľºåĻ¨åŃ¦ä¹łæĺ¯": 7698,
      "æīŃ": 7699,
      "åľ°çĲĥä¸Ĭ": 7700,
      "ç¬¬ä¸ĥ": 7701,
      "æĽ¾ç¥ĸ": 7702,
      "éĿŀå¸¸å¹¿æ³Ľ": 7703,
      "æĶ¿åįı": 7704,
      "å®´": 7705,
      "èĤīç±»": 7706,
      "AT": 7707,
      "çªĿ": 7708,
      "åĸī": 7709,
      "å½ĵä¸Ń": 7710,
      "æ·±åľ³": 7711,
      "çļĦå®īåħ¨": 7712,
      "Ġtell": 7713,
      "å®ĩèĪª": 7714,
      "åįģåħŃ": 7715,
      "éķ¿åŁİ": 7716,
      "åĨ»": 7717,
      "éĹ¨åı£": 7718,
      "æ¨¡æĭŁäººç±»æĻºèĥ½": 7719,
      "duc": 7720,
      "æĪĳçŁ¥éģĵ": 7721,
      "å¼Ģå§ĭäºĨ": 7722,
      "æī¿æĭħ": 7723,
      "ther": 7724,
      "'t": 7725,
      "åİĭç¼©": 7726,
      "éĽĨæĪĲ": 7727,
      "çĶ¨æĪ·åı¯ä»¥": 7728,
      "å¾ĹçŁ¥": 7729,
      "è¡¨è¿°": 7730,
      "è£ħå¤ĩ": 7731,
      "itt": 7732,
      "ãĢİ": 7733,
      "åŀ«": 7734,
      "æ¡Īä¾ĭ": 7735,
      "éĻĲäºİ": 7736,
      "ç©ºæ°Ķæ±¡æŁĵ": 7737,
      "æĪĲä¸ºä¸ĢåĲį": 7738,
      "ä»ĸè¿ĺ": 7739,
      "çļĦä¸Ģä¸ªéĩįè¦ģ": 7740,
      "æĺ¯ä»İ": 7741,
      "åĵĢ": 7742,
      "ä¸ĸçķĮå¤§æĪĺ": 7743,
      "ma": 7744,
      "å±ĤçļĦ": 7745,
      "å½¢æĪĲçļĦ": 7746,
      "å§Ĭ": 7747,
      "2024": 7748,
      "å½¦": 7749,
      "ä¸´æĹ¶": 7750,
      "èķ¾": 7751,
      "ç³Ł": 7752,
      "æ°ĳéĹ´": 7753,
      "æĺŁæĺŁ": 7754,
      "çİĩåĴĮ": 7755,
      "èĢħåĴĮ": 7756,
      "éĩĩçĶ¨äºĨ": 7757,
      "èĢģå¹´": 7758,
      "æıŃç¤º": 7759,
      "èºº": 7760,
      "é¥¿": 7761,
      "åľ¨ä¸Ģ": 7762,
      "æĹĭå¾ĭ": 7763,
      "äººæ°ĳæĶ¿åºľ": 7764,
      "å°ģéĹŃ": 7765,
      "çļĦè´¨éĩı": 7766,
      "ãĢı": 7767,
      "1996": 7768,
      "æĺİæĺŁ": 7769,
      "é¢ĨåħĪ": 7770,
      "å¥¥æĸ¯åį¡": 7771,
      "ä¹Ķå¸ĥæĸ¯": 7772,
      "é¦¨": 7773,
      "åĲİéĿ¢": 7774,
      "ink": 7775,
      "æĶ¯æµģ": 7776,
      "åı¯èĥ½åĮħæĭ¬": 7777,
      "æĺŁç³»": 7778,
      "èĲ¨åħĭ": 7779,
      "çĶŁæĪĲæĳĺè¦ģ": 7780,
      "able": 7781,
      "å±ŀçļĦæ¤įçī©": 7782,
      "Ġpossible": 7783,
      "å»ºç«ĭäºĨ": 7784,
      "Ø§": 7785,
      "éª¨éª": 7786,
      "æľĪçļĦ": 7787,
      "ç£·": 7788,
      "ä¸¤ä½į": 7789,
      "æĿĥéĩį": 7790,
      "çłĸ": 7791,
      "åīĬ": 7792,
      "æ®ĸæ°ĳ": 7793,
      "ä¹Łæĺ¯ä¸Ģä¸ª": 7794,
      "æĺ¯ä¸įæĺ¯": 7795,
      "åĬłåī§": 7796,
      "æľīä¸ª": 7797,
      "åīįè¿Ľ": 7798,
      "å¹³éĿĻ": 7799,
      "éĴ¥": 7800,
      "é¢ĦæĬ¥": 7801,
      "åĤ¨åŃĺ": 7802,
      "\",\"": 7803,
      "è£ħç½®": 7804,
      "åŃĺåľ¨ä¸ĢäºĽ": 7805,
      "çłĤ": 7806,
      "å§¬": 7807,
      "æļĳ": 7808,
      "é¡ºåĪ©": 7809,
      "è¡¨æł¼": 7810,
      "æĲºå¸¦": 7811,
      "äººä»¬åľ¨": 7812,
      "åįģäºĮå¹´": 7813,
      "Apple": 7814,
      "æľīæĦıä¹ī": 7815,
      "åħ¬æ°ĳ": 7816,
      "å¸¦é¢Ĩ": 7817,
      "æĶ¶èĹı": 7818,
      "å¤§åŃ¦çļĦ": 7819,
      "ç»ĻæĪĳä»¬": 7820,
      "åŃĹçļĦ": 7821,
      "ç»´äºļ": 7822,
      "åı¦ä¸Ģæĸ¹éĿ¢": 7823,
      "iss": 7824,
      "æĺİç¡®çļĦ": 7825,
      "Windows": 7826,
      "éŁ¦å°ıå®Ŀ": 7827,
      "å¥³ç¥ŀ": 7828,
      "ica": 7829,
      "è¯¦ç»ĨåĽŀçŃĶ": 7830,
      "åİŁåĲį": 7831,
      "éĢ¢": 7832,
      "æľĢéĢĤåĲĪ": 7833,
      "å¼ŁåŃĲ": 7834,
      "åıĮæīĭ": 7835,
      "å¤§å¤«": 7836,
      "è°¦": 7837,
      "çĪ¹": 7838,
      "èµİ": 7839,
      "åĪĨæķ£": 7840,
      "éĵ¾æİ¥": 7841,
      "å°¼æ³Ĭå°Ķ": 7842,
      "ç¡ķå£«": 7843,
      "æĹħç¨ĭ": 7844,
      "æĪĳè¯´": 7845,
      "å¤±åİ»äºĨ": 7846,
      "å®¶åħ·": 7847,
      "åıĻè¿°": 7848,
      "äº§åĵģåĴĮæľįåĬ¡": 7849,
      "åĴĮè°Ĳ": 7850,
      "ä¸Ģä¼ļåĦ¿": 7851,
      "çĽ¸ä¼¼åº¦": 7852,
      "éĩįåºĨ": 7853,
      "ild": 7854,
      "åŃĹä½ĵ": 7855,
      "æİ¨ç§»": 7856,
      "åįĹæŀģæ´²": 7857,
      "å¤ļä¹Ī": 7858,
      "39": 7859,
      "åı¸ä»¤": 7860,
      "æľªèĥ½": 7861,
      "æĵħéķ¿": 7862,
      "åĲĪçĲĨçļĦ": 7863,
      "éĢīæĭ©ä¸Ģä¸ª": 7864,
      "çļĦåħ¬åı¸": 7865,
      "ç½ĳçĲĥ": 7866,
      "åĪĽéĢłåĬĽ": 7867,
      "å·¥ä½ľä¸Ń": 7868,
      "å¼ķç§į": 7869,
      "çļĦè§Ĵèī²": 7870,
      "æĺ¯éĿŀå¸¸éĩįè¦ģçļĦ": 7871,
      "ä¸įç¡®å®ļ": 7872,
      "åįģä¸ī": 7873,
      "ai": 7874,
      "çļĦåħ·ä½ĵ": 7875,
      "å¢ŀåĬłäºĨ": 7876,
      "çļĦä¸»æĹ¨": 7877,
      "åĽłèĢĮ": 7878,
      "acebook": 7879,
      "æŀ¶æŀĦ": 7880,
      "æŀ¯": 7881,
      "åı¯è¯»": 7882,
      "ä¸Ĭä¸Ģ": 7883,
      "åħ¬æŃ£": 7884,
      "æīĢå±ŀçļĦ": 7885,
      "å¤ĦçĲĨåĴĮ": 7886,
      "è¿Ļä¸ªäºº": 7887,
      "Ġno": 7888,
      "æľĭåıĭä»¬": 7889,
      "è¶ħå¸Ĥ": 7890,
      "çģ¾éļ¾": 7891,
      "æķ°æį®æĿ¥": 7892,
      "åµĮ": 7893,
      "æ¾³éĹ¨": 7894,
      "ãĢģãĢģ": 7895,
      "1995": 7896,
      "les": 7897,
      "å©ļå§»": 7898,
      "çĶŁåĬ¨": 7899,
      "ä¸ªæĢ§åĮĸçļĦ": 7900,
      "ated": 7901,
      "åĬ«": 7902,
      "åįłæį®": 7903,
      "æĹ©æĻ¨": 7904,
      "æĪĸè®¸": 7905,
      "å±¯": 7906,
      "ä½ľæĪĺ": 7907,
      "æĸ°æĬĢæľ¯": 7908,
      "èĢĥèĻĳåĪ°": 7909,
      "å°½å¿«": 7910,
      "äºĨä¸Ģç³»åĪĹ": 7911,
      "oft": 7912,
      "åĽ¾åĥıåĴĮ": 7913,
      "äº¤å¾Ģ": 7914,
      "éĵŃ": 7915,
      "åĵ¥ä¼¦": 7916,
      "å±ķè§Ī": 7917,
      "ä¸ºåħ¶": 7918,
      "å¤§ä½¿": 7919,
      "éª¨éª¼": 7920,
      "à¤": 7921,
      "æ³ķåħ°": 7922,
      "çĶ±äººå·¥": 7923,
      "èģĮè´£": 7924,
      "amp": 7925,
      "æ°´åŁŁ": 7926,
      "æĶ¹åĪ¶": 7927,
      "é©¬ä¸Ĭ": 7928,
      "æĶ¯æĴĳ": 7929,
      "ä»ħä»ħ": 7930,
      "æķ£å°Ħ": 7931,
      "æıĲåıĬ": 7932,
      "86": 7933,
      "åĩ¸": 7934,
      "Ġthis": 7935,
      "æĸ¯åŁº": 7936,
      "èı²å¾ĭ": 7937,
      "ä»¥åıĬå¦Ĥä½ķ": 7938,
      "å¤§ä¼Ĺ": 7939,
      "ign": 7940,
      "å¯¹æĪĳä»¬çļĦ": 7941,
      "å»¶éķ¿": 7942,
      "èı²å¾ĭå®¾": 7943,
      "èĢ³æľµ": 7944,
      "è¿ĺæ²¡æľī": 7945,
      "æĪĳåİ»": 7946,
      "ll": 7947,
      "æ²³çļĦ": 7948,
      "ould": 7949,
      "åĸĤ": 7950,
      "400": 7951,
      "æ¤Ń": 7952,
      "ç²¾åº¦": 7953,
      "å§Ķä¼ļ": 7954,
      "çļĦè¿ĲåĬ¨": 7955,
      "ä¹Łè¦ģ": 7956,
      "çī¹åĪ«æĺ¯åľ¨": 7957,
      "ange": 7958,
      "æŀģå¤§çļĦ": 7959,
      "çĳļ": 7960,
      "çİ°çĬ¶": 7961,
      "åıĤåĬłäºĨ": 7962,
      "è´Łæĭħ": 7963,
      "ç»¿èī²çļĦ": 7964,
      "åĲĦç§įåĲĦ": 7965,
      "åĪ¶éĢłåķĨ": 7966,
      "çľ¼æ³ª": 7967,
      "èĤ¾": 7968,
      "èĬ½": 7969,
      "å¹²çĩ¥": 7970,
      "å®ĥä»¬æĺ¯": 7971,
      "æĽ°": 7972,
      "æĹ¶éĹ´ç®¡çĲĨ": 7973,
      "å®ĮæĪĲäºĨ": 7974,
      "å½¢æĪĲäºĨ": 7975,
      "å°ıè¯´çļĦ": 7976,
      "An": 7977,
      "æ¾³æ´²": 7978,
      "èĩĢ": 7979,
      "åĬŁèĥ½åĴĮ": 7980,
      "æĿ¥èĩªäºİ": 7981,
      "é¢ľèī²çļĦ": 7982,
      "å¯¹æ¯Ķ": 7983,
      "è¯ŃéŁ³åĬ©æīĭ": 7984,
      "ä¸Ģæ®µæĸĩæľ¬": 7985,
      "(,": 7986,
      "ç¨³å®ļçļĦ": 7987,
      "åĪ°æĿ¥": 7988,
      "å¾Īå®¹æĺĵ": 7989,
      "éĥ½éľĢè¦ģ": 7990,
      "åĩĨç¡®æĢ§åĴĮ": 7991,
      "ä»¥éģ¿åħį": 7992,
      "olog": 7993,
      "ä¼ļè¢«": 7994,
      "åĲįåįķ": 7995,
      "å·²ç»ıåľ¨": 7996,
      "åĪĨå¸ĥåľ¨": 7997,
      "æĶ¾ç½®": 7998,
      "å½ĵä»£": 7999,
      "47": 8000,
      "fer": 8001,
      "æĹłæķ°": 8002,
      "çĽ¸æľº": 8003,
      "äººå·¥æĻºèĥ½çļĦåºĶçĶ¨": 8004,
      "åİĨä»»": 8005,
      "éĩįè¦ģä½ľçĶ¨": 8006,
      "çļĦæľĢ": 8007,
      "æĺ¯ä½ł": 8008,
      "enc": 8009,
      "æł¡éķ¿": 8010,
      "åįĹæĸ¹": 8011,
      "æĬķç¥¨": 8012,
      "åĶ¤": 8013,
      "æĺĵäºİçĲĨè§£": 8014,
      "å¾®è½¯": 8015,
      "çķĻåľ¨": 8016,
      "é²¤": 8017,
      "å£¶": 8018,
      "å¾ĹåĲį": 8019,
      "å¸Ĥåľºä»½é¢Ŀ": 8020,
      "æŀģåħ¶": 8021,
      "ä¸ºæŃ¢": 8022,
      "éĿ¢ä¸Ĭ": 8023,
      "ä¸»é¢ĺçļĦ": 8024,
      "å®ļçĲĨ": 8025,
      "çļĦéĩįè¦ģç»ĦæĪĲéĥ¨åĪĨ": 8026,
      "æĬĬæĪĳ": 8027,
      "æŁł": 8028,
      "èĥĮé³į": 8029,
      "çĶµåĻ¨": 8030,
      "å¹¶æľª": 8031,
      "è´µå·ŀ": 8032,
      "å¹¿æ³ĽåºĶçĶ¨äºİ": 8033,
      "çĶµåķĨ": 8034,
      "æ©¡": 8035,
      "ys": 8036,
      "ç¬Ķè®°æľ¬": 8037,
      "ä¸ĵä¸ļçļĦ": 8038,
      "ree": 8039,
      "å¥½åıĭ": 8040,
      "GPT": 8041,
      "ç²¾åĩĨ": 8042,
      "å¼ķç§įæł½åŁ¹": 8043,
      "SS": 8044,
      "è°¨æħİ": 8045,
      "è¿ĻæĿ¡": 8046,
      "æľīä¸įåĲĮçļĦ": 8047,
      "èĮİ": 8048,
      "ç»´å¥ĩ": 8049,
      "éĢļå¸¸çĶ±": 8050,
      "äºĭä»¶çļĦ": 8051,
      "è®¾è®¡å¸Ī": 8052,
      "ç§ĳåĬ¨çī©": 8053,
      "é¹¤": 8054,
      "æ·¡æ°´": 8055,
      "å¸ĪçĪ¶": 8056,
      "éĥŃéĿĸ": 8057,
      "æĿĳåºĦ": 8058,
      "åĩıè½»åİĭåĬĽ": 8059,
      "æ¸´æľĽ": 8060,
      "çļĦçĬ¶æĢģ": 8061,
      "åıĳèĤ²": 8062,
      "æ¨±": 8063,
      "éļ¾éģĵ": 8064,
      "æĬ±æŃī": 8065,
      "éĤ£æĹ¶": 8066,
      "èĴĭ": 8067,
      "ç®ĢçŁŃçļĦ": 8068,
      "ä»İæĿ¥": 8069,
      "ä¸¤æ¬¡": 8070,
      "ä¸ŃåĽ½å¤§éĻĨçļĦ": 8071,
      "å¸ĤåĮº": 8072,
      "çĶµåŃĲè®¾å¤ĩ": 8073,
      "åĶ±æŃĮ": 8074,
      "å¾Īé«ĺåħ´": 8075,
      "æĢĢçĸĳ": 8076,
      "ç§įæĹı": 8077,
      "äºĮä¸ĸ": 8078,
      "å¿½çĦ¶": 8079,
      "ä¸Ģç¯ĩåħ³äºİ": 8080,
      "çº§åĪ«": 8081,
      "äººæīį": 8082,
      "æī¿è¯º": 8083,
      "æıĲåīį": 8084,
      "å¯ŀ": 8085,
      "åı¥åŃĲä¸ŃçļĦ": 8086,
      "ound": 8087,
      "éĩĩåıĸæİªæĸ½": 8088,
      "çĶ±äººå·¥å¼ķç§įæł½åŁ¹": 8089,
      "ä»¥ä¸ĭæĸĩæľ¬": 8090,
      "åĲ¯åıĳ": 8091,
      "éĴĵ": 8092,
      "éľĢè¦ģæĽ´å¤ļçļĦ": 8093,
      "å¤ıå¨ģ": 8094,
      "å¾Īå°ĳ": 8095,
      "çļĦæĹ¶": 8096,
      "çªĥ": 8097,
      "ç½ĳç»ľå®īåħ¨": 8098,
      "å¤ıå¨ģå¤·": 8099,
      "ä»¥ä¸ĬçļĦ": 8100,
      "çĽ¸éģĩ": 8101,
      "æ¦Ħ": 8102,
      "çĶŁæ°Ķ": 8103,
      "çļĦä¸Ń": 8104,
      "å¤©åłĤ": 8105,
      "ãģĦ": 8106,
      "ä¿©": 8107,
      "èĭıæł¼åħ°": 8108,
      "ä¸½èİİ": 8109,
      "çİ¯ä¿ĿçļĦ": 8110,
      "ä¸Ģæľ¬": 8111,
      "æķĮäºº": 8112,
      "èĩŃ": 8113,
      "æĺ¥èĬĤ": 8114,
      "æĭĮ": 8115,
      "è½°": 8116,
      "æıĲåĲį": 8117,
      "ä¸¤ä¸ªäºº": 8118,
      "na": 8119,
      "å»ºæ¨¡": 8120,
      "è¥Ħ": 8121,
      "ç±³å°Ķ": 8122,
      "Ġad": 8123,
      "è¿Ļç§įæĬĢæľ¯": 8124,
      "ä½łè¦ģ": 8125,
      "æĪĳä»¬å¿ħé¡»": 8126,
      "æİĪäºĪ": 8127,
      "æĿİæĺİ": 8128,
      "ä»ĸè¢«": 8129,
      "ä½ıå®ħ": 8130,
      "åĴĮçłĶç©¶": 8131,
      "çļĦé£İæł¼": 8132,
      "é¢ł": 8133,
      "çŃīä¿¡æģ¯": 8134,
      "è¡Įèµ°": 8135,
      "æ´»åĬ¨çļĦ": 8136,
      "ç¬ĳéģĵ": 8137,
      "éľľ": 8138,
      "çĶ±æŃ¤": 8139,
      "æĸĩä¸Ń": 8140,
      "åĩłåįģå¹´": 8141,
      "å¹³çŃī": 8142,
      "very": 8143,
      "è´µæĹı": 8144,
      "ä¾¿æĺ¯": 8145,
      "éĢīé¡¹ä¸ŃéĢīæĭ©": 8146,
      "ç»Ļå®ļçļĦä¸Ģ": 8147,
      "çļĦåĳ³éģĵ": 8148,
      "æĻĥ": 8149,
      "ç¥¸": 8150,
      "æĪĲä¸Ģä¸ª": 8151,
      "ç§ĳåŃ¦çłĶç©¶": 8152,
      "ä¸įåıĺ": 8153,
      "è¯ı": 8154,
      "æĪªèĩ³": 8155,
      "çī¹æľī": 8156,
      "æĹģè¾¹": 8157,
      "æĶ¾åħ¥": 8158,
      "ä¾įéĥİ": 8159,
      "NBA": 8160,
      "çĽ®åīįå°ļæľª": 8161,
      "ä»£çĲĨ": 8162,
      "ä¼ļå½±åĵį": 8163,
      "æĺ¯ä¸Ģä¸ªéĿŀå¸¸": 8164,
      "èĲ¥åħ»ç´ł": 8165,
      "èģĮåĬ¡": 8166,
      "åĿª": 8167,
      "åıĤä¸İèĢħ": 8168,
      "æķħäºĭæĥħèĬĤ": 8169,
      "è¯Ńæ³ķåĴĮ": 8170,
      "å©´åĦ¿": 8171,
      "ä½ĨçĶ±äºİ": 8172,
      "Ġ5": 8173,
      "ä¸ºæĪĳ": 8174,
      "æĥ¨": 8175,
      "çĶµå½±è¯Ħè®º": 8176,
      "æª¬": 8177,
      "æ³°åĿ¦å°¼åħĭ": 8178,
      "åħ¬å¹³": 8179,
      "èĵĿèī²çļĦ": 8180,
      "åıĳéŁ³": 8181,
      "åĲ¬å¾Ĺ": 8182,
      "éļıçĿĢæĹ¶éĹ´çļĦ": 8183,
      "éĢļéģĵ": 8184,
      "æĸ°åħ´": 8185,
      "å¹¿éĺĶ": 8186,
      "åı¯æĮģç»ŃæĢ§": 8187,
      "ä¸ºçĶ¨æĪ·": 8188,
      "å¤±ä¸ļ": 8189,
      "æĹ¶ä»£çļĦ": 8190,
      "ĠæıĲä¾Ľ": 8191,
      "å¤įæĿĤåº¦": 8192,
      "ãĢįãĢģãĢĮ": 8193,
      "1950": 8194,
      "çļĦåģ¥åº·": 8195,
      "çıĬçĳļ": 8196,
      "ä»¥ä¸ĭæ®µèĲ½": 8197,
      "ä¸ºæŃ¤": 8198,
      "çŃīä»»åĬ¡": 8199,
      "æ¸ħæĸ°": 8200,
      "ä¿¡å¿ĥ": 8201,
      "æ³°åĿ¦å°¼åħĭåı·": 8202,
      "åħ¶åľ¨": 8203,
      "ä»ªå¼ı": 8204,
      "æĦıå¿Ĺ": 8205,
      "æĸ°æ¬¾": 8206,
      "ä¸Ńå±±": 8207,
      "åķĨäºº": 8208,
      "çļĦçĿ¡çľł": 8209,
      "å½»åºķ": 8210,
      "æĢ»çĲĨ": 8211,
      "æĦģ": 8212,
      "Wh": 8213,
      "èĢĮæĿ¥": 8214,
      "ç¹ģèį£": 8215,
      "æĦıæĢĿæĺ¯": 8216,
      "åħ´å»º": 8217,
      "åĿĩåĮĢ": 8218,
      "JR": 8219,
      "Sp": 8220,
      "åħ¨èº«": 8221,
      "åŁºç¡Ģè®¾æĸ½": 8222,
      "çļĦåħī": 8223,
      "æŃ¤ç«Ļ": 8224,
      "åĵģçīĮçļĦ": 8225,
      "ä¸ĭè¾ĸçļĦä¸Ģä¸ª": 8226,
      "åĳµ": 8227,
      "å¤ĸå¥Ĺ": 8228,
      "çĶĺèĤĥ": 8229,
      "ä¼ĺéĽħ": 8230,
      "æŁłæª¬": 8231,
      "çļĦæİĴæĶ¾": 8232,
      "ä¸Ģé¢Ĺ": 8233,
      "æĿ¥ç¡®å®ļ": 8234,
      "ç¥ł": 8235,
      "åħĭéĩĮæĸ¯": 8236,
      "åĴĮæĽ´": 8237,
      "è¯Ńè¨ĢçļĦ": 8238,
      "æĶ¶è´Ń": 8239,
      "æľįåĬ¡åĳĺ": 8240,
      "æĬķèµĦèĢħ": 8241,
      "æ¨¡åŀĭè¿Ľè¡Į": 8242,
      "åŃ¦å£«": 8243,
      "éħįå¤ĩ": 8244,
      "è¸¢": 8245,
      "å¸ĥå±Ģ": 8246,
      "å¤§åİ¦": 8247,
      "å°±è¦ģ": 8248,
      "éĶĻè¯¯çļĦ": 8249,
      "æĥħæĻ¯": 8250,
      ");": 8251,
      "çģ¯åħī": 8252,
      "æľīåı¯èĥ½": 8253,
      "ç»Łè®¡åŃ¦": 8254,
      "ä¸īäºº": 8255,
      "æľīä¸Ģæ¬¡": 8256,
      "çľ¼åīį": 8257,
      "å°Ķåħ°": 8258,
      "ä¸İæŃ¤": 8259,
      "æł¹æį®æıĲä¾ĽçļĦ": 8260,
      "ç¼ħçĶ¸": 8261,
      "é©¬æĸ¯": 8262,
      "èĸ¯": 8263,
      "è¿ľçļĦ": 8264,
      "ä½ıåľ¨": 8265,
      "é¥²": 8266,
      "çķĮçļĦ": 8267,
      "æ©Ļèī²": 8268,
      "56": 8269,
      "urn": 8270,
      "à½": 8271,
      "åĴĮåĪĽæĸ°": 8272,
      "å®ŀåľ¨": 8273,
      "æĸĩç«łçļĦ": 8274,
      "å··": 8275,
      "LE": 8276,
      "Sh": 8277,
      "å¸ĥæĭī": 8278,
      "çĶŁæ´»ä¹łæĢ§": 8279,
      "æ·ĩ": 8280,
      "ç²¹": 8281,
      "é«ĺéĢŁåħ¬è·¯": 8282,
      "ä¸Ńå¼ı": 8283,
      "éļ¾é¢ĺ": 8284,
      "mer": 8285,
      "èģļéĽĨ": 8286,
      "èĦĬæ¤İ": 8287,
      "äººæķ°": 8288,
      "è¶ĬæĿ¥è¶Ĭå¤ļçļĦäºº": 8289,
      "åĲµ": 8290,
      "è°ĥåĳ³": 8291,
      "åĴĸåķ¡åĽł": 8292,
      "ier": 8293,
      "åĳ½åĲįä¸º": 8294,
      "æľªæĿ¥åıĳå±ķ": 8295,
      "ç²īä¸Ŀ": 8296,
      "èµ°è¿Ľ": 8297,
      "åĽ½åĬ¡": 8298,
      "æ²¿æµ·": 8299,
      "å»ºåĪ¶": 8300,
      "å¯¹åħ¶è¿Ľè¡Į": 8301,
      "éĥ½æ²¡æľī": 8302,
      "æ²Ļåıĳ": 8303,
      "æ³Į": 8304,
      "çĶŁéķ¿äºİæµ·æĭĶ": 8305,
      "çļĦäºĭ": 8306,
      "åıĺæĪĲäºĨ": 8307,
      "ä¼ģé¹ħ": 8308,
      "æĶ¶çĽĬ": 8309,
      "åĵĩ": 8310,
      "ãĥ¼": 8311,
      "åįłé¢Ĩ": 8312,
      "äººå¿ĥ": 8313,
      "æľĢè¿ĳçļĦ": 8314,
      "ä¸»äºĭ": 8315,
      "è¿Ļä¸ªæķħäºĭ": 8316,
      "ä¸ºä½ķ": 8317,
      "åªļ": 8318,
      "æ²³éģĵ": 8319,
      "ä¼ļè¯ķ": 8320,
      "å·²ç»ıè¢«": 8321,
      "ç±³çļĦåľ°åĮº": 8322,
      "åĴĮå¤§": 8323,
      "åŃ¦ä¹łç¼ĸç¨ĭ": 8324,
      "åĳ¼åĲģ": 8325,
      "æĿ¨è¿ĩ": 8326,
      "çĽ´èĩ³": 8327,
      "ä¸¤ä¸ªåı¥åŃĲ": 8328,
      "ä»ĸä¸İ": 8329,
      "è¿Ļä¸ªæĸĩæľ¬": 8330,
      "HT": 8331,
      "äºļçĽ®": 8332,
      "åĳ¨åĽ´çļĦ": 8333,
      "æľīæ²¡æľī": 8334,
      "ä¹ŁéĿŀå¸¸": 8335,
      "èĻļæŀĦ": 8336,
      "èĤ¡ä»½": 8337,
      "ç»ıåİĨäºĨ": 8338,
      "æľĢé«ĺçļĦ": 8339,
      "äººèĦ¸è¯ĨåĪ«": 8340,
      "æĿİåĽĽ": 8341,
      "å¹½é»ĺ": 8342,
      "88": 8343,
      "åľºä¸Ĭ": 8344,
      "åĽ½ä¼ļ": 8345,
      "èĪŁ": 8346,
      "éļ§": 8347,
      "åĴĮæıĲé«ĺ": 8348,
      "è¡Įäºº": 8349,
      "å®ŀçİ°äºĨ": 8350,
      "éĥ¨çļĦ": 8351,
      "ç»Ļåĩºä½łçļĦ": 8352,
      "ä¿ĿæĬ¤æĪĳä»¬çļĦ": 8353,
      "ä¸Ģåı¥": 8354,
      "ä»İç»Ļå®ļçļĦ": 8355,
      "è¤Ĳèī²": 8356,
      "åıªå¥½": 8357,
      "åŀĥåľ¾åĪĨç±»": 8358,
      "è°ĥçĶ¨": 8359,
      "ä¹¡æĿĳ": 8360,
      "åĩºéģĵ": 8361,
      "çļĦè¡¨çİ°": 8362,
      "ä¸įè¶ħè¿ĩ": 8363,
      "çļĦåĦ¿åŃĲ": 8364,
      "æĪĳçĽ¸ä¿¡": 8365,
      "éĢļå¸¸è¢«": 8366,
      "æĸ¯å¡Ķ": 8367,
      "è®®éĻ¢": 8368,
      "çİĩé¢Ĩ": 8369,
      "ä¿ĿæĮģèº«ä½ĵåģ¥åº·": 8370,
      "å¹³æĸ¹åįĥç±³": 8371,
      "è¯·åĽŀçŃĶä¸ĭéĿ¢çļĦéĹ®é¢ĺ": 8372,
      "åĴĮä¿¡æģ¯": 8373,
      "atural": 8374,
      "å®Įç¾İçļĦ": 8375,
      "å£«åħµ": 8376,
      "çļĦè¯Ŀé¢ĺ": 8377,
      "æľīä»·åĢ¼": 8378,
      "You": 8379,
      "æ¨¡åŀĭæĿ¥": 8380,
      "å¤įåĲĪ": 8381,
      "çĶŁæĪĲä¸Ģæ®µ": 8382,
      "æĪĳæĹłæ³ķ": 8383,
      "ä¸Ĭå¸Ĥ": 8384,
      "ä»ĸäººçļĦ": 8385,
      "è®°ä½ı": 8386,
      "ä»ķ": 8387,
      "çļĦå¥½å¤Ħ": 8388,
      "ç²¾èĩ´": 8389,
      "æĻºåĬĽ": 8390,
      "äººéĻħåħ³ç³»": 8391,
      "æľĢå¤ļ": 8392,
      "atch": 8393,
      "çĭ¬ç«ĭçļĦ": 8394,
      "åĮĪ": 8395,
      "ä¸ŃåĽ½äººæ°ĳ": 8396,
      "çº§çļĦ": 8397,
      "èĥĢ": 8398,
      "ä¼ģä¸ļçļĦ": 8399,
      "èĨ³": 8400,
      "åģ¿": 8401,
      "1992": 8402,
      "å°Ķçī¹": 8403,
      "ä¿®å»º": 8404,
      "èĢĮéĿŀ": 8405,
      "æĪĳå·²ç»ı": 8406,
      "erv": 8407,
      "æĿ¡çº¦": 8408,
      "éĩĳå±±": 8409,
      "å¸Ĩ": 8410,
      "å¸®æĪĳçĶŁæĪĲ": 8411,
      "ç¥ĸåħĪ": 8412,
      "æ¿ĢåĬ¨": 8413,
      "æ¨¡ç³Ĭ": 8414,
      "èī²åĪĹ": 8415,
      "Ġac": 8416,
      "éŁ³ä¹ĲçļĦ": 8417,
      "éģĩè§ģ": 8418,
      "å¤§å£°": 8419,
      "åı¯è§ĨåĮĸ": 8420,
      "åħ¶ä½Ļ": 8421,
      "è¿Ĳç®Ĺ": 8422,
      "è´¢æĶ¿": 8423,
      "æĥ©": 8424,
      "åĲİæľŁ": 8425,
      "æīįåįİ": 8426,
      "åı¸æľº": 8427,
      "è¦ģç´ł": 8428,
      "åĪĽæĸ°åĴĮ": 8429,
      "åĭ¾": 8430,
      "yst": 8431,
      "å°¤åħ¶æĺ¯åľ¨": 8432,
      "äººå·¥æĻºèĥ½æĺ¯ä¸Ģç§į": 8433,
      "ä¹Łç§°ä¸º": 8434,
      "çļĦåŃ¦ä¹ł": 8435,
      "æĢ»çĿ£": 8436,
      "åĪ¶çļĦ": 8437,
      "èĵ¬": 8438,
      "æĳĩæ»ļ": 8439,
      "åĩłä½ķ": 8440,
      "æĹħæ¸¸æĻ¯çĤ¹": 8441,
      "AN": 8442,
      "è¿½è¸ª": 8443,
      "ä¾ĭåŃĲä¸Ń": 8444,
      "åģļäºĨ": 8445,
      "çļĦä¸Ģé¡¹": 8446,
      "èº«é«ĺ": 8447,
      "è¾ĥé«ĺçļĦ": 8448,
      "çĥ¯": 8449,
      "çĹħäºº": 8450,
      "èĤ¥èĥĸ": 8451,
      "æĮ«æĬĺ": 8452,
      "åīįéĿ¢": 8453,
      "ä¸ľåįĹéĥ¨": 8454,
      "ä½¿è®¡ç®Ĺæľºèĥ½å¤Ł": 8455,
      "ä½įäºİæ³ķåĽ½": 8456,
      "æĶ¿åºľåĴĮ": 8457,
      "ç¾İåĽ½çļĦ": 8458,
      "42": 8459,
      "æŃ£åĪĻ": 8460,
      "é¸¿": 8461,
      "ä»¤çĭĲ": 8462,
      "åĪĨå¸ĥå¼ı": 8463,
      "æķ°åįģ": 8464,
      "åĴĮé¢Ħæµĭ": 8465,
      "éĢ¸": 8466,
      "æīĵçł´": 8467,
      "èĢĮè¨Ģä¹ĭ": 8468,
      "ä¸½çļĦ": 8469,
      "è¿ĻäºĽæķ°æį®": 8470,
      "oph": 8471,
      "ç»ıåħ¸çļĦ": 8472,
      "ä¸Ģéĥ¨åĪĨ": 8473,
      "Ġdog": 8474,
      "è¡Įä¸ļçļĦ": 8475,
      "æĢĿè·¯": 8476,
      "åľ°è´¨": 8477,
      "ä¸İäººç±»": 8478,
      "åĲĮåŃ¦ä»¬": 8479,
      "æľ´ç´łè´Ŀåı¶æĸ¯": 8480,
      "åħ³æ³¨åĴĮ": 8481,
      "æĢĿèĢĥåĴĮ": 8482,
      "ä»Ĩ": 8483,
      "åĴĮæĪĳ": 8484,
      "æ¨¡åŀĭçļĦæĢ§èĥ½": 8485,
      "åĲİèĢħ": 8486,
      "ä¸įå¿ħè¦ģçļĦ": 8487,
      "æ±īåŃĹ": 8488,
      "æ²®": 8489,
      "åľ°å¸¦": 8490,
      "ium": 8491,
      "å¥¥åľ°": 8492,
      "æ²Ļæĭī": 8493,
      "çīĩæ®µ": 8494,
      "è°ľ": 8495,
      "ç«¥å¹´": 8496,
      "åĺĽ": 8497,
      "ç¨ĭåº¦ä¸Ĭ": 8498,
      "åĳ½åĲįå®ŀä½ĵè¯ĨåĪ«": 8499,
      "æĸ°çĸĨ": 8500,
      "çĮ©": 8501,
      "æįŁå®³": 8502,
      "å¸¸çĶ¨": 8503,
      "æķ²": 8504,
      "ç¾İå¦Ļ": 8505,
      "æĹ¥æ²»": 8506,
      "è¿ĻåĮħæĭ¬": 8507,
      "Ġ+": 8508,
      "æķĻå®¤": 8509,
      "earning": 8510,
      "iel": 8511,
      "çļĦæĢ§èĥ½": 8512,
      "æĽ´åĲįä¸º": 8513,
      "å¤ĸåĽ½": 8514,
      "ä¸¤èĢħ": 8515,
      "åĬłæ²¹": 8516,
      "ç«ĭæ³ķ": 8517,
      "æŃ»åĲİ": 8518,
      "æīĵåĩ»": 8519,
      "çľģçļĦä¸Ģä¸ªå¸Ĥéķĩ": 8520,
      "é£İåĲ¹": 8521,
      "èªĵ": 8522,
      "Ġç¡®å®ļ": 8523,
      "æĹĹä¸ĭ": 8524,
      "ç±»çļĦ": 8525,
      "å¯¹åºĶ": 8526,
      "è§Ĥèµı": 8527,
      "python": 8528,
      "å¯Ĥå¯ŀ": 8529,
      "ä¹ĲåĻ¨": 8530,
      "çļĦæķĪæŀľ": 8531,
      "åı¯çĶ¨": 8532,
      "æİ©": 8533,
      "ä¿Ŀç½Ĺ": 8534,
      "own": 8535,
      "com": 8536,
      "è¿Ļæ®µè¯Ŀ": 8537,
      "çģ«ç®Ń": 8538,
      "çĤ¹åĩ»": 8539,
      "ä¸ĸçķĮæĿ¯": 8540,
      "å²Ĺä½į": 8541,
      "co": 8542,
      "çŃĴ": 8543,
      "è£¹": 8544,
      "æĢİä¹ĪåĬŀ": 8545,
      "éģŃåıĹ": 8546,
      "çŁ³æ²¹": 8547,
      "æ»¡äºĨ": 8548,
      "çī©ä½ĵçļĦ": 8549,
      "é£İéĽ¨": 8550,
      "æĺ¯ä¸Ģç§įéĿŀå¸¸": 8551,
      "rown": 8552,
      "åĲĥäºĨ": 8553,
      "ä½ľèĢħå¯¹": 8554,
      "ĠåĪ¶å®ļ": 8555,
      "å¥ł": 8556,
      "çĲĨäºĭ": 8557,
      "å¸Ĥéķ¿": 8558,
      "èĸĩ": 8559,
      "ese": 8560,
      "çĽ®æłĩåĴĮ": 8561,
      "é¡¹çĽ®çļĦ": 8562,
      "äºļåİĨå±±": 8563,
      "ç¼ºå¤±": 8564,
      "æĽ´æį¢": 8565,
      "å®¶åĴĮ": 8566,
      "åŃĲä¸Ĭ": 8567,
      "æļ´åĬĽ": 8568,
      "åĨĻçļĦ": 8569,
      "æĸĩæ¡ĪçĶŁæĪĲ": 8570,
      "æ½ľåľ¨çļĦ": 8571,
      "ãĢĤ(": 8572,
      "çĽ®åīįå°ļæľªçĶ±äººå·¥å¼ķç§įæł½åŁ¹": 8573,
      "æ¯ħ": 8574,
      "èĥ½åĬĽçļĦ": 8575,
      "åħ¬åĽŃéĩĮ": 8576,
      "æ·Ģ": 8577,
      "åĪĴåĪĨ": 8578,
      "æĽ´æ·±åħ¥": 8579,
      "è¾ĥå¤§": 8580,
      "å´ĸ": 8581,
      "æĽ´å¿«åľ°": 8582,
      "æĬĬå®ĥ": 8583,
      "æ©Ħ": 8584,
      "ä»ĳ": 8585,
      "åĲ¸å¼ķåĬĽ": 8586,
      "eng": 8587,
      "å®°": 8588,
      "ç¥¯": 8589,
      "åħ¨çĲĥæ°ĶåĢĻåıĺåĮĸ": 8590,
      "1970": 8591,
      "éĥ¨èĲ½": 8592,
      "çļĦä»·æł¼": 8593,
      "æł¹æį®é¢ĺçĽ®åĴĮ": 8594,
      "å¤§è¥¿æ´ĭ": 8595,
      "éĢļå¸¸éľĢè¦ģ": 8596,
      "èĬ¦": 8597,
      "å¦ĩå¥³": 8598,
      "æĹ©å·²": 8599,
      "åĩºéĹ¨": 8600,
      "æĶ¶èİ·": 8601,
      "ä»Ĭå¤©çļĦ": 8602,
      "ä¸ĭéĿ¢çļĦæĸĩæľ¬": 8603,
      "éĺ»æŃ¢": 8604,
      "ĠSh": 8605,
      "è¶³çĲĥè¿ĲåĬ¨åĳĺ": 8606,
      "ä¸ĭæĸĩä¸ŃçļĦåħ³éĶ®è¯į": 8607,
      "ript": 8608,
      "æķıæį·": 8609,
      "ä¸»å¼ł": 8610,
      "éĢīæĭ©åĲĪéĢĤçļĦ": 8611,
      "èĪĴæľį": 8612,
      "æĿĥåĬĽ": 8613,
      "44": 8614,
      "åĲĬ": 8615,
      "éĺ²å¾¡": 8616,
      "å¾Ĺå¾Ī": 8617,
      "åįģåĽĽ": 8618,
      "æĶ¶åĪ°": 8619,
      "å½±åĵįåĬĽ": 8620,
      "çĶµåŃĲäº§åĵģ": 8621,
      "æĭ¨": 8622,
      "å°ĨæĪĲä¸º": 8623,
      "è¡¨è¾¾æĸ¹å¼ı": 8624,
      "åİŁåĪĽ": 8625,
      "å®¶åĽŃ": 8626,
      "åĶ¯ä¸ĢçļĦ": 8627,
      "åĬłåĪ©ç¦ıå°¼äºļå·ŀ": 8628,
      "å¹¿ä¸ľçľģ": 8629,
      "1993": 8630,
      "æŃ£éĿ¢çļĦ": 8631,
      "åĩıèĤ¥": 8632,
      "æŁ¿": 8633,
      "æĪĳä»¬åı¯ä»¥éĢļè¿ĩ": 8634,
      "çĶŁçī©å¤ļæł·æĢ§": 8635,
      "å°ıæĹ¶åĢĻ": 8636,
      "æĪ·å¤ĸæ´»åĬ¨": 8637,
      "æĪĺåĲİ": 8638,
      "ç¼ĵæħ¢": 8639,
      "æĮĩæķ°": 8640,
      "çģµéŃĤ": 8641,
      "çĽ¸åºĶ": 8642,
      "çĮ´åŃĲ": 8643,
      "æĸ¹è¨Ģ": 8644,
      "åŁĥå°Ķ": 8645,
      "1991": 8646,
      "æįķæįī": 8647,
      "åĽłæŃ¤åı¯ä»¥": 8648,
      "åľ¨ä¸įåĲĮ": 8649,
      "éħª": 8650,
      "ĠX": 8651,
      "æ¬ºè¯Ī": 8652,
      "åķ¦åķ¦": 8653,
      "åºĶçĶ¨åľºæĻ¯": 8654,
      "æİĪæĿĥ": 8655,
      "å¹¶è¢«": 8656,
      "åĬłå¿«": 8657,
      "æīĭä¸Ń": 8658,
      "æµģæµª": 8659,
      "æ¤įçī©çļĦ": 8660,
      "æĬĹæ°§åĮĸ": 8661,
      "æĿİçĻ½": 8662,
      "ool": 8663,
      "åħĨ": 8664,
      "use": 8665,
      "ä¿®é¥°": 8666,
      "æ½Ń": 8667,
      "éĩįçļĦ": 8668,
      "æµĵåº¦": 8669,
      "åı¯ä»¥å¯¹": 8670,
      "çĶ·å¥³": 8671,
      "åĩºæ¼Ķ": 8672,
      "çĭ©": 8673,
      "æ©Ħæ¦Ħ": 8674,
      "åħīçļĦ": 8675,
      "çĹ´": 8676,
      "éļıçĿĢæĹ¶éĹ´çļĦæİ¨ç§»": 8677,
      "éĵħ": 8678,
      "ä¸Ńåįİäººæ°ĳåħ±åĴĮåĽ½æĶ¿æ²»äººçī©": 8679,
      "ä¸Ģéģį": 8680,
      "æŀģæĢ§": 8681,
      "çº·çº·": 8682,
      "æĺ¯èĭ±åĽ½": 8683,
      "ðŁĳ": 8684,
      "Ã¡": 8685,
      "èįĨ": 8686,
      "æģ¶æĦı": 8687,
      "åľ¨æĪĳçļĦ": 8688,
      "åı¯ä»¥è¢«å½Ĵç±»ä¸º": 8689,
      "ä¸ĸçķĮä¸ĬæľĢé«ĺçļĦå±±å³°": 8690,
      "è¯ĨåĪ«åĩºæĸĩæľ¬ä¸ŃçļĦåħ³éĶ®è¯į": 8691,
      "æŃ¦ä¾łå°ıè¯´": 8692,
      "achine": 8693,
      "è¿ĩå¤ļ": 8694,
      "æĺ¯çĶ±äºİ": 8695,
      "æ¸Ĭ": 8696,
      "æĽ´åħ·": 8697,
      "æĺ¯æľī": 8698,
      "åī§éĻ¢": 8699,
      "è¯´çļĦ": 8700,
      "éļĭ": 8701,
      "ä¸İäºº": 8702,
      "éĤ®æĶ¿": 8703,
      "åįķè¯įçļĦ": 8704,
      "åĹ£": 8705,
      "èµĦæľ¬": 8706,
      "éĥİä¸Ń": 8707,
      "å§¿åĬ¿": 8708,
      "éĻĨåľ°": 8709,
      "åħ¶ä¸»è¦ģ": 8710,
      "éļıçĿĢæĬĢæľ¯çļĦ": 8711,
      "Mar": 8712,
      "åī§æľ¬": 8713,
      "å®ģéĿĻ": 8714,
      "å®ĺèĩ³": 8715,
      "è§£æĶ¾åĨĽ": 8716,
      "æĬĸ": 8717,
      "è¯ŃçļĦ": 8718,
      "ung": 8719,
      "è¿Ľè¡ĮçļĦ": 8720,
      "è¿ľç¦»": 8721,
      "ä½ľæĸĩçĶŁæĪĲ": 8722,
      "ĠLearning": 8723,
      "æĬĵä½ı": 8724,
      "æĭ¯": 8725,
      "æĭ¾": 8726,
      "æĺ¯åŁºäºİ": 8727,
      "ä¹ĺåĿĲ": 8728,
      "å®ĩèĪªåĳĺ": 8729,
      "çĶ«": 8730,
      "çĪ¬è¡Į": 8731,
      "be": 8732,
      "å°ıéķĩ": 8733,
      "ç»Ĩèħ»": 8734,
      "å°¼è¥¿äºļ": 8735,
      "æŃ¦å¸Ŀ": 8736,
      "å¹³æĸ¹ç±³": 8737,
      "åĽ°å¢ĥ": 8738,
      "åĽ½éĺ²": 8739,
      "åĴĮæµ·": 8740,
      "',": 8741,
      "éģŃéģĩ": 8742,
      "ä»¥æ»¡è¶³": 8743,
      "ä¹Łæ²¡": 8744,
      "åıįå¤į": 8745,
      "ä¸Ģä¸ªäººçļĦ": 8746,
      "çĪ±å°Ķåħ°": 8747,
      "ĠTr": 8748,
      "ĠæıĲé«ĺ": 8749,
      "ank": 8750,
      "çĶ¨è¯į": 8751,
      "ä¼¤å¿ĥ": 8752,
      "çłĶç©¶åıĳçİ°": 8753,
      "æĳĦåĥı": 8754,
      "èĳ¡èĲĦçīĻ": 8755,
      "èı²å°Ķ": 8756,
      "çĽ´éļ¶": 8757,
      "æĭ±": 8758,
      "å¼Ģè®¾": 8759,
      "ä¸ŃåĽ½åħ±äº§åħļ": 8760,
      "æĪĸä¸į": 8761,
      "é»Ħèī²çļĦ": 8762,
      "éĵ¶æ²³": 8763,
      "æĺ¯ä½įäºİç¾İåĽ½": 8764,
      "æĸĩåĮĸéģĹäº§": 8765,
      "Facebook": 8766,
      "å°Ĩç»§ç»Ń": 8767,
      "åĽŀæĬ¥": 8768,
      "CD": 8769,
      "å°ıçĮ«": 8770,
      "1960": 8771,
      "AM": 8772,
      "å®¹éĩı": 8773,
      "éĢļçĶ¨": 8774,
      "å¸ĪèĮĥ": 8775,
      "æ°´æŀľåĴĮ": 8776,
      "éļ§éģĵ": 8777,
      "å¯¹æĸĩæľ¬": 8778,
      "ä¸ĩç¾İåħĥ": 8779,
      "åľ¨ä½¿çĶ¨": 8780,
      "æĬĳåĪ¶": 8781,
      "éŀĭåŃĲ": 8782,
      "TV": 8783,
      "æĲħ": 8784,
      "é©¬æĭīéĽħ": 8785,
      "æ¶Īè´¹èĢħçļĦ": 8786,
      "æ³Ħéľ²": 8787,
      "çĶŁæ´»ä¹łæĢ§ä¸įæĺİ": 8788,
      "å¦ĸ": 8789,
      "Ġpr": 8790,
      "å¼ıæľĪåı°": 8791,
      "ĠãĢĬ": 8792,
      "æĢ»ä¼ļ": 8793,
      "ex": 8794,
      "çŃīäºİ": 8795,
      "æķ°æį®ä¸ŃçļĦ": 8796,
      "æ°Ķæģ¯": 8797,
      "å·´å·´": 8798,
      "ç»ĵå°¾": 8799,
      "æĮª": 8800,
      "è¡Įä¸ºåĴĮ": 8801,
      "çļĦéĥ¨åĪĨ": 8802,
      "æ·±åĳ¼åĲ¸": 8803,
      "sp": 8804,
      "ç²¤": 8805,
      "è¯·æıĲä¾Ľ": 8806,
      "åĴĮä½ł": 8807,
      "æĿ¡ä»¶ä¸ĭ": 8808,
      "58": 8809,
      "ä¼ļåĳĺ": 8810,
      "ç¢Į": 8811,
      "ä»Ģä¹Īæĺ¯äººå·¥æĻºèĥ½": 8812,
      "å½Ĵä¸º": 8813,
      "å®ŀè¡Į": 8814,
      "Ġres": 8815,
      "ç»ĵæĿŁåĲİ": 8816,
      "ä»¥èī²åĪĹ": 8817,
      "ç»Ļå®ļæĸĩæľ¬": 8818,
      "èĤĸçĶ³": 8819,
      "å¼ķçĶ¨": 8820,
      "åŁºåĽłç»Ħ": 8821,
      "åİ»å¹´": 8822,
      "è½¬åŀĭ": 8823,
      "çģ¿": 8824,
      "è¯ĬæĸŃåĴĮæ²»çĸĹ": 8825,
      "åı¯è¡Į": 8826,
      "æĸ¯èĴĤ": 8827,
      "æĸ©": 8828,
      "äººåĬĽ": 8829,
      "å¤§å¤ļ": 8830,
      "æ¿Ĵ": 8831,
      "çļĦä¸ī": 8832,
      "49": 8833,
      "ç»ĳ": 8834,
      "åľ¨ä¸įåĲĮçļĦ": 8835,
      "è¿Ļä¸ªè¿ĩç¨ĭ": 8836,
      "ä¸ľåĮĹéĥ¨": 8837,
      ").": 8838,
      "ä¼ļä¸Ĭ": 8839,
      "ĠAr": 8840,
      "çŃĭ": 8841,
      "åľ¨æĹ¥æľ¬": 8842,
      "é¦ĸå¸Ń": 8843,
      "åĲīä»ĸ": 8844,
      "åĴĮæĶ¹è¿Ľ": 8845,
      "äºĶæľĪ": 8846,
      "éº¦åħĭ": 8847,
      "ç¼Ģ": 8848,
      "Ġé¥°": 8849,
      "ater": 8850,
      "Ġint": 8851,
      "å¼¯æĽ²": 8852,
      "è¯´æĺ¯": 8853,
      "åĲ¸çĥŁ": 8854,
      "Ġent": 8855,
      "å®¢äºº": 8856,
      "æĿ¥åĪ°äºĨ": 8857,
      "å¯¹æŃ¤": 8858,
      "åĸľé©¬æĭīéĽħ": 8859,
      "å®īåħ¨çļĦ": 8860,
      "æĿ¥å®ĮæĪĲ": 8861,
      "åįĩèµ·": 8862,
      "åĲĮåĲį": 8863,
      "å¤ĸæĺŁ": 8864,
      "æ°ĳä¼Ĺ": 8865,
      "é¢Ĩå¯¼èĢħ": 8866,
      "åľ¨ä»¥ä¸ĭ": 8867,
      "æĶ¹æŃ£": 8868,
      "éĢıæ°Ķ": 8869,
      "ç§°ä½ľ": 8870,
      "ä»¥ä¸ĭæĺ¯ä¸Ģä¸ª": 8871,
      "ä¹¦ä¸Ń": 8872,
      "uch": 8873,
      "åı²èĴĤ": 8874,
      "å°¹": 8875,
      "çĤİçĥŃ": 8876,
      "(,)": 8877,
      "çļĦä¸¤": 8878,
      "æīĭåĬ¨": 8879,
      "åĽĽå¤§": 8880,
      "å¤įåĪ¶": 8881,
      "éĩĳéĴ±": 8882,
      "ä¸ºåŁºç¡Ģ": 8883,
      "ä¸ĢåĿĹ": 8884,
      "çļĦåŃĺåľ¨": 8885,
      "åģļåĩºäºĨ": 8886,
      "äº²çİĭ": 8887,
      "åı«éģĵ": 8888,
      "ç§¯ç´¯": 8889,
      "åįģåŃĹ": 8890,
      "ä¸ļç»©": 8891,
      "åĴĮæĸ¹æ³ķ": 8892,
      "å£°æĺİ": 8893,
      "å§ļ": 8894,
      "æ¬¢ä¹Ĳ": 8895,
      "éĢĢä¼ĳ": 8896,
      "åľ¨åĵªéĩĮ": 8897,
      "èĬĤåº¦": 8898,
      "çļĦæĳĦåħ¥": 8899,
      "ä¹ĭä¸Ģæĺ¯": 8900,
      "é¸¦": 8901,
      "çĪ±å¥½èĢħ": 8902,
      "ç«¥è¯Ŀ": 8903,
      "åĵ¥ä¼¦æ¯Ķäºļ": 8904,
      "æĪĳä»¬åı¯ä»¥å°Ĩ": 8905,
      "åĪ¶ä½ľçļĦ": 8906,
      "åĨ°æ·ĩ": 8907,
      "äººæĢ§": 8908,
      "åŀĴ": 8909,
      "æ¨¡åĿĹ": 8910,
      "éķ¿è¾¾": 8911,
      "éľĢè¦ģçļĦ": 8912,
      "åıįè½¬": 8913,
      "æ³¢åĬ¨": 8914,
      "åĸĦäºİ": 8915,
      "åŃĺåľ¨äºİ": 8916,
      "åıĳåĬ¨æľº": 8917,
      "ä¸įå¤ļ": 8918,
      "Ġworld": 8919,
      "æķĪçĽĬ": 8920,
      "åģ¥åº·çĬ¶åĨµ": 8921,
      "æł¹æį®è¾ĵåħ¥": 8922,
      "åĨ·éĿĻ": 8923,
      "åħįçĸ«ç³»ç»Ł": 8924,
      "åı¯ä»¥èĩªåĬ¨": 8925,
      "éĩĩéĽĨ": 8926,
      "çĥŃè¯Ħ": 8927,
      "åı¯èĥ½ä¼ļå¯¹": 8928,
      "æĶ¹åĪ¶ä¸º": 8929,
      "Ð²": 8930,
      "åŃ¦ä¹łçļĦ": 8931,
      "çĭł": 8932,
      "æłĭ": 8933,
      "65": 8934,
      "æķ°ç»Ħ": 8935,
      "æĹłå¿Į": 8936,
      "åħ¬åı¸åľ¨": 8937,
      "æ¬¾å¼ı": 8938,
      "åĽŀåºĶ": 8939,
      "1984": 8940,
      "èķ´": 8941,
      "çŁ©éĺµ": 8942,
      "æķ´åĲĪ": 8943,
      "æ¯Ķçī¹å¸ģ": 8944,
      "ä»»èģĮ": 8945,
      "æīĶ": 8946,
      "éĹ·": 8947,
      "æķĻèĤ²åĴĮ": 8948,
      "ç±»ä¼¼çļĦ": 8949,
      "è¿ĺåİŁ": 8950,
      "çĿ¡çľłè´¨éĩı": 8951,
      "æľĽçĿĢ": 8952,
      "180": 8953,
      "éĩįåĬĽ": 8954,
      "å¸ĥå°Ķ": 8955,
      "Ġhis": 8956,
      "ä¸Ģæł·çļĦ": 8957,
      "ä¼Ĭæĸ¯åħ°": 8958,
      "åĸľæ¬¢åĲĥ": 8959,
      "çķı": 8960,
      "åħĪè¿ĽçļĦ": 8961,
      "æ¸©é¦¨": 8962,
      "çİ¯å¢ĥéĹ®é¢ĺ": 8963,
      "éĺ¿çĶĺ": 8964,
      "åĩĳ": 8965,
      "å¤ıä»¤": 8966,
      "è¿Ļåı¯ä»¥": 8967,
      "å¤§è¡Ĺ": 8968,
      "ä½ĵåĨħ": 8969,
      "æĦŁåĨĴ": 8970,
      "Mac": 8971,
      "Ġstr": 8972,
      "çİĭæĺŁ": 8973,
      "Ġformula": 8974,
      "so": 8975,
      "è§Ĥå¿µ": 8976,
      "èıĩ": 8977,
      "åĪĴåĪĨä¸º": 8978,
      "åĽłæĸ¯åĿ¦": 8979,
      "åĪ«äººçļĦ": 8980,
      "éĩĳåº¸": 8981,
      "åĥıäººç±»": 8982,
      "æŀģäºĨ": 8983,
      "æŁıæŀĹ": 8984,
      "è¿ĺåĮħæĭ¬": 8985,
      "æ¬ł": 8986,
      "åĬŀäºĭ": 8987,
      "èĭ¹æŀľåħ¬åı¸çļĦ": 8988,
      "æķĳèµİ": 8989,
      "èĩªçĦ¶çİ¯å¢ĥ": 8990,
      "æľīä¸Ģç§į": 8991,
      "éĥ¨ä½į": 8992,
      "æĺ¯ä¸º": 8993,
      "æĪĳå¸ĮæľĽ": 8994,
      "åĲĮæĹ¶ä¹Łæĺ¯": 8995,
      "ç¾İåĽ½æĢ»ç»Ł": 8996,
      "æĥĬåĸľ": 8997,
      "è¯´äºĨ": 8998,
      "äºĶåįģ": 8999,
      "æ²īæµ¸": 9000,
      "åĨ°æ·ĩæ·ĭ": 9001,
      "ä¸Ģå®ļä¼ļ": 9002,
      "å±ķçİ°äºĨ": 9003,
      "åħ¶ä¸ŃæľĢ": 9004,
      "å®¶éķ¿": 9005,
      "æĬĬè¿Ļåı¥è¯Ŀ": 9006,
      "èĢĲå¿ĥ": 9007,
      "ç¤¾ä¼ļä¸»ä¹ī": 9008,
      "æŃ¦æ±ī": 9009,
      "å¹´å¤ıåŃ£å¥¥æŀĹåĮ¹åħĭè¿ĲåĬ¨ä¼ļ": 9010,
      "äººç§°": 9011,
      "åĪĨè£Ĥ": 9012,
      "åĮĹæĸ¹": 9013,
      "etw": 9014,
      "çľĭåĩº": 9015,
      "çĶŁæ´»è´¨éĩı": 9016,
      "å°Ĩä»¥ä¸ĭåı¥åŃĲ": 9017,
      "ä¾ĽåºĶéĵ¾": 9018,
      "æ¢µ": 9019,
      "åĨ³å¿ĥ": 9020,
      "éĴł": 9021,
      "rop": 9022,
      "Ġpeople": 9023,
      "1988": 9024,
      "éĤ£ä¸Ģ": 9025,
      "ä¸įä»ħåı¯ä»¥": 9026,
      "èĥ¡èĲĿåįľ": 9027,
      "ä½ĵç§¯": 9028,
      "åĽ½å®¶éĺŁ": 9029,
      "Ġne": 9030,
      "æĢİä¹Īè¯´": 9031,
      "ç«ĭåĪ»": 9032,
      "èļĢ": 9033,
      "æµĳ": 9034,
      "æłĩæľ¬": 9035,
      "éĥ¨çĶµå½±": 9036,
      "åľ°çĲĥä¸ĬçļĦ": 9037,
      "æ¡¥æ¢ģ": 9038,
      "æ¬¡å¹´": 9039,
      "çľĭæĿ¥": 9040,
      "åĥıæĺ¯": 9041,
      "ç§¯æŀģçļĦæĥħæĦŁ": 9042,
      "å°ıé¸Ł": 9043,
      "ç¥Ī": 9044,
      "å¤ļå½©": 9045,
      "æĢĿå¿µ": 9046,
      "æķ°æį®æĮĸæİĺ": 9047,
      "å¸¸è§Ħ": 9048,
      "æī¿åıĹ": 9049,
      "æ²®ä¸§": 9050,
      "éĩįè¦ģçļĦä½ľçĶ¨": 9051,
      "é¼»åŃĲ": 9052,
      "æīĢå±ŀ": 9053,
      "ç¬¬åħ«": 9054,
      "éĤ£å¤©": 9055,
      "ç§¯åĪĨ": 9056,
      "çªĦ": 9057,
      "éªĦ": 9058,
      "æĶ¿åħļ": 9059,
      "åı£ç½©": 9060,
      "åħ¸åŀĭçļĦ": 9061,
      "ä¸Ģè·¯": 9062,
      "çİ¯ä¿ĿæĦıè¯Ĩ": 9063,
      "å¾Īä¹ħ": 9064,
      "æºľ": 9065,
      "åİĭåĬĽåĴĮçĦ¦èĻĳ": 9066,
      "äºĭå®ŀä¸Ĭ": 9067,
      "æĭ¯æķĳ": 9068,
      "ove": 9069,
      "ä¸¸": 9070,
      "æŃ»äºĨ": 9071,
      "åĴĮèµĦæºĲ": 9072,
      "ä¸ĬåįĪ": 9073,
      "æ²¿çĿĢ": 9074,
      "åĽ¢ç»ĵ": 9075,
      "æĥħæĦŁåĴĮ": 9076,
      "è¿ĲåĬ¨åĴĮ": 9077,
      "put": 9078,
      "å¹³æĹ¶": 9079,
      "é¡¾éĹ®": 9080,
      "----": 9081,
      "Ġåĩıå°ĳ": 9082,
      "èľ¥": 9083,
      "ãĥ»": 9084,
      "å¼ĢæĶ¾å¼ı": 9085,
      "ane": 9086,
      "èĥľåľ°": 9087,
      "åĲĪæ³ķ": 9088,
      "å¨¶": 9089,
      "å¦Ĥä½ķæıĲé«ĺ": 9090,
      "çļĦæĥħç»ª": 9091,
      "åĲĪåĲĮ": 9092,
      "è¯ģå®ŀ": 9093,
      "æĪĳåĽ½": 9094,
      "åįķä¸Ģ": 9095,
      "ä½łä¸į": 9096,
      "æ¼Ĩ": 9097,
      "åģıè§ģ": 9098,
      "æ¹ĺ": 9099,
      "ash": 9100,
      "éĵģå¡Ķ": 9101,
      "éľĢè¦ģæł¹æį®": 9102,
      "1989": 9103,
      "éĺª": 9104,
      "ä¼Ĺäºº": 9105,
      "å®½æĿ¾": 9106,
      "åĩºåħ¥åı£": 9107,
      "å®īæħ°": 9108,
      "æķ°åįĥ": 9109,
      "æĹłèģĬ": 9110,
      "ç§ĳçļĦåħ¶ä¸Ńä¸Ģç§į": 9111,
      "Hello": 9112,
      "åĴĮç»´æĬ¤": 9113,
      "åĲİæŀľ": 9114,
      "èĢĮå¼Ĥ": 9115,
      "åľ¨è¿ĻäºĽ": 9116,
      "éļ¾åº¦": 9117,
      "ä¼ĺåħĪçº§": 9118,
      "éĥ¨å°ļä¹¦": 9119,
      "éķ¿æ±Ł": 9120,
      "çİ°ä»Ĭ": 9121,
      "ä»İèĢĮå®ŀçİ°": 9122,
      "æŃĮè¯įçĶŁæĪĲ": 9123,
      "åħ±åĲĮåĬªåĬĽ": 9124,
      "é«ĺäºİ": 9125,
      "å®Ŀçİī": 9126,
      "åİ¿çļĦ": 9127,
      "çļĦäººçĶŁ": 9128,
      "ä¾ĿéĿł": 9129,
      "æħĮ": 9130,
      "æ»¥": 9131,
      "å°Ĭæķ¬çļĦ": 9132,
      "éļıèĳĹ": 9133,
      "æľ¬é±¼": 9134,
      "åİŁåĽłæĺ¯": 9135,
      "ä»ĸæĽ¾ä»£è¡¨": 9136,
      "ä¸Ńæī®æ¼Ķ": 9137,
      "Ġdes": 9138,
      "èĮħ": 9139,
      "ç¢³æ°´": 9140,
      "çĻ¾å§ĵ": 9141,
      "æľīæ°§": 9142,
      "Ġå¯¹": 9143,
      "èīºæľ¯åĵģ": 9144,
      "å®¾è¯Ń": 9145,
      "æµıè§ĪåĻ¨": 9146,
      "æº¢": 9147,
      "Am": 9148,
      "ä¸Ńè¢«": 9149,
      "Cl": 9150,
      "éħµ": 9151,
      "åŁºçĿ£æķĻ": 9152,
      "çģ°èī²": 9153,
      "çļĦç»ıåİĨ": 9154,
      "æ³¼": 9155,
      "éľŀ": 9156,
      "ç¹ģå¿Ļ": 9157,
      "ç¢³æ°´åĮĸåĲĪçī©": 9158,
      "éĺħè¯»çĲĨè§£": 9159,
      "è½¬åĲĳ": 9160,
      "ç½ĳç«ĻçļĦ": 9161,
      "å°Ĩä»¥ä¸ĭæĸĩæľ¬": 9162,
      "SV": 9163,
      "å¤§å¹ħ": 9164,
      "ä¸ĸçºªåĪĿ": 9165,
      "æ²«": 9166,
      "ä¹ĭæĹħ": 9167,
      "æĸ°åĨł": 9168,
      "è¿Ļåı¯ä»¥éĢļè¿ĩ": 9169,
      "æĹ¶éĹ´è¡¨": 9170,
      "åĪĨæ³Į": 9171,
      "å¯¼å¸Ī": 9172,
      "åıĺä¸º": 9173,
      "å¤ªç©ºæİ¢ç´¢": 9174,
      "å®¡æŁ¥": 9175,
      "éĽį": 9176,
      "æııè¿°ä¸Ģä¸ª": 9177,
      "no": 9178,
      "å©ļç¤¼": 9179,
      "æĬĦ": 9180,
      "åħįçĸ«åĬĽ": 9181,
      "æĿ¥åĩıå°ĳ": 9182,
      "æĪĸçŁŃè¯Ń": 9183,
      "è®¤è¯ģ": 9184,
      "éĿ¢ç§¯ä¸º": 9185,
      "é»ĺé»ĺ": 9186,
      "æµ·è¾¹": 9187,
      "æľĢç»ĪçļĦçŃĶæ¡Īæĺ¯": 9188,
      "AC": 9189,
      "å°Ĩé¢Ĩ": 9190,
      "æĺ¥ç§ĭ": 9191,
      "ĠWorld": 9192,
      "çĪ±åĽłæĸ¯åĿ¦": 9193,
      "Ġplay": 9194,
      "way": 9195,
      "äººä»¬çļĦçĶŁæ´»": 9196,
      "èľĺ": 9197,
      "åĮĸåŃ¦çī©è´¨": 9198,
      "æİł": 9199,
      "å§¥": 9200,
      "åĲ¯çĶ¨": 9201,
      "æĩĤå¾Ĺ": 9202,
      "æĪĳåıĪ": 9203,
      "ä¸Ģä¸ªå°ı": 9204,
      "å®ĩå®ĻçļĦ": 9205,
      "ä¸įæ»¡": 9206,
      "çľŁçļĦå¾Ī": 9207,
      "ä¸ºäººç±»": 9208,
      "ä¸įå®ī": 9209,
      "æĪĳä»¬å¯¹": 9210,
      "å½±åĵįäºĨ": 9211,
      "çļĦåºĶçĶ¨ç¨ĭåºı": 9212,
      "è¿½éĢĲ": 9213,
      "æĺ¯å¾·åĽ½": 9214,
      "èĥ½å¤ŁæĽ´å¥½åľ°": 9215,
      "Ġ4": 9216,
      "æĪĳä»¬ä¼ļ": 9217,
      "åĬ¨çī©çļĦ": 9218,
      "èľĺèĽĽ": 9219,
      "åıįæĢĿ": 9220,
      "çļĦæľĢä½³": 9221,
      "èµĦè®¯": 9222,
      "ä»ĸäºİ": 9223,
      "æľĢåıĹæ¬¢è¿İçļĦ": 9224,
      "çīĽä»Ķ": 9225,
      "åĲĪçº¦": 9226,
      "åĽŀå¤´": 9227,
      "æĸĩç«łåĨħå®¹": 9228,
      "ä¹ĭæĪĺ": 9229,
      "åĲİç»Ń": 9230,
      "åĿļæŀľ": 9231,
      "é«ĺè¾¾": 9232,
      "å¾®ä¿¡": 9233,
      "çľģçº§": 9234,
      "ç¾½æ¯ĽçĲĥ": 9235,
      "åį·ç§¯ç¥ŀç»ıç½ĳç»ľ": 9236,
      "åģ¥èº«æĪ¿": 9237,
      "è¥¿å®ī": 9238,
      "å¤±èĲ½": 9239,
      "ux": 9240,
      "æ¯Ľåıĳ": 9241,
      "çłĶç©¶çļĦ": 9242,
      "åľ¨ä»ĸçļĦ": 9243,
      "åģļæ³ķ": 9244,
      "ational": 9245,
      "çĥĺ": 9246,
      "èĬ±æľµ": 9247,
      "ä½įäºİä¸ŃåĽ½": 9248,
      "æŀģä¸º": 9249,
      "åĻªéŁ³": 9250,
      "è¾¹å¢ĥ": 9251,
      "çĶµåı°": 9252,
[...]
