<unk>	0
<pad>	0
<s>	0
</s>	0
▁t	-0
he	-1
▁a	-2
in	-3
ou	-4
re	-5
▁s	-6
▁w	-7
on	-8
▁the	-9
er	-10
at	-11
▁c	-12
▁m	-13
▁I	-14
▁b	-15
an	-16
it	-17
ing	-18
▁f	-19
is	-20
▁d	-21
▁o	-22
en	-23
▁to	-24
▁y	-25
▁h	-26
or	-27
ll	-28
▁p	-29
es	-30
▁you	-31
ed	-32
▁th	-33
▁g	-34
▁l	-35
nd	-36
ar	-37
▁of	-38
▁in	-39
om	-40
▁n	-41
as	-42
ve	-43
al	-44
et	-45
ic	-46
ow	-47
us	-48
ot	-49
▁and	-50
le	-51
▁he	-52
▁T	-53
▁e	-54
▁be	-55
ay	-56
▁W	-57
ion	-58
▁it	-59
id	-60
▁re	-61
▁on	-62
ut	-63
ent	-64
ig	-65
▁that	-66
ld	-67
▁Y	-68
▁ha	-69
im	-70
ac	-71
▁A	-72
..	-73
▁is	-74
▁k	-75
ver	-76
▁we	-77
▁r	-78
▁st	-79
▁for	-80
▁me	-81
▁S	-82
ly	-83
ke	-84
out	-85
st	-86
oo	-87
hat	-88
▁H	-89
ht	-90
ad	-91
ec	-92
▁u	-93
▁You	-94
ir	-95
se	-96
▁B	-97
ro	-98
▁an	-99
am	-100
▁The	-101
ith	-102
all	-103
▁was	-104
▁do	-105
ill	-106
ust	-107
▁j	-108
ur	-109
ight	-110
▁with	-111
if	-112
▁have	-113
ome	-114
ould	-115
ant	-116
▁ne	-117
▁not	-118
ch	-119
ter	-120
her	-121
ce	-122
▁kn	-123
▁your	-124
▁are	-125
▁this	-126
ation	-127
▁as	-128
▁O	-129
ee	-130
▁go	-131
▁sh	-132
▁my	-133
▁li	-134
▁can	-135
▁We	-136
il	-137
▁know	-138
▁-	-139
op	-140
▁don	-141
...	-142
▁wh	-143
▁fr	-144
▁He	-145
ore	-146
▁ch	-147
▁at	-148
▁M	-149
and	-150
▁tr	-151
our	-152
ge	-153
ain	-154
est	-155
pp	-156
▁su	-157
▁con	-158
ess	-159
ers	-160
ol	-161
ea	-162
ul	-163
▁N	-164
▁ab	-165
th	-166
ate	-167
▁out	-168
▁de	-169
▁It	-170
▁C	-171
▁And	-172
▁com	-173
▁all	-174
un	-175
ist	-176
▁just	-177
▁But	-178
ab	-179
▁wor	-180
king	-181
ct	-182
ake	-183
ive	-184
▁L	-185
▁up	-186
▁so	-187
▁get	-188
▁ex	-189
▁what	-190
▁pro	-191
▁like	-192
art	-193
ment	-194
▁al	-195
▁D	-196
one	-197
ally	-198
use	-199
ack	-200
▁from	-201
oug	-202
▁or	-203
end	-204
os	-205
▁G	-206
▁v	-207
▁her	-208
ri	-209
ood	-210
ect	-211
res	-212
ink	-213
hen	-214
▁him	-215
▁want	-216
▁about	-217
qu	-218
ast	-219
ap	-220
od	-221
nt	-222
very	-223
um	-224
ear	-225
ard	-226
ind	-227
▁sp	-228
ity	-229
ie	-230
ry	-231
▁one	-232
▁they	-233
ort	-234
ell	-235
▁his	-236
▁did	-237
ong	-238
ies	-239
red	-240
▁sa	-241
▁pl	-242
ook	-243
▁What	-244
▁there	-245
▁will	-246
▁F	-247
▁got	-248
▁right	-249
▁here	-250
▁by	-251
▁us	-252
▁she	-253
▁P	-254
▁man	-255
▁but	-256
▁some	-257
▁think	-258
ck	-259
ound	-260
▁lo	-261
▁any	-262
ime	-263
▁no	-264
ause	-265
ice	-266
hing	-267
em	-268
▁if	-269
▁see	-270
▁has	-271
ven	-272
ine	-273
el	-274
ud	-275
ure	-276
▁ar	-277
▁int	-278
ous	-279
▁would	-280
▁were	-281
▁off	-282
ag	-283
▁pr	-284
▁E	-285
▁who	-286
▁had	-287
na	-288
ame	-289
ff	-290
▁ag	-291
▁them	-292
eah	-293
▁say	-294
▁more	-295
are	-296
▁le	-297
▁Th	-298
▁need	-299
ide	-300
▁Wh	-301
▁cl	-302
▁br	-303
▁comp	-304
ough	-305
ak	-306
▁been	-307
▁She	-308
ost	-309
▁time	-310
▁That	-311
act	-312
own	-313
▁am	-314
▁could	-315
▁gu	-316
ip	-317
▁back	-318
▁en	-319
▁un	-320
ial	-321
▁gr	-322
▁1	-323
▁So	-324
▁R	-325
ther	-326
here	-327
ace	-328
▁If	-329
way	-330
▁No	-331
age	-332
▁J	-333
itt	-334
▁pe	-335
iv	-336
▁now	-337
▁In	-338
▁"	-339
▁se	-340
▁when	-341
reat	-342
▁their	-343
▁going	-344
▁Yeah	-345
▁co	-346
▁over	-347
ble	-348
▁our	-349
▁im	-350
per	-351
▁year	-352
▁Oh	-353
ase	-354
pt	-355
▁Well	-356
▁good	-357
▁ro	-358
ople	-359
omet	-360
ich	-361
ans	-362
ree	-363
▁new	-364
ick	-365
ang	-366
onna	-367
kay	-368
▁sc	-369
▁gonna	-370
▁ac	-371
ance	-372
00	-373
▁too	-374
ra	-375
▁ad	-376
▁qu	-377
▁thing	-378
▁than	-379
▁said	-380
iz	-381
▁people	-382
▁every	-383
▁tw	-384
ose	-385
other	-386
▁how	-387
▁bl	-388
▁work	-389
ber	-390
▁2	-391
ions	-392
▁bec	-393
▁other	-394
▁take	-395
▁make	-396
ass	-397
▁dis	-398
▁way	-399
▁should	-400
ite	-401
able	-402
og	-403
pl	-404
ond	-405
ife	-406
ount	-407
▁down	-408
▁day	-409
▁look	-410
▁into	-411
▁They	-412
▁cont	-413
▁part	-414
ire	-415
ue	-416
▁didn	-417
ile	-418
sel	-419
ign	-420
▁somet	-421
thing	-422
ought	-423
▁tell	-424
ere	-425
▁only	-426
▁res	-427
▁tal	-428
ated	-429
▁mar	-430
▁call	-431
ress	-432
▁pre	-433
oy	-434
ving	-435
▁two	-436
ug	-437
▁af	-438
ia	-439
▁fir	-440
ary	-441
nder	-442
▁really	-443
▁bet	-444
ew	-445
▁come	-446
ical	-447
ult	-448
▁U	-449
ence	-450
ittle	-451
ning	-452
▁per	-453
ade	-454
ob	-455
ord	-456
ach	-457
▁app	-458
ish	-459
▁little	-460
▁bu	-461
orm	-462
so	-463
▁something	-464
▁This	-465
▁How	-466
▁Bec	-467
▁dr	-468
ting	-469
uch	-470
▁fl	-471
ild	-472
port	-473
lp	-474
▁let	-475
ks	-476
ail	-477
▁may	-478
▁mean	-479
▁fu	-480
▁Because	-481
ub	-482
wn	-483
iss	-484
▁never	-485
ations	-486
▁its	-487
▁under	-488
▁Why	-489
▁cr	-490
▁happ	-491
ys	-492
ious	-493
fore	-494
▁does	-495
vel	-496
▁All	-497
▁even	-498
▁again	-499
urn	-500
ors	-501
ody	-502
ater	-503
▁first	-504
▁te	-505
▁mo	-506
▁act	-507
ool	-508
▁help	-509
▁car	-510
eep	-511
▁inc	-512
self	-513
▁much	-514
▁which	-515
▁St	-516
▁thr	-517
▁chin	-518
▁very	-519
eel	-520
▁There	-521
▁rec	-522
▁When	-523
ved	-524
uct	-525
▁Do	-526
▁Okay	-527
▁sec	-528
hed	-529
ens	-530
ory	-531
ady	-532
ft	-533
ise	-534
▁po	-535
▁find	-536
▁acc	-537
▁then	-538
we	-539
int	-540
day	-541
▁long	-542
ied	-543
get	-544
▁after	-545
ves	-546
▁sm	-547
ict	-548
▁ser	-549
▁wr	-550
▁life	-551
▁years	-552
▁where	-553
▁well	-554
▁love	-555
ather	-556
▁feel	-557
▁ind	-558
▁inv	-559
▁Hey	-560
▁em	-561
ition	-562
▁these	-563
▁because	-564
▁still	-565
ep	-566
▁world	-567
anc	-568
▁bel	-569
▁str	-570
▁rem	-571
▁also	-572
ty	-573
▁ph	-574
▁comm	-575
igh	-576
▁last	-577
▁My	-578
▁min	-579
ian	-580
▁la	-581
▁thought	-582
▁cour	-583
▁before	-584
ying	-585
iff	-586
oc	-587
▁hand	-588
▁put	-589
ily	-590
▁kill	-591
ons	-592
▁pol	-593
▁To	-594
▁home	-595
uc	-596
▁des	-597
ait	-598
ren	-599
▁dec	-600
tern	-601
▁che	-602
av	-603
▁bus	-604
ms	-605
be	-606
▁count	-607
▁K	-608
oney	-609
aking	-610
▁great	-611
▁through	-612
old	-613
ank	-614
▁why	-615
▁Just	-616
▁give	-617
▁big	-618
pect	-619
ath	-620
▁night	-621
▁att	-622
oss	-623
▁sy	-624
irl	-625
▁most	-626
▁start	-627
lic	-628
ating	-629
▁Is	-630
form	-631
▁show	-632
ave	-633
ient	-634
ouse	-635
▁those	-636
▁lea	-637
▁mon	-638
ident	-639
▁For	-640
▁own	-641
▁Yes	-642
▁fin	-643
▁doing	-644
iend	-645
▁made	-646
ful	-647
xt	-648
▁talk	-649
▁friend	-650
▁ass	-651
ever	-652
ates	-653
▁pers	-654
▁rel	-655
▁many	-656
▁around	-657
▁(	-658
ways	-659
▁play	-660
ange	-661
con	-662
▁ear	-663
▁room	-664
▁away	-665
les	-666
▁'	-667
▁sur	-668
▁supp	-669
ib	-670
▁real	-671
▁keep	-672
▁cons	-673
▁diff	-674
iness	-675
vers	-676
atch	-677
▁fam	-678
▁ins	-679
orry	-680
▁being	-681
ple	-682
ually	-683
▁must	-684
▁Let	-685
▁girl	-686
body	-687
▁old	-688
▁belie	-689
oth	-690
lease	-691
any	-692
▁anything	-693
olog	-694
air	-695
▁things	-696
▁As	-697
▁found	-698
▁lot	-699
ince	-700
imes	-701
ne	-702
rop	-703
▁such	-704
▁told	-705
▁sure	-706
▁kid	-707
▁money	-708
▁wee	-709
ese	-710
uck	-711
▁gl	-712
▁kind	-713
▁wom	-714
ual	-715
▁ask	-716
ower	-717
▁pres	-718
▁sch	-719
▁head	-720
▁ob	-721
eric	-722
ock	-723
▁reg	-724
▁happen	-725
▁better	-726
▁end	-727
▁Now	-728
▁bre	-729
▁always	-730
▁stud	-731
vern	-732
ert	-733
ational	-734
ities	-735
▁3	-736
▁sl	-737
▁care	-738
▁high	-739
ner	-740
▁might	-741
▁three	-742
▁ent	-743
▁Not	-744
ike	-745
ets	-746
ark	-747
▁china	-748
ible	-749
▁war	-750
▁house	-751
up	-752
▁ev	-753
▁op	-754
▁okay	-755
▁bo	-756
hes	-757
▁person	-758
hn	-759
row	-760
▁run	-761
▁mom	-762
▁use	-763
▁Look	-764
▁Mr	-765
▁mark	-766
▁cle	-767
▁place	-768
▁course	-769
akes	-770
▁guy	-771
▁stop	-772
▁el	-773
ments	-774
ix	-775
▁job	-776
enc	-777
ute	-778
▁child	-779
▁hard	-780
▁govern	-781
ings	-782
▁God	-783
▁cent	-784
ject	-785
man	-786
▁business	-787
ull	-788
▁left	-789
▁fo	-790
cc	-791
▁imp	-792
▁met	-793
▁sw	-794
lect	-795
▁ever	-796
▁doesn	-797
▁won	-798
▁Your	-799
▁gen	-800
ooking	-801
▁Come	-802
▁plan	-803
als	-804
▁school	-805
gr	-806
conom	-807
stem	-808
▁sorry	-809
ics	-810
str	-811
▁another	-812
▁few	-813
▁econom	-814
▁bad	-815
▁wait	-816
stand	-817
▁turn	-818
its	-819
ents	-820
▁stay	-821
ific	-822
▁same	-823
ward	-824
▁boy	-825
▁differe	-826
▁system	-827
ures	-828
▁believe	-829
ret	-830
▁miss	-831
▁cou	-832
▁Ch	-833
ax	-834
▁hear	-835
ness	-836
▁used	-837
▁hot	-838
▁Where	-839
▁Did	-840
velop	-841
▁came	-842
▁says	-843
▁guys	-844
▁wanted	-845
isten	-846
▁set	-847
▁cap	-848
ility	-849
▁def	-850
ger	-851
▁mor	-852
▁next	-853
▁char	-854
led	-855
▁An	-856
▁prod	-857
▁cor	-858
▁meet	-859
▁rep	-860
▁eff	-861
▁proble	-862
▁hu	-863
ros	-864
ier	-865
▁today	-866
▁name	-867
▁best	-868
▁everything	-869
▁conf	-870
ative	-871
▁fun	-872
amp	-873
ital	-874
lud	-875
▁family	-876
ered	-877
▁done	-878
pr	-879
▁Can	-880
▁Who	-881
▁V	-882
▁invest	-883
▁sub	-884
ular	-885
ember	-886
der	-887
▁open	-888
▁spec	-889
ween	-890
▁month	-891
▁law	-892
▁far	-893
▁fe	-894
▁Of	-895
hip	-896
▁coll	-897
▁ret	-898
▁father	-899
ready	-900
▁nothing	-901
▁enough	-902
▁develop	-903
▁someone	-904
▁pay	-905
ash	-906
ited	-907
less	-908
▁med	-909
▁sign	-910
▁went	-911
▁ter	-912
ize	-913
▁mother	-914
▁mat	-915
▁looking	-916
▁exp	-917
cept	-918
▁lead	-919
osed	-920
▁Get	-921
▁trans	-922
▁id	-923
▁week	-924
▁both	-925
▁disc	-926
▁hour	-927
▁dep	-928
▁trying	-929
▁understand	-930
▁fore	-931
▁government	-932
▁already	-933
▁saw	-934
▁getting	-935
ci	-936
▁bit	-937
▁between	-938
▁stand	-939
▁sk	-940
▁while	-941
▁hop	-942
ters	-943
ng	-944
aug	-945
▁Sh	-946
land	-947
ont	-948
uth	-949
uring	-950
ird	-951
▁leave	-952
▁import	-953
med	-954
▁Some	-955
ublic	-956
▁num	-957
▁ref	-958
▁toget	-959
▁together	-960
az	-961
▁hum	-962
▁With	-963
ices	-964
ably	-965
▁company	-966
ists	-967
▁inter	-968
▁mod	-969
aught	-970
▁second	-971
ased	-972
▁break	-973
ism	-974
▁inf	-975
▁ey	-976
ream	-977
▁4	-978
ason	-979
▁Fr	-980
▁det	-981
▁mind	-982
▁took	-983
▁prot	-984
▁mr	-985
▁face	-986
▁eas	-987
▁wal	-988
ric	-989
ork	-990
▁else	-991
▁point	-992
▁days	-993
▁bab	-994
▁state	-995
▁loc	-996
▁each	-997
ern	-998
▁pret	-999
gan	-1000
uff	-1001
▁coming	-1002
▁fact	-1003
▁At	-1004
▁ext	-1005
▁On	-1006
▁5	-1007
▁men	-1008
▁power	-1009
▁cur	-1010
ution	-1011
▁dead	-1012
gest	-1013
ling	-1014
▁called	-1015
let	-1016
▁whole	-1017
ense	-1018
▁different	-1019
▁heart	-1020
▁word	-1021
▁country	-1022
ta	-1023
▁prom	-1024
erg	-1025
▁inst	-1026
erest	-1027
▁20	-1028
uss	-1029
ention	-1030
inking	-1031
ried	-1032
▁move	-1033
▁includ	-1034
▁wrong	-1035
iew	-1036
▁tec	-1037
▁Good	-1038
▁dem	-1039
▁art	-1040
ross	-1041
▁pass	-1042
▁Be	-1043
ars	-1044
▁ago	-1045
ired	-1046
▁Al	-1047
▁son	-1048
▁rest	-1049
▁talking	-1050
▁bed	-1051
▁uh	-1052
▁wasn	-1053
ove	-1054
▁without	-1055
▁add	-1056
▁chinese	-1057
▁water	-1058
▁serv	-1059
▁heard	-1060
▁sim	-1061
▁free	-1062
▁conc	-1063
▁prov	-1064
▁quest	-1065
▁beh	-1066
ef	-1067
▁Every	-1068
▁expl	-1069
▁book	-1070
▁americ	-1071
ten	-1072
▁Or	-1073
▁city	-1074
▁pat	-1075
outh	-1076
▁since	-1077
▁form	-1078
▁jo	-1079
▁grow	-1080
▁seen	-1081
▁case	-1082
ision	-1083
oup	-1084
illion	-1085
▁mil	-1086
ale	-1087
▁read	-1088
▁air	-1089
▁dad	-1090
▁deal	-1091
▁exper	-1092
▁ma	-1093
▁pri	-1094
▁Uh	-1095
ering	-1096
▁19	-1097
▁knew	-1098
orrow	-1099
▁ke	-1100
▁dist	-1101
▁hold	-1102
▁z	-1103
ract	-1104
llow	-1105
▁try	-1106
▁Go	-1107
ants	-1108
ised	-1109
▁market	-1110
irect	-1111
▁adv	-1112
mm	-1113
ries	-1114
ared	-1115
io	-1116
▁gener	-1117
ister	-1118
▁please	-1119
rol	-1120
▁yeah	-1121
▁eng	-1122
▁sit	-1123
▁Am	-1124
▁morning	-1125
▁mem	-1126
▁interest	-1127
anna	-1128
▁lar	-1129
▁sle	-1130
▁techn	-1131
ience	-1132
▁ed	-1133
▁against	-1134
ivers	-1135
▁red	-1136
ph	-1137
▁par	-1138
ues	-1139
▁full	-1140
ts	-1141
▁important	-1142
▁build	-1143
▁leg	-1144
▁200	-1145
▁live	-1146
▁less	-1147
▁change	-1148
▁report	-1149
br	-1150
▁friends	-1151
▁intern	-1152
▁yourself	-1153
▁remember	-1154
▁unt	-1155
▁woman	-1156
alf	-1157
▁light	-1158
▁small	-1159
alth	-1160
ized	-1161
▁bro	-1162
ai	-1163
▁poss	-1164
inc	-1165
▁once	-1166
▁yes	-1167
arent	-1168
ology	-1169
▁bring	-1170
min	-1171
▁sir	-1172
ives	-1173
▁wouldn	-1174
▁Like	-1175
▁idea	-1176
▁happened	-1177
ump	-1178
▁prof	-1179
the	-1180
▁times	-1181
▁Ex	-1182
yp	-1183
▁party	-1184
▁bar	-1185
▁offic	-1186
pped	-1187
ains	-1188
aut	-1189
▁four	-1190
ins	-1191
▁cut	-1192
▁sing	-1193
▁eu	-1194
▁fine	-1195
▁direct	-1196
▁His	-1197
▁hur	-1198
▁baby	-1199
▁actually	-1200
▁ris	-1201
orn	-1202
▁elect	-1203
▁news	-1204
▁lear	-1205
ertain	-1206
ically	-1207
▁product	-1208
--	-1209
▁Re	-1210
▁ton	-1211
▁working	-1212
▁check	-1213
▁isn	-1214
ural	-1215
▁group	-1216
cking	-1217
ither	-1218
▁having	-1219
▁fight	-1220
▁wife	-1221
ages	-1222
ield	-1223
iet	-1224
▁children	-1225
▁wanna	-1226
anks	-1227
▁past	-1228
unch	-1229
▁problem	-1230
▁public	-1231
most	-1232
▁sho	-1233
▁saf	-1234
▁test	-1235
▁pretty	-1236
ator	-1237
▁follow	-1238
cial	-1239
ines	-1240
rap	-1241
▁watch	-1242
bably	-1243
side	-1244
....	-1245
▁Af	-1246
nce	-1247
▁av	-1248
utes	-1249
▁nice	-1250
▁brother	-1251
▁inform	-1252
▁vis	-1253
sh	-1254
▁OK	-1255
▁team	-1256
▁making	-1257
rew	-1258
▁main	-1259
▁tra	-1260
▁number	-1261
▁myself	-1262
ny	-1263
ned	-1264
▁rese	-1265
▁win	-1266
▁body	-1267
▁food	-1268
▁Then	-1269
▁blood	-1270
tle	-1271
iver	-1272
ection	-1273
ah	-1274
▁class	-1275
▁land	-1276
ially	-1277
▁become	-1278
▁sound	-1279
▁proc	-1280
▁lost	-1281
▁effect	-1282
rib	-1283
▁resp	-1284
▁young	-1285
▁shall	-1286
▁saying	-1287
▁ap	-1288
ished	-1289
▁cond	-1290
▁tom	-1291
▁polit	-1292
ouble	-1293
▁soon	-1294
▁val	-1295
▁couldn	-1296
▁near	-1297
▁clear	-1298
▁chang	-1299
where	-1300
▁five	-1301
▁ir	-1302
▁gotta	-1303
▁close	-1304
▁cause	-1305
▁expect	-1306
▁sleep	-1307
▁del	-1308
aper	-1309
▁pain	-1310
▁Are	-1311
▁later	-1312
▁maybe	-1313
▁hell	-1314
ote	-1315
▁ready	-1316
▁bank	-1317
eak	-1318
▁until	-1319
ung	-1320
▁yet	-1321
▁control	-1322
▁aff	-1323
▁mus	-1324
▁mid	-1325
▁cop	-1326
▁human	-1327
▁pop	-1328
▁fall	-1329
▁top	-1330
▁women	-1331
▁ra	-1332
▁resear	-1333
▁tonight	-1334
zy	-1335
dd	-1336
▁May	-1337
▁phone	-1338
▁thinking	-1339
▁makes	-1340
▁exc	-1341
▁half	-1342
▁beaut	-1343
▁wants	-1344
▁sol	-1345
ately	-1346
orth	-1347
ending	-1348
▁Right	-1349
▁Our	-1350
▁requ	-1351
nc	-1352
ature	-1353
▁ca	-1354
eed	-1355
▁listen	-1356
▁killed	-1357
▁side	-1358
▁president	-1359
▁hours	-1360
."	-1361
▁beg	-1362
ury	-1363
▁months	-1364
▁taking	-1365
my	-1366
te	-1367
▁walk	-1368
oice	-1369
ided	-1370
▁mess	-1371
▁death	-1372
ured	-1373
ged	-1374
▁fire	-1375
reen	-1376
▁fig	-1377
▁oper	-1378
▁stre	-1379
by	-1380
▁contin	-1381
▁hands	-1382
ison	-1383
▁guess	-1384
▁pur	-1385
▁sn	-1386
▁Br	-1387
▁sal	-1388
▁kids	-1389
ency	-1390
▁happy	-1391
▁alone	-1392
▁office	-1393
ery	-1394
▁hope	-1395
▁sex	-1396
▁hit	-1397
osp	-1398
▁Don	-1399
▁10	-1400
▁dam	-1401
ush	-1402
▁matter	-1403
▁worry	-1404
▁probably	-1405
ats	-1406
ior	-1407
▁es	-1408
ted	-1409
▁din	-1410
rope	-1411
▁gave	-1412
▁reason	-1413
not	-1414
▁opp	-1415
▁anyone	-1416
▁though	-1417
▁fil	-1418
▁treat	-1419
▁stuff	-1420
to	-1421
▁buy	-1422
▁indust	-1423
ides	-1424
sw	-1425
ched	-1426
▁6	-1427
app	-1428
▁means	-1429
▁pick	-1430
▁wind	-1431
ral	-1432
ional	-1433
▁Take	-1434
bers	-1435
▁cra	-1436
ex	-1437
▁asked	-1438
▁Please	-1439
▁exam	-1440
ording	-1441
▁anal	-1442
▁After	-1443
me	-1444
iting	-1445
▁design	-1446
▁gun	-1447
▁minutes	-1448
aster	-1449
ploy	-1450
▁able	-1451
▁order	-1452
▁equ	-1453
▁cost	-1454
ton	-1455
room	-1456
▁By	-1457
erv	-1458
▁hist	-1459
▁town	-1460
▁almost	-1461
▁col	-1462
▁police	-1463
▁gone	-1464
▁fucking	-1465
▁information	-1466
▁comes	-1467
aring	-1468
ows	-1469
ude	-1470
co	-1471
▁bas	-1472
▁least	-1473
▁eat	-1474
ama	-1475
used	-1476
▁doct	-1477
apan	-1478
▁shot	-1479
▁door	-1480
▁late	-1481
▁special	-1482
aken	-1483
▁game	-1484
▁wond	-1485
▁incre	-1486
iven	-1487
▁sug	-1488
iously	-1489
aw	-1490
arm	-1491
▁Her	-1492
▁line	-1493
dy	-1494
▁press	-1495
ards	-1496
▁tomorrow	-1497
▁strong	-1498
▁sent	-1499
▁short	-1500
▁swe	-1501
▁pos	-1502
▁front	-1503
idence	-1504
▁eyes	-1505
fect	-1506
▁train	-1507
▁started	-1508
▁fac	-1509
aps	-1510
▁during	-1511
ames	-1512
ape	-1513
▁fre	-1514
▁secret	-1515
ane	-1516
▁financ	-1517
▁health	-1518
▁hon	-1519
▁secur	-1520
▁hotel	-1521
▁cal	-1522
▁complet	-1523
▁commun	-1524
▁whe	-1525
ined	-1526
▁trad	-1527
▁aw	-1528
▁often	-1529
▁couple	-1530
iful	-1531
▁die	-1532
▁parent	-1533
▁question	-1534
fort	-1535
▁priv	-1536
band	-1537
▁dream	-1538
▁study	-1539
▁story	-1540
▁king	-1541
line	-1542
ole	-1543
▁One	-1544
▁compan	-1545
▁Even	-1546
▁partic	-1547
▁Which	-1548
▁sell	-1549
ES	-1550
▁iss	-1551
▁creat	-1552
▁national	-1553
▁est	-1554
▁tre	-1555
▁Un	-1556
▁From	-1557
▁mur	-1558
joy	-1559
▁behind	-1560
▁drink	-1561
lish	-1562
ium	-1563
▁ve	-1564
▁chance	-1565
▁7	-1566
▁ann	-1567
eal	-1568
rist	-1569
uction	-1570
▁everyone	-1571
lev	-1572
iving	-1573
▁six	-1574
▁answ	-1575
ality	-1576
▁development	-1577
▁black	-1578
ief	-1579
head	-1580
▁social	-1581
▁large	-1582
EST	-1583
▁Here	-1584
▁dog	-1585
▁return	-1586
▁recent	-1587
▁area	-1588
dle	-1589
atic	-1590
▁fut	-1591
artment	-1592
iversity	-1593
▁looks	-1594
▁fund	-1595
▁support	-1596
no	-1597
▁supposed	-1598
▁ben	-1599
▁exact	-1600
▁service	-1601
ding	-1602
▁pull	-1603
▁non	-1604
▁Listen	-1605
inal	-1606
omm	-1607
▁level	-1608
ety	-1609
000	-1610
▁lab	-1611
▁certain	-1612
▁easy	-1613
▁tried	-1614
▁Maybe	-1615
▁organ	-1616
▁earth	-1617
▁true	-1618
▁relations	-1619
oud	-1620
▁Tell	-1621
▁companies	-1622
▁needs	-1623
▁economic	-1624
▁inside	-1625
▁coff	-1626
▁Stop	-1627
usband	-1628
aven	-1629
pec	-1630
bs	-1631
▁million	-1632
▁super	-1633
▁cult	-1634
▁mag	-1635
riend	-1636
▁Wait	-1637
aughter	-1638
▁process	-1639
ians	-1640
▁dri	-1641
▁result	-1642
▁living	-1643
ru	-1644
▁research	-1645
ift	-1646
els	-1647
sy	-1648
ases	-1649
▁trust	-1650
gram	-1651
▁8	-1652
elf	-1653
▁Somet	-1654
▁bur	-1655
ces	-1656
▁typ	-1657
tain	-1658
▁cell	-1659
selves	-1660
▁record	-1661
▁ant	-1662
▁knows	-1663
▁allow	-1664
▁clean	-1665
▁pract	-1666
uce	-1667
▁polic	-1668
▁appro	-1669
▁tax	-1670
itting	-1671
oor	-1672
▁compet	-1673
▁dev	-1674
▁fav	-1675
ption	-1676
▁along	-1677
▁grand	-1678
▁teac	-1679
ising	-1680
▁europe	-1681
ization	-1682
▁outside	-1683
por	-1684
▁beautiful	-1685
▁tem	-1686
eg	-1687
ials	-1688
▁rev	-1689
▁post	-1690
ider	-1691
▁street	-1692
▁dinner	-1693
▁husband	-1694
aid	-1695
▁fail	-1696
▁local	-1697
▁low	-1698
icle	-1699
▁proper	-1700
▁9	-1701
▁early	-1702
▁security	-1703
ead	-1704
▁pict	-1705
uthor	-1706
▁quick	-1707
▁moment	-1708
ones	-1709
▁succ	-1710
▁shit	-1711
▁deb	-1712
▁cannot	-1713
ming	-1714
more	-1715
▁shoot	-1716
▁Americ	-1717
▁access	-1718
▁vict	-1719
kes	-1720
▁coffee	-1721
iec	-1722
▁step	-1723
▁countries	-1724
▁future	-1725
▁tou	-1726
▁wall	-1727
▁bat	-1728
▁Tw	-1729
friend	-1730
anger	-1731
▁huh	-1732
▁suggest	-1733
itive	-1734
▁complete	-1735
▁manage	-1736
aff	-1737
ging	-1738
cle	-1739
".	-1740
▁nec	-1741
▁known	-1742
▁glob	-1743
▁rad	-1744
▁financial	-1745
▁paper	-1746
▁others	-1747
▁program	-1748
▁camp	-1749
▁view	-1750
▁perfect	-1751
▁gets	-1752
rent	-1753
▁tot	-1754
▁safe	-1755
jor	-1756
▁jud	-1757
▁either	-1758
▁sun	-1759
▁rather	-1760
rod	-1761
uation	-1762
▁success	-1763
▁cust	-1764
ified	-1765
▁Ah	-1766
▁white	-1767
▁ten	-1768
▁risk	-1769
▁parents	-1770
▁hosp	-1771
▁list	-1772
▁hurt	-1773
aged	-1774
▁attack	-1775
▁brought	-1776
▁pot	-1777
▁div	-1778
▁daughter	-1779
▁protect	-1780
▁See	-1781
▁possible	-1782
gress	-1783
▁account	-1784
▁international	-1785
▁ill	-1786
▁foreign	-1787
ories	-1788
▁drug	-1789
▁aut	-1790
iter	-1791
▁project	-1792
▁dest	-1793
ony	-1794
▁using	-1795
▁mic	-1796
unk	-1797
work	-1798
hy	-1799
▁dat	-1800
ances	-1801
▁...	-1802
▁building	-1803
acy	-1804
raw	-1805
▁road	-1806
▁prev	-1807
▁Was	-1808
▁speak	-1809
▁taken	-1810
▁luck	-1811
▁ce	-1812
▁doctor	-1813
▁seems	-1814
▁infl	-1815
▁bud	-1816
▁economy	-1817
elt	-1818
ler	-1819
▁ball	-1820
▁including	-1821
▁lim	-1822
▁phot	-1823
▁sus	-1824
rest	-1825
▁These	-1826
▁exactly	-1827
▁enjoy	-1828
▁prop	-1829
▁Jo	-1830
▁fuck	-1831
iqu	-1832
▁self	-1833
▁env	-1834
▁perform	-1835
und	-1836
▁author	-1837
▁quite	-1838
▁net	-1839
raid	-1840
iment	-1841
uit	-1842
▁truth	-1843
▁hair	-1844
▁died	-1845
▁fa	-1846
ands	-1847
▁present	-1848
▁weeks	-1849
▁capital	-1850
▁fast	-1851
oke	-1852
▁meeting	-1853
▁fell	-1854
▁di	-1855
▁occ	-1856
▁Give	-1857
ises	-1858
▁goes	-1859
▁Me	-1860
▁Thank	-1861
ges	-1862
▁foot	-1863
cl	-1864
▁educ	-1865
ration	-1866
ulation	-1867
ney	-1868
▁mot	-1869
▁squ	-1870
erm	-1871
▁major	-1872
oub	-1873
▁crazy	-1874
▁running	-1875
▁minute	-1876
▁cred	-1877
▁words	-1878
oid	-1879
ps	-1880
fast	-1881
ergy	-1882
ills	-1883
▁himself	-1884
ounds	-1885
gu	-1886
▁japan	-1887
sc	-1888
▁Ab	-1889
▁cir	-1890
▁afraid	-1891
bo	-1892
▁employ	-1893
ained	-1894
▁court	-1895
ination	-1896
acter	-1897
▁rul	-1898
▁married	-1899
▁american	-1900
▁technology	-1901
▁Sure	-1902
▁problems	-1903
▁girls	-1904
ots	-1905
▁somebody	-1906
airs	-1907
pecially	-1908
▁agree	-1909
gy	-1910
▁shop	-1911
▁history	-1912
▁comput	-1913
eral	-1914
▁sweet	-1915
▁share	-1916
▁hig	-1917
oint	-1918
▁global	-1919
▁profess	-1920
▁growth	-1921
▁political	-1922
▁across	-1923
▁201	-1924
▁looked	-1925
▁hospital	-1926
▁offer	-1927
▁sold	-1928
▁hor	-1929
▁seem	-1930
▁invol	-1931
▁send	-1932
men	-1933
▁aren	-1934
▁field	-1935
▁Hell	-1936
com	-1937
▁anymore	-1938
▁longer	-1939
icult	-1940
eth	-1941
▁given	-1942
▁bull	-1943
iron	-1944
▁terr	-1945
▁answer	-1946
par	-1947
ograp	-1948
itions	-1949
▁drive	-1950
▁Ar	-1951
▁summ	-1952
▁sort	-1953
▁lives	-1954
got	-1955
ked	-1956
▁respons	-1957
▁sense	-1958
▁telling	-1959
▁rece	-1960
▁piec	-1961
ecut	-1962
▁within	-1963
ster	-1964
:00	-1965
▁lose	-1966
▁trouble	-1967
▁space	-1968
▁key	-1969
▁relationship	-1970
ron	-1971
▁Two	-1972
▁nat	-1973
aim	-1974
ij	-1975
itary	-1976
▁wonder	-1977
▁adm	-1978
▁mile	-1979
▁middle	-1980
▁university	-1981
▁15	-1982
▁Would	-1983
▁private	-1984
▁surpr	-1985
ully	-1986
▁sever	-1987
gle	-1988
▁cool	-1989
▁activ	-1990
▁deep	-1991
▁doll	-1992
▁felt	-1993
ina	-1994
▁forget	-1995
▁feeling	-1996
▁hate	-1997
aces	-1998
▁industry	-1999
▁entire	-2000
▁sister	-2001
▁mist	-2002
▁dress	-2003
▁price	-2004
▁bot	-2005
▁wish	-2006
▁Will	-2007
▁custom	-2008
▁needed	-2009
▁waiting	-2010
▁ru	-2011
▁energy	-2012
▁begin	-2013
▁music	-2014
ode	-2015
aur	-2016
▁ain	-2017
▁among	-2018
▁avail	-2019
▁var	-2020
fer	-2021
▁save	-2022
ey	-2023
▁patient	-2024
cent	-2025
▁cam	-2026
▁impro	-2027
ears	-2028
read	-2029
▁conv	-2030
▁meth	-2031
▁thank	-2032
ze	-2033
irt	-2034
ene	-2035
▁mov	-2036
▁difficult	-2037
ilt	-2038
ipp	-2039
▁cre	-2040
▁travel	-2041
▁anim	-2042
▁compl	-2043
▁learn	-2044
over	-2045
▁america	-2046
▁policy	-2047
hers	-2048
▁store	-2049
▁vi	-2050
▁worth	-2051
▁general	-2052
▁star	-2053
umb	-2054
erve	-2055
▁mine	-2056
▁fur	-2057
▁hang	-2058
▁Sp	-2059
▁cat	-2060
▁single	-2061
▁guest	-2062
▁er	-2063
ped	-2064
ocr	-2065
▁conn	-2066
▁breakfast	-2067
▁south	-2068
asing	-2069
▁tur	-2070
▁age	-2071
▁touch	-2072
▁sometimes	-2073
ches	-2074
▁ur	-2075
une	-2076
▁several	-2077
▁$	-2078
ironment	-2079
oose	-2080
▁Hi	-2081
▁concern	-2082
▁12	-2083
ays	-2084
▁current	-2085
lex	-2086
▁oil	-2087
wards	-2088
▁meas	-2089
▁dark	-2090
▁god	-2091
▁according	-2092
ring	-2093
ended	-2094
▁sick	-2095
▁ord	-2096
▁consum	-2097
▁data	-2098
▁turned	-2099
een	-2100
▁north	-2101
▁accept	-2102
▁suff	-2103
upid	-2104
▁Put	-2105
iding	-2106
erc	-2107
istic	-2108
▁whether	-2109
▁cold	-2110
earch	-2111
▁discuss	-2112
ball	-2113
▁sea	-2114
ability	-2115
▁sil	-2116
▁investig	-2117
▁cover	-2118
▁abs	-2119
irth	-2120
▁card	-2121
go	-2122
itional	-2123
ission	-2124
▁management	-2125
▁stra	-2126
▁trade	-2127
▁serious	-2128
mb	-2129
▁eye	-2130
ators	-2131
▁likely	-2132
▁danger	-2133
▁Q	-2134
▁sat	-2135
▁shut	-2136
▁pen	-2137
▁cross	-2138
▁Gu	-2139
▁available	-2140
▁rock	-2141
▁works	-2142
oll	-2143
▁box	-2144
▁imag	-2145
urs	-2146
▁visit	-2147
▁lie	-2148
▁dom	-2149
▁figure	-2150
▁gold	-2151
▁Um	-2152
▁ide	-2153
▁Tr	-2154
▁30	-2155
▁threat	-2156
▁ship	-2157
▁favor	-2158
▁tar	-2159
▁bag	-2160
▁environment	-2161
▁evidence	-2162
▁victim	-2163
▁boss	-2164
ibility	-2165
▁respect	-2166
▁norm	-2167
▁mis	-2168
ken	-2169
▁board	-2170
▁whatever	-2171
▁date	-2172
▁song	-2173
itch	-2174
rying	-2175
haps	-2176
▁common	-2177
▁personal	-2178
▁worked	-2179
▁wed	-2180
▁mass	-2181
▁fix	-2182
▁foc	-2183
ify	-2184
▁slow	-2185
▁ahead	-2186
▁force	-2187
unt	-2188
▁ground	-2189
▁chief	-2190
▁poor	-2191
▁method	-2192
come	-2193
▁ones	-2194
▁pack	-2195
▁While	-2196
▁experience	-2197
resh	-2198
▁circ	-2199
▁fed	-2200
ored	-2201
▁third	-2202
▁brain	-2203
▁soci	-2204
angu	-2205
▁Hello	-2206
▁Sorry	-2207
ege	-2208
▁birth	-2209
▁takes	-2210
▁particular	-2211
lo	-2212
▁ple	-2213
▁Since	-2214
ential	-2215
▁spend	-2216
▁stri	-2217
▁questions	-2218
though	-2219
▁clos	-2220
▁stupid	-2221
ners	-2222
▁rich	-2223
ping	-2224
▁students	-2225
▁mach	-2226
▁playing	-2227
▁Com	-2228
oul	-2229
sych	-2230
▁comfort	-2231
orts	-2232
▁Dr	-2233
▁event	-2234
▁military	-2235
▁mad	-2236
son	-2237
▁phys	-2238
▁lock	-2239
den	-2240
▁brit	-2241
ived	-2242
▁value	-2243
▁credit	-2244
▁hey	-2245
▁example	-2246
▁center	-2247
cu	-2248
ction	-2249
▁banks	-2250
▁Pl	-2251
ced	-2252
▁haven	-2253
▁constr	-2254
▁clot	-2255
▁mater	-2256
▁fair	-2257
▁states	-2258
sp	-2259
▁island	-2260
▁everybody	-2261
▁choice	-2262
▁catch	-2263
▁billion	-2264
▁leaving	-2265
▁central	-2266
▁princ	-2267
▁fly	-2268
amed	-2269
,000	-2270
ected	-2271
ev	-2272
▁prep	-2273
▁har	-2274
▁Pro	-2275
bed	-2276
▁sen	-2277
▁Haven	-2278
▁spir	-2279
terday	-2280
▁claim	-2281
▁desc	-2282
iod	-2283
▁Any	-2284
ological	-2285
aker	-2286
▁enter	-2287
rom	-2288
▁applic	-2289
imate	-2290
▁contract	-2291
▁trip	-2292
▁asking	-2293
▁vol	-2294
uced	-2295
▁TV	-2296
▁character	-2297
▁civ	-2298
▁mount	-2299
).	-2300
▁boys	-2301
mo	-2302
▁rooms	-2303
▁tour	-2304
▁write	-2305
▁emerg	-2306
▁Have	-2307
▁education	-2308
▁exist	-2309
▁ste	-2310
▁hy	-2311
▁alive	-2312
ishing	-2313
▁straight	-2314
estern	-2315
▁comb	-2316
▁coun	-2317
▁ident	-2318
▁benef	-2319
▁disapp	-2320
ysis	-2321
▁decided	-2322
▁soft	-2323
▁Does	-2324
for	-2325
▁viol	-2326
▁admin	-2327
ites	-2328
▁green	-2329
▁park	-2330
▁west	-2331
erence	-2332
▁cris	-2333
▁da	-2334
▁manag	-2335
▁weap	-2336
rench	-2337
▁prison	-2338
▁Could	-2339
ighb	-2340
yle	-2341
▁pal	-2342
▁rate	-2343
ival	-2344
lier	-2345
▁lady	-2346
▁Thanks	-2347
▁thous	-2348
▁bal	-2349
ences	-2350
ER	-2351
▁lunch	-2352
▁Ind	-2353
▁model	-2354
▁base	-2355
▁strate	-2356
▁giving	-2357
allen	-2358
olution	-2359
▁higher	-2360
eor	-2361
▁Sc	-2362
▁dig	-2363
▁um	-2364
▁ban	-2365
▁port	-2366
▁situation	-2367
▁forward	-2368
oring	-2369
▁bi	-2370
▁meant	-2371
▁psych	-2372
het	-2373
▁client	-2374
▁table	-2375
li	-2376
ilar	-2377
▁college	-2378
ope	-2379
▁scient	-2380
▁themselves	-2381
▁obs	-2382
▁mult	-2383
▁yours	-2384
▁Before	-2385
▁computer	-2386
▁dro	-2387
▁rob	-2388
▁further	-2389
lear	-2390
▁civil	-2391
entle	-2392
iger	-2393
▁services	-2394
▁stock	-2395
▁neighb	-2396
▁More	-2397
▁Man	-2398
▁enc	-2399
ensive	-2400
▁position	-2401
▁instit	-2402
ortun	-2403
▁orig	-2404
▁station	-2405
ivid	-2406
▁imm	-2407
▁langu	-2408
▁moving	-2409
▁picture	-2410
,"	-2411
▁murder	-2412
▁search	-2413
ma	-2414
idge	-2415
▁modern	-2416
▁fear	-2417
▁drop	-2418
▁Per	-2419
▁However	-2420
oof	-2421
▁happens	-2422
▁investment	-2423
▁voice	-2424
▁ran	-2425
right	-2426
ament	-2427
ilities	-2428
▁gas	-2429
fact	-2430
omb	-2431
▁vill	-2432
......	-2433
▁became	-2434
▁emb	-2435
ume	-2436
▁promise	-2437
ijing	-2438
▁changed	-2439
ffic	-2440
),	-2441
▁Intern	-2442
▁Christ	-2443
▁bath	-2444
ili	-2445
▁attention	-2446
ogn	-2447
ech	-2448
▁prices	-2449
▁peace	-2450
▁eight	-2451
▁explain	-2452
▁surv	-2453
ees	-2454
▁crit	-2455
▁x	-2456
▁firm	-2457
avy	-2458
▁feet	-2459
▁throw	-2460
▁challen	-2461
roll	-2462
set	-2463
▁demand	-2464
▁hund	-2465
▁administ	-2466
▁Con	-2467
▁crisis	-2468
▁esc	-2469
itted	-2470
eng	-2471
▁sour	-2472
▁stat	-2473
ounc	-2474
▁hundred	-2475
ique	-2476
▁About	-2477
▁extra	-2478
▁finally	-2479
▁department	-2480
▁flow	-2481
mp	-2482
▁execut	-2483
ails	-2484
▁beat	-2485
▁united	-2486
▁tick	-2487
yn	-2488
▁period	-2489
0.	-2490
bit	-2491
▁Mom	-2492
▁jour	-2493
▁necess	-2494
▁lat	-2495
ires	-2496
▁cash	-2497
▁const	-2498
▁club	-2499
▁based	-2500
▁round	-2501
▁Got	-2502
▁leaders	-2503
iant	-2504
▁draw	-2505
▁minister	-2506
ann	-2507
▁ways	-2508
▁shouldn	-2509
▁100	-2510
▁los	-2511
▁Last	-2512
▁analy	-2513
▁members	-2514
▁camer	-2515
▁bill	-2516
▁anybody	-2517
▁floor	-2518
like	-2519
▁18	-2520
▁spent	-2521
itness	-2522
▁funny	-2523
▁fat	-2524
▁piece	-2525
▁kept	-2526
ued	-2527
cy	-2528
▁interv	-2529
▁markets	-2530
▁aud	-2531
uses	-2532
olute	-2533
ondon	-2534
▁breat	-2535
▁miles	-2536
▁engine	-2537
▁New	-2538
▁Exc	-2539
▁obv	-2540
omes	-2541
ha	-2542
▁anyway	-2543
▁decision	-2544
▁doub	-2545
▁target	-2546
fully	-2547
gn	-2548
▁natural	-2549
▁Great	-2550
▁lay	-2551
▁roll	-2552
ply	-2553
▁arr	-2554
▁opportun	-2555
empt	-2556
▁ju	-2557
▁grad	-2558
dden	-2559
▁rules	-2560
▁former	-2561
arr	-2562
gue	-2563
▁accident	-2564
medi	-2565
▁pet	-2566
▁opt	-2567
▁smart	-2568
▁medic	-2569
soci	-2570
▁ele	-2571
ky	-2572
gg	-2573
▁dance	-2574
▁lawy	-2575
▁army	-2576
▁ang	-2577
▁paid	-2578
▁upon	-2579
▁wel	-2580
▁dise	-2581
▁fresh	-2582
▁mob	-2583
▁defin	-2584
▁fill	-2585
irst	-2586
▁kiss	-2587
▁Pe	-2588
▁introd	-2589
▁object	-2590
▁repres	-2591
lin	-2592
ressed	-2593
▁block	-2594
▁sudden	-2595
▁jump	-2596
▁plant	-2597
▁Sometimes	-2598
ux	-2599
▁mouth	-2600
▁sens	-2601
enty	-2602
▁yesterday	-2603
▁arrest	-2604
▁11	-2605
▁thinks	-2606
▁theory	-2607
▁river	-2608
light	-2609
▁subject	-2610
ently	-2611
▁simple	-2612
▁consider	-2613
▁science	-2614
▁sounds	-2615
▁itself	-2616
▁huge	-2617
▁recogn	-2618
▁rid	-2619
hern	-2620
▁Ne	-2621
▁attract	-2622
ERN	-2623
key	-2624
▁usually	-2625
▁glad	-2626
book	-2627
rible	-2628
hood	-2629
▁above	-2630
▁weren	-2631
▁pros	-2632
▁pan	-2633
▁mention	-2634
▁amaz	-2635
▁track	-2636
▁crime	-2637
▁products	-2638
▁democr	-2639
▁calling	-2640
▁BEST	-2641
▁WEST	-2642
▁Cl	-2643
▁WESTERN	-2644
ware	-2645
reci	-2646
▁struct	-2647
▁Other	-2648
▁resour	-2649
▁pred	-2650
▁completely	-2651
▁loved	-2652
aced	-2653
▁plans	-2654
▁pressure	-2655
ession	-2656
▁repl	-2657
▁host	-2658
▁Excuse	-2659
▁movie	-2660
▁vide	-2661
val	-2662
cer	-2663
ression	-2664
ask	-2665
▁ice	-2666
▁property	-2667
▁provide	-2668
▁flat	-2669
▁damn	-2670
ley	-2671
▁gre	-2672
▁individ	-2673
▁Everything	-2674
ik	-2675
hold	-2676
▁especially	-2677
reng	-2678
▁double	-2679
▁began	-2680
▁calls	-2681
▁Car	-2682
▁seven	-2683
vert	-2684
▁missing	-2685
▁seeing	-2686
▁loss	-2687
wh	-2688
▁den	-2689
▁society	-2690
han	-2691
▁lad	-2692
▁contact	-2693
▁Gr	-2694
▁sales	-2695
▁quiet	-2696
roy	-2697
▁disp	-2698
▁chair	-2699
ipped	-2700
▁medical	-2701
iday	-2702
▁action	-2703
reme	-2704
acking	-2705
▁pub	-2706
▁fing	-2707
af	-2708
▁caught	-2709
▁Most	-2710
▁telev	-2711
▁fish	-2712
▁kore	-2713
▁.	-2714
astic	-2715
▁worse	-2716
▁charge	-2717
iny	-2718
▁quality	-2719
▁tor	-2720
▁scared	-2721
▁smo	-2722
▁instead	-2723
▁estab	-2724
▁anc	-2725
▁culture	-2726
gen	-2727
▁Many	-2728
▁separ	-2729
▁arm	-2730
rel	-2731
lt	-2732
▁popular	-2733
▁quickly	-2734
▁bitch	-2735
▁thanks	-2736
ened	-2737
▁stick	-2738
ulations	-2739
ached	-2740
au	-2741
▁debt	-2742
isc	-2743
▁et	-2744
▁reform	-2745
▁create	-2746
▁streng	-2747
▁quar	-2748
▁obama	-2749
▁continue	-2750
",	-2751
▁watching	-2752
▁nuc	-2753
▁worried	-2754
▁influ	-2755
▁held	-2756
▁prec	-2757
▁intell	-2758
▁books	-2759
▁normal	-2760
▁message	-2761
riage	-2762
▁arri	-2763
ledge	-2764
▁analysis	-2765
▁type	-2766
▁amount	-2767
▁moved	-2768
▁queen	-2769
▁clothes	-2770
▁Fine	-2771
▁laug	-2772
▁media	-2773
▁wear	-2774
▁burn	-2775
▁restaur	-2776
ends	-2777
▁staff	-2778
▁sitting	-2779
▁individual	-2780
mas	-2781
▁summer	-2782
▁Tod	-2783
▁Acc	-2784
▁exch	-2785
▁role	-2786
▁honey	-2787
▁associ	-2788
▁percent	-2789
▁involved	-2790
▁suspect	-2791
▁spot	-2792
▁tast	-2793
ively	-2794
▁tea	-2795
itc	-2796
▁legal	-2797
▁ho	-2798
aining	-2799
▁russ	-2800
esus	-2801
▁rights	-2802
▁bird	-2803
▁wat	-2804
▁weird	-2805
ieve	-2806
▁following	-2807
izing	-2808
▁beijing	-2809
▁blue	-2810
▁biggest	-2811
▁nature	-2812
amb	-2813
▁50	-2814
▁gentle	-2815
urch	-2816
▁appreci	-2817
▁sad	-2818
lebr	-2819
▁bought	-2820
istan	-2821
▁spirit	-2822
▁American	-2823
▁glass	-2824
▁corpor	-2825
▁jobs	-2826
.,	-2827
▁hol	-2828
▁Never	-2829
▁wood	-2830
▁practice	-2831
▁swear	-2832
oming	-2833
usion	-2834
▁En	-2835
▁built	-2836
▁somewhere	-2837
itely	-2838
▁wedding	-2839
urance	-2840
▁appear	-2841
▁Mar	-2842
▁blow	-2843
▁changes	-2844
▁Nothing	-2845
▁language	-2846
▁immedi	-2847
rupt	-2848
▁broke	-2849
▁Yet	-2850
▁recently	-2851
▁busy	-2852
▁investors	-2853
▁however	-2854
▁similar	-2855
▁master	-2856
▁online	-2857
▁born	-2858
eter	-2859
ids	-2860
▁areas	-2861
▁officials	-2862
▁european	-2863
▁pun	-2864
▁desk	-2865
▁shows	-2866
▁letter	-2867
▁till	-2868
▁Che	-2869
▁focus	-2870
▁season	-2871
atures	-2872
ov	-2873
▁princip	-2874
lished	-2875
iot	-2876
▁farm	-2877
verage	-2878
▁fool	-2879
▁include	-2880
ceed	-2881
▁smell	-2882
atory	-2883
imin	-2884
rect	-2885
▁Bl	-2886
▁issue	-2887
▁bond	-2888
aly	-2889
▁199	-2890
▁totally	-2891
▁handle	-2892
▁window	-2893
▁western	-2894
ification	-2895
▁behav	-2896
▁television	-2897
▁film	-2898
▁Ad	-2899
▁lucky	-2900
▁Today	-2901
▁lower	-2902
▁react	-2903
▁training	-2904
▁rom	-2905
ades	-2906
▁People	-2907
▁cry	-2908
▁celebr	-2909
▁site	-2910
▁kick	-2911
▁i	-2912
ancy	-2913
▁address	-2914
▁growing	-2915
▁stopped	-2916
▁Something	-2917
olutely	-2918
▁due	-2919
▁screen	-2920
▁command	-2921
▁broad	-2922
▁ach	-2923
▁Really	-2924
att	-2925
▁nuclear	-2926
▁ring	-2927
▁Keep	-2928
cell	-2929
itten	-2930
▁Lea	-2931
▁cab	-2932
▁earlier	-2933
▁cy	-2934
▁tired	-2935
▁represent	-2936
▁cook	-2937
▁improve	-2938
▁english	-2939
off	-2940
pping	-2941
itor	-2942
che	-2943
▁join	-2944
▁John	-2945
uan	-2946
▁pool	-2947
▁signific	-2948
▁ep	-2949
rael	-2950
▁simply	-2951
▁final	-2952
▁realize	-2953
uty	-2954
▁spo	-2955
▁assist	-2956
▁argu	-2957
you	-2958
▁communic	-2959
▁avoid	-2960
▁ride	-2961
▁skin	-2962
▁wild	-2963
▁wearing	-2964
▁feed	-2965
▁size	-2966
ufact	-2967
▁cases	-2968
▁reach	-2969
▁require	-2970
▁match	-2971
▁scene	-2972
▁production	-2973
▁rout	-2974
icking	-2975
eared	-2976
▁talked	-2977
▁led	-2978
▁honest	-2979
▁allowed	-2980
▁fort	-2981
▁dangerous	-2982
▁workers	-2983
▁soul	-2984
▁starting	-2985
▁mill	-2986
▁partner	-2987
▁docu	-2988
▁lying	-2989
ibly	-2990
▁expected	-2991
▁hung	-2992
▁Hold	-2993
▁ble	-2994
▁weak	-2995
back	-2996
iction	-2997
▁vir	-2998
▁rap	-2999
▁South	-3000
fl	-3001
▁performance	-3002
ental	-3003
ao	-3004
time	-3005
▁writing	-3006
▁Internet	-3007
nal	-3008
▁iron	-3009
▁seemed	-3010
raft	-3011
▁destroy	-3012
▁vot	-3013
▁egg	-3014
▁honor	-3015
▁25	-3016
▁drag	-3017
▁hous	-3018
▁truck	-3019
▁bott	-3020
▁speed	-3021
isions	-3022
▁commer	-3023
ective	-3024
▁radio	-3025
▁fem	-3026
epend	-3027
▁Sir	-3028
▁Only	-3029
▁path	-3030
▁evening	-3031
▁attempt	-3032
dom	-3033
▁mer	-3034
▁marriage	-3035
▁surf	-3036
▁certainly	-3037
▁Those	-3038
▁chick	-3039
ino	-3040
▁wine	-3041
now	-3042
oph	-3043
▁beginning	-3044
asure	-3045
▁text	-3046
.00	-3047
▁enem	-3048
▁total	-3049
▁interview	-3050
▁except	-3051
▁places	-3052
▁region	-3053
▁interested	-3054
▁tree	-3055
iers	-3056
rial	-3057
▁wide	-3058
▁machine	-3059
ker	-3060
▁arch	-3061
▁witness	-3062
aign	-3063
▁Tom	-3064
▁games	-3065
ares	-3066
▁rain	-3067
▁hall	-3068
▁boo	-3069
▁Someone	-3070
▁24	-3071
▁Qu	-3072
▁towards	-3073
▁video	-3074
▁deter	-3075
etic	-3076
▁showed	-3077
▁vac	-3078
▁condition	-3079
▁hero	-3080
▁flight	-3081
▁drugs	-3082
▁tight	-3083
▁Ph	-3084
▁amb	-3085
▁harm	-3086
▁increase	-3087
▁grab	-3088
▁standing	-3089
▁emot	-3090
▁cup	-3091
▁wrote	-3092
▁suit	-3093
osition	-3094
uts	-3095
▁lif	-3096
anced	-3097
▁Make	-3098
iling	-3099
▁killer	-3100
▁link	-3101
▁stage	-3102
▁difference	-3103
▁enterpr	-3104
▁church	-3105
▁manufact	-3106
vere	-3107
illy	-3108
▁results	-3109
▁tend	-3110
▁forgot	-3111
▁construction	-3112
▁murd	-3113
▁willing	-3114
▁nearly	-3115
▁inj	-3116
▁systems	-3117
▁helped	-3118
year	-3119
▁east	-3120
▁disease	-3121
▁Ro	-3122
▁First	-3123
▁instr	-3124
nov	-3125
▁boat	-3126
▁sand	-3127
ips	-3128
nes	-3129
▁reb	-3130
▁traditional	-3131
▁Bet	-3132
▁ability	-3133
▁article	-3134
▁counter	-3135
▁carry	-3136
▁century	-3137
overed	-3138
?!	-3139
ray	-3140
▁40	-3141
▁treatment	-3142
ban	-3143
▁Although	-3144
▁numbers	-3145
▁Nice	-3146
▁hun	-3147
▁chem	-3148
▁official	-3149
ground	-3150
iced	-3151
▁cere	-3152
ograph	-3153
zz	-3154
▁tough	-3155
ugg	-3156
▁mistake	-3157
▁sam	-3158
▁points	-3159
▁fault	-3160
▁spending	-3161
▁Eng	-3162
hington	-3163
II	-3164
▁knowledge	-3165
▁campaign	-3166
▁spread	-3167
▁Res	-3168
▁safety	-3169
▁gar	-3170
▁init	-3171
▁finish	-3172
▁nobody	-3173
?.	-3174
wan	-3175
▁apple	-3176
▁apartment	-3177
ault	-3178
▁Over	-3179
▁ver	-3180
order	-3181
▁cars	-3182
▁relax	-3183
▁plane	-3184
▁reading	-3185
oogle	-3186
itude	-3187
▁learned	-3188
▁famous	-3189
▁issues	-3190
▁whose	-3191
▁Ob	-3192
▁cast	-3193
▁judge	-3194
▁liter	-3195
▁driving	-3196
▁specific	-3197
▁adult	-3198
▁choose	-3199
wor	-3200
aint	-3201
▁lawyer	-3202
utions	-3203
▁log	-3204
▁surve	-3205
▁parts	-3206
▁onto	-3207
▁Very	-3208
▁mir	-3209
wise	-3210
ening	-3211
▁warm	-3212
▁According	-3213
▁rates	-3214
cks	-3215
erman	-3216
reed	-3217
▁necessary	-3218
▁inn	-3219
istics	-3220
▁und	-3221
yond	-3222
▁rise	-3223
▁micro	-3224
▁holding	-3225
▁amazing	-3226
▁interesting	-3227
asc	-3228
▁fighting	-3229
▁Act	-3230
▁decl	-3231
▁proud	-3232
▁screw	-3233
▁Should	-3234
▁vers	-3235
▁poll	-3236
▁phil	-3237
▁York	-3238
▁broken	-3239
▁ge	-3240
▁imagine	-3241
▁ut	-3242
riger	-3243
▁push	-3244
uary	-3245
ension	-3246
▁girlfriend	-3247
▁perhaps	-3248
▁potential	-3249
avid	-3250
inary	-3251
iation	-3252
rief	-3253
▁Three	-3254
▁veh	-3255
▁North	-3256
▁exchange	-3257
▁insurance	-3258
▁increasing	-3259
▁killing	-3260
▁walking	-3261
cause	-3262
▁standard	-3263
▁guard	-3264
▁Think	-3265
▁leader	-3266
▁reported	-3267
▁liber	-3268
▁gives	-3269
house	-3270
▁purp	-3271
▁Se	-3272
▁cancer	-3273
▁competition	-3274
▁officer	-3275
▁Stay	-3276
▁cit	-3277
aked	-3278
▁anti	-3279
▁16	-3280
▁kong	-3281
atives	-3282
▁deg	-3283
estic	-3284
amn	-3285
▁weight	-3286
eaking	-3287
▁trick	-3288
▁planning	-3289
▁hasn	-3290
▁teacher	-3291
▁internet	-3292
▁Whatever	-3293
▁nation	-3294
▁ess	-3295
▁scr	-3296
▁horse	-3297
ius	-3298
pite	-3299
▁file	-3300
iang	-3301
▁tele	-3302
▁offers	-3303
hel	-3304
▁select	-3305
▁belong	-3306
ror	-3307
▁putting	-3308
▁fruit	-3309
▁ancient	-3310
▁resources	-3311
▁steal	-3312
▁opportunity	-3313
rep	-3314
wood	-3315
▁anywhere	-3316
▁convers	-3317
▁boyfriend	-3318
▁Hot	-3319
▁sect	-3320
yal	-3321
▁prem	-3322
▁Pr	-3323
▁director	-3324
▁forces	-3325
▁angry	-3326
▁Turn	-3327
▁request	-3328
▁community	-3329
▁spl	-3330
▁neg	-3331
▁advant	-3332
▁bear	-3333
▁costs	-3334
▁extreme	-3335
oms	-3336
▁yell	-3337
onstr	-3338
▁Cal	-3339
▁Mrs	-3340
based	-3341
▁prim	-3342
▁eating	-3343
▁bigger	-3344
▁patients	-3345
▁ign	-3346
▁career	-3347
▁dollars	-3348
▁America	-3349
▁prove	-3350
just	-3351
▁mal	-3352
▁network	-3353
hai	-3354
▁passed	-3355
▁afric	-3356
▁teaching	-3357
▁raise	-3358
apers	-3359
▁tool	-3360
term	-3361
ulate	-3362
▁heavy	-3363
▁india	-3364
▁hong	-3365
▁?	-3366
▁14	-3367
▁application	-3368
▁progress	-3369
▁lived	-3370
antic	-3371
▁lord	-3372
▁Out	-3373
aded	-3374
eorge	-3375
of	-3376
▁bomb	-3377
▁spe	-3378
ushed	-3379
irty	-3380
▁Jesus	-3381
▁supply	-3382
▁Jack	-3383
▁student	-3384
chers	-3385
▁pow	-3386
▁york	-3387
▁groups	-3388
▁rule	-3389
▁Z	-3390
▁code	-3391
▁christ	-3392
▁van	-3393
asons	-3394
▁powerful	-3395
▁caused	-3396
▁jack	-3397
▁remain	-3398
chan	-3399
▁terms	-3400
▁ideas	-3401
▁Lord	-3402
▁indic	-3403
▁afterno	-3404
aries	-3405
ermany	-3406
▁birthday	-3407
▁created	-3408
▁captain	-3409
arely	-3410
egr	-3411
▁damage	-3412
▁independ	-3413
▁style	-3414
▁definitely	-3415
▁battle	-3416
hem	-3417
▁wake	-3418
uh	-3419
▁forever	-3420
▁hide	-3421
▁q	-3422
▁doubt	-3423
▁planet	-3424
pir	-3425
▁comfortable	-3426
▁feels	-3427
ented	-3428
▁color	-3429
▁levels	-3430
▁unc	-3431
▁guests	-3432
aging	-3433
▁Call	-3434
▁played	-3435
antly	-3436
▁shar	-3437
rs	-3438
stairs	-3439
▁mechan	-3440
ples	-3441
bing	-3442
▁responsible	-3443
▁sky	-3444
itchen	-3445
▁strange	-3446
▁dry	-3447
▁electric	-3448
amm	-3449
▁manager	-3450
▁material	-3451
using	-3452
▁cand	-3453
rigerator	-3454
▁happening	-3455
▁moon	-3456
ining	-3457
▁afternoon	-3458
▁laws	-3459
▁temper	-3460
▁dear	-3461
▁firms	-3462
▁impact	-3463
▁restaurant	-3464
▁names	-3465
▁seat	-3466
▁prime	-3467
▁relig	-3468
▁regular	-3469
ulous	-3470
▁effects	-3471
▁terror	-3472
▁note	-3473
▁mission	-3474
▁forg	-3475
agn	-3476
ancing	-3477
reg	-3478
▁Int	-3479
▁drunk	-3480
▁beyond	-3481
▁champ	-3482
▁written	-3483
iled	-3484
▁federal	-3485
▁average	-3486
ables	-3487
bon	-3488
▁ens	-3489
▁israel	-3490
mark	-3491
▁republic	-3492
▁crow	-3493
▁worst	-3494
▁lack	-3495
▁missed	-3496
ule	-3497
▁pa	-3498
▁source	-3499
▁fit	-3500
upp	-3501
▁contr	-3502
▁operation	-3503
▁tow	-3504
▁largest	-3505
▁san	-3506
▁pray	-3507
▁conditions	-3508
▁restr	-3509
▁bathroom	-3510
▁finished	-3511
▁developed	-3512
▁reve	-3513
gery	-3514
▁animals	-3515
▁brand	-3516
▁features	-3517
▁protection	-3518
▁swim	-3519
ooper	-3520
▁Their	-3521
ounced	-3522
▁exerc	-3523
▁memory	-3524
ashion	-3525
▁remains	-3526
ox	-3527
▁band	-3528
▁perm	-3529
▁pregn	-3530
▁calm	-3531
erson	-3532
▁opin	-3533
hib	-3534
▁content	-3535
▁acqu	-3536
▁jail	-3537
▁gift	-3538
gin	-3539
▁gard	-3540
inch	-3541
▁teach	-3542
▁Bar	-3543
▁british	-3544
▁reven	-3545
▁appreciate	-3546
▁aust	-3547
▁mix	-3548
akers	-3549
▁term	-3550
▁spring	-3551
▁17	-3552
▁immediately	-3553
▁herself	-3554
▁pig	-3555
▁forest	-3556
▁village	-3557
▁terrible	-3558
▁bod	-3559
▁faith	-3560
▁saved	-3561
hu	-3562
▁Ma	-3563
▁member	-3564
▁print	-3565
▁transport	-3566
iam	-3567
▁rat	-3568
▁daily	-3569
▁ult	-3570
▁keeping	-3571
▁approach	-3572
▁goods	-3573
ica	-3574
▁&	-3575
▁13	-3576
▁histor	-3577
▁apart	-3578
▁uncle	-3579
▁camera	-3580
▁wonderful	-3581
▁freed	-3582
▁reflect	-3583
▁web	-3584
▁sight	-3585
▁upset	-3586
▁animal	-3587
how	-3588
adem	-3589
▁rent	-3590
▁review	-3591
▁confir	-3592
▁welcome	-3593
▁ange	-3594
▁susp	-3595
▁closed	-3596
oun	-3597
▁agent	-3598
▁likes	-3599
▁nor	-3600
▁administration	-3601
▁Des	-3602
▁vote	-3603
▁Didn	-3604
▁equip	-3605
ading	-3606
▁basic	-3607
▁race	-3608
▁Comm	-3609
▁london	-3610
urg	-3611
▁coast	-3612
▁arms	-3613
ivity	-3614
▁Back	-3615
alk	-3616
ss	-3617
▁pictures	-3618
▁failed	-3619
cast	-3620
▁helping	-3621
▁Par	-3622
▁prefer	-3623
▁journal	-3624
▁thousands	-3625
ipe	-3626
▁liked	-3627
▁kitchen	-3628
▁intellig	-3629
itation	-3630
▁sout	-3631
▁traffic	-3632
▁correct	-3633
pper	-3634
▁executive	-3635
omen	-3636
ittee	-3637
ls	-3638
▁newsp	-3639
▁cells	-3640
▁sac	-3641
inct	-3642
▁meaning	-3643
▁selling	-3644
hol	-3645
▁strength	-3646
▁curren	-3647
▁Fl	-3648
ects	-3649
▁cities	-3650
▁aim	-3651
▁nine	-3652
▁shoes	-3653
▁bright	-3654
▁received	-3655
aiwan	-3656
▁funds	-3657
▁leading	-3658
▁none	-3659
▁customers	-3660
▁capt	-3661
▁complex	-3662
▁stuck	-3663
road	-3664
▁empt	-3665
urt	-3666
▁encour	-3667
▁euro	-3668
▁evil	-3669
▁remind	-3670
rant	-3671
▁suddenly	-3672
▁speech	-3673
▁learning	-3674
▁blind	-3675
▁notice	-3676
▁High	-3677
▁japanese	-3678
▁leaves	-3679
▁waste	-3680
▁Sm	-3681
▁Art	-3682
rict	-3683
▁neck	-3684
▁picked	-3685
▁transfer	-3686
▁asia	-3687
▁knock	-3688
▁medicine	-3689
▁oce	-3690
▁page	-3691
oses	-3692
ervous	-3693
ilies	-3694
▁beach	-3695
▁twice	-3696
▁partners	-3697
down	-3698
▁bow	-3699
▁Under	-3700
▁strategy	-3701
▁mort	-3702
▁easier	-3703
▁structure	-3704
▁labor	-3705
▁buddy	-3706
▁decide	-3707
▁figured	-3708
▁agency	-3709
▁conduct	-3710
▁wa	-3711
▁borrow	-3712
▁wire	-3713
▁Le	-3714
▁located	-3715
▁professional	-3716
omp	-3717
arily	-3718
istry	-3719
zen	-3720
▁feelings	-3721
▁distrib	-3722
▁airport	-3723
apt	-3724
ounce	-3725
play	-3726
▁determin	-3727
▁surprise	-3728
▁ip	-3729
▁google	-3730
▁apolog	-3731
useum	-3732
▁rele	-3733
ott	-3734
rate	-3735
▁pattern	-3736
▁Char	-3737
▁Both	-3738
▁concept	-3739
▁Us	-3740
ulated	-3741
icles	-3742
▁corner	-3743
▁crim	-3744
▁korea	-3745
▁shr	-3746
▁events	-3747
▁reports	-3748
▁original	-3749
▁lines	-3750
▁easily	-3751
ada	-3752
ores	-3753
▁adop	-3754
▁investigation	-3755
▁favorite	-3756
▁commercial	-3757
▁prevent	-3758
▁produc	-3759
imentary	-3760
iles	-3761
▁image	-3762
▁clearly	-3763
▁physical	-3764
uly	-3765
▁relative	-3766
atell	-3767
iforn	-3768
▁domestic	-3769
▁effic	-3770
gues	-3771
osis	-3772
▁positive	-3773
▁export	-3774
ossible	-3775
▁equipment	-3776
▁agreed	-3777
▁Inst	-3778
▁regard	-3779
▁quarter	-3780
▁sleeping	-3781
▁studies	-3782
▁mut	-3783
▁software	-3784
icide	-3785
iance	-3786
▁concerned	-3787
▁sched	-3788
ico	-3789
▁advice	-3790
▁promot	-3791
▁maker	-3792
▁nervous	-3793
▁behavior	-3794
▁hat	-3795
▁appoint	-3796
▁conference	-3797
▁neighbor	-3798
▁location	-3799
▁stress	-3800
▁wealth	-3801
▁resist	-3802
▁election	-3803
▁function	-3804
illed	-3805
▁measures	-3806
▁recomm	-3807
sequ	-3808
▁mountain	-3809
▁influence	-3810
▁cas	-3811
▁trial	-3812
▁afford	-3813
▁lic	-3814
▁kidding	-3815
▁weapon	-3816
▁surgery	-3817
aled	-3818
▁promised	-3819
▁liqu	-3820
moking	-3821
▁activity	-3822
▁marry	-3823
▁integr	-3824
▁mobile	-3825
▁careful	-3826
ocol	-3827
▁obviously	-3828
▁weapons	-3829
▁fle	-3830
▁walked	-3831
oned	-3832
▁daddy	-3833
▁latest	-3834
inated	-3835
▁schools	-3836
▁bell	-3837
▁De	-3838
▁Actually	-3839
▁agreement	-3840
▁related	-3841
▁nort	-3842
▁weekend	-3843
▁saving	-3844
▁finger	-3845
▁series	-3846
mon	-3847
▁shower	-3848
uel	-3849
▁reasons	-3850
▁snow	-3851
▁parties	-3852
▁particularly	-3853
▁industrial	-3854
izz	-3855
▁congress	-3856
▁dying	-3857
▁Dan	-3858
aches	-3859
round	-3860
cious	-3861
▁settle	-3862
▁fol	-3863
▁joint	-3864
icted	-3865
▁pulled	-3866
ram	-3867
▁Isn	-3868
ipl	-3869
▁admit	-3870
▁Rem	-3871
▁tub	-3872
▁challenge	-3873
▁autom	-3874
▁heat	-3875
ests	-3876
▁opened	-3877
▁collect	-3878
▁unit	-3879
▁families	-3880
▁bottom	-3881
ifornia	-3882
▁losing	-3883
▁innov	-3884
▁consult	-3885
▁Es	-3886
overy	-3887
▁beer	-3888
▁Col	-3889
▁plat	-3890
▁crowd	-3891
▁various	-3892
▁Japan	-3893
arant	-3894
▁subst	-3895
yl	-3896
night	-3897
anghai	-3898
▁range	-3899
ien	-3900
▁fired	-3901
▁raised	-3902
idered	-3903
▁senior	-3904
▁crack	-3905
ara	-3906
▁uns	-3907
▁purch	-3908
▁vent	-3909
▁cops	-3910
rog	-3911
▁innoc	-3912
▁hole	-3913
▁repe	-3914
▁fashion	-3915
anch	-3916
▁sem	-3917
▁hearing	-3918
▁budget	-3919
▁greater	-3920
▁professor	-3921
▁seriously	-3922
▁weather	-3923
▁magic	-3924
▁forced	-3925
▁hoping	-3926
▁designed	-3927
▁Frank	-3928
▁aware	-3929
▁divor	-3930
▁blame	-3931
▁Ag	-3932
▁item	-3933
▁Still	-3934
asion	-3935
▁dyn	-3936
▁fant	-3937
▁advantage	-3938
iverse	-3939
do	-3940
board	-3941
▁copy	-3942
▁seconds	-3943
▁serve	-3944
▁criminal	-3945
▁employees	-3946
▁stories	-3947
onom	-3948
▁turns	-3949
▁dump	-3950
arently	-3951
▁limited	-3952
while	-3953
▁revolution	-3954
▁female	-3955
▁heaven	-3956
▁clock	-3957
▁purpose	-3958
▁flu	-3959
▁population	-3960
▁ec	-3961
▁directly	-3962
▁drinking	-3963
▁contrib	-3964
▁quit	-3965
▁plenty	-3966
ym	-3967
esides	-3968
▁successful	-3969
rowave	-3970
▁particip	-3971
▁ourselves	-3972
▁East	-3973
▁dropped	-3974
▁responsibility	-3975
▁chann	-3976
1.	-3977
nel	-3978
▁older	-3979
▁dreams	-3980
▁unless	-3981
▁excuse	-3982
▁finding	-3983
asy	-3984
▁parking	-3985
place	-3986
▁stars	-3987
▁records	-3988
ously	-3989
▁surface	-3990
▁meat	-3991
ils	-3992
ript	-3993
▁below	-3994
hest	-3995
▁clim	-3996
▁followed	-3997
▁buying	-3998
▁describ	-3999
▁occur	-4000
▁Fin	-4001
▁bother	-4002
▁cove	-4003
▁purs	-4004
enced	-4005
iety	-4006
▁strateg	-4007
oon	-4008
▁gh	-4009
▁cow	-4010
▁Each	-4011
▁activities	-4012
ties	-4013
▁negot	-4014
▁taste	-4015
▁respond	-4016
▁direction	-4017
▁clin	-4018
▁milk	-4019
cket	-4020
▁checked	-4021
▁effort	-4022
ana	-4023
▁prior	-4024
▁achieve	-4025
▁skills	-4026
lf	-4027
rough	-4028
▁believed	-4029
▁refrigerator	-4030
▁Once	-4031
▁maintain	-4032
▁cooper	-4033
▁painting	-4034
isation	-4035
▁paying	-4036
▁toward	-4037
▁rub	-4038
▁experi	-4039
▁income	-4040
▁magn	-4041
▁includes	-4042
vent	-4043
▁Christmas	-4044
▁corporate	-4045
▁empty	-4046
vest	-4047
tery	-4048
▁experiment	-4049
▁bridge	-4050
"?	-4051
erves	-4052
▁bodies	-4053
▁Perhaps	-4054
▁citiz	-4055
▁flowers	-4056
▁therap	-4057
▁freedom	-4058
▁cloud	-4059
alled	-4060
▁effective	-4061
▁staying	-4062
▁highly	-4063
▁taiwan	-4064
▁square	-4065
aph	-4066
▁Sec	-4067
▁french	-4068
bl	-4069
▁considered	-4070
50	-4071
onse	-4072
▁candid	-4073
▁emergency	-4074
▁je	-4075
▁thousand	-4076
leep	-4077
▁developing	-4078
onday	-4079
▁ocean	-4080
▁guarant	-4081
▁justice	-4082
▁opinion	-4083
▁britain	-4084
▁bullet	-4085
▁satell	-4086
▁nations	-4087
iliar	-4088
▁Its	-4089
▁connect	-4090
▁impossible	-4091
▁cute	-4092
▁hook	-4093
ashed	-4094
▁absolutely	-4095
ushing	-4096
▁duty	-4097
▁ladies	-4098
▁prepared	-4099
ham	-4100
ae	-4101
▁ren	-4102
▁russia	-4103
ropri	-4104
▁circum	-4105
▁users	-4106
▁orders	-4107
▁microwave	-4108
▁beauty	-4109
▁john	-4110
▁measure	-4111
▁complic	-4112
ads	-4113
▁surprised	-4114
ender	-4115
▁opening	-4116
mer	-4117
▁district	-4118
ipping	-4119
▁scen	-4120
bert	-4121
▁healthy	-4122
put	-4123
▁gentlemen	-4124
▁constit	-4125
▁impl	-4126
▁gay	-4127
▁brief	-4128
▁detail	-4129
▁efforts	-4130
hou	-4131
▁produce	-4132
▁tit	-4133
▁storm	-4134
▁keeps	-4135
▁governments	-4136
▁goal	-4137
▁bedroom	-4138
▁suppose	-4139
▁pill	-4140
▁ox	-4141
▁union	-4142
▁cultural	-4143
▁loves	-4144
▁Find	-4145
iber	-4146
▁becoming	-4147
smoking	-4148
▁eventually	-4149
cellent	-4150
ilty	-4151
▁secretary	-4152
▁gang	-4153
▁Especially	-4154
▁fif	-4155
▁crap	-4156
ein	-4157
▁arrived	-4158
▁details	-4159
▁Har	-4160
▁illeg	-4161
▁lake	-4162
30	-4163
ours	-4164
arian	-4165
▁apply	-4166
▁Stud	-4167
acing	-4168
▁escape	-4169
▁statement	-4170
▁eggs	-4171
▁named	-4172
▁victims	-4173
▁Such	-4174
▁enemy	-4175
▁acting	-4176
▁offered	-4177
▁slight	-4178
▁dollar	-4179
▁ticket	-4180
▁jer	-4181
▁dow	-4182
▁conversation	-4183
▁rough	-4184
oot	-4185
▁authority	-4186
▁bunch	-4187
▁Mm	-4188
▁listening	-4189
▁2008	-4190
▁fuel	-4191
▁Bye	-4192
▁Leave	-4193
▁male	-4194
▁commission	-4195
uted	-4196
▁odd	-4197
▁dar	-4198
▁county	-4199
lig	-4200
▁demonstr	-4201
lim	-4202
▁spoke	-4203
umn	-4204
▁proced	-4205
▁ended	-4206
▁politics	-4207
▁frequ	-4208
phone	-4209
▁express	-4210
▁hom	-4211
▁response	-4212
▁basis	-4213
▁electron	-4214
▁required	-4215
▁rail	-4216
hetic	-4217
▁,	-4218
▁Article	-4219
▁Bring	-4220
▁expand	-4221
▁photo	-4222
▁smoke	-4223
ille	-4224
▁driver	-4225
▁winter	-4226
aching	-4227
▁faster	-4228
▁Everyone	-4229
uate	-4230
idden	-4231
▁tim	-4232
▁wis	-4233
▁lots	-4234
ship	-4235
ael	-4236
▁expensive	-4237
▁mac	-4238
▁bast	-4239
▁1.	-4240
iest	-4241
▁sports	-4242
▁dude	-4243
▁profit	-4244
ervation	-4245
▁Too	-4246
▁closer	-4247
▁critic	-4248
▁beds	-4249
▁rapid	-4250
erved	-4251
▁deliver	-4252
aped	-4253
itter	-4254
arrass	-4255
▁ya	-4256
▁currency	-4257
what	-4258
▁shock	-4259
▁Help	-4260
▁becomes	-4261
▁Unt	-4262
▁hyp	-4263
▁French	-4264
▁garden	-4265
▁stone	-4266
▁balance	-4267
▁discovered	-4268
oles	-4269
▁Were	-4270
▁talks	-4271
▁trees	-4272
▁brown	-4273
oop	-4274
▁wound	-4275
▁hadn	-4276
▁province	-4277
▁signs	-4278
under	-4279
▁coal	-4280
cher	-4281
▁qual	-4282
▁tun	-4283
▁unique	-4284
▁unf	-4285
▁chemical	-4286
▁virt	-4287
▁appl	-4288
▁smile	-4289
▁Eu	-4290
▁movement	-4291
▁kil	-4292
oops	-4293
▁plants	-4294
▁conven	-4295
essed	-4296
ald	-4297
▁Forget	-4298
▁task	-4299
▁collea	-4300
▁advert	-4301
▁During	-4302
▁Next	-4303
plement	-4304
▁cheap	-4305
▁satis	-4306
asty	-4307
▁authorities	-4308
oos	-4309
▁reality	-4310
▁speaking	-4311
▁guilty	-4312
▁shopping	-4313
lam	-4314
▁player	-4315
▁bust	-4316
▁commit	-4317
▁piss	-4318
▁hungry	-4319
▁fully	-4320
▁trend	-4321
alian	-4322
▁separate	-4323
ris	-4324
▁wondering	-4325
▁jew	-4326
▁germany	-4327
.'	-4328
well	-4329
▁falling	-4330
▁assum	-4331
tr	-4332
▁added	-4333
▁release	-4334
▁setting	-4335
▁counc	-4336
▁giant	-4337
▁resident	-4338
▁Looks	-4339
▁Hotel	-4340
▁nar	-4341
speed	-4342
ghan	-4343
ford	-4344
▁status	-4345
▁assets	-4346
▁neither	-4347
▁shooting	-4348
▁owe	-4349
▁Somebody	-4350
▁dogs	-4351
▁announced	-4352
▁pregnant	-4353
▁embarrass	-4354
▁concent	-4355
▁Russ	-4356
▁198	-4357
▁offering	-4358
▁environmental	-4359
▁reduce	-4360
lymp	-4361
sts	-4362
▁poison	-4363
▁legs	-4364
▁sexual	-4365
▁academ	-4366
▁finance	-4367
▁George	-4368
▁lies	-4369
oh	-4370
▁negoti	-4371
rit	-4372
▁nose	-4373
▁heads	-4374
▁zone	-4375
▁magaz	-4376
▁species	-4377
▁march	-4378
▁tab	-4379
▁matters	-4380
▁organization	-4381
field	-4382
▁Try	-4383
▁expert	-4384
nces	-4385
▁turning	-4386
ago	-4387
pro	-4388
▁delic	-4389
▁realized	-4390
▁climate	-4391
▁football	-4392
▁methods	-4393
▁grown	-4394
▁establish	-4395
▁Want	-4396
▁covered	-4397
▁El	-4398
▁libr	-4399
▁gotten	-4400
▁Move	-4401
▁changing	-4402
▁hyd	-4403
▁signed	-4404
ulf	-4405
mail	-4406
▁familiar	-4407
imum	-4408
▁appears	-4409
▁soldiers	-4410
▁mail	-4411
▁everywhere	-4412
▁businesses	-4413
▁Until	-4414
▁laugh	-4415
▁fan	-4416
▁centre	-4417
ano	-4418
ula	-4419
▁launch	-4420
▁mini	-4421
eding	-4422
▁defense	-4423
▁hardly	-4424
▁60	-4425
20	-4426
▁inspect	-4427
▁bye	-4428
▁Inn	-4429
▁Pres	-4430
▁Fuck	-4431
▁hi	-4432
▁southern	-4433
▁significant	-4434
▁grew	-4435
▁scientific	-4436
mar	-4437
owned	-4438
gypt	-4439
▁novel	-4440
▁obvious	-4441
▁Say	-4442
▁implement	-4443
▁tape	-4444
fortun	-4445
▁failure	-4446
▁benefit	-4447
▁pleasure	-4448
▁cards	-4449
akistan	-4450
▁understanding	-4451
uing	-4452
▁confl	-4453
▁washington	-4454
porary	-4455
▁ghost	-4456
▁rising	-4457
kin	-4458
▁rose	-4459
▁museum	-4460
▁projects	-4461
encies	-4462
eration	-4463
▁showing	-4464
2.	-4465
▁streets	-4466
ager	-4467
▁tiny	-4468
▁scientists	-4469
force	-4470
▁shift	-4471
▁greatest	-4472
icians	-4473
ett	-4474
action	-4475
enn	-4476
▁joke	-4477
▁bottle	-4478
ka	-4479
reak	-4480
▁rare	-4481
▁sector	-4482
nam	-4483
▁Brit	-4484
▁innocent	-4485
▁alarm	-4486
▁exercise	-4487
▁fee	-4488
ios	-4489
▁published	-4490
aud	-4491
oved	-4492
▁Wor	-4493
▁bringing	-4494
▁scream	-4495
▁brothers	-4496
▁hill	-4497
▁godd	-4498
-1	-4499
▁crew	-4500
▁surround	-4501
▁border	-4502
olf	-4503
heart	-4504
▁benefits	-4505
▁released	-4506
▁Instead	-4507
▁reached	-4508
▁tells	-4509
isted	-4510
▁provided	-4511
rated	-4512
▁factors	-4513
ography	-4514
▁trading	-4515
▁document	-4516
▁altern	-4517
▁factory	-4518
▁dirty	-4519
▁universe	-4520
▁sin	-4521
▁idiot	-4522
▁addition	-4523
ato	-4524
▁Bel	-4525
▁locked	-4526
▁Mean	-4527
▁guns	-4528
▁connection	-4529
▁although	-4530
bor	-4531
▁lovely	-4532
icit	-4533
▁Stand	-4534
5.	-4535
aq	-4536
▁cart	-4537
▁generation	-4538
orter	-4539
▁mood	-4540
▁excited	-4541
▁taught	-4542
▁distance	-4543
▁researchers	-4544
▁depos	-4545
▁Whe	-4546
▁flying	-4547
▁regul	-4548
▁motor	-4549
▁bound	-4550
▁English	-4551
isters	-4552
▁version	-4553
▁returned	-4554
▁comment	-4555
▁council	-4556
▁lights	-4557
▁materials	-4558
levant	-4559
▁committee	-4560
▁doctors	-4561
▁univers	-4562
▁whom	-4563
▁suck	-4564
acle	-4565
que	-4566
▁breath	-4567
▁satellite	-4568
▁degree	-4569
▁Huh	-4570
▁sees	-4571
▁hundreds	-4572
▁stole	-4573
ichael	-4574
▁deserve	-4575
▁map	-4576
urday	-4577
izes	-4578
▁jan	-4579
▁Watch	-4580
▁included	-4581
▁pil	-4582
▁extremely	-4583
iring	-4584
ricult	-4585
▁urban	-4586
▁charges	-4587
▁trig	-4588
cont	-4589
▁harder	-4590
▁truly	-4591
▁clients	-4592
oices	-4593
▁africa	-4594
▁iran	-4595
▁negative	-4596
▁Without	-4597
ete	-4598
▁windows	-4599
▁starts	-4600
▁smaller	-4601
▁lone	-4602
▁Ac	-4603
▁Cong	-4604
▁steps	-4605
▁Sam	-4606
▁chicken	-4607
rees	-4608
▁ensure	-4609
▁thoughts	-4610
▁noticed	-4611
▁shape	-4612
▁eval	-4613
▁''	-4614
▁Dude	-4615
▁2009	-4616
▁contain	-4617
berg	-4618
lus	-4619
▁tests	-4620
lation	-4621
ribe	-4622
▁Sounds	-4623
▁inflation	-4624
alley	-4625
▁notes	-4626
▁Everybody	-4627
▁0	-4628
▁possibly	-4629
▁webs	-4630
▁Park	-4631
▁runs	-4632
▁detective	-4633
▁sale	-4634
▁millions	-4635
▁controll	-4636
▁rot	-4637
iplom	-4638
itz	-4639
▁Hmm	-4640
ruct	-4641
pe	-4642
ece	-4643
▁Shut	-4644
▁agricult	-4645
▁mel	-4646
▁grant	-4647
▁philos	-4648
olly	-4649
ifying	-4650
▁Start	-4651
▁pants	-4652
▁standards	-4653
▁Pol	-4654
▁circumst	-4655
▁emp	-4656
erry	-4657
▁survive	-4658
▁increased	-4659
▁merc	-4660
▁austral	-4661
▁incred	-4662
▁shanghai	-4663
▁facilities	-4664
▁symb	-4665
▁arrange	-4666
▁complimentary	-4667
▁nut	-4668
▁joy	-4669
▁transform	-4670
▁21	-4671
aine	-4672
▁dial	-4673
▁Air	-4674
▁multip	-4675
▁fal	-4676
▁strike	-4677
▁nom	-4678
imately	-4679
▁device	-4680
▁warning	-4681
▁diss	-4682
▁movies	-4683
inting	-4684
▁newspaper	-4685
ero	-4686
▁faces	-4687
▁interests	-4688
▁stood	-4689
▁carried	-4690
▁enterprise	-4691
▁Gl	-4692
uries	-4693
▁france	-4694
▁hurry	-4695
acity	-4696
▁tall	-4697
uls	-4698
▁Bab	-4699
▁downt	-4700
▁veget	-4701
kn	-4702
▁unlike	-4703
▁archit	-4704
▁adjust	-4705
▁desert	-4706
▁papers	-4707
▁vision	-4708
igned	-4709
▁mere	-4710
hi	-4711
▁carbon	-4712
▁spect	-4713
omed	-4714
▁affect	-4715
▁flo	-4716
▁recognize	-4717
▁Sim	-4718
▁seek	-4719
▁explos	-4720
▁photos	-4721
▁tv	-4722
▁files	-4723
▁entertain	-4724
▁Europe	-4725
▁bid	-4726
▁uses	-4727
▁regist	-4728
▁gal	-4729
ns	-4730
▁Rel	-4731
▁mostly	-4732
eds	-4733
▁flood	-4734
▁consumer	-4735
▁annual	-4736
▁intelligence	-4737
▁Mor	-4738
▁aband	-4739
▁signal	-4740
part	-4741
hens	-4742
▁policies	-4743
▁helps	-4744
reek	-4745
anda	-4746
state	-4747
otic	-4748
▁London	-4749
▁buff	-4750
▁limit	-4751
▁conflict	-4752
craft	-4753
uesday	-4754
▁Wow	-4755
▁stab	-4756
▁scar	-4757
▁kinds	-4758
▁previous	-4759
▁solution	-4760
acious	-4761
▁fixed	-4762
▁arrested	-4763
▁americans	-4764
urry	-4765
▁Cont	-4766
▁planned	-4767
▁hiding	-4768
▁$1	-4769
ompl	-4770
▁stom	-4771
▁pieces	-4772
esome	-4773
▁gall	-4774
▁vehicle	-4775
hole	-4776
▁bang	-4777
▁waff	-4778
▁meal	-4779
▁shares	-4780
▁forgive	-4781
▁Sw	-4782
▁ms	-4783
▁survey	-4784
▁confidence	-4785
▁uk	-4786
▁customer	-4787
▁yog	-4788
pen	-4789
▁Ear	-4790
▁aid	-4791
▁teeth	-4792
▁cock	-4793
cohol	-4794
▁quant	-4795
▁toil	-4796
▁Cent	-4797
▁barely	-4798
▁fro	-4799
▁administr	-4800
▁loud	-4801
inese	-4802
▁Nobody	-4803
▁northern	-4804
▁suggests	-4805
ket	-4806
▁owners	-4807
▁der	-4808
aret	-4809
oman	-4810
▁lux	-4811
▁receive	-4812
▁filled	-4813
ocking	-4814
▁lob	-4815
▁Though	-4816
illing	-4817
▁sust	-4818
▁operations	-4819
la	-4820
▁knife	-4821
▁scale	-4822
ugust	-4823
▁tickets	-4824
▁unp	-4825
▁dancing	-4826
▁display	-4827
ropriate	-4828
▁shown	-4829
uous	-4830
▁served	-4831
▁ordered	-4832
▁subs	-4833
iveness	-4834
▁calc	-4835
employ	-4836
▁hanging	-4837
▁chain	-4838
▁stim	-4839
▁actual	-4840
▁chat	-4841
▁illegal	-4842
▁Em	-4843
▁Guys	-4844
▁ug	-4845
▁propos	-4846
▁players	-4847
▁friendly	-4848
oe	-4849
▁Te	-4850
▁cert	-4851
rat	-4852
▁diplom	-4853
▁Part	-4854
▁violence	-4855
ales	-4856
▁crying	-4857
▁superv	-4858
▁believes	-4859
▁bug	-4860
▁Had	-4861
▁german	-4862
▁Im	-4863
▁defend	-4864
▁cig	-4865
hered	-4866
▁minor	-4867
▁knowing	-4868
▁internal	-4869
▁cos	-4870
▁gate	-4871
▁letters	-4872
▁edge	-4873
▁regret	-4874
▁houses	-4875
▁dust	-4876
▁shirt	-4877
▁freak	-4878
▁asleep	-4879
▁sides	-4880
▁increasingly	-4881
▁section	-4882
▁ta	-4883
▁bone	-4884
▁independent	-4885
▁compared	-4886
▁jun	-4887
▁rum	-4888
resp	-4889
anta	-4890
▁wet	-4891
▁claims	-4892
▁occup	-4893
▁smoking	-4894
▁liquid	-4895
▁cream	-4896
▁replace	-4897
▁Up	-4898
ront	-4899
▁decisions	-4900
▁sacr	-4901
▁homes	-4902
rian	-4903
ecture	-4904
▁convinc	-4905
▁core	-4906
▁digital	-4907
▁symbol	-4908
mes	-4909
▁alt	-4910
▁powers	-4911
▁500	-4912
▁David	-4913
▁dressed	-4914
orters	-4915
▁refer	-4916
▁fake	-4917
▁pure	-4918
outs	-4919
zed	-4920
▁Four	-4921
▁attor	-4922
▁Su	-4923
▁Besides	-4924
▁thin	-4925
▁consumers	-4926
▁Boy	-4927
▁pair	-4928
▁upstairs	-4929
ription	-4930
▁resc	-4931
▁solid	-4932
▁chest	-4933
▁watched	-4934
▁chairman	-4935
uggle	-4936
ops	-4937
▁ends	-4938
▁useful	-4939
pril	-4940
mit	-4941
aming	-4942
works	-4943
▁dealing	-4944
▁origin	-4945
iform	-4946
▁active	-4947
▁overse	-4948
▁ing	-4949
▁sym	-4950
▁birds	-4951
ptember	-4952
imp	-4953
▁larger	-4954
▁banking	-4955
▁sending	-4956
▁Miss	-4957
uten	-4958
ealous	-4959
▁depart	-4960
wide	-4961
ursday	-4962
▁disappoint	-4963
▁neighborhood	-4964
▁proof	-4965
iculous	-4966
▁options	-4967
elling	-4968
▁troops	-4969
pet	-4970
▁fortune	-4971
▁talent	-4972
▁youth	-4973
nger	-4974
▁furn	-4975
▁troub	-4976
▁afghan	-4977
▁managed	-4978
▁exit	-4979
▁consequ	-4980
▁bon	-4981
▁appeal	-4982
▁atm	-4983
ctions	-4984
▁technical	-4985
▁reject	-4986
▁rice	-4987
▁Big	-4988
▁depend	-4989
gent	-4990
▁Inc	-4991
▁bure	-4992
▁Free	-4993
▁brings	-4994
▁ought	-4995
▁fellow	-4996
▁roof	-4997
▁diagn	-4998
▁estate	-4999
▁democratic	-5000
fe	-5001
▁lied	-5002
▁apologize	-5003
itors	-5004
▁Paris	-5005
standing	-5006
▁sugar	-5007
▁teen	-5008
▁desper	-5009
▁Cons	-5010
▁estim	-5011
▁wheel	-5012
▁breaking	-5013
zing	-5014
▁flag	-5015
▁sake	-5016
▁tong	-5017
▁treated	-5018
icip	-5019
▁mama	-5020
▁hopes	-5021
▁stomach	-5022
▁divorce	-5023
▁provides	-5024
▁bail	-5025
iency	-5026
▁Rec	-5027
▁operating	-5028
▁gather	-5029
▁otherwise	-5030
uke	-5031
▁ven	-5032
▁alcohol	-5033
▁2.	-5034
▁butt	-5035
▁X	-5036
▁eth	-5037
▁Alright	-5038
▁communication	-5039
▁pin	-5040
iat	-5041
de	-5042
gment	-5043
▁ded	-5044
▁elev	-5045
▁oppos	-5046
▁assume	-5047
▁package	-5048
▁Pre	-5049
▁coach	-5050
▁yellow	-5051
▁invited	-5052
▁drinks	-5053
▁throughout	-5054
▁Gen	-5055
▁yield	-5056
ache	-5057
bel	-5058
▁shad	-5059
▁Probably	-5060
▁indeed	-5061
lor	-5062
olen	-5063
▁waffles	-5064
▁Ed	-5065
abor	-5066
▁mart	-5067
▁therefore	-5068
tic	-5069
▁Pa	-5070
rene	-5071
▁split	-5072
▁sof	-5073
▁entr	-5074
▁risks	-5075
▁confident	-5076
2-	-5077
▁hel	-5078
▁impress	-5079
▁iraq	-5080
▁younger	-5081
▁ow	-5082
▁compar	-5083
bye	-5084
pects	-5085
stood	-5086
ston	-5087
▁buildings	-5088
▁fab	-5089
water	-5090
▁bonds	-5091
▁recommend	-5092
▁excellent	-5093
▁spr	-5094
▁foundation	-5095
▁197	-5096
▁fisc	-5097
▁steel	-5098
▁chap	-5099
▁stret	-5100
▁United	-5101
▁despite	-5102
verse	-5103
▁advanced	-5104
▁facebook	-5105
known	-5106
▁Wi	-5107
ruption	-5108
▁boost	-5109
cel	-5110
▁feature	-5111
then	-5112
▁atmosp	-5113
▁San	-5114
▁types	-5115
▁States	-5116
▁carrying	-5117
roc	-5118
iable	-5119
▁Love	-5120
▁sites	-5121
oted	-5122
▁emerging	-5123
▁chocol	-5124
icy	-5125
semb	-5126
▁thus	-5127
oly	-5128
▁sword	-5129
that	-5130
▁index	-5131
▁dating	-5132
▁incident	-5133
▁institutions	-5134
▁characteristics	-5135
▁gain	-5136
▁Ready	-5137
▁mentioned	-5138
allow	-5139
▁dism	-5140
▁Bob	-5141
▁pretend	-5142
▁Through	-5143
▁Rep	-5144
▁retail	-5145
▁solar	-5146
▁stayed	-5147
▁letting	-5148
1,	-5149
▁cuts	-5150
▁perfectly	-5151
▁library	-5152
▁attend	-5153
▁Meanwhile	-5154
quar	-5155
▁threw	-5156
▁division	-5157
▁laid	-5158
urse	-5159
arch	-5160
▁severe	-5161
▁wave	-5162
▁trib	-5163
▁highest	-5164
▁Tomorrow	-5165
▁sharp	-5166
▁tools	-5167
ias	-5168
▁pocket	-5169
▁suicide	-5170
▁silver	-5171
▁Whether	-5172
▁switch	-5173
▁attacks	-5174
▁relevant	-5175
but	-5176
father	-5177
▁crash	-5178
▁grass	-5179
▁optim	-5180
▁officers	-5181
▁marketing	-5182
▁pump	-5183
▁models	-5184
▁economies	-5185
▁poly	-5186
▁moves	-5187
▁causes	-5188
▁figures	-5189
7.	-5190
▁Jim	-5191
▁arab	-5192
▁sport	-5193
▁Better	-5194
▁experts	-5195
anged	-5196
▁forms	-5197
▁journey	-5198
▁holiday	-5199
▁bastard	-5200
▁legis	-5201
▁dumb	-5202
▁Sat	-5203
▁cutting	-5204
▁apparently	-5205
▁max	-5206
char	-5207
▁olymp	-5208
▁`	-5209
osc	-5210
▁accounts	-5211
▁citizens	-5212
▁oblig	-5213
isco	-5214
▁reput	-5215
▁concerns	-5216
ander	-5217
▁background	-5218
▁diet	-5219
▁housing	-5220
▁documents	-5221
▁complicated	-5222
▁interf	-5223
▁recovery	-5224
▁cake	-5225
▁punish	-5226
▁strugg	-5227
▁suite	-5228
▁vice	-5229
icing	-5230
▁manufacture	-5231
▁dare	-5232
▁humans	-5233
hab	-5234
▁Has	-5235
▁mum	-5236
▁armed	-5237
▁2010	-5238
▁principle	-5239
▁usual	-5240
▁Ste	-5241
▁Check	-5242
▁favour	-5243
▁keys	-5244
ki	-5245
▁bread	-5246
anish	-5247
▁platform	-5248
▁Trust	-5249
▁answers	-5250
▁bub	-5251
▁decades	-5252
heng	-5253
▁option	-5254
▁suffer	-5255
▁diam	-5256
▁mental	-5257
▁headed	-5258
▁announce	-5259
▁opposition	-5260
nesday	-5261
osure	-5262
▁finds	-5263
▁vast	-5264
▁happiness	-5265
▁laun	-5266
▁institute	-5267
itory	-5268
▁creating	-5269
3.	-5270
icious	-5271
▁destroyed	-5272
add	-5273
▁magazine	-5274
▁pakistan	-5275
▁oct	-5276
▁royal	-5277
▁fourth	-5278
inate	-5279
ucing	-5280
▁entirely	-5281
▁circumstances	-5282
agon	-5283
▁mountains	-5284
ye	-5285
print	-5286
entially	-5287
▁moral	-5288
▁audience	-5289
▁appeared	-5290
▁instance	-5291
▁june	-5292
▁kilomet	-5293
▁colleagues	-5294
▁Mex	-5295
▁regional	-5296
▁presence	-5297
▁collection	-5298
▁winning	-5299
▁unus	-5300
▁asian	-5301
boy	-5302
ran	-5303
▁ber	-5304
▁Hurry	-5305
▁trail	-5306
▁suc	-5307
▁fiscal	-5308
▁rescue	-5309
ocal	-5310
▁Must	-5311
point	-5312
▁stream	-5313
▁leadership	-5314
▁introduced	-5315
▁engineering	-5316
ette	-5317
illiant	-5318
▁Being	-5319
▁religious	-5320
▁ash	-5321
▁singing	-5322
▁Aw	-5323
▁cable	-5324
▁currently	-5325
ception	-5326
oom	-5327
ober	-5328
▁phen	-5329
▁desire	-5330
▁generally	-5331
▁tail	-5332
▁massive	-5333
▁Whoa	-5334
▁fishing	-5335
...?	-5336
▁soil	-5337
▁committed	-5338
▁cabin	-5339
▁attorney	-5340
reet	-5341
▁accompl	-5342
▁mate	-5343
▁frame	-5344
fortunately	-5345
▁affairs	-5346
▁tie	-5347
▁taxes	-5348
▁labour	-5349
sey	-5350
▁acid	-5351
▁blog	-5352
▁items	-5353
▁loan	-5354
aving	-5355
ifts	-5356
lies	-5357
▁loans	-5358
▁secure	-5359
▁mortg	-5360
▁tap	-5361
▁grade	-5362
▁predict	-5363
▁established	-5364
Fi	-5365
▁valu	-5366
▁capacity	-5367
icago	-5368
▁Chinese	-5369
igr	-5370
▁teachers	-5371
bered	-5372
▁basket	-5373
▁gri	-5374
▁stolen	-5375
▁heading	-5376
▁instru	-5377
▁imper	-5378
▁paint	-5379
▁awesome	-5380
▁guide	-5381
▁produced	-5382
istent	-5383
▁passion	-5384
US	-5385
▁puts	-5386
▁metal	-5387
▁conserv	-5388
▁primary	-5389
▁argue	-5390
▁hired	-5391
▁advance	-5392
xic	-5393
▁fest	-5394
▁solve	-5395
▁tort	-5396
▁romantic	-5397
zhou	-5398
▁anx	-5399
ength	-5400
▁loyal	-5401
▁ped	-5402
▁leads	-5403
▁Another	-5404
▁indian	-5405
▁Yep	-5406
esh	-5407
▁walls	-5408
appy	-5409
▁cous	-5410
▁noise	-5411
soft	-5412
▁units	-5413
▁bush	-5414
▁instruct	-5415
uild	-5416
▁dee	-5417
▁University	-5418
▁described	-5419
▁temperature	-5420
▁toilet	-5421
▁Run	-5422
▁capable	-5423
▁reaction	-5424
▁juice	-5425
▁Cor	-5426
▁relatively	-5427
▁wash	-5428
▁outl	-5429
▁dim	-5430
▁Abs	-5431
▁President	-5432
pective	-5433
▁philosop	-5434
asant	-5435
▁Mad	-5436
▁row	-5437
▁goddamn	-5438
aves	-5439
▁nic	-5440
▁Sch	-5441
▁loose	-5442
▁Again	-5443
▁uniform	-5444
▁Remember	-5445
▁critical	-5446
▁plays	-5447
▁stronger	-5448
▁doors	-5449
▁mainly	-5450
▁continued	-5451
issions	-5452
▁Mon	-5453
▁Also	-5454
▁rab	-5455
acific	-5456
▁ideal	-5457
▁slowly	-5458
etary	-5459
▁nearby	-5460
▁disappear	-5461
▁photograph	-5462
▁schedule	-5463
▁Always	-5464
▁debate	-5465
▁flash	-5466
▁Show	-5467
▁plate	-5468
▁artist	-5469
▁myst	-5470
alt	-5471
▁initi	-5472
ams	-5473
equ	-5474
icked	-5475
▁route	-5476
▁remote	-5477
▁rein	-5478
▁Inter	-5479
▁braz	-5480
▁Despite	-5481
tering	-5482
▁golf	-5483
▁Pret	-5484
▁habit	-5485
▁lung	-5486
▁egypt	-5487
▁Almost	-5488
▁award	-5489
▁unemploy	-5490
▁jealous	-5491
▁actions	-5492
▁nights	-5493
▁disaster	-5494
▁ridiculous	-5495
hand	-5496
▁sett	-5497
▁naked	-5498
▁awful	-5499
▁folks	-5500
▁institution	-5501
▁chart	-5502
▁studied	-5503
▁Enjoy	-5504
▁attitude	-5505
▁manufacturing	-5506
mber	-5507
utenant	-5508
▁Joe	-5509
asts	-5510
▁enterprises	-5511
▁somehow	-5512
liament	-5513
▁agents	-5514
▁belief	-5515
gl	-5516
▁eastern	-5517
▁succeed	-5518
▁prince	-5519
nie	-5520
▁tradition	-5521
▁july	-5522
▁existing	-5523
?"	-5524
▁mas	-5525
▁stake	-5526
▁exhib	-5527
▁hidden	-5528
▁sed	-5529
▁lin	-5530
ville	-5531
▁Ser	-5532
▁remem	-5533
▁ate	-5534
▁tum	-5535
▁regulations	-5536
▁hmm	-5537
▁emotional	-5538
▁defe	-5539
▁gor	-5540
▁fingers	-5541
▁dram	-5542
▁false	-5543
▁valley	-5544
▁counsel	-5545
▁wireless	-5546
▁holy	-5547
▁teams	-5548
lie	-5549
▁phones	-5550
▁bloody	-5551
atically	-5552
▁aggress	-5553
▁anger	-5554
uated	-5555
▁cha	-5556
▁deli	-5557
▁aircraft	-5558
▁dies	-5559
▁badly	-5560
▁owner	-5561
▁convention	-5562
▁vacation	-5563
▁engage	-5564
▁distribution	-5565
onel	-5566
aling	-5567
2,	-5568
▁assess	-5569
▁images	-5570
▁devices	-5571
▁politicians	-5572
▁mayor	-5573
shit	-5574
▁association	-5575
▁80	-5576
▁Ben	-5577
▁nav	-5578
▁joined	-5579
▁guarantee	-5580
▁victory	-5581
▁struggle	-5582
▁yuan	-5583
▁variety	-5584
▁california	-5585
▁enh	-5586
▁suggested	-5587
▁tip	-5588
▁surge	-5589
▁democracy	-5590
▁introduce	-5591
rier	-5592
▁Except	-5593
▁height	-5594
▁compon	-5595
icks	-5596
▁vul	-5597
ologist	-5598
▁abroad	-5599
py	-5600
ules	-5601
%.	-5602
▁suffering	-5603
▁frag	-5604
▁liver	-5605
ateg	-5606
▁whis	-5607
▁reputation	-5608
idering	-5609
ida	-5610
▁commod	-5611
▁fallen	-5612
▁writer	-5613
west	-5614
burg	-5615
▁pushed	-5616
▁russian	-5617
▁majority	-5618
▁sympt	-5619
▁Open	-5620
wr	-5621
▁values	-5622
vember	-5623
▁tears	-5624
▁prepare	-5625
▁therapy	-5626
▁pu	-5627
▁wise	-5628
▁requires	-5629
▁ears	-5630
▁App	-5631
▁chocolate	-5632
▁buried	-5633
▁dynam	-5634
5,	-5635
enses	-5636
▁fields	-5637
can	-5638
▁PL	-5639
▁david	-5640
▁schol	-5641
itable	-5642
▁hello	-5643
▁detect	-5644
▁tech	-5645
▁murdered	-5646
▁branch	-5647
rast	-5648
osen	-5649
▁innovation	-5650
▁determined	-5651
▁warned	-5652
▁Cap	-5653
▁narrow	-5654
▁thro	-5655
iders	-5656
elled	-5657
▁thick	-5658
▁license	-5659
▁nurs	-5660
▁complain	-5661
▁upper	-5662
▁explan	-5663
▁argument	-5664
leg	-5665
born	-5666
▁forth	-5667
▁lesson	-5668
▁interp	-5669
▁Pull	-5670
ourse	-5671
▁decor	-5672
▁bless	-5673
▁haird	-5674
▁plastic	-5675
▁lit	-5676
▁bite	-5677
▁termin	-5678
▁Ton	-5679
lying	-5680
▁proceed	-5681
▁tear	-5682
▁multiple	-5683
urning	-5684
▁associated	-5685
izations	-5686
▁lift	-5687
▁bucks	-5688
4.	-5689
▁sund	-5690
▁mechanism	-5691
▁secrets	-5692
▁grace	-5693
▁additional	-5694
▁relationships	-5695
ria	-5696
iques	-5697
▁Ange	-5698
▁reck	-5699
▁satisf	-5700
ok	-5701
▁constitution	-5702
▁fundament	-5703
▁ves	-5704
▁Damn	-5705
▁ah	-5706
ologies	-5707
mother	-5708
▁cheer	-5709
▁Object	-5710
▁lonely	-5711
acks	-5712
▁reserve	-5713
▁overall	-5714
▁views	-5715
▁slept	-5716
▁accur	-5717
▁salt	-5718
▁distur	-5719
ollywood	-5720
▁remove	-5721
▁shame	-5722
▁possibility	-5723
▁plus	-5724
▁occasion	-5725
▁delay	-5726
▁brazil	-5727
▁historical	-5728
▁Reg	-5729
▁eld	-5730
▁Comp	-5731
▁assistant	-5732
▁connected	-5733
▁testing	-5734
▁sources	-5735
▁Finally	-5736
▁atmosphere	-5737
olved	-5738
▁ugly	-5739
▁aside	-5740
▁mole	-5741
iy	-5742
▁Ooh	-5743
▁waters	-5744
▁facility	-5745
▁parliament	-5746
echn	-5747
▁suffered	-5748
▁Sund	-5749
▁virus	-5750
▁mistakes	-5751
fare	-5752
▁blank	-5753
▁kinda	-5754
▁carefully	-5755
▁flower	-5756
▁distract	-5757
▁gym	-5758
▁bul	-5759
▁spin	-5760
▁cheese	-5761
tered	-5762
6.	-5763
oma	-5764
▁cann	-5765
oston	-5766
▁silly	-5767
▁factor	-5768
▁facing	-5769
▁earn	-5770
▁user	-5771
▁score	-5772
▁obtain	-5773
▁household	-5774
▁vehicles	-5775
▁messages	-5776
▁opposite	-5777
▁ordinary	-5778
▁accused	-5779
▁darling	-5780
met	-5781
▁contest	-5782
:00.	-5783
▁upd	-5784
▁swimming	-5785
▁administrative	-5786
▁budd	-5787
▁programs	-5788
rid	-5789
▁rig	-5790
viously	-5791
eaks	-5792
▁conscious	-5793
uk	-5794
▁classes	-5795
luding	-5796
▁proposed	-5797
rem	-5798
▁subsid	-5799
▁babies	-5800
▁cigaret	-5801
▁soldier	-5802
▁governor	-5803
▁hug	-5804
▁falls	-5805
▁hors	-5806
urally	-5807
▁nowhere	-5808
apse	-5809
uits	-5810
▁earthqu	-5811
▁applications	-5812
▁perman	-5813
▁delight	-5814
▁install	-5815
ollow	-5816
▁deals	-5817
reprene	-5818
▁23	-5819
▁memories	-5820
▁advent	-5821
▁compens	-5822
▁brilliant	-5823
▁PLUS	-5824
ba	-5825
▁website	-5826
▁memor	-5827
▁Cut	-5828
▁phenomen	-5829
market	-5830
door	-5831
▁confirm	-5832
,'	-5833
▁nuts	-5834
▁balls	-5835
isher	-5836
▁january	-5837
▁rural	-5838
load	-5839
▁heav	-5840
▁intr	-5841
▁recession	-5842
▁slightly	-5843
7,	-5844
▁korean	-5845
▁channel	-5846
▁nan	-5847
▁focused	-5848
▁Anything	-5849
▁practical	-5850
▁astr	-5851
▁drove	-5852
▁Los	-5853
▁funeral	-5854
▁appropriate	-5855
olic	-5856
▁wid	-5857
▁identity	-5858
▁september	-5859
gar	-5860
bi	-5861
▁england	-5862
▁promote	-5863
▁delivery	-5864
ucking	-5865
▁Ever	-5866
▁Mc	-5867
▁unw	-5868
bar	-5869
lock	-5870
▁mand	-5871
▁ministry	-5872
▁Absolutely	-5873
enities	-5874
▁exciting	-5875
??	-5876
▁kingdom	-5877
▁Bus	-5878
▁reward	-5879
ona	-5880
▁rush	-5881
▁pounds	-5882
▁butter	-5883
▁accepted	-5884
▁april	-5885
▁allows	-5886
▁consumption	-5887
fit	-5888
with	-5889
▁Je	-5890
iel	-5891
rawn	-5892
▁explore	-5893
▁expression	-5894
▁warrant	-5895
▁kidna	-5896
▁studying	-5897
▁temple	-5898
▁Doct	-5899
▁mirror	-5900
▁horrible	-5901
▁routine	-5902
▁attacked	-5903
▁launched	-5904
▁du	-5905
▁discover	-5906
ini	-5907
▁chose	-5908
CD	-5909
▁rac	-5910
▁assemb	-5911
▁burning	-5912
▁largely	-5913
odes	-5914
▁prob	-5915
▁accord	-5916
▁protest	-5917
▁strict	-5918
▁Tonight	-5919
▁300	-5920
▁intellect	-5921
▁fate	-5922
▁importance	-5923
▁burned	-5924
▁90	-5925
▁Little	-5926
▁cub	-5927
rehens	-5928
ingu	-5929
phas	-5930
▁sensitive	-5931
▁entered	-5932
▁poet	-5933
▁grave	-5934
▁Thing	-5935
▁downtown	-5936
▁Dick	-5937
▁virgin	-5938
▁technique	-5939
adies	-5940
▁element	-5941
▁expecting	-5942
▁smooth	-5943
▁bike	-5944
▁Sl	-5945
athy	-5946
▁approval	-5947
da	-5948
iture	-5949
▁managers	-5950
roph	-5951
▁shell	-5952
▁woods	-5953
▁opportunities	-5954
ota	-5955
ounge	-5956
oured	-5957
▁songs	-5958
comm	-5959
▁dut	-5960
▁Eff	-5961
▁shel	-5962
▁applied	-5963
▁recru	-5964
rical	-5965
▁invent	-5966
▁construct	-5967
▁strengthen	-5968
▁tiss	-5969
▁withd	-5970
▁Peter	-5971
▁contem	-5972
▁transm	-5973
▁equity	-5974
▁diamond	-5975
▁Nor	-5976
▁bom	-5977
▁pit	-5978
▁treas	-5979
▁button	-5980
cience	-5981
▁advis	-5982
▁checking	-5983
fall	-5984
▁brave	-5985
▁losses	-5986
▁picking	-5987
▁sher	-5988
▁identify	-5989
▁bones	-5990
▁remark	-5991
angers	-5992
▁Compl	-5993
▁fought	-5994
bal	-5995
cing	-5996
▁Than	-5997
▁combination	-5998
▁sup	-5999
▁profits	-6000
▁encourage	-6001
unte	-6002
▁Six	-6003
▁requirements	-6004
▁rand	-6005
izza	-6006
▁equal	-6007
▁Er	-6008
▁hire	-6009
▁Mic	-6010
word	-6011
▁motion	-6012
▁visual	-6013
▁thy	-6014
▁Baby	-6015
▁70	-6016
▁Dec	-6017
▁guid	-6018
▁presc	-6019
▁vessel	-6020
▁chances	-6021
▁Washington	-6022
▁placed	-6023
▁executives	-6024
▁bleeding	-6025
▁elements	-6026
icated	-6027
▁via	-6028
▁valuable	-6029
rey	-6030
▁asshole	-6031
▁extract	-6032
▁crop	-6033
ii	-6034
▁Pat	-6035
▁Friday	-6036
▁tongue	-6037
bec	-6038
▁electricity	-6039
icient	-6040
▁delicious	-6041
▁literature	-6042
▁etc	-6043
oster	-6044
▁entreprene	-6045
▁passing	-6046
▁widely	-6047
▁transl	-6048
war	-6049
ryer	-6050
▁cruc	-6051
▁Dis	-6052
▁chop	-6053
▁las	-6054
▁epis	-6055
▁aunt	-6056
▁islam	-6057
▁golden	-6058
▁pushing	-6059
▁isol	-6060
▁celebrate	-6061
▁fans	-6062
▁revenue	-6063
▁cameras	-6064
▁afghanistan	-6065
▁Rest	-6066
▁landsc	-6067
▁stores	-6068
▁angel	-6069
▁marks	-6070
uled	-6071
▁august	-6072
etch	-6073
ola	-6074
▁196	-6075
▁boom	-6076
▁personally	-6077
ded	-6078
bery	-6079
▁Ladies	-6080
▁inject	-6081
▁adopt	-6082
▁efficient	-6083
▁length	-6084
▁excess	-6085
tes	-6086
ca	-6087
iments	-6088
▁LCD	-6089
▁sweat	-6090
mate	-6091
▁Att	-6092
▁pee	-6093
▁luxury	-6094
▁trigger	-6095
▁Japanese	-6096
▁issued	-6097
▁payment	-6098
ucker	-6099
▁prize	-6100
▁ceo	-6101
▁vamp	-6102
▁Use	-6103
▁liberal	-6104
▁refused	-6105
▁betray	-6106
run	-6107
▁spokes	-6108
▁violent	-6109
▁Best	-6110
▁screwed	-6111
▁cleaning	-6112
▁Time	-6113
▁contrast	-6114
▁22	-6115
gh	-6116
▁clinical	-6117
ador	-6118
ermine	-6119
▁shots	-6120
▁fantastic	-6121
▁stands	-6122
▁pra	-6123
▁mixed	-6124
va	-6125
▁Sud	-6126
pa	-6127
▁shoulder	-6128
▁procedure	-6129
▁categ	-6130
▁devil	-6131
▁waited	-6132
▁unusual	-6133
▁convinced	-6134
▁Feel	-6135
▁deeply	-6136
▁sche	-6137
▁friendship	-6138
ommod	-6139
▁overseas	-6140
▁holds	-6141
▁elimin	-6142
ague	-6143
▁fert	-6144
ieved	-6145
▁jury	-6146
▁disappeared	-6147
▁attractive	-6148
▁closely	-6149
▁principles	-6150
▁raising	-6151
▁confused	-6152
▁ty	-6153
▁cree	-6154
▁affair	-6155
▁sweetheart	-6156
▁creative	-6157
orage	-6158
▁domin	-6159
ulating	-6160
▁asset	-6161
▁electronic	-6162
ictions	-6163
hus	-6164
▁Sy	-6165
▁dozen	-6166
▁nurse	-6167
▁princess	-6168
▁amenities	-6169
▁monster	-6170
▁None	-6171
▁facts	-6172
▁blocks	-6173
hal	-6174
▁individuals	-6175
▁3.	-6176
▁tact	-6177
▁fifth	-6178
▁courage	-6179
▁Del	-6180
kyo	-6181
▁coat	-6182
udd	-6183
ums	-6184
▁tower	-6185
▁hairdryer	-6186
ups	-6187
▁28	-6188
▁tank	-6189
▁competitive	-6190
▁py	-6191
▁bags	-6192
▁seed	-6193
efully	-6194
roke	-6195
▁understood	-6196
▁corn	-6197
▁Afric	-6198
▁behavi	-6199
olve	-6200
▁Long	-6201
rastruct	-6202
▁differences	-6203
▁dish	-6204
esty	-6205
haust	-6206
makers	-6207
▁trained	-6208
bits	-6209
elly	-6210
▁bac	-6211
▁Congrat	-6212
stit	-6213
▁persu	-6214
▁shared	-6215
▁discip	-6216
ita	-6217
ether	-6218
▁yogurt	-6219
umber	-6220
▁35	-6221
▁plain	-6222
▁Follow	-6223
▁stable	-6224
▁monetary	-6225
▁jacket	-6226
ado	-6227
▁machines	-6228
▁hem	-6229
▁alternative	-6230
▁mommy	-6231
ecution	-6232
box	-6233
ext	-6234
▁fright	-6235
▁australia	-6236
ses	-6237
▁affected	-6238
▁boring	-6239
ensions	-6240
▁seeking	-6241
▁december	-6242
rie	-6243
▁sna	-6244
▁sandw	-6245
sters	-6246
gers	-6247
▁Min	-6248
igation	-6249
▁unh	-6250
▁German	-6251
▁industries	-6252
▁zero	-6253
▁determine	-6254
▁ruin	-6255
▁judgment	-6256
ga	-6257
▁title	-6258
▁merely	-6259
▁Wal	-6260
▁tent	-6261
▁China	-6262
▁lawyers	-6263
▁cousin	-6264
▁evolution	-6265
▁resource	-6266
▁programme	-6267
▁math	-6268
▁essential	-6269
▁shadow	-6270
▁sav	-6271
▁accommod	-6272
▁meetings	-6273
▁Highway	-6274
▁involve	-6275
▁spell	-6276
▁regime	-6277
▁concert	-6278
rogen	-6279
▁spare	-6280
▁strategic	-6281
ateral	-6282
▁assign	-6283
▁pul	-6284
▁comprom	-6285
▁removed	-6286
related	-6287
▁telephone	-6288
lly	-6289
▁residents	-6290
▁scare	-6291
▁Step	-6292
▁sexy	-6293
pected	-6294
▁recall	-6295
9.	-6296
▁sentence	-6297
If	-6298
see	-6299
▁volunte	-6300
iac	-6301
going	-6302
▁tied	-6303
▁islands	-6304
▁sustain	-6305
▁continues	-6306
▁advertising	-6307
▁airl	-6308
▁spacious	-6309
▁computers	-6310
▁enemies	-6311
▁personality	-6312
▁october	-6313
▁pulling	-6314
urity	-6315
▁Exit	-6316
lement	-6317
▁hurts	-6318
▁multi	-6319
▁ack	-6320
▁charged	-6321
▁Cr	-6322
cles	-6323
acked	-6324
▁Calm	-6325
▁Sunday	-6326
▁unlikely	-6327
▁palace	-6328
▁consequences	-6329
erer	-6330
mony	-6331
▁visiting	-6332
▁threatened	-6333
wing	-6334
▁gods	-6335
▁engaged	-6336
▁selection	-6337
▁Obviously	-6338
▁org	-6339
▁chosen	-6340
cut	-6341
▁outs	-6342
▁hed	-6343
▁appointment	-6344
▁securities	-6345
▁ric	-6346
▁Nick	-6347
▁whoa	-6348
▁analysts	-6349
acters	-6350
▁monday	-6351
▁struck	-6352
ietnam	-6353
▁circle	-6354
▁Looking	-6355
▁era	-6356
▁Thought	-6357
▁certific	-6358
▁friday	-6359
▁retire	-6360
▁Know	-6361
ivered	-6362
▁permission	-6363
ashing	-6364
▁ment	-6365
▁breathe	-6366
▁toy	-6367
anging	-6368
▁inner	-6369
▁Med	-6370
▁hunting	-6371
icial	-6372
▁Tra	-6373
▁fears	-6374
▁bol	-6375
holders	-6376
▁fucked	-6377
▁sons	-6378
▁glasses	-6379
▁emphas	-6380
▁datab	-6381
▁decline	-6382
▁personnel	-6383
rastructure	-6384
ata	-6385
omas	-6386
▁basically	-6387
▁economics	-6388
dp	-6389
▁wing	-6390
▁ships	-6391
▁lately	-6392
▁italy	-6393
▁invite	-6394
eting	-6395
▁shake	-6396
▁sooner	-6397
▁profession	-6398
▁presidential	-6399
▁dece	-6400
▁whoever	-6401
▁La	-6402
itals	-6403
▁Rich	-6404
▁Congratulations	-6405
▁trace	-6406
▁Paul	-6407
▁throat	-6408
▁breathing	-6409
▁corruption	-6410
life	-6411
▁cham	-6412
▁entrance	-6413
▁accessible	-6414
away	-6415
▁Ass	-6416
▁surprising	-6417
zone	-6418
▁fold	-6419
▁sets	-6420
▁explanation	-6421
▁confirmed	-6422
▁discussion	-6423
ogen	-6424
▁entry	-6425
▁hearts	-6426
▁november	-6427
▁forgotten	-6428
she	-6429
▁cooperation	-6430
van	-6431
▁publ	-6432
▁meters	-6433
long	-6434
▁Dad	-6435
▁Saturday	-6436
▁desperate	-6437
▁formal	-6438
▁root	-6439
▁vulner	-6440
▁territory	-6441
▁ham	-6442
▁swing	-6443
▁characters	-6444
erate	-6445
▁degrees	-6446
isms	-6447
6,	-6448
free	-6449
celer	-6450
▁supplies	-6451
▁International	-6452
ena	-6453
▁initial	-6454
▁bullshit	-6455
▁Trying	-6456
▁incredible	-6457
▁reasonable	-6458
▁properly	-6459
▁spy	-6460
▁load	-6461
▁thor	-6462
▁dragon	-6463
▁convenient	-6464
▁candidate	-6465
apore	-6466
azz	-6467
▁jet	-6468
icon	-6469
▁Shall	-6470
▁discussed	-6471
▁voters	-6472
▁moments	-6473
▁precise	-6474
▁mc	-6475
osing	-6476
▁flex	-6477
▁panel	-6478
▁proved	-6479
▁touched	-6480
▁creation	-6481
▁seats	-6482
▁considering	-6483
▁genius	-6484
▁interrupt	-6485
erous	-6486
▁corp	-6487
▁bills	-6488
igration	-6489
▁arts	-6490
▁fasc	-6491
▁punch	-6492
▁ward	-6493
▁newly	-6494
▁manner	-6495
▁farmers	-6496
▁Kind	-6497
▁cure	-6498
▁Indeed	-6499
▁technologies	-6500
hlet	-6501
viet	-6502
▁toast	-6503
▁kicked	-6504
▁returns	-6505
▁Women	-6506
▁existence	-6507
▁lip	-6508
▁pages	-6509
▁conce	-6510
▁emotion	-6511
▁venture	-6512
▁fancy	-6513
▁bacter	-6514
ateful	-6515
▁alien	-6516
▁handsome	-6517
inton	-6518
inter	-6519
▁earning	-6520
bruary	-6521
▁Going	-6522
▁Monday	-6523
▁/	-6524
▁lun	-6525
▁Pretty	-6526
▁twenty	-6527
itis	-6528
▁unex	-6529
err	-6530
▁gaz	-6531
▁crimes	-6532
▁coord	-6533
enger	-6534
▁random	-6535
▁exhaust	-6536
▁lips	-6537
▁injury	-6538
▁Things	-6539
▁sweetie	-6540
▁bes	-6541
▁mall	-6542
▁choices	-6543
▁religion	-6544
och	-6545
▁unre	-6546
omy	-6547
geant	-6548
▁West	-6549
erable	-6550
▁insp	-6551
▁sequ	-6552
▁appearance	-6553
▁stem	-6554
▁resistance	-6555
▁academic	-6556
▁typical	-6557
▁intention	-6558
▁Sing	-6559
▁microsoft	-6560
▁paul	-6561
illance	-6562
▁employment	-6563
▁expans	-6564
▁loving	-6565
▁intellectual	-6566
▁jumped	-6567
▁Str	-6568
▁horses	-6569
▁Add	-6570
▁scan	-6571
osh	-6572
▁absor	-6573
▁cooking	-6574
▁combined	-6575
▁hyper	-6576
▁linked	-6577
▁continental	-6578
actly	-6579
▁profile	-6580
▁script	-6581
vernment	-6582
undry	-6583
▁exposed	-6584
▁mystery	-6585
▁visitors	-6586
:30	-6587
▁hunt	-6588
▁perspective	-6589
bage	-6590
pted	-6591
▁blew	-6592
▁greece	-6593
▁reference	-6594
▁symp	-6595
lusion	-6596
▁tooth	-6597
▁Second	-6598
▁wisdom	-6599
▁Hop	-6600
▁Supp	-6601
▁infrastructure	-6602
▁unable	-6603
▁lieutenant	-6604
▁Wr	-6605
▁decent	-6606
▁describe	-6607
▁challenges	-6608
▁experienced	-6609
▁Aust	-6610
▁Break	-6611
uma	-6612
▁British	-6613
▁editor	-6614
▁enthus	-6615
▁Ten	-6616
▁insist	-6617
▁repeated	-6618
▁goals	-6619
▁Off	-6620
ifice	-6621
▁Kids	-6622
▁communist	-6623
▁acknow	-6624
▁minds	-6625
▁decade	-6626
▁turkey	-6627
ishes	-6628
▁France	-6629
▁techniques	-6630
▁mun	-6631
▁ray	-6632
▁ceremony	-6633
edy	-6634
▁pink	-6635
▁Either	-6636
▁ours	-6637
▁wang	-6638
▁elsewhere	-6639
▁cryst	-6640
▁unemployment	-6641
itty	-6642
▁zh	-6643
▁bars	-6644
▁minimum	-6645
▁ts	-6646
berry	-6647
▁pizza	-6648
▁philosophy	-6649
▁properties	-6650
lar	-6651
▁tuesday	-6652
▁Lou	-6653
▁tone	-6654
▁causing	-6655
▁superior	-6656
▁yard	-6657
egas	-6658
▁pir	-6659
▁garage	-6660
orous	-6661
illa	-6662
▁riding	-6663
▁liby	-6664
▁earthquake	-6665
▁entertainment	-6666
▁27	-6667
eless	-6668
▁woke	-6669
power	-6670
▁oxy	-6671
orida	-6672
▁arrive	-6673
aus	-6674
ulus	-6675
▁purchase	-6676
▁Michael	-6677
ogue	-6678
▁doc	-6679
▁inev	-6680
ibilities	-6681
▁extraord	-6682
ician	-6683
▁sunday	-6684
▁tang	-6685
▁regions	-6686
▁mortgage	-6687
▁tri	-6688
▁spark	-6689
▁stocks	-6690
▁commander	-6691
▁curious	-6692
making	-6693
▁networks	-6694
ari	-6695
itate	-6696
▁assistance	-6697
etime	-6698
▁acceler	-6699
▁enforce	-6700
▁kim	-6701
agger	-6702
hua	-6703
▁custody	-6704
▁nerve	-6705
▁delivered	-6706
essions	-6707
▁restaurants	-6708
uman	-6709
▁forb	-6710
▁forecast	-6711
▁bump	-6712
▁soph	-6713
▁surely	-6714
▁demands	-6715
lands	-6716
▁Colonel	-6717
▁Unless	-6718
▁beating	-6719
▁reduced	-6720
▁employee	-6721
▁hated	-6722
▁relief	-6723
pass	-6724
▁remained	-6725
top	-6726
licop	-6727
▁owned	-6728
▁collapse	-6729
▁occurred	-6730
▁emper	-6731
▁toler	-6732
▁default	-6733
▁senator	-6734
▁storage	-6735
stone	-6736
▁Sever	-6737
▁frust	-6738
▁vital	-6739
▁formed	-6740
▁agencies	-6741
▁providing	-6742
▁throwing	-6743
▁childhood	-6744
▁handed	-6745
▁Indian	-6746
▁efficiency	-6747
▁Sur	-6748
▁danc	-6749
▁pissed	-6750
▁precious	-6751
▁ye	-6752
▁duck	-6753
▁clever	-6754
stein	-6755
▁belt	-6756
▁motiv	-6757
auc	-6758
▁symptoms	-6759
orr	-6760
▁trop	-6761
ya	-6762
▁column	-6763
▁enjoyed	-6764
ternal	-6765
▁Cause	-6766
▁Getting	-6767
▁protecting	-6768
▁insane	-6769
▁recover	-6770
▁surveillance	-6771
oral	-6772
▁ware	-6773
▁Exactly	-6774
▁eh	-6775
▁Relax	-6776
▁spoken	-6777
▁stealing	-6778
▁scand	-6779
▁Therefore	-6780
▁radiation	-6781
▁embr	-6782
▁downstairs	-6783
▁repair	-6784
▁grandfather	-6785
▁alert	-6786
▁Play	-6787
▁soup	-6788
▁wra	-6789
▁pride	-6790
▁Airport	-6791
▁laughing	-6792
3,	-6793
tan	-6794
▁pills	-6795
▁athlet	-6796
▁worker	-6797
esc	-6798
oning	-6799
▁Billy	-6800
▁brains	-6801
▁Ted	-6802
▁45	-6803
▁Count	-6804
▁approved	-6805
▁examination	-6806
ching	-6807
▁judges	-6808
▁iph	-6809
▁flesh	-6810
▁Neither	-6811
▁elections	-6812
za	-6813
▁inqu	-6814
stract	-6815
▁assault	-6816
▁infection	-6817
▁uncom	-6818
▁refuse	-6819
▁controls	-6820
▁grandmother	-6821
▁immediate	-6822
▁Wel	-6823
▁depression	-6824
▁pie	-6825
▁pip	-6826
▁pref	-6827
inating	-6828
▁lt	-6829
apes	-6830
onym	-6831
▁medium	-6832
uge	-6833
level	-6834
▁tissue	-6835
▁ax	-6836
▁Mike	-6837
▁Kn	-6838
▁Son	-6839
▁gig	-6840
▁Down	-6841
4,	-6842
▁rational	-6843
ds	-6844
▁temporary	-6845
▁acts	-6846
▁rapidly	-6847
▁positions	-6848
coming	-6849
ancisco	-6850
▁ske	-6851
heast	-6852
▁midnight	-6853
active	-6854
▁skill	-6855
It	-6856
▁tag	-6857
▁frank	-6858
▁Sudden	-6859
▁cru	-6860
▁India	-6861
▁lessons	-6862
▁colon	-6863
▁myster	-6864
▁classic	-6865
roid	-6866
▁impression	-6867
▁spain	-6868
rich	-6869
▁muscle	-6870
▁sole	-6871
▁shout	-6872
rete	-6873
essor	-6874
8.	-6875
▁pled	-6876
▁driven	-6877
▁simpl	-6878
▁scheme	-6879
▁Lar	-6880
▁Believe	-6881
▁controlled	-6882
eorg	-6883
▁enorm	-6884
nis	-6885
▁nap	-6886
▁begun	-6887
▁Study	-6888
▁cares	-6889
▁episode	-6890
▁neu	-6891
▁Full	-6892
▁whenever	-6893
▁Clark	-6894
respond	-6895
▁trait	-6896
''	-6897
▁accounting	-6898
quarters	-6899
▁grandma	-6900
anges	-6901
▁rival	-6902
▁intended	-6903
▁poem	-6904
▁begins	-6905
▁drawing	-6906
▁Rome	-6907
don	-6908
cons	-6909
▁Much	-6910
▁ignore	-6911
▁subm	-6912
▁Mother	-6913
▁comprehens	-6914
aire	-6915
▁closing	-6916
▁objects	-6917
▁mud	-6918
▁abandoned	-6919
▁California	-6920
▁legend	-6921
▁England	-6922
▁intense	-6923
▁investigate	-6924
sell	-6925
▁inher	-6926
▁manip	-6927
▁marine	-6928
▁channels	-6929
▁charity	-6930
▁pointed	-6931
▁genetic	-6932
▁serving	-6933
▁conservative	-6934
car	-6935
▁raw	-6936
▁desp	-6937
▁fraud	-6938
▁empire	-6939
▁patterns	-6940
riv	-6941
▁Def	-6942
▁Five	-6943
▁defence	-6944
▁Co	-6945
▁Bra	-6946
▁penal	-6947
▁sovere	-6948
▁deposit	-6949
▁overl	-6950
▁fundamental	-6951
stream	-6952
▁waves	-6953
▁underground	-6954
iece	-6955
▁wednesday	-6956
▁priest	-6957
▁Might	-6958
▁pilot	-6959
▁Several	-6960
▁registered	-6961
▁grav	-6962
▁persons	-6963
win	-6964
▁ast	-6965
▁Alex	-6966
▁Shit	-6967
▁savings	-6968
aws	-6969
▁weakness	-6970
iate	-6971
▁pharm	-6972
▁african	-6973
▁Sit	-6974
▁stability	-6975
▁Jew	-6976
▁listed	-6977
▁traveling	-6978
agers	-6979
▁lobby	-6980
▁adopted	-6981
▁permanent	-6982
▁diseases	-6983
▁tested	-6984
▁repeat	-6985
▁26	-6986
▁email	-6987
▁exports	-6988
pay	-6989
▁abd	-6990
▁injured	-6991
owing	-6992
▁horn	-6993
jo	-6994
▁hack	-6995
▁combat	-6996
vard	-6997
▁explo	-6998
hell	-6999
▁silence	-7000
▁cereal	-7001
▁revealed	-7002
▁conclud	-7003
▁helicop	-7004
▁renew	-7005
ogether	-7006
▁Bad	-7007
▁Based	-7008
yan	-7009
▁nin	-7010
▁casual	-7011
▁junior	-7012
▁mode	-7013
▁pound	-7014
▁limits	-7015
▁squee	-7016
▁pillow	-7017
▁pleased	-7018
▁trash	-7019
▁normally	-7020
▁organizations	-7021
▁Scient	-7022
▁distinct	-7023
▁presented	-7024
ixt	-7025
▁Ms	-7026
▁republican	-7027
▁investments	-7028
▁fract	-7029
▁Russian	-7030
▁instinct	-7031
ensity	-7032
▁assure	-7033
▁Send	-7034
▁funding	-7035
▁convince	-7036
▁gentleman	-7037
▁claimed	-7038
▁tas	-7039
▁slip	-7040
▁remembered	-7041
▁Unfortunately	-7042
oration	-7043
▁guards	-7044
▁interpret	-7045
weet	-7046
▁Old	-7047
▁Certain	-7048
▁Ha	-7049
amin	-7050
▁couch	-7051
▁depends	-7052
▁Det	-7053
▁navy	-7054
▁mex	-7055
venue	-7056
▁stations	-7057
▁commitment	-7058
oret	-7059
▁coinc	-7060
▁scary	-7061
▁auto	-7062
▁winner	-7063
ucky	-7064
▁films	-7065
▁sample	-7066
▁panic	-7067
ication	-7068
▁sharing	-7069
▁broadcast	-7070
▁terrorist	-7071
▁hitting	-7072
▁wolf	-7073
usal	-7074
▁cycle	-7075
▁Italian	-7076
▁festival	-7077
▁Guess	-7078
▁burden	-7079
made	-7080
rovers	-7081
uations	-7082
▁blast	-7083
▁privacy	-7084
inger	-7085
▁contracts	-7086
▁annoy	-7087
▁adults	-7088
▁session	-7089
▁priority	-7090
▁increases	-7091
▁Jer	-7092
▁chron	-7093
▁regulation	-7094
▁faced	-7095
▁Between	-7096
▁pollution	-7097
▁uncertain	-7098
▁ease	-7099
▁mexico	-7100
▁heavily	-7101
▁evaluation	-7102
▁cot	-7103
organ	-7104
▁gross	-7105
▁pastries	-7106
▁phase	-7107
▁sneak	-7108
class	-7109
▁allowing	-7110
▁landscape	-7111
▁candy	-7112
▁processing	-7113
▁Tex	-7114
▁Santa	-7115
▁motherf	-7116
▁completed	-7117
▁accomp	-7118
▁Li	-7119
gust	-7120
▁Spec	-7121
▁ages	-7122
▁disag	-7123
ugs	-7124
udge	-7125
▁100%	-7126
▁Quick	-7127
▁gap	-7128
▁breast	-7129
▁treasure	-7130
▁correspond	-7131
▁aer	-7132
▁proposal	-7133
▁Set	-7134
▁ken	-7135
▁craft	-7136
▁outta	-7137
▁constant	-7138
▁Prof	-7139
▁helpful	-7140
▁legit	-7141
▁Vegas	-7142
▁strip	-7143
▁mainland	-7144
▁agricultural	-7145
ologists	-7146
▁Fred	-7147
▁Suit	-7148
▁Honey	-7149
▁marked	-7150
▁batt	-7151
▁muslim	-7152
▁Easy	-7153
iao	-7154
wered	-7155
▁canada	-7156
▁targets	-7157
▁monit	-7158
▁Doctor	-7159
▁roads	-7160
▁squad	-7161
▁illness	-7162
▁Pal	-7163
▁una	-7164
inent	-7165
▁thursday	-7166
▁Iike	-7167
▁dismiss	-7168
▁contains	-7169
lla	-7170
▁nail	-7171
▁expansion	-7172
kel	-7173
udes	-7174
▁iphone	-7175
▁Talk	-7176
▁State	-7177
▁deputy	-7178
▁Suddenly	-7179
▁silent	-7180
▁immun	-7181
▁Street	-7182
agne	-7183
▁fier	-7184
▁junk	-7185
▁trapped	-7186
▁lend	-7187
▁sail	-7188
▁monkey	-7189
▁operate	-7190
▁baseball	-7191
▁stamp	-7192
ivals	-7193
▁Bu	-7194
▁err	-7195
▁buck	-7196
rome	-7197
▁Jane	-7198
engers	-7199
▁clothing	-7200
▁Yo	-7201
▁lou	-7202
▁Girl	-7203
▁improved	-7204
▁prosecut	-7205
▁Phil	-7206
▁ties	-7207
▁wars	-7208
▁bay	-7209
▁James	-7210
▁Objective	-7211
▁sheet	-7212
▁insult	-7213
▁laundry	-7214
▁annivers	-7215
▁discount	-7216
▁pupp	-7217
itar	-7218
▁gut	-7219
▁fewer	-7220
▁valid	-7221
▁reforms	-7222
▁Pass	-7223
▁thou	-7224
9,	-7225
▁rely	-7226
▁pitch	-7227
ih	-7228
▁ethn	-7229
▁sheriff	-7230
▁scholars	-7231
▁sacrifice	-7232
▁functions	-7233
▁closet	-7234
▁ruling	-7235
▁database	-7236
▁identified	-7237
▁feat	-7238
▁bored	-7239
▁chip	-7240
verty	-7241
▁Business	-7242
▁external	-7243
▁furniture	-7244
jiang	-7245
▁frozen	-7246
arsh	-7247
▁dict	-7248
▁league	-7249
▁generous	-7250
▁37	-7251
▁gamb	-7252
▁visited	-7253
▁darkness	-7254
asm	-7255
lers	-7256
this	-7257
▁hoped	-7258
▁emperor	-7259
oir	-7260
ype	-7261
▁oxygen	-7262
▁Work	-7263
▁poverty	-7264
vin	-7265
▁Rob	-7266
▁staring	-7267
▁string	-7268
▁flav	-7269
▁fees	-7270
▁attached	-7271
▁explosion	-7272
▁ending	-7273
▁vig	-7274
▁Carl	-7275
▁mathem	-7276
ocated	-7277
▁Enough	-7278
▁deficit	-7279
▁Bay	-7280
▁Room	-7281
▁grateful	-7282
▁ol	-7283
▁bubble	-7284
▁gear	-7285
kward	-7286
▁alle	-7287
vy	-7288
ario	-7289
uces	-7290
▁unto	-7291
▁champions	-7292
▁Mary	-7293
▁george	-7294
▁protein	-7295
▁breaks	-7296
anes	-7297
tail	-7298
▁dirt	-7299
▁disappointed	-7300
ek	-7301
▁parad	-7302
▁tries	-7303
erent	-7304
encing	-7305
▁volume	-7306
▁admitted	-7307
▁Otherwise	-7308
▁prosper	-7309
asp	-7310
eness	-7311
ester	-7312
▁jam	-7313
▁Life	-7314
▁warn	-7315
▁Charlie	-7316
▁constantly	-7317
▁confront	-7318
▁neighbors	-7319
▁castle	-7320
▁candidates	-7321
umes	-7322
▁fulf	-7323
▁Among	-7324
▁knocked	-7325
▁christmas	-7326
grade	-7327
▁gene	-7328
▁rocks	-7329
▁settled	-7330
From	-7331
▁aspects	-7332
▁exclus	-7333
▁thrown	-7334
▁sisters	-7335
▁discl	-7336
▁ruined	-7337
▁crucial	-7338
dr	-7339
irts	-7340
▁gorge	-7341
fortable	-7342
▁withdraw	-7343
▁drawn	-7344
▁explained	-7345
▁cave	-7346
▁myth	-7347
▁mrs	-7348
▁bride	-7349
▁gates	-7350
▁studio	-7351
▁bin	-7352
▁economist	-7353
▁yang	-7354
▁compete	-7355
▁menu	-7356
vis	-7357
▁Into	-7358
abilities	-7359
▁universities	-7360
▁Mil	-7361
▁Sen	-7362
▁rib	-7363
▁Said	-7364
▁Coming	-7365
▁painful	-7366
▁peaceful	-7367
▁elder	-7368
▁equipped	-7369
▁extraordinary	-7370
ctional	-7371
▁exposure	-7372
▁hits	-7373
▁foods	-7374
mal	-7375
▁cultiv	-7376
▁damaged	-7377
▁vulnerable	-7378
▁alright	-7379
▁criticism	-7380
rosc	-7381
▁inch	-7382
▁angle	-7383
icate	-7384
view	-7385
▁wre	-7386
▁shoe	-7387
▁deeper	-7388
▁Angeles	-7389
uine	-7390
▁vit	-7391
▁fox	-7392
▁Center	-7393
elect	-7394
▁2000	-7395
ora	-7396
lets	-7397
▁Plus	-7398
▁partly	-7399
▁perf	-7400
▁Small	-7401
▁anniversary	-7402
Id	-7403
▁lean	-7404
▁punishment	-7405
▁Sus	-7406
▁ans	-7407
▁asc	-7408
▁independence	-7409
oscow	-7410
▁neut	-7411
orders	-7412
▁Offic	-7413
▁fever	-7414
▁rarely	-7415
▁mobility	-7416
▁accordance	-7417
wear	-7418
▁Hollywood	-7419
▁impressive	-7420
▁Mart	-7421
▁trap	-7422
inations	-7423
▁highway	-7424
▁organic	-7425
▁fer	-7426
▁reveal	-7427
mates	-7428
owed	-7429
▁Arab	-7430
▁ther	-7431
▁surre	-7432
▁provinc	-7433
cr	-7434
▁inspir	-7435
ients	-7436
▁pace	-7437
▁native	-7438
▁$2	-7439
▁deploy	-7440
▁Red	-7441
▁ancest	-7442
▁charming	-7443
▁alb	-7444
▁asks	-7445
yr	-7446
whel	-7447
▁lover	-7448
▁Mexico	-7449
▁dining	-7450
▁disgust	-7451
▁intent	-7452
▁wanting	-7453
▁transportation	-7454
▁lifetime	-7455
▁Vict	-7456
▁leaf	-7457
▁campus	-7458
▁hen	-7459
▁february	-7460
ibet	-7461
▁crossed	-7462
▁War	-7463
▁revenge	-7464
▁4.	-7465
▁Using	-7466
anted	-7467
▁Welcome	-7468
umin	-7469
▁eaten	-7470
▁comments	-7471
▁Sar	-7472
▁worries	-7473
▁previously	-7474
▁agriculture	-7475
▁Val	-7476
▁literally	-7477
▁draft	-7478
▁missile	-7479
lyn	-7480
▁highlight	-7481
▁nas	-7482
▁peak	-7483
▁theat	-7484
▁corporation	-7485
▁Way	-7486
▁paris	-7487
▁Later	-7488
▁unknown	-7489
▁belongs	-7490
▁premium	-7491
▁screaming	-7492
▁enormous	-7493
iner	-7494
alysis	-7495
▁architecture	-7496
▁galax	-7497
▁sweep	-7498
▁oppon	-7499
▁spiritual	-7500
▁194	-7501
ardon	-7502
▁tack	-7503
▁wings	-7504
▁Hen	-7505
▁ltd	-7506
▁Found	-7507
▁theater	-7508
▁replaced	-7509
▁protected	-7510
▁controvers	-7511
ingly	-7512
omeday	-7513
▁sheep	-7514
▁shops	-7515
tenance	-7516
▁exists	-7517
▁officially	-7518
abet	-7519
izer	-7520
▁fib	-7521
▁guang	-7522
▁substant	-7523
▁experiences	-7524
▁gam	-7525
▁Same	-7526
▁partnership	-7527
▁bold	-7528
▁Others	-7529
▁basketball	-7530
fire	-7531
▁Tony	-7532
▁skull	-7533
▁conver	-7534
▁prepar	-7535
yard	-7536
▁climb	-7537
▁fairly	-7538
▁rating	-7539
estin	-7540
orted	-7541
▁abuse	-7542
▁earned	-7543
▁offices	-7544
▁actor	-7545
▁rank	-7546
▁swallow	-7547
▁subjects	-7548
▁sink	-7549
▁boxes	-7550
▁Dep	-7551
▁Fore	-7552
▁jerk	-7553
▁battery	-7554
▁singapore	-7555
▁Luc	-7556
▁gat	-7557
fol	-7558
▁stal	-7559
▁naturally	-7560
▁vic	-7561
▁stops	-7562
▁treating	-7563
▁settlement	-7564
▁twitter	-7565
▁Mo	-7566
▁Ant	-7567
▁awkward	-7568
zes	-7569
▁Fam	-7570
▁boot	-7571
▁tatt	-7572
▁burst	-7573
▁drama	-7574
▁mutual	-7575
▁Whoever	-7576
▁promotion	-7577
ican	-7578
▁maid	-7579
▁Mount	-7580
▁Boston	-7581
vey	-7582
▁Conf	-7583
▁defeat	-7584
▁Chicago	-7585
▁declined	-7586
▁hamm	-7587
iences	-7588
▁jewel	-7589
▁bureau	-7590
▁monitor	-7591
▁yourselves	-7592
▁expectations	-7593
ref	-7594
▁synd	-7595
▁writ	-7596
▁cruel	-7597
▁prints	-7598
▁olympic	-7599
▁votes	-7600
unny	-7601
▁transp	-7602
▁awake	-7603
▁noted	-7604
▁os	-7605
▁searching	-7606
▁compensation	-7607
▁sergeant	-7608
eper	-7609
▁tex	-7610
▁privile	-7611
sen	-7612
▁gdp	-7613
▁marsh	-7614
▁tiger	-7615
▁deny	-7616
▁emissions	-7617
iped	-7618
▁les	-7619
ruction	-7620
▁soviet	-7621
▁craw	-7622
▁significance	-7623
▁basement	-7624
10	-7625
kers	-7626
ervice	-7627
actions	-7628
▁choos	-7629
▁merch	-7630
▁discovery	-7631
▁reception	-7632
▁haw	-7633
eline	-7634
▁stranger	-7635
▁scrap	-7636
ocation	-7637
▁cabinet	-7638
▁hotels	-7639
▁sha	-7640
▁explains	-7641
▁survived	-7642
▁wore	-7643
▁recon	-7644
▁graduate	-7645
▁unexpected	-7646
kins	-7647
▁warri	-7648
case	-7649
▁arrival	-7650
▁genuine	-7651
▁plug	-7652
▁hal	-7653
maker	-7654
▁gifts	-7655
▁Bea	-7656
▁goodbye	-7657
▁homework	-7658
▁certificate	-7659
▁phenomenon	-7660
lantic	-7661
▁Hong	-7662
▁cord	-7663
▁Texas	-7664
▁improving	-7665
▁adapt	-7666
▁jesus	-7667
▁behalf	-7668
pers	-7669
▁elevator	-7670
▁Ask	-7671
▁chase	-7672
▁hates	-7673
▁checks	-7674
▁centuries	-7675
▁educational	-7676
bc	-7677
▁robbery	-7678
▁survival	-7679
▁thorough	-7680
ura	-7681
▁00	-7682
▁summit	-7683
iev	-7684
▁hills	-7685
▁assass	-7686
▁appointed	-7687
ui	-7688
▁procedures	-7689
▁enjoying	-7690
conn	-7691
▁cher	-7692
▁witnesses	-7693
▁Poor	-7694
▁ultimately	-7695
-2	-7696
▁miracle	-7697
▁holes	-7698
▁premises	-7699
▁necessarily	-7700
avell	-7701
erences	-7702
▁rod	-7703
▁chapter	-7704
▁payments	-7705
▁packed	-7706
▁Germany	-7707
▁marg	-7708
▁rude	-7709
▁stairs	-7710
press	-7711
▁humili	-7712
▁kilometers	-7713
▁beef	-7714
▁nest	-7715
▁Hit	-7716
▁dates	-7717
▁recorded	-7718
▁sofa	-7719
▁returning	-7720
▁struggling	-7721
iary	-7722
▁dil	-7723
▁typically	-7724
▁cosm	-7725
▁keen	-7726
▁synt	-7727
▁scratch	-7728
zer	-7729
▁clar	-7730
▁Suites	-7731
▁trusted	-7732
▁acquis	-7733
▁earnings	-7734
eek	-7735
assy	-7736
▁congr	-7737
▁poo	-7738
▁na	-7739
▁denied	-7740
▁supreme	-7741
▁toss	-7742
▁gradually	-7743
!"	-7744
▁lending	-7745
▁behaviour	-7746
11	-7747
▁jur	-7748
▁alleg	-7749
▁Ken	-7750
▁chen	-7751
▁Techn	-7752
▁thief	-7753
▁clinic	-7754
▁conducted	-7755
▁sum	-7756
▁Taking	-7757
▁output	-7758
▁0.	-7759
care	-7760
▁buffet	-7761
▁couples	-7762
▁concrete	-7763
▁principal	-7764
apping	-7765
▁promises	-7766
▁greek	-7767
▁answered	-7768
▁creatures	-7769
▁contemporary	-7770
def	-7771
rer	-7772
eable	-7773
itched	-7774
▁worldwide	-7775
5%	-7776
sl	-7777
uis	-7778
▁sar	-7779
▁extent	-7780
▁incent	-7781
▁aggressive	-7782
athan	-7783
▁Mus	-7784
acles	-7785
▁theme	-7786
▁everyday	-7787
irm	-7788
urd	-7789
▁stun	-7790
▁guilt	-7791
▁alleged	-7792
▁effectively	-7793
▁36	-7794
▁shield	-7795
▁tracks	-7796
▁christian	-7797
teen	-7798
▁Star	-7799
▁elected	-7800
▁Americans	-7801
▁warming	-7802
po	-7803
▁Cam	-7804
▁nit	-7805
▁que	-7806
oria	-7807
ications	-7808
▁disorder	-7809
▁communications	-7810
▁taxi	-7811
▁tokyo	-7812
▁toxic	-7813
▁Republic	-7814
,000.	-7815
▁nasty	-7816
▁400	-7817
▁Hope	-7818
▁blond	-7819
▁freaking	-7820
cess	-7821
raph	-7822
riers	-7823
▁bench	-7824
▁manif	-7825
▁argues	-7826
▁rolling	-7827
cover	-7828
cular	-7829
▁landing	-7830
▁capture	-7831
▁overwhel	-7832
▁improvement	-7833
▁liar	-7834
▁undert	-7835
▁collaps	-7836
▁tu	-7837
atics	-7838
ifies	-7839
▁drew	-7840
▁crown	-7841
▁managing	-7842
▁clouds	-7843
▁treasury	-7844
▁Prep	-7845
▁radical	-7846
▁mining	-7847
▁declared	-7848
▁maintenance	-7849
ouch	-7850
▁Pop	-7851
▁folk	-7852
giving	-7853
▁languages	-7854
▁spokesman	-7855
▁appet	-7856
▁Invest	-7857
▁auction	-7858
▁uncomfortable	-7859
▁adding	-7860
▁Cool	-7861
▁Sign	-7862
▁potato	-7863
▁murderer	-7864
▁prisoners	-7865
▁handling	-7866
▁mos	-7867
▁cleared	-7868
▁rats	-7869
▁beings	-7870
▁bitter	-7871
▁travell	-7872
▁assembly	-7873
▁collabor	-7874
▁economists	-7875
▁announcement	-7876
bles	-7877
sized	-7878
▁bowl	-7879
▁wallet	-7880
▁provisions	-7881
▁etern	-7882
▁granted	-7883
▁practices	-7884
▁Perfect	-7885
▁enhance	-7886
▁samples	-7887
▁italian	-7888
▁findings	-7889
▁hedge	-7890
▁snake	-7891
▁alliance	-7892
▁dea	-7893
▁City	-7894
▁orange	-7895
▁michael	-7896
▁stays	-7897
▁theories	-7898
▁Exper	-7899
▁Jul	-7900
▁Sweet	-7901
▁grounds	-7902
▁Gentle	-7903
▁bankrupt	-7904
oto	-7905
ights	-7906
▁odds	-7907
▁vacc	-7908
uilding	-7909
▁useless	-7910
▁Drop	-7911
▁clue	-7912
▁inspection	-7913
▁Counc	-7914
▁prisoner	-7915
▁sear	-7916
▁artific	-7917
▁destruction	-7918
▁rhy	-7919
▁Near	-7920
ifting	-7921
▁argued	-7922
▁ethnic	-7923
▁gorgeous	-7924
▁Given	-7925
▁Trans	-7926
▁shy	-7927
▁hood	-7928
▁rehe	-7929
itarian	-7930
▁conclusion	-7931
gie	-7932
▁backup	-7933
iami	-7934
▁32-	-7935
▁syn	-7936
hattan	-7937
▁depth	-7938
▁newspapers	-7939
uration	-7940
▁amounts	-7941
▁Port	-7942
▁whore	-7943
▁dramatic	-7944
▁champion	-7945
▁honestly	-7946
imony	-7947
▁speaks	-7948
onic	-7949
▁assumed	-7950
ctic	-7951
▁seal	-7952
▁remaining	-7953
▁util	-7954
▁Research	-7955
ima	-7956
▁dan	-7957
▁lamp	-7958
▁courts	-7959
▁sounded	-7960
▁irr	-7961
▁vegetables	-7962
era	-7963
▁musical	-7964
▁hub	-7965
▁context	-7966
▁impressed	-7967
▁sophistic	-7968
▁frequently	-7969
▁garbage	-7970
▁Cur	-7971
▁obser	-7972
▁brands	-7973
▁passengers	-7974
▁wand	-7975
▁detailed	-7976
▁dawn	-7977
sis	-7978
rating	-7979
▁resolution	-7980
▁consciousness	-7981
▁steady	-7982
▁stepped	-7983
▁lion	-7984
▁mouse	-7985
ocks	-7986
▁ashamed	-7987
▁performed	-7988
▁scientist	-7989
▁sty	-7990
▁divided	-7991
rowing	-7992
▁knees	-7993
▁Council	-7994
ouring	-7995
▁owns	-7996
▁Harry	-7997
mare	-7998
▁lapt	-7999
▁steam	-8000
▁Certainly	-8001
▁headquarters	-8002
▁genes	-8003
▁sought	-8004
▁tel	-8005
ortion	-8006
▁colors	-8007
▁puzz	-8008
▁walks	-8009
▁Ca	-8010
yang	-8011
▁Dem	-8012
▁Person	-8013
▁buyers	-8014
▁railway	-8015
▁Yesterday	-8016
▁sometime	-8017
▁recognized	-8018
▁pad	-8019
▁obst	-8020
▁covering	-8021
▁photograp	-8022
▁legislation	-8023
ussy	-8024
called	-8025
▁Stan	-8026
▁grain	-8027
bie	-8028
adian	-8029
▁incor	-8030
▁dynasty	-8031
▁ultimate	-8032
▁approx	-8033
▁crimin	-8034
▁illust	-8035
▁lee	-8036
rence	-8037
▁eleg	-8038
▁spons	-8039
opy	-8040
▁customs	-8041
▁Scientists	-8042
▁milit	-8043
▁presents	-8044
▁tracking	-8045
▁entit	-8046
▁Apparently	-8047
anke	-8048
▁rip	-8049
▁knee	-8050
▁escaped	-8051
▁extended	-8052
▁1990	-8053
▁error	-8054
isp	-8055
▁Bo	-8056
▁vib	-8057
▁historic	-8058
ami	-8059
ports	-8060
▁Concl	-8061
abeth	-8062
uting	-8063
▁robot	-8064
itan	-8065
▁towns	-8066
assador	-8067
▁suspects	-8068
▁Ter	-8069
▁establishment	-8070
plant	-8071
▁organs	-8072
▁warehouse	-8073
▁horm	-8074
▁barg	-8075
▁charm	-8076
▁proport	-8077
xi	-8078
▁posted	-8079
▁wheat	-8080
▁witch	-8081
▁patrol	-8082
▁strongly	-8083
step	-8084
lessly	-8085
▁eleph	-8086
▁transition	-8087
kind	-8088
▁kar	-8089
▁Prom	-8090
▁captured	-8091
▁components	-8092
▁kissed	-8093
▁emotions	-8094
▁US	-8095
prints	-8096
▁electrical	-8097
▁strategies	-8098
▁idol	-8099
▁thee	-8100
▁resort	-8101
▁surrounded	-8102
▁cad	-8103
▁plot	-8104
▁purse	-8105
unction	-8106
▁artists	-8107
afe	-8108
oes	-8109
▁dumped	-8110
▁trem	-8111
▁buzz	-8112
▁instrument	-8113
▁luc	-8114
▁brut	-8115
▁dent	-8116
▁links	-8117
▁mercy	-8118
▁courses	-8119
▁tourism	-8120
▁lem	-8121
onder	-8122
greg	-8123
▁eager	-8124
▁General	-8125
▁outdoor	-8126
▁pacific	-8127
igrants	-8128
▁passes	-8129
▁biological	-8130
▁gro	-8131
ographic	-8132
▁reserves	-8133
▁enforcement	-8134
▁ali	-8135
▁bene	-8136
▁filed	-8137
▁label	-8138
▁wealthy	-8139
▁articles	-8140
▁assessment	-8141
▁structures	-8142
▁physics	-8143
▁reporter	-8144
▁orient	-8145
▁urgent	-8146
▁champagne	-8147
▁hob	-8148
▁congrat	-8149
▁Whenever	-8150
▁creature	-8151
▁practically	-8152
▁bra	-8153
▁fart	-8154
▁barack	-8155
▁representative	-8156
▁Mont	-8157
▁suites	-8158
▁lecture	-8159
▁suits	-8160
▁resign	-8161
▁compound	-8162
▁description	-8163
▁psychological	-8164
▁surrounding	-8165
▁decre	-8166
▁compass	-8167
▁Imag	-8168
▁Seems	-8169
▁glory	-8170
▁tennis	-8171
▁ownership	-8172
fr	-8173
igan	-8174
ifted	-8175
▁cleaned	-8176
▁Lo	-8177
▁infect	-8178
▁salary	-8179
orse	-8180
▁mask	-8181
▁coalition	-8182
▁comprehensive	-8183
▁conqu	-8184
▁beneath	-8185
elines	-8186
▁Black	-8187
ivalent	-8188
▁quietly	-8189
▁exception	-8190
▁troubles	-8191
Is	-8192
▁coup	-8193
▁disagree	-8194
▁deleg	-8195
▁saturday	-8196
▁expressed	-8197
▁horiz	-8198
▁sab	-8199
▁destiny	-8200
▁hurting	-8201
▁gathered	-8202
▁arbit	-8203
▁shuttle	-8204
▁adventure	-8205
▁connections	-8206
▁accurate	-8207
▁32	-8208
▁exceed	-8209
▁om	-8210
▁ram	-8211
▁Grand	-8212
▁rocket	-8213
▁threats	-8214
▁deliber	-8215
xual	-8216
▁fabric	-8217
▁clinton	-8218
iller	-8219
▁republicans	-8220
'.	-8221
ras	-8222
▁admire	-8223
▁vampire	-8224
▁autumn	-8225
▁deaths	-8226
osy	-8227
▁Ow	-8228
▁Road	-8229
ribed	-8230
▁saus	-8231
▁wages	-8232
▁legisl	-8233
▁sandwich	-8234
▁potentially	-8235
iser	-8236
▁hes	-8237
acent	-8238
ags	-8239
working	-8240
▁virtual	-8241
▁comparison	-8242
▁regulators	-8243
keep	-8244
adium	-8245
▁wishes	-8246
▁spirits	-8247
▁arranged	-8248
▁minim	-8249
▁Water	-8250
▁occas	-8251
▁Making	-8252
▁loser	-8253
▁selfish	-8254
▁flew	-8255
▁tunnel	-8256
▁Beijing	-8257
▁intelligent	-8258
fish	-8259
▁bum	-8260
▁haz	-8261
▁rivers	-8262
▁profound	-8263
oded	-8264
▁advoc	-8265
▁greatly	-8266
▁numerous	-8267
▁Ev	-8268
▁stretch	-8269
▁diagnosis	-8270
▁negotiations	-8271
weight	-8272
▁commerce	-8273
▁wasting	-8274
iano	-8275
▁ster	-8276
▁graph	-8277
8,	-8278
▁chips	-8279
▁immune	-8280
▁wounds	-8281
▁diplomatic	-8282
iana	-8283
olid	-8284
▁stan	-8285
▁Cos	-8286
▁lets	-8287
▁Half	-8288
▁antib	-8289
▁stroke	-8290
ested	-8291
▁shen	-8292
roduct	-8293
▁bullets	-8294
▁Pick	-8295
▁trunk	-8296
▁objective	-8297
ila	-8298
rum	-8299
▁bind	-8300
▁scheduled	-8301
▁stir	-8302
▁distingu	-8303
was	-8304
▁29	-8305
teries	-8306
▁prospect	-8307
rick	-8308
▁chamber	-8309
▁welfare	-8310
▁estimates	-8311
▁represents	-8312
enda	-8313
▁pic	-8314
▁chasing	-8315
▁Gentlemen	-8316
▁commodity	-8317
▁dub	-8318
hesis	-8319
▁King	-8320
▁monitoring	-8321
orient	-8322
▁dispute	-8323
▁sufficient	-8324
sm	-8325
▁gran	-8326
▁architect	-8327
ua	-8328
▁babe	-8329
▁stopping	-8330
orious	-8331
▁entering	-8332
▁factories	-8333
▁preparing	-8334
imm	-8335
▁intim	-8336
▁shore	-8337
▁ba	-8338
▁straw	-8339
▁poetry	-8340
▁painted	-8341
▁reverse	-8342
▁extensive	-8343
▁satisfact	-8344
col	-8345
▁remo	-8346
▁Anyway	-8347
▁analys	-8348
▁pity	-8349
▁stink	-8350
▁topic	-8351
▁deserves	-8352
▁phr	-8353
▁Within	-8354
▁messed	-8355
▁kills	-8356
▁treaty	-8357
▁stimulus	-8358
▁shareholders	-8359
uster	-8360
▁wins	-8361
▁Need	-8362
▁gray	-8363
▁torture	-8364
▁meantime	-8365
▁organized	-8366
zens	-8367
▁retreat	-8368
.-	-8369
▁consist	-8370
▁producing	-8371
oline	-8372
▁leak	-8373
▁scandal	-8374
▁unhappy	-8375
▁counting	-8376
nat	-8377
▁threatening	-8378
▁wreck	-8379
▁embarrassed	-8380
▁Men	-8381
▁Local	-8382
▁bacteria	-8383
▁manufacturers	-8384
▁allies	-8385
▁Moreover	-8386
▁rejected	-8387
▁alley	-8388
▁reporting	-8389
▁ambul	-8390
▁sorts	-8391
▁Ol	-8392
▁Lear	-8393
▁Thus	-8394
▁protocol	-8395
▁Interstate	-8396
eck	-8397
▁anonym	-8398
▁landed	-8399
▁pension	-8400
onsense	-8401
▁makers	-8402
▁citizen	-8403
▁listened	-8404
▁evac	-8405
▁servant	-8406
ani	-8407
▁interior	-8408
▁entrepreneurs	-8409
▁cav	-8410
▁ratio	-8411
▁attempts	-8412
▁investor	-8413
they	-8414
▁reass	-8415
▁gest	-8416
▁tasks	-8417
▁beside	-8418
▁extend	-8419
▁imperial	-8420
▁Sub	-8421
▁singer	-8422
▁suspected	-8423
▁curse	-8424
anches	-8425
▁confess	-8426
▁helicopter	-8427
ooked	-8428
▁engineer	-8429
▁ads	-8430
▁implementation	-8431
mond	-8432
▁scot	-8433
alling	-8434
▁fierce	-8435
▁serial	-8436
▁miserable	-8437
oric	-8438
▁Africa	-8439
▁imagination	-8440
▁intervention	-8441
aze	-8442
aste	-8443
▁Kid	-8444
▁Pay	-8445
▁readers	-8446
▁nightmare	-8447
▁atom	-8448
▁wounded	-8449
▁embarrassing	-8450
▁Leg	-8451
▁patch	-8452
▁fortun	-8453
▁theoret	-8454
▁pleasant	-8455
▁universal	-8456
▁lap	-8457
▁serves	-8458
▁5.	-8459
▁guitar	-8460
▁outfit	-8461
▁tempt	-8462
▁shrink	-8463
ccer	-8464
▁Tuesday	-8465
▁analyzed	-8466
.?	-8467
▁Steve	-8468
.''	-8469
bour	-8470
style	-8471
▁Kore	-8472
ounter	-8473
▁maximum	-8474
▁Shoot	-8475
▁gains	-8476
▁signature	-8477
▁tons	-8478
▁beast	-8479
▁click	-8480
▁mysterious	-8481
▁opera	-8482
▁habits	-8483
▁indicate	-8484
▁grid	-8485
▁ramp	-8486
iox	-8487
▁bankers	-8488
▁expenses	-8489
hentic	-8490
▁accum	-8491
▁noble	-8492
▁mothers	-8493
lines	-8494
▁National	-8495
▁register	-8496
▁Max	-8497
▁pursue	-8498
neath	-8499
▁panc	-8500
▁formation	-8501
▁Ber	-8502
▁trauma	-8503
ilateral	-8504
▁cheating	-8505
shot	-8506
▁voc	-8507
▁corrupt	-8508
▁feeding	-8509
abled	-8510
▁tribe	-8511
▁cotton	-8512
world	-8513
▁dun	-8514
▁significantly	-8515
▁Ret	-8516
▁1,	-8517
rows	-8518
▁Dar	-8519
▁achieved	-8520
▁hardware	-8521
▁ID	-8522
▁dign	-8523
aughters	-8524
▁Western	-8525
▁dynamic	-8526
▁psychology	-8527
▁jung	-8528
▁processes	-8529
▁attracted	-8530
ooks	-8531
▁Eve	-8532
▁shed	-8533
▁Britain	-8534
▁engines	-8535
▁humanity	-8536
▁ruled	-8537
▁instant	-8538
▁dropping	-8539
▁.-	-8540
arks	-8541
▁tan	-8542
child	-8543
pring	-8544
▁cliff	-8545
▁fairy	-8546
izabeth	-8547
yc	-8548
▁democrats	-8549
cony	-8550
▁cro	-8551
ho	-8552
▁ou	-8553
▁2011	-8554
▁modest	-8555
▁sheets	-8556
▁depressed	-8557
isa	-8558
▁tube	-8559
▁duties	-8560
▁discipline	-8561
jud	-8562
▁cats	-8563
▁bombs	-8564
▁receip	-8565
mind	-8566
▁Tot	-8567
▁bru	-8568
▁ski	-8569
▁Joey	-8570
▁deck	-8571
aks	-8572
about	-8573
▁aimed	-8574
▁barrel	-8575
▁rivals	-8576
▁footage	-8577
ashes	-8578
▁qing	-8579
▁divers	-8580
▁ingred	-8581
▁–	-8582
▁tables	-8583
▁tourists	-8584
▁relatives	-8585
agen	-8586
▁Mind	-8587
▁foolish	-8588
▁supported	-8589
▁suggesting	-8590
▁instruments	-8591
▁pap	-8592
▁traged	-8593
▁estimated	-8594
imb	-8595
▁veter	-8596
▁Police	-8597
▁nominal	-8598
▁collected	-8599
▁fantasy	-8600
▁aspir	-8601
▁definition	-8602
su	-8603
▁Que	-8604
inity	-8605
▁cogn	-8606
▁overt	-8607
▁devast	-8608
▁Imagine	-8609
▁opposed	-8610
▁Mid	-8611
atholic	-8612
▁compare	-8613
▁Avenue	-8614
▁someday	-8615
▁regularly	-8616
▁stub	-8617
▁loaded	-8618
▁locker	-8619
▁conventional	-8620
pm	-8621
hist	-8622
▁tricks	-8623
▁critics	-8624
▁purposes	-8625
▁statistics	-8626
break	-8627
▁founder	-8628
▁roughly	-8629
▁shelter	-8630
▁Spanish	-8631
▁designer	-8632
▁guidance	-8633
▁porn	-8634
imeter	-8635
▁statements	-8636
▁Jan	-8637
▁bureauc	-8638
▁slipped	-8639
40	-8640
▁sue	-8641
▁chef	-8642
▁rings	-8643
▁layer	-8644
▁absolute	-8645
ali	-8646
▁attrib	-8647
▁Restaur	-8648
▁vietnam	-8649
▁solutions	-8650
,,	-8651
idal	-8652
▁sentiment	-8653
▁convenience	-8654
▁150	-8655
▁bury	-8656
▁cigarette	-8657
iol	-8658
▁Far	-8659
▁Thursday	-8660
▁remarkable	-8661
▁generations	-8662
▁48	-8663
▁Eat	-8664
itual	-8665
▁pole	-8666
opes	-8667
▁bare	-8668
▁backed	-8669
▁receiving	-8670
▁regulatory	-8671
▁anticip	-8672
ressing	-8673
▁sovereign	-8674
isure	-8675
▁toys	-8676
▁subur	-8677
initely	-8678
▁allerg	-8679
▁engagement	-8680
▁Across	-8681
fly	-8682
▁Kate	-8683
▁pays	-8684
▁alike	-8685
▁Jon	-8686
▁inspired	-8687
▁sophisticated	-8688
iar	-8689
star	-8690
▁lane	-8691
▁Doesn	-8692
▁spray	-8693
▁overcome	-8694
▁protests	-8695
▁psychiat	-8696
▁hospitals	-8697
opsy	-8698
ormal	-8699
▁hint	-8700
▁invis	-8701
▁Fucking	-8702
▁selected	-8703
pat	-8704
▁2010.	-8705
▁contrad	-8706
▁smiling	-8707
▁tourist	-8708
oked	-8709
▁anxiety	-8710
▁recognition	-8711
▁registration	-8712
▁Been	-8713
▁pant	-8714
▁terrorists	-8715
▁Home	-8716
▁powder	-8717
▁torn	-8718
▁scenes	-8719
▁server	-8720
▁outcome	-8721
▁equally	-8722
▁contents	-8723
▁relation	-8724
▁accomplish	-8725
▁palestin	-8726
oids	-8727
sea	-8728
▁bio	-8729
aneous	-8730
▁smells	-8731
▁timing	-8732
▁reducing	-8733
▁travelers	-8734
▁supporting	-8735
▁rape	-8736
▁fluid	-8737
▁injuries	-8738
▁instructions	-8739
pan	-8740
laim	-8741
▁condem	-8742
▁passenger	-8743
▁colour	-8744
▁transferred	-8745
acher	-8746
▁voted	-8747
▁fisher	-8748
▁rabbit	-8749
▁surgeon	-8750
▁Made	-8751
▁acute	-8752
▁Including	-8753
grad	-8754
itches	-8755
▁foster	-8756
▁shipping	-8757
▁ambassador	-8758
▁incredibly	-8759
bow	-8760
▁successfully	-8761
beat	-8762
▁cage	-8763
▁fond	-8764
▁drives	-8765
▁analyst	-8766
▁municip	-8767
worth	-8768
▁Doing	-8769
▁surviv	-8770
▁signals	-8771
▁homicide	-8772
▁directions	-8773
▁investigating	-8774
▁grows	-8775
▁stabil	-8776
▁liberty	-8777
▁Shh	-8778
▁nod	-8779
▁Grab	-8780
eorgia	-8781
will	-8782
itative	-8783
iah	-8784
▁mcc	-8785
▁Real	-8786
▁dealer	-8787
▁misunder	-8788
▁classroom	-8789
▁Ke	-8790
▁Coll	-8791
uthors	-8792
▁boots	-8793
▁agenda	-8794
▁fruits	-8795
▁civilian	-8796
▁sacrific	-8797
▁dedicated	-8798
qing	-8799
▁2007	-8800
rolled	-8801
▁prompt	-8802
▁departments	-8803
▁characteristic	-8804
ailand	-8805
esters	-8806
▁creates	-8807
▁consistent	-8808
▁twin	-8809
▁grabbed	-8810
▁observe	-8811
fu	-8812
▁alg	-8813
▁nep	-8814
books	-8815
▁10:00	-8816
▁possess	-8817
▁overnight	-8818
law	-8819
▁amazon	-8820
bra	-8821
▁spa	-8822
▁difficulty	-8823
scale	-8824
▁tibet	-8825
▁gained	-8826
▁cheaper	-8827
▁suspicious	-8828
▁soccer	-8829
▁insisted	-8830
phones	-8831
▁utter	-8832
▁cancel	-8833
▁murders	-8834
▁outstanding	-8835
hin	-8836
net	-8837
quet	-8838
▁hind	-8839
▁Henry	-8840
▁somewhat	-8841
▁supervis	-8842
▁rust	-8843
▁defic	-8844
▁Russia	-8845
▁dishes	-8846
▁motive	-8847
▁spaces	-8848
agic	-8849
ella	-8850
▁Mem	-8851
▁hip	-8852
eered	-8853
▁Lake	-8854
▁calend	-8855
▁touching	-8856
▁communicate	-8857
▁civilization	-8858
ogy	-8859
give	-8860
acular	-8861
▁pipe	-8862
▁secondary	-8863
▁retirement	-8864
▁Fe	-8865
▁william	-8866
▁situations	-8867
▁cens	-8868
▁tips	-8869
▁reaching	-8870
▁wherever	-8871
▁differently	-8872
00.	-8873
▁prayer	-8874
▁joining	-8875
▁prostit	-8876
▁audition	-8877
▁experiments	-8878
jesty	-8879
▁Wed	-8880
itage	-8881
▁matt	-8882
▁bears	-8883
bey	-8884
▁Den	-8885
▁Lee	-8886
▁rif	-8887
▁preced	-8888
▁Fig	-8889
olves	-8890
▁mice	-8891
▁digging	-8892
▁libya	-8893
▁sucks	-8894
▁specifically	-8895
rage	-8896
▁ups	-8897
▁pile	-8898
▁beaten	-8899
▁worrying	-8900
aren	-8901
▁cin	-8902
▁Morning	-8903
ko	-8904
▁Ir	-8905
▁kit	-8906
▁irre	-8907
▁blown	-8908
▁involves	-8909
▁stones	-8910
▁Ins	-8911
▁Web	-8912
▁intend	-8913
▁visible	-8914
▁embassy	-8915
eez	-8916
▁lu	-8917
▁Pet	-8918
▁Clear	-8919
▁follows	-8920
▁fence	-8921
▁daughters	-8922
▁observation	-8923
▁chronic	-8924
▁coverage	-8925
▁crush	-8926
▁informed	-8927
hew	-8928
▁mild	-8929
▁socialist	-8930
▁tob	-8931
▁xin	-8932
▁harvest	-8933
▁Restaurant	-8934
▁Tal	-8935
▁wiz	-8936
▁actress	-8937
▁originally	-8938
▁indones	-8939
ji	-8940
▁por	-8941
▁drown	-8942
▁besides	-8943
▁drivers	-8944
▁worship	-8945
andy	-8946
have	-8947
▁Non	-8948
▁jokes	-8949
▁zoo	-8950
▁percentage	-8951
iots	-8952
▁scope	-8953
▁ming	-8954
▁silk	-8955
▁autonom	-8956
isy	-8957
mat	-8958
▁Unlike	-8959
▁Mod	-8960
▁pregnancy	-8961
▁difficulties	-8962
▁Super	-8963
▁meals	-8964
▁slave	-8965
▁wasted	-8966
▁crystal	-8967
▁examine	-8968
▁sustainable	-8969
▁pier	-8970
▁copper	-8971
▁blowing	-8972
▁separated	-8973
▁spots	-8974
▁suspic	-8975
▁infected	-8976
▁involving	-8977
▁destination	-8978
IA	-8979
▁reun	-8980
▁Eight	-8981
▁copies	-8982
▁criminals	-8983
▁7.	-8984
▁wu	-8985
▁fertil	-8986
▁disrupt	-8987
▁hostage	-8988
thur	-8989
arded	-8990
▁House	-8991
▁interrog	-8992
▁Sex	-8993
itzer	-8994
▁resid	-8995
▁equivalent	-8996
▁tale	-8997
▁divorced	-8998
▁regarded	-8999
▁determination	-9000
▁Sal	-9001
ecess	-9002
▁madam	-9003
▁recip	-9004
▁Bur	-9005
▁Jimmy	-9006
▁unfair	-9007
eous	-9008
▁rope	-9009
lean	-9010
▁aest	-9011
▁cozy	-9012
▁retired	-9013
▁sausage	-9014
▁laboratory	-9015
▁troubled	-9016
▁engineers	-9017
▁examples	-9018
▁productivity	-9019
emic	-9020
▁Gold	-9021
▁perce	-9022
▁reluct	-9023
▁authentic	-9024
rd	-9025
fight	-9026
▁Robert	-9027
oen	-9028
▁functional	-9029
▁integrated	-9030
which	-9031
itated	-9032
▁artificial	-9033
▁inevitable	-9034
bu	-9035
utch	-9036
▁distant	-9037
▁ambulance	-9038
▁concentrate	-9039
ermans	-9040
▁subsc	-9041
▁William	-9042
▁dischar	-9043
his	-9044
idays	-9045
▁Nope	-9046
▁producer	-9047
▁participate	-9048
%,	-9049
▁gi	-9050
▁nig	-9051
usalem	-9052
▁james	-9053
▁mature	-9054
bre	-9055
shore	-9056
▁Scott	-9057
▁directors	-9058
rous	-9059
▁Danny	-9060
ouses	-9061
▁quot	-9062
through	-9063
▁kidney	-9064
▁accompan	-9065
una	-9066
▁palm	-9067
▁tension	-9068
▁recording	-9069
rim	-9070
▁ok	-9071
▁gosh	-9072
▁toug	-9073
▁voices	-9074
▁loyalty	-9075
enth	-9076
▁Captain	-9077
▁talented	-9078
elve	-9079
▁gum	-9080
lings	-9081
▁spanish	-9082
▁invented	-9083
▁await	-9084
▁thirst	-9085
▁leisure	-9086
▁Seriously	-9087
▁integration	-9088
▁Mult	-9089
▁Miami	-9090
▁senate	-9091
▁tumor	-9092
▁expense	-9093
▁supervision	-9094
▁Imp	-9095
▁lod	-9096
▁Prov	-9097
▁snap	-9098
AP	-9099
▁excite	-9100
▁handled	-9101
▁kissing	-9102
▁Lat	-9103
▁ire	-9104
▁catal	-9105
▁paintings	-9106
iban	-9107
▁ank	-9108
▁zhang	-9109
▁medication	-9110
▁anth	-9111
bitious	-9112
▁Father	-9113
▁sevent	-9114
oli	-9115
rav	-9116
▁LI	-9117
▁AII	-9118
ribly	-9119
▁reliable	-9120
▁Jeff	-9121
▁supporters	-9122
hour	-9123
pool	-9124
▁leather	-9125
▁Fire	-9126
▁lounge	-9127
▁blocked	-9128
▁tut	-9129
▁caps	-9130
▁Ra	-9131
▁rehears	-9132
▁syndrome	-9133
abed	-9134
▁Throw	-9135
▁pathetic	-9136
▁arrangement	-9137
▁fet	-9138
▁salv	-9139
▁abund	-9140
▁volunt	-9141
▁portfol	-9142
▁movements	-9143
▁sang	-9144
▁password	-9145
▁logic	-9146
▁developers	-9147
▁6.	-9148
▁ech	-9149
onaut	-9150
▁pron	-9151
▁joking	-9152
▁matches	-9153
ipher	-9154
▁category	-9155
plus	-9156
front	-9157
▁belly	-9158
▁arguing	-9159
▁particles	-9160
▁pretending	-9161
▁cheat	-9162
▁chemistry	-9163
▁exhibition	-9164
▁underneath	-9165
▁Law	-9166
▁Mmm	-9167
erity	-9168
nament	-9169
▁revolutionary	-9170
▁clubs	-9171
▁slide	-9172
▁conspir	-9173
▁cant	-9174
▁rounds	-9175
▁homeless	-9176
▁suitable	-9177
hips	-9178
allel	-9179
▁melt	-9180
▁founded	-9181
▁billions	-9182
▁han	-9183
unting	-9184
▁offense	-9185
▁suspended	-9186
▁bron	-9187
▁goss	-9188
▁washed	-9189
apa	-9190
opard	-9191
▁gulf	-9192
▁Earlier	-9193
▁tragedy	-9194
usive	-9195
▁sacred	-9196
▁jewelry	-9197
▁manifest	-9198
▁sew	-9199
▁passage	-9200
▁minority	-9201
▁Conclusion	-9202
rad	-9203
▁wen	-9204
▁grief	-9205
▁emerged	-9206
▁communities	-9207
▁Care	-9208
▁Drive	-9209
▁Thomas	-9210
▁firing	-9211
aylor	-9212
▁rear	-9213
▁harmon	-9214
▁honour	-9215
▁Vis	-9216
▁Meth	-9217
▁heal	-9218
▁notion	-9219
▁publicly	-9220
▁continuing	-9221
ala	-9222
▁impr	-9223
▁lungs	-9224
▁voting	-9225
▁apology	-9226
acc	-9227
▁param	-9228
▁smith	-9229
▁trains	-9230
▁harvard	-9231
▁conscience	-9232
▁Hang	-9233
▁opens	-9234
▁balcony	-9235
inner	-9236
▁grat	-9237
▁chaos	-9238
▁absence	-9239
▁observed	-9240
ione	-9241
▁Nat	-9242
▁Ref	-9243
▁turb	-9244
struct	-9245
▁promising	-9246
▁advantages	-9247
▁debts	-9248
▁roman	-9249
▁goodness	-9250
▁adds	-9251
▁ritual	-9252
▁generate	-9253
▁initiative	-9254
ito	-9255
acco	-9256
aping	-9257
▁alib	-9258
▁seas	-9259
▁Green	-9260
▁patri	-9261
▁scores	-9262
ifications	-9263
▁Committee	-9264
▁displ	-9265
▁harsh	-9266
▁eurozone	-9267
▁Union	-9268
▁badge	-9269
▁humor	-9270
▁prohib	-9271
▁flour	-9272
▁accent	-9273
mination	-9274
▁precisely	-9275
▁pussy	-9276
▁unsub	-9277
▁electronics	-9278
▁chemicals	-9279
▁paperwork	-9280
▁shoulders	-9281
▁anxious	-9282
▁jumping	-9283
▁Mel	-9284
ckets	-9285
▁bicy	-9286
▁vari	-9287
▁expanding	-9288
▁invisible	-9289
econom	-9290
▁revenues	-9291
▁hid	-9292
▁tempor	-9293
▁imports	-9294
▁financing	-9295
!!	-9296
▁swed	-9297
americ	-9298
pol	-9299
▁Mac	-9300
▁fitness	-9301
▁propose	-9302
▁branches	-9303
▁possession	-9304
▁Ext	-9305
inery	-9306
▁Took	-9307
▁crops	-9308
▁uncons	-9309
▁Goodbye	-9310
uns	-9311
▁End	-9312
▁fel	-9313
▁Fair	-9314
▁carpet	-9315
▁literary	-9316
▁abandon	-9317
80	-9318
raq	-9319
cies	-9320
▁Bobby	-9321
▁underwear	-9322
▁assignment	-9323
▁approximately	-9324
▁ine	-9325
▁hers	-9326
asters	-9327
▁execution	-9328
▁rally	-9329
▁ministers	-9330
▁oh	-9331
▁Bre	-9332
pless	-9333
▁Jerry	-9334
▁diver	-9335
▁latin	-9336
▁reporters	-9337
▁Cou	-9338
▁dod	-9339
▁orph	-9340
iu	-9341
▁seeds	-9342
▁authors	-9343
▁satisfied	-9344
▁gm	-9345
eted	-9346
▁Sil	-9347
▁mug	-9348
▁ceiling	-9349
▁floating	-9350
▁ic	-9351
▁195	-9352
oper	-9353
▁vag	-9354
ounded	-9355
▁clown	-9356
▁parag	-9357
▁israeli	-9358
▁thunder	-9359
uates	-9360
▁fare	-9361
▁pond	-9362
▁wage	-9363
yes	-9364
▁glo	-9365
▁casino	-9366
▁wondered	-9367
▁concentration	-9368
die	-9369
▁praise	-9370
▁strikes	-9371
▁complaint	-9372
eda	-9373
▁Whose	-9374
▁participants	-9375
▁Fur	-9376
▁fridge	-9377
▁android	-9378
cond	-9379
uffs	-9380
▁mit	-9381
▁ipad	-9382
▁promoting	-9383
▁disgusting	-9384
▁gir	-9385
clock	-9386
▁motherfucker	-9387
▁Mir	-9388
▁brows	-9389
▁School	-9390
▁coincidence	-9391
▁translation	-9392
▁dancer	-9393
▁kicking	-9394
▁yelling	-9395
▁investing	-9396
▁pc	-9397
▁wrap	-9398
▁whist	-9399
▁Mommy	-9400
▁patent	-9401
▁someplace	-9402
▁encouraged	-9403
▁Head	-9404
▁skip	-9405
▁cargo	-9406
▁wives	-9407
western	-9408
▁Commun	-9409
▁galaxy	-9410
▁bureaucr	-9411
▁reduction	-9412
▁competitors	-9413
eu	-9414
▁alph	-9415
▁answering	-9416
▁mour	-9417
▁counts	-9418
▁thirty	-9419
▁trends	-9420
▁amid	-9421
▁drill	-9422
ifferent	-9423
▁Brother	-9424
▁carrier	-9425
gas	-9426
thm	-9427
▁immigration	-9428
▁cul	-9429
ja	-9430
▁Sn	-9431
eing	-9432
omin	-9433
▁Nah	-9434
▁chicago	-9435
▁packing	-9436
▁[	-9437
▁scul	-9438
icular	-9439
▁behave	-9440
▁component	-9441
▁roots	-9442
▁cigarettes	-9443
than	-9444
▁fled	-9445
▁laser	-9446
▁refuge	-9447
mart	-9448
▁Working	-9449
▁costume	-9450
erning	-9451
▁ignor	-9452
▁rehab	-9453
▁dispos	-9454
▁catching	-9455
ipper	-9456
▁dozens	-9457
▁failing	-9458
▁strangers	-9459
▁structural	-9460
▁attractions	-9461
▁stiff	-9462
▁reconstr	-9463
▁frequency	-9464
▁31	-9465
estyle	-9466
▁drank	-9467
▁tender	-9468
▁recovered	-9469
▁meteor	-9470
▁safely	-9471
▁nick	-9472
▁gravity	-9473
▁Ty	-9474
▁nutr	-9475
▁sid	-9476
▁League	-9477
▁transplant	-9478
▁technically	-9479
▁drum	-9480
▁dull	-9481
▁mary	-9482
▁Israel	-9483
▁crossing	-9484
▁alter	-9485
▁buyer	-9486
▁locations	-9487
rot	-9488
▁aspect	-9489
▁laptop	-9490
▁goldman	-9491
neys	-9492
▁elite	-9493
▁Interest	-9494
▁physically	-9495
▁narr	-9496
▁weigh	-9497
▁farmer	-9498
keys	-9499
▁som	-9500
chair	-9501
▁sits	-9502
▁sells	-9503
▁submit	-9504
▁closest	-9505
▁specified	-9506
seIf	-9507
▁flip	-9508
▁blade	-9509
theless	-9510
▁dealers	-9511
osaur	-9512
▁2012	-9513
▁prox	-9514
▁technological	-9515
▁deadly	-9516
▁thesis	-9517
▁villages	-9518
abs	-9519
▁pec	-9520
▁noon	-9521
▁strang	-9522
▁MS	-9523
▁calendar	-9524
tw	-9525
chool	-9526
▁Expl	-9527
▁lowest	-9528
▁restrictions	-9529
pread	-9530
▁hybr	-9531
▁cared	-9532
▁sixth	-9533
▁immunity	-9534
ainted	-9535
▁exped	-9536
▁experimental	-9537
▁introduction	-9538
▁ll	-9539
▁stadium	-9540
▁nonsense	-9541
▁ambitious	-9542
dog	-9543
▁boats	-9544
▁photographs	-9545
▁$5	-9546
armed	-9547
▁Wanna	-9548
▁World	-9549
▁saint	-9550
▁gambling	-9551
▁scenario	-9552
cript	-9553
▁defined	-9554
▁isolated	-9555
▁regarding	-9556
▁ot	-9557
attle	-9558
itute	-9559
▁fried	-9560
▁cattle	-9561
▁Richard	-9562
idespread	-9563
▁performing	-9564
▁automatically	-9565
▁Hol	-9566
▁foss	-9567
▁drops	-9568
▁formula	-9569
▁penalty	-9570
▁quarters	-9571
▁substance	-9572
▁hay	-9573
▁ink	-9574
▁resolve	-9575
▁appetite	-9576
dad	-9577
▁imf	-9578
▁penny	-9579
▁printing	-9580
▁acknowled	-9581
▁capitalism	-9582
▁transaction	-9583
▁Gar	-9584
▁bor	-9585
agging	-9586
▁handful	-9587
ube	-9588
pres	-9589
▁Aah	-9590
▁freeze	-9591
▁thread	-9592
wind	-9593
▁Kat	-9594
▁rises	-9595
▁texas	-9596
▁winds	-9597
▁Jersey	-9598
▁assigned	-9599
▁Iraq	-9600
▁solved	-9601
▁Abstract	-9602
▁qualified	-9603
▁compromise	-9604
foot	-9605
▁Day	-9606
▁muff	-9607
uating	-9608
▁hypot	-9609
▁Google	-9610
▁entitled	-9611
▁semi	-9612
▁2008,	-9613
▁worthy	-9614
▁referred	-9615
▁jar	-9616
arter	-9617
▁cried	-9618
▁needle	-9619
▁vessels	-9620
▁cultures	-9621
▁surrender	-9622
▁confession	-9623
dri	-9624
zo	-9625
thy	-9626
obile	-9627
▁mamm	-9628
▁pale	-9629
▁Roman	-9630
▁risky	-9631
▁Rather	-9632
▁proven	-9633
▁deaf	-9634
▁covers	-9635
▁Kim	-9636
oseph	-9637
liness	-9638
▁carries	-9639
▁drain	-9640
▁twist	-9641
▁expects	-9642
▁signing	-9643
▁automatic	-9644
▁testimony	-9645
afi	-9646
▁stew	-9647
▁safer	-9648
▁update	-9649
▁Ell	-9650
▁apparent	-9651
▁installed	-9652
erge	-9653
▁dread	-9654
▁souls	-9655
▁makeup	-9656
▁writes	-9657
friendly	-9658
▁grandpa	-9659
▁shortly	-9660
▁magnetic	-9661
▁measured	-9662
▁patience	-9663
Ie	-9664
bridge	-9665
▁Event	-9666
▁weaken	-9667
▁Majesty	-9668
▁envelop	-9669
▁commodities	-9670
bell	-9671
▁racing	-9672
▁robert	-9673
oriented	-9674
▁Jud	-9675
▁sends	-9676
▁Charles	-9677
▁disturb	-9678
▁essence	-9679
▁exhausted	-9680
has	-9681
▁chairs	-9682
▁rubber	-9683
▁gathering	-9684
▁liability	-9685
▁ib	-9686
ethe	-9687
oner	-9688
wife	-9689
▁fleet	-9690
▁thumb	-9691
ois	-9692
zhen	-9693
▁Few	-9694
▁wil	-9695
ieves	-9696
▁shocked	-9697
oln	-9698
▁barn	-9699
▁Prepare	-9700
▁planets	-9701
ema	-9702
ahoo	-9703
from	-9704
▁polar	-9705
▁hunter	-9706
▁analyze	-9707
▁stressed	-9708
opol	-9709
ummy	-9710
▁Told	-9711
▁amend	-9712
▁peter	-9713
▁shine	-9714
▁metaph	-9715
▁fighter	-9716
▁passport	-9717
bound	-9718
▁Priv	-9719
▁endless	-9720
▁subsequ	-9721
▁Excellent	-9722
bank	-9723
▁sauce	-9724
▁shark	-9725
▁planes	-9726
▁prevention	-9727
▁preparation	-9728
▁penet	-9729
▁reserv	-9730
▁circles	-9731
▁abilities	-9732
▁attempted	-9733
gered	-9734
liest	-9735
▁Prot	-9736
▁fires	-9737
▁plates	-9738
▁elegant	-9739
▁collective	-9740
▁yo	-9741
know	-9742
▁Ugh	-9743
▁brush	-9744
▁hiring	-9745
▁holidays	-9746
▁arguments	-9747
▁presentation	-9748
mir	-9749
▁Austral	-9750
▁muscles	-9751
mma	-9752
rust	-9753
▁guts	-9754
▁Smith	-9755
▁cookies	-9756
▁civilians	-9757
▁motel	-9758
▁European	-9759
heim	-9760
irds	-9761
▁embrace	-9762
there	-9763
abetes	-9764
▁wider	-9765
▁tattoo	-9766
▁prospects	-9767
▁Read	-9768
gs	-9769
▁radar	-9770
▁monthly	-9771
▁widespread	-9772
▁requirement	-9773
iper	-9774
atched	-9775
▁acted	-9776
▁wipe	-9777
▁subway	-9778
▁collapsed	-9779
▁addict	-9780
ugal	-9781
▁neur	-9782
▁wrest	-9783
▁designs	-9784
▁writers	-9785
▁contained	-9786
▁invitation	-9787
▁counterpart	-9788
▁tin	-9789
▁1980	-9790
▁peop	-9791
olving	-9792
▁nursing	-9793
▁restore	-9794
▁Tim	-9795
azing	-9796
▁tobacco	-9797
▁recommended	-9798
▁toll	-9799
umbled	-9800
▁coward	-9801
▁sculpt	-9802
▁Roy	-9803
tains	-9804
▁colleague	-9805
▁Rock	-9806
ods	-9807
iminary	-9808
▁corps	-9809
▁prominent	-9810
▁Mal	-9811
▁servants	-9812
▁rage	-9813
▁colleg	-9814
▁Lots	-9815
▁aged	-9816
▁approve	-9817
▁elderly	-9818
▁representatives	-9819
▁Hon	-9820
▁beans	-9821
▁rescu	-9822
▁harass	-9823
▁indoor	-9824
▁Hopefully	-9825
▁reservation	-9826
good	-9827
▁produces	-9828
uv	-9829
▁Drink	-9830
▁salad	-9831
▁pup	-9832
vention	-9833
▁Family	-9834
▁Friend	-9835
▁latter	-9836
▁mighty	-9837
▁Florida	-9838
▁invested	-9839
▁Daniel	-9840
▁acquired	-9841
▁Hist	-9842
▁pursuit	-9843
bian	-9844
▁rack	-9845
▁busted	-9846
▁heated	-9847
▁spectacular	-9848
eller	-9849
sight	-9850
▁delicate	-9851
▁producers	-9852
▁fifty	-9853
▁jungle	-9854
▁testify	-9855
▁striking	-9856
▁vault	-9857
▁heroes	-9858
▁propag	-9859
▁dragged	-9860
▁existed	-9861
▁arrangements	-9862
▁occasionally	-9863
iated	-9864
aneously	-9865
▁excitement	-9866
▁dressing	-9867
▁transmission	-9868
▁blamed	-9869
▁neutral	-9870
▁planted	-9871
▁squeeze	-9872
▁Complimentary	-9873
▁Kill	-9874
▁blessing	-9875
▁Seven	-9876
▁outer	-9877
▁gallery	-9878
har	-9879
mble	-9880
▁caut	-9881
itudes	-9882
▁globe	-9883
▁schem	-9884
▁choosing	-9885
▁flexible	-9886
▁transformation	-9887
▁Cour	-9888
▁bottles	-9889
▁associate	-9890
▁describes	-9891
bus	-9892
eur	-9893
▁circuit	-9894
▁pointing	-9895
▁exclusive	-9896
eters	-9897
▁pear	-9898
jacent	-9899
▁bern	-9900
▁obsc	-9901
▁unst	-9902
▁pulse	-9903
▁lifted	-9904
stage	-9905
▁Mama	-9906
▁coco	-9907
▁renov	-9908
▁estimate	-9909
▁imagined	-9910
▁Vir	-9911
▁groom	-9912
▁heritage	-9913
▁repeatedly	-9914
▁75	-9915
▁centers	-9916
▁convert	-9917
▁protective	-9918
quis	-9919
▁demon	-9920
▁wrapped	-9921
▁dreaming	-9922
fin	-9923
▁liu	-9924
▁wow	-9925
▁massage	-9926
▁Die	-9927
▁fathers	-9928
▁halfway	-9929
▁Av	-9930
▁ly	-9931
▁sung	-9932
overs	-9933
usions	-9934
▁lands	-9935
▁Already	-9936
▁australian	-9937
moon	-9938
▁Kev	-9939
▁Dave	-9940
▁Along	-9941
▁neglect	-9942
▁contribute	-9943
▁dot	-9944
▁resume	-9945
▁tastes	-9946
ti	-9947
▁dreamed	-9948
▁artistic	-9949
60	-9950
▁Jac	-9951
▁Save	-9952
▁coke	-9953
▁bloom	-9954
▁outlook	-9955
▁proportion	-9956
▁transactions	-9957
▁lam	-9958
aints	-9959
▁meets	-9960
▁invasion	-9961
aved	-9962
▁Bull	-9963
▁banned	-9964
▁borrowing	-9965
▁demanding	-9966
▁soap	-9967
believ	-9968
▁Makes	-9969
▁Quite	-9970
▁tablet	-9971
▁sincere	-9972
zil	-9973
olas	-9974
▁Rog	-9975
▁Sun	-9976
▁Gotta	-9977
▁White	-9978
▁flies	-9979
▁Museum	-9980
▁tox	-9981
storm	-9982
▁punk	-9983
herent	-9984
▁angeles	-9985
▁spreading	-9986
jin	-9987
nic	-9988
elle	-9989
▁Bern	-9990
ulates	-9991
▁washing	-9992
▁journalists	-9993
entine	-9994
▁juris	-9995
▁overd	-9996
▁moscow	-9997
▁Forgive	-9998
htub	-9999
▁mong	-10000
holder	-10001
▁Italy	-10002
▁orbit	-10003
onia	-10004
▁Mat	-10005
▁grey	-10006
incoln	-10007
▁fatal	-10008
▁incon	-10009
▁theoretical	-10010
▁theft	-10011
▁gossip	-10012
atherine	-10013
▁speaker	-10014
▁hydro	-10015
▁margin	-10016
▁observ	-10017
aza	-10018
▁putin	-10019
▁revers	-10020
len	-10021
lord	-10022
▁Rac	-10023
▁volat	-10024
▁Further	-10025
▁crashed	-10026
▁complaints	-10027
rain	-10028
shine	-10029
uming	-10030
▁pean	-10031
▁sins	-10032
▁Greek	-10033
inction	-10034
▁recruit	-10035
▁predicted	-10036
awa	-10037
oenix	-10038
asting	-10039
▁punished	-10040
▁reflects	-10041
▁continent	-10042
▁neighbour	-10043
▁600	-10044
ockey	-10045
▁fails	-10046
▁classical	-10047
▁Egypt	-10048
▁permit	-10049
▁interviews	-10050
ordan	-10051
▁lawn	-10052
utiful	-10053
▁delet	-10054
riz	-10055
arer	-10056
▁Form	-10057
▁2009,	-10058
▁ireland	-10059
▁partial	-10060
▁olympics	-10061
▁terminal	-10062
▁virtually	-10063
:3	-10064
▁Po	-10065
▁mu	-10066
▁flows	-10067
▁shooter	-10068
▁expanded	-10069
▁obtained	-10070
▁correctly	-10071
▁eliminate	-10072
ptic	-10073
▁trucks	-10074
▁worlds	-10075
▁Holy	-10076
▁compos	-10077
▁pockets	-10078
▁apps	-10079
▁extension	-10080
▁controlling	-10081
udi	-10082
▁album	-10083
ripp	-10084
backs	-10085
stick	-10086
▁tune	-10087
▁medal	-10088
▁spite	-10089
▁wizard	-10090
▁framework	-10091
▁containing	-10092
▁March	-10093
▁infant	-10094
▁ignored	-10095
▁municipal	-10096
▁suggestion	-10097
opic	-10098
▁yen	-10099
▁astronom	-10100
eau	-10101
▁cruise	-10102
▁devoted	-10103
▁traders	-10104
▁reader	-10105
food	-10106
▁tens	-10107
commun	-10108
essert	-10109
▁Contin	-10110
▁forens	-10111
▁enthusi	-10112
▁fiction	-10113
▁lightning	-10114
lead	-10115
walk	-10116
▁anonymous	-10117
▁achievement	-10118
cap	-10119
nan	-10120
▁resent	-10121
▁upside	-10122
▁warrior	-10123
adays	-10124
▁bree	-10125
▁leap	-10126
▁oldest	-10127
ropol	-10128
▁nato	-10129
occ	-10130
▁8.	-10131
▁academy	-10132
▁inherit	-10133
▁Hard	-10134
▁drought	-10135
▁threaten	-10136
▁42	-10137
woman	-10138
▁Direct	-10139
▁continu	-10140
▁paragraph	-10141
esy	-10142
who	-10143
▁mm	-10144
▁10.	-10145
▁lazy	-10146
▁mister	-10147
▁kidnapped	-10148
▁sanctions	-10149
▁Hum	-10150
▁sor	-10151
ansas	-10152
▁River	-10153
▁sofabed	-10154
▁ancestors	-10155
▁celebrity	-10156
uxe	-10157
▁Tur	-10158
orable	-10159
▁sealed	-10160
shop	-10161
eries	-10162
▁robbed	-10163
▁annoying	-10164
▁bee	-10165
▁airpl	-10166
▁manual	-10167
▁shaking	-10168
▁concerning	-10169
▁essentially	-10170
▁bathtub	-10171
▁enlight	-10172
▁romance	-10173
▁advertise	-10174
▁countryside	-10175
▁Lock	-10176
▁trials	-10177
▁Sk	-10178
▁mao	-10179
▁unn	-10180
otion	-10181
addafi	-10182
arents	-10183
keeper	-10184
▁romney	-10185
▁anch	-10186
▁Teddy	-10187
▁steak	-10188
▁advise	-10189
▁frequent	-10190
▁tropical	-10191
azi	-10192
▁ii	-10193
even	-10194
▁diabetes	-10195
▁ger	-10196
▁zeal	-10197
▁inquir	-10198
▁protesters	-10199
borne	-10200
▁wears	-10201
▁deposits	-10202
▁obsessed	-10203
▁contribution	-10204
▁33	-10205
china	-10206
▁Less	-10207
▁dwell	-10208
prof	-10209
rine	-10210
▁Left	-10211
resses	-10212
▁lovers	-10213
▁yields	-10214
▁laughed	-10215
▁ranks	-10216
▁sorrow	-10217
▁woo	-10218
▁frog	-10219
▁backing	-10220
▁organisation	-10221
▁Unc	-10222
▁starving	-10223
▁integrity	-10224
▁ecological	-10225
▁journalist	-10226
aii	-10227
irlp	-10228
leton	-10229
liers	-10230
▁sober	-10231
irlpool	-10232
▁occurs	-10233
▁strain	-10234
▁beloved	-10235
▁conditioning	-10236
aki	-10237
▁fits	-10238
▁kings	-10239
▁tremend	-10240
▁stubborn	-10241
iasm	-10242
▁tire	-10243
▁Secret	-10244
▁ghosts	-10245
▁guessing	-10246
▁frightened	-10247
aska	-10248
▁lev	-10249
government	-10250
▁affection	-10251
offs	-10252
party	-10253
▁Wednesday	-10254
▁satisfaction	-10255
oons	-10256
▁24-	-10257
arest	-10258
▁accus	-10259
hind	-10260
oding	-10261
▁Resear	-10262
▁fastest	-10263
▁classified	-10264
▁Thanksgiving	-10265
anche	-10266
lined	-10267
▁Guests	-10268
▁criter	-10269
▁establ	-10270
▁rolled	-10271
gun	-10272
▁Jen	-10273
▁bits	-10274
▁neat	-10275
▁cents	-10276
▁actors	-10277
▁elabor	-10278
sa	-10279
▁Louis	-10280
▁attach	-10281
▁ov	-10282
▁risen	-10283
▁Effect	-10284
▁taxpay	-10285
▁afterwards	-10286
▁replacement	-10287
▁inex	-10288
▁2010,	-10289
▁trium	-10290
▁harbor	-10291
▁contacts	-10292
▁employer	-10293
▁favourite	-10294
▁recre	-10295
▁silicon	-10296
roit	-10297
▁burns	-10298
▁bosses	-10299
▁cooked	-10300
▁videos	-10301
▁begging	-10302
▁Eventually	-10303
olina	-10304
▁dock	-10305
▁Shanghai	-10306
▁ell	-10307
▁laden	-10308
▁Shouldn	-10309
▁questioning	-10310
ument	-10311
▁Night	-10312
▁visits	-10313
▁freezing	-10314
opath	-10315
▁dorm	-10316
▁arrog	-10317
▁headache	-10318
▁simult	-10319
▁innovative	-10320
▁taliban	-10321
▁persuade	-10322
▁cance	-10323
▁Develop	-10324
▁printed	-10325
▁opinions	-10326
new	-10327
site	-10328
▁bend	-10329
▁poker	-10330
▁crowded	-10331
mingly	-10332
▁Sarah	-10333
▁finest	-10334
▁Light	-10335
▁inters	-10336
▁substantial	-10337
AT	-10338
▁spat	-10339
▁stall	-10340
▁Mexican	-10341
▁flights	-10342
▁assuming	-10343
▁relaxing	-10344
▁requested	-10345
ouston	-10346
▁knight	-10347
▁commonly	-10348
90	-10349
ascular	-10350
▁Brazil	-10351
▁portfolio	-10352
sec	-10353
▁booth	-10354
▁tract	-10355
▁Christian	-10356
▁volunteer	-10357
▁breed	-10358
▁contam	-10359
▁inches	-10360
▁sharply	-10361
▁bob	-10362
▁aims	-10363
▁excessive	-10364
▁inspiration	-10365
erk	-10366
irk	-10367
▁Lie	-10368
erving	-10369
▁Public	-10370
▁incorpor	-10371
▁magnific	-10372
▁inspector	-10373
▁appreciation	-10374
sels	-10375
▁Sher	-10376
▁transf	-10377
▁Effects	-10378
▁suggestions	-10379
▁pigs	-10380
▁worn	-10381
▁forcing	-10382
▁fabulous	-10383
▁unconscious	-10384
▁Da	-10385
▁foreigners	-10386
lot	-10387
ousy	-10388
▁August	-10389
▁divine	-10390
▁strictly	-10391
agle	-10392
umbling	-10393
▁angels	-10394
▁floors	-10395
▁dna	-10396
▁vel	-10397
▁bund	-10398
▁Course	-10399
▁define	-10400
▁statue	-10401
▁messing	-10402
▁theatre	-10403
▁triumph	-10404
▁betrayed	-10405
▁memorial	-10406
▁lifestyle	-10407
eem	-10408
▁dip	-10409
▁Brad	-10410
▁astronaut	-10411
▁193	-10412
▁Norm	-10413
▁slam	-10414
▁dessert	-10415
▁missiles	-10416
▁programmes	-10417
ni	-10418
ozy	-10419
▁Id	-10420
▁Fest	-10421
▁trump	-10422
▁facial	-10423
▁rebels	-10424
▁lighting	-10425
▁Eh	-10426
fold	-10427
▁Budd	-10428
▁tide	-10429
minded	-10430
▁Happy	-10431
▁Johnny	-10432
▁proposals	-10433
▁Cub	-10434
▁liquor	-10435
▁wicked	-10436
▁spotted	-10437
pled	-10438
▁12.	-10439
▁umb	-10440
proof	-10441
umbia	-10442
▁soda	-10443
▁coastal	-10444
▁temperatures	-10445
▁dug	-10446
▁dys	-10447
asive	-10448
▁slee	-10449
▁booked	-10450
▁triple	-10451
▁diamonds	-10452
▁Ge	-10453
▁bean	-10454
▁spit	-10455
▁dialogue	-10456
▁promoted	-10457
adv	-10458
▁fax	-10459
reens	-10460
▁vert	-10461
▁dough	-10462
▁periods	-10463
▁elephant	-10464
▁tendency	-10465
.)	-10466
▁syria	-10467
▁trips	-10468
▁Analysis	-10469
▁climbing	-10470
▁preserve	-10471
▁1000	-10472
▁lemon	-10473
▁unfortunately	-10474
ppy	-10475
▁ford	-10476
▁marx	-10477
agement	-10478
▁creepy	-10479
▁sticking	-10480
▁concluded	-10481
▁consulting	-10482
wall	-10483
▁10%	-10484
▁Blood	-10485
▁Major	-10486
▁brick	-10487
▁codes	-10488
▁kin	-10489
▁Jake	-10490
▁Soon	-10491
ixture	-10492
▁chill	-10493
▁spill	-10494
-3	-10495
ste	-10496
esar	-10497
▁Says	-10498
▁flaw	-10499
ooklyn	-10500
▁digest	-10501
▁avoiding	-10502
vo	-10503
aver	-10504
▁Mur	-10505
istol	-10506
▁penn	-10507
▁retain	-10508
▁wheels	-10509
▁competing	-10510
ecute	-10511
ieving	-10512
▁enthusiasm	-10513
▁chew	-10514
▁mistaken	-10515
▁Francisco	-10516
▁magazines	-10517
▁professionals	-10518
▁epid	-10519
▁loos	-10520
▁happily	-10521
alia	-10522
oard	-10523
▁yards	-10524
▁legally	-10525
▁consolid	-10526
hire	-10527
▁Kar	-10528
▁rend	-10529
▁cowboy	-10530
▁ironing	-10531
▁exercises	-10532
list	-10533
▁alex	-10534
▁righteous	-10535
▁controversial	-10536
dam	-10537
oute	-10538
▁fog	-10539
ushes	-10540
▁vend	-10541
lining	-10542
▁dealt	-10543
▁Academ	-10544
▁catast	-10545
▁legacy	-10546
▁anytime	-10547
▁Consider	-10548
▁volunteers	-10549
archy	-10550
▁curs	-10551
▁vine	-10552
▁scout	-10553
▁borrowed	-10554
▁composition	-10555
bish	-10556
▁rug	-10557
▁wax	-10558
▁Congress	-10559
▁currencies	-10560
▁fid	-10561
▁legitimate	-10562
omer	-10563
▁Young	-10564
▁ripped	-10565
▁broader	-10566
▁cancell	-10567
▁hydrogen	-10568
▁discussing	-10569
pow	-10570
▁dated	-10571
▁focusing	-10572
▁terrorism	-10573
▁agreements	-10574
▁approaches	-10575
iro	-10576
▁Girls	-10577
▁cater	-10578
▁roles	-10579
▁offshore	-10580
▁uncertainty	-10581
tech	-10582
your	-10583
▁CIA	-10584
▁bent	-10585
atical	-10586
▁Turns	-10587
ouncing	-10588
▁sticks	-10589
▁challenged	-10590
▁attended	-10591
refrigerator	-10592
dney	-10593
jing	-10594
unct	-10595
▁feather	-10596
▁educated	-10597
▁websites	-10598
▁disgu	-10599
▁chains	-10600
▁enable	-10601
hov	-10602
▁fi	-10603
arts	-10604
▁penc	-10605
▁assert	-10606
▁dignity	-10607
▁terrific	-10608
▁responded	-10609
▁Bas	-10610
▁prick	-10611
▁laying	-10612
▁francisco	-10613
▁coin	-10614
▁inhab	-10615
▁parked	-10616
▁Promise	-10617
▁Service	-10618
▁dominant	-10619
▁resulting	-10620
▁encouraging	-10621
▁cereals	-10622
▁filling	-10623
▁forests	-10624
hs	-10625
bur	-10626
edes	-10627
ulum	-10628
▁paran	-10629
▁indicates	-10630
▁productive	-10631
▁institutional	-10632
▁od	-10633
rise	-10634
▁Disc	-10635
▁Fort	-10636
▁Stra	-10637
formation	-10638
▁Beautiful	-10639
nut	-10640
▁heels	-10641
▁twins	-10642
▁unity	-10643
▁twelve	-10644
▁consens	-10645
▁preferred	-10646
▁00000	-10647
ecutive	-10648
▁perpet	-10649
▁reaches	-10650
▁membership	-10651
▁entrepreneur	-10652
mod	-10653
▁Aut	-10654
▁adap	-10655
▁gender	-10656
▁grip	-10657
▁quantity	-10658
▁awareness	-10659
19	-10660
▁bacon	-10661
▁bargain	-10662
▁Glad	-10663
itical	-10664
▁Double	-10665
▁Inside	-10666
aria	-10667
▁toe	-10668
terior	-10669
▁II	-10670
girl	-10671
agged	-10672
▁tomb	-10673
▁happier	-10674
▁inventory	-10675
▁2,	-10676
agan	-10677
▁Similar	-10678
▁beliefs	-10679
▁acquisition	-10680
▁ethics	-10681
▁borders	-10682
▁generated	-10683
▁fascinating	-10684
▁importantly	-10685
▁Top	-10686
utical	-10687
▁Fight	-10688
▁piano	-10689
▁rushed	-10690
uddy	-10691
comes	-10692
▁goat	-10693
▁oath	-10694
▁vest	-10695
▁Child	-10696
▁gloves	-10697
▁fighters	-10698
▁paradise	-10699
▁Researchers	-10700
▁manufacturer	-10701
lan	-10702
▁Arabica	-10703
▁9.	-10704
asses	-10705
▁swift	-10706
▁Dinner	-10707
▁freely	-10708
▁consent	-10709
itzerland	-10710
▁requests	-10711
▁Government	-10712
▁2006	-10713
rection	-10714
▁resemb	-10715
▁convicted	-10716
▁indonesia	-10717
zi	-10718
arma	-10719
▁admir	-10720
▁searched	-10721
▁Met	-10722
▁metab	-10723
▁hybrid	-10724
▁wooden	-10725
▁liquidity	-10726
abul	-10727
ayed	-10728
▁jin	-10729
▁pose	-10730
▁rebel	-10731
▁fights	-10732
▁parade	-10733
▁affects	-10734
▁slim	-10735
▁destro	-10736
▁tomato	-10737
▁aqu	-10738
icting	-10739
▁bonus	-10740
▁intimid	-10741
▁negotiate	-10742
face	-10743
▁gad	-10744
▁prey	-10745
asures	-10746
riving	-10747
▁forum	-10748
writing	-10749
▁stages	-10750
▁biology	-10751
▁Breakfast	-10752
▁interaction	-10753
rons	-10754
ucks	-10755
piece	-10756
unted	-10757
▁naval	-10758
▁brutal	-10759
▁hunger	-10760
▁realistic	-10761
▁undercover	-10762
rip	-10763
anium	-10764
▁Laur	-10765
▁vary	-10766
▁Gonna	-10767
▁Human	-10768
▁exagger	-10769
▁relaxed	-10770
▁thailand	-10771
▁altogether	-10772
▁bankruptcy	-10773
rec	-10774
▁prel	-10775
ailing	-10776
▁deriv	-10777
▁fiance	-10778
asse	-10779
lsea	-10780
▁beam	-10781
▁doubts	-10782
▁escort	-10783
▁trillion	-10784
▁prosperity	-10785
▁consideration	-10786
▁iv	-10787
bling	-10788
▁narc	-10789
▁corrid	-10790
▁colleges	-10791
?,	-10792
▁wig	-10793
▁gast	-10794
▁moist	-10795
▁insight	-10796
▁Manhattan	-10797
▁constitutional	-10798
reds	-10799
▁Cas	-10800
▁6:00	-10801
▁subt	-10802
▁scrub	-10803
▁subsidies	-10804
▁collecting	-10805
▁governance	-10806
enders	-10807
▁terribly	-10808
▁vacu	-10809
▁jiang	-10810
▁argent	-10811
▁bachel	-10812
▁cheated	-10813
▁portion	-10814
▁sectors	-10815
iti	-10816
▁abn	-10817
person	-10818
▁lists	-10819
▁socks	-10820
▁martin	-10821
▁stored	-10822
▁subtle	-10823
▁challenging	-10824
igate	-10825
isers	-10826
▁carp	-10827
▁airline	-10828
▁blanket	-10829
rove	-10830
▁diversity	-10831
▁injection	-10832
▁residence	-10833
▁Hy	-10834
▁rh	-10835
▁mig	-10836
▁Elect	-10837
▁phrase	-10838
▁bearing	-10839
BO	-10840
▁Wil	-10841
▁jurisd	-10842
▁Professor	-10843
"-	-10844
▁sore	-10845
▁Analy	-10846
▁sperm	-10847
▁hostile	-10848
▁HD	-10849
icky	-10850
rations	-10851
▁polish	-10852
▁guardian	-10853
▁sunshine	-10854
▁traveled	-10855
▁mechanical	-10856
▁confidential	-10857
▁fame	-10858
▁solo	-10859
▁franc	-10860
▁polls	-10861
▁wired	-10862
▁hammer	-10863
▁psycho	-10864
▁deserved	-10865
▁employers	-10866
ede	-10867
ige	-10868
▁Mag	-10869
▁pork	-10870
▁surg	-10871
▁declar	-10872
▁smarter	-10873
▁44	-10874
▁suitc	-10875
▁wrist	-10876
▁artery	-10877
▁grades	-10878
▁contrary	-10879
▁expertise	-10880
▁permitted	-10881
▁complaining	-10882
uo	-10883
gal	-10884
▁conclus	-10885
▁microsc	-10886
aceutical	-10887
conf	-10888
▁coma	-10889
▁Third	-10890
abe	-10891
aron	-10892
▁cope	-10893
▁weed	-10894
▁telesc	-10895
▁Special	-10896
▁Meet	-10897
▁comic	-10898
▁raped	-10899
▁awards	-10900
▁nerves	-10901
▁scramb	-10902
▁sketch	-10903
▁celebration	-10904
gi	-10905
▁Face	-10906
▁towel	-10907
▁aboard	-10908
▁pressing	-10909
▁sequence	-10910
▁conservation	-10911
▁jac	-10912
▁Hear	-10913
▁brid	-10914
▁steep	-10915
▁morgan	-10916
▁competent	-10917
▁offensive	-10918
▁provision	-10919
▁mast	-10920
▁facil	-10921
▁inhib	-10922
▁compassion	-10923
▁sack	-10924
▁2008.	-10925
▁optimistic	-10926
▁2011.	-10927
▁hurric	-10928
▁considerable	-10929
gian	-10930
inson	-10931
▁Mill	-10932
atively	-10933
▁jerusalem	-10934
▁Haw	-10935
ioxide	-10936
screen	-10937
▁morph	-10938
▁parks	-10939
▁repay	-10940
▁Couple	-10941
▁applying	-10942
▁accidents	-10943
loaded	-10944
▁boards	-10945
▁accomplished	-10946
bag	-10947
bean	-10948
▁Papa	-10949
▁bage	-10950
▁pent	-10951
▁spar	-10952
▁oneself	-10953
▁cooperate	-10954
inda	-10955
rium	-10956
▁bis	-10957
▁southeast	-10958
▁reflection	-10959
las	-10960
iors	-10961
▁candle	-10962
▁masses	-10963
▁overhe	-10964
▁caution	-10965
▁eternal	-10966
▁switched	-10967
▁batteries	-10968
▁primarily	-10969
▁prescription	-10970
lon	-10971
when	-10972
▁Chief	-10973
▁jeans	-10974
▁parallel	-10975
▁publishing	-10976
enh	-10977
▁2005	-10978
▁Larry	-10979
isons	-10980
▁yahoo	-10981
▁Change	-10982
▁55	-10983
▁Lt	-10984
▁faint	-10985
osexual	-10986
uctions	-10987
▁philipp	-10988
rob	-10989
rimin	-10990
▁fetch	-10991
▁divide	-10992
▁locals	-10993
▁dominated	-10994
apped	-10995
▁Mine	-10996
▁visa	-10997
▁Cable	-10998
▁rolls	-10999
▁vague	-11000
▁licens	-11001
▁battles	-11002
▁conspiracy	-11003
cor	-11004
▁aI	-11005
nedy	-11006
▁Andy	-11007
▁mans	-11008
▁Kevin	-11009
respect	-11010
▁tactics	-11011
▁concepts	-11012
▁exploration	-11013
cules	-11014
eties	-11015
▁babys	-11016
▁correl	-11017
▁orphan	-11018
▁operator	-11019
▁Win	-11020
▁11:00	-11021
▁weekly	-11022
▁Pacific	-11023
▁employed	-11024
chem	-11025
robe	-11026
▁Golf	-11027
▁dried	-11028
▁facult	-11029
▁florida	-11030
wa	-11031
▁Lead	-11032
▁True	-11033
▁fist	-11034
▁adequ	-11035
▁smugg	-11036
attered	-11037
▁nephew	-11038
▁logical	-11039
roduction	-11040
▁respected	-11041
▁identification	-11042
▁nood	-11043
▁Heard	-11044
▁essay	-11045
ifer	-11046
iches	-11047
▁bunk	-11048
uggage	-11049
▁impose	-11050
▁cameron	-11051
▁airlines	-11052
▁departure	-11053
▁indicated	-11054
wei	-11055
▁femin	-11056
▁domain	-11057
▁hooked	-11058
▁kilometer	-11059
cat	-11060
▁soy	-11061
▁oral	-11062
▁oven	-11063
▁tanks	-11064
▁disputes	-11065
found	-11066
▁Gard	-11067
▁maps	-11068
▁drawer	-11069
▁polite	-11070
▁Private	-11071
▁adoption	-11072
ppers	-11073
▁Olymp	-11074
▁loses	-11075
▁Canada	-11076
▁mainstream	-11077
dan	-11078
▁deton	-11079
▁incomp	-11080
▁barrier	-11081
amine	-11082
▁Slow	-11083
▁orth	-11084
▁peas	-11085
course	-11086
▁stead	-11087
▁honored	-11088
▁suppliers	-11089
stop	-11090
▁Econom	-11091
▁surplus	-11092
▁Hu	-11093
▁bour	-11094
▁rhet	-11095
▁wiped	-11096
▁feared	-11097
▁distracted	-11098
▁demonstrate	-11099
▁speculation	-11100
▁toes	-11101
▁motorcy	-11102
▁accidentally	-11103
adel	-11104
▁worm	-11105
▁Anyone	-11106
▁rumors	-11107
▁magical	-11108
▁stabbed	-11109
▁dinosaur	-11110
▁reminded	-11111
▁graduated	-11112
▁ul	-11113
▁Used	-11114
▁disgr	-11115
▁refers	-11116
▁alongside	-11117
▁questioned	-11118
▁acknowledge	-11119
▁MP	-11120
▁bos	-11121
▁eru	-11122
▁Surely	-11123
▁Travel	-11124
▁backwards	-11125
name	-11126
▁bait	-11127
▁reminds	-11128
rane	-11129
▁dur	-11130
▁holl	-11131
▁donor	-11132
▁Against	-11133
▁harmony	-11134
▁encounter	-11135
▁practicing	-11136
▁residential	-11137
ante	-11138
says	-11139
▁Bush	-11140
▁physi	-11141
▁Living	-11142
▁nurses	-11143
▁unclear	-11144
▁cocktail	-11145
▁featuring	-11146
ims	-11147
rac	-11148
▁circus	-11149
american	-11150
▁imposed	-11151
▁ranking	-11152
▁tremendous	-11153
▁yu	-11154
▁lamb	-11155
▁chrom	-11156
▁quote	-11157
inge	-11158
ported	-11159
▁stere	-11160
ilation	-11161
▁tribal	-11162
▁peoples	-11163
▁canadian	-11164
▁interact	-11165
▁stepping	-11166
ector	-11167
▁ling	-11168
▁futures	-11169
▁discussions	-11170
▁Guy	-11171
▁conj	-11172
people	-11173
▁34	-11174
▁bart	-11175
astern	-11176
▁metropol	-11177
▁households	-11178
bear	-11179
iosity	-11180
▁refere	-11181
▁blessed	-11182
▁sciences	-11183
▁represented	-11184
▁Bill	-11185
▁lame	-11186
▁spac	-11187
change	-11188
▁hopefully	-11189
▁roo	-11190
▁farming	-11191
▁seventh	-11192
meal	-11193
▁rifle	-11194
▁horror	-11195
▁acceptable	-11196
**	-11197
rooms	-11198
arkozy	-11199
▁Spain	-11200
▁breach	-11201
▁acquire	-11202
▁briefly	-11203
▁mankind	-11204
▁talents	-11205
believable	-11206
▁initially	-11207
cano	-11208
▁mes	-11209
▁unve	-11210
▁roommate	-11211
▁specialist	-11212
arms	-11213
test	-11214
▁Food	-11215
▁Money	-11216
▁portra	-11217
▁purple	-11218
▁rhythm	-11219
ensional	-11220
▁edition	-11221
▁healing	-11222
▁targeted	-11223
cha	-11224
▁9:00	-11225
▁riot	-11226
▁clearing	-11227
▁confusion	-11228
▁operators	-11229
▁obligations	-11230
▁Tax	-11231
▁dose	-11232
▁foul	-11233
▁tends	-11234
▁unions	-11235
▁interface	-11236
pack	-11237
▁Mot	-11238
aning	-11239
▁span	-11240
▁Behind	-11241
▁emerge	-11242
▁misery	-11243
▁presum	-11244
▁contractor	-11245
BI	-11246
▁Pan	-11247
leans	-11248
▁Iran	-11249
▁mock	-11250
▁burnt	-11251
▁fiber	-11252
▁snack	-11253
▁exchanges	-11254
▁machinery	-11255
only	-11256
stra	-11257
▁tian	-11258
▁Early	-11259
▁ingredients	-11260
urred	-11261
▁fixing	-11262
▁freaked	-11263
▁politically	-11264
mmet	-11265
▁ore	-11266
▁Dist	-11267
▁psychic	-11268
▁shallow	-11269
amas	-11270
▁wit	-11271
ordon	-11272
otype	-11273
▁presid	-11274
▁delayed	-11275
avis	-11276
think	-11277
▁Boys	-11278
▁chess	-11279
▁fount	-11280
▁saudi	-11281
▁bicycle	-11282
▁lighter	-11283
▁masters	-11284
▁Festival	-11285
▁examined	-11286
▁purchases	-11287
▁provincial	-11288
12	-11289
bury	-11290
heads	-11291
retion	-11292
▁urged	-11293
▁Est	-11294
▁arc	-11295
▁7:00	-11296
▁loop	-11297
▁crude	-11298
▁punct	-11299
▁shaped	-11300
▁quantum	-11301
▁strings	-11302
▁computing	-11303
▁therapist	-11304
▁Main	-11305
▁rect	-11306
▁Cross	-11307
▁alibi	-11308
▁poisoning	-11309
isk	-11310
llor	-11311
allas	-11312
vania	-11313
▁Wood	-11314
▁shat	-11315
▁neckl	-11316
▁raises	-11317
▁restruct	-11318
▁adjustment	-11319
▁coc	-11320
▁bugs	-11321
▁dutch	-11322
▁lousy	-11323
▁tricky	-11324
▁supports	-11325
▁qualities	-11326
▁whirlpool	-11327
▁pm	-11328
burn	-11329
▁Mer	-11330
▁2009.	-11331
▁Roger	-11332
▁magnificent	-11333
▁Ice	-11334
▁hoo	-11335
▁rental	-11336
▁eb	-11337
rics	-11338
▁blo	-11339
▁sou	-11340
oided	-11341
▁prol	-11342
▁breads	-11343
▁pledge	-11344
▁breeding	-11345
▁Ron	-11346
▁dual	-11347
▁seized	-11348
fficient	-11349
apy	-11350
uters	-11351
▁Word	-11352
▁cease	-11353
ichigan	-11354
▁broker	-11355
▁senses	-11356
▁tragic	-11357
▁downturn	-11358
▁executed	-11359
▁judicial	-11360
▁38	-11361
fund	-11362
acies	-11363
rates	-11364
▁chlor	-11365
▁Outside	-11366
▁marrying	-11367
▁occupied	-11368
▁Ven	-11369
▁vom	-11370
▁indul	-11371
perform	-11372
▁conform	-11373
▁approaching	-11374
▁posts	-11375
▁killers	-11376
▁lawsuit	-11377
▁businessman	-11378
▁involvement	-11379
olar	-11380
hovah	-11381
▁eats	-11382
▁fellas	-11383
▁advised	-11384
▁luggage	-11385
▁sunlight	-11386
The	-11387
▁Ren	-11388
▁audio	-11389
▁dense	-11390
▁shifts	-11391
▁slaves	-11392
arn	-11393
▁goo	-11394
▁richard	-11395
▁deadline	-11396
▁Attention	-11397
▁terrified	-11398
icket	-11399
rizona	-11400
issance	-11401
▁diction	-11402
▁whisper	-11403
▁leverage	-11404
▁Bure	-11405
▁blows	-11406
▁handy	-11407
▁mines	-11408
▁humble	-11409
▁density	-11410
▁Starting	-11411
▁bog	-11412
▁Plan	-11413
▁petro	-11414
▁absurd	-11415
▁dismissed	-11416
▁Bat	-11417
▁ally	-11418
▁sustained	-11419
▁complained	-11420
▁guidelines	-11421
▁Years	-11422
▁fingerprints	-11423
▁2007,	-11424
▁cheek	-11425
▁blonde	-11426
▁boston	-11427
▁unnecess	-11428
▁Elizabeth	-11429
▁triggered	-11430
lad	-11431
aeda	-11432
matic	-11433
▁urge	-11434
▁frost	-11435
▁declare	-11436
▁teenage	-11437
▁conflicts	-11438
▁palestinian	-11439
▁Live	-11440
▁upgr	-11441
▁Brian	-11442
▁maintaining	-11443
▁bleed	-11444
▁giants	-11445
▁martial	-11446
▁struggled	-11447
▁programming	-11448
fi	-11449
▁Kong	-11450
▁intimate	-11451
▁$3	-11452
oust	-11453
▁20%	-11454
▁Dev	-11455
rolog	-11456
▁reply	-11457
▁curric	-11458
▁fragile	-11459
▁islamic	-11460
▁faithful	-11461
nity	-11462
▁Las	-11463
▁Conn	-11464
▁enzy	-11465
▁Thous	-11466
▁chong	-11467
▁cyber	-11468
▁Madame	-11469
▁traded	-11470
▁insists	-11471
▁Cra	-11472
▁Squ	-11473
▁pod	-11474
reced	-11475
▁Anna	-11476
▁triang	-11477
▁heating	-11478
▁dependent	-11479
▁immigrants	-11480
▁popularity	-11481
▁underlying	-11482
▁pour	-11483
▁Arthur	-11484
▁corpse	-11485
▁implications	-11486
▁evolved	-11487
hman	-11488
town	-11489
▁800	-11490
month	-11491
▁flame	-11492
aco	-11493
flow	-11494
rell	-11495
sung	-11496
▁weig	-11497
▁grind	-11498
▁stated	-11499
▁defendant	-11500
inging	-11501
ippers	-11502
▁ambition	-11503
▁counselor	-11504
▁detention	-11505
▁treatments	-11506
bro	-11507
cin	-11508
▁Went	-11509
▁swiss	-11510
▁counted	-11511
▁believing	-11512
egu	-11513
scar	-11514
▁oat	-11515
ometer	-11516
▁opponent	-11517
▁attending	-11518
▁strongest	-11519
▁Commission	-11520
raham	-11521
▁Guest	-11522
▁betting	-11523
▁ku	-11524
dong	-11525
hter	-11526
▁250	-11527
▁Tor	-11528
▁Adam	-11529
▁mold	-11530
▁Short	-11531
etheless	-11532
▁dioxide	-11533
▁teenager	-11534
▁blackmail	-11535
▁bamb	-11536
▁lump	-11537
▁irrit	-11538
osystem	-11539
▁Rachel	-11540
▁Wonder	-11541
▁intrig	-11542
▁Foreign	-11543
▁compliment	-11544
▁profitable	-11545
▁allegations	-11546
anny	-11547
card	-11548
kish	-11549
▁encl	-11550
▁abdom	-11551
▁scarce	-11552
▁receipt	-11553
▁developments	-11554
lee	-11555
▁Walk	-11556
▁cocoa	-11557
▁pardon	-11558
▁emphasis	-11559
▁discusses	-11560
▁meanwhile	-11561
▁installation	-11562
syl	-11563
▁Pot	-11564
▁rome	-11565
▁Sleep	-11566
▁stare	-11567
▁alumin	-11568
▁cracked	-11569
▁volcano	-11570
▁depending	-11571
▁honeymoon	-11572
▁attraction	-11573
▁Ba	-11574
lett	-11575
▁seiz	-11576
▁euros	-11577
istical	-11578
▁ongoing	-11579
▁Cost	-11580
▁Wall	-11581
▁hast	-11582
▁mush	-11583
▁forty	-11584
▁slice	-11585
▁mineral	-11586
▁allergic	-11587
▁antibiot	-11588
▁achievements	-11589
▁jeopard	-11590
▁kindness	-11591
▁Ls	-11592
gate	-11593
iffs	-11594
ulin	-11595
▁Ross	-11596
▁bases	-11597
▁whale	-11598
▁shorter	-11599
▁sweater	-11600
recedented	-11601
▁opponents	-11602
▁caf	-11603
▁rode	-11604
▁stip	-11605
▁verd	-11606
▁genet	-11607
▁atomic	-11608
▁puzzle	-11609
▁crushed	-11610
▁telecom	-11611
▁download	-11612
▁container	-11613
▁graduation	-11614
▁mechanisms	-11615
▁spider	-11616
▁throne	-11617
▁dresses	-11618
ez	-11619
hot	-11620
▁pud	-11621
▁Princ	-11622
▁Virgin	-11623
▁reactor	-11624
▁lav	-11625
▁1970	-11626
▁Jess	-11627
▁audit	-11628
▁damned	-11629
▁combine	-11630
▁northeast	-11631
▁distributed	-11632
▁39	-11633
▁Ok	-11634
▁Write	-11635
lu	-11636
iII	-11637
▁HBO	-11638
▁aston	-11639
▁Nearly	-11640
▁avoided	-11641
▁Complete	-11642
▁finishing	-11643
▁provinces	-11644
ften	-11645
▁Bible	-11646
▁males	-11647
▁embry	-11648
▁skirt	-11649
▁interpretation	-11650
obs	-11651
mented	-11652
▁revol	-11653
▁regardless	-11654
▁surprisingly	-11655
▁gloom	-11656
▁tapes	-11657
itating	-11658
▁skinny	-11659
▁visitor	-11660
▁intentions	-11661
▁separation	-11662
▁forgiveness	-11663
apor	-11664
elet	-11665
▁clay	-11666
▁Chris	-11667
▁pione	-11668
▁collar	-11669
▁spends	-11670
▁insects	-11671
▁forbidden	-11672
▁ditch	-11673
▁penis	-11674
▁bastards	-11675
lessness	-11676
▁assured	-11677
▁sympathy	-11678
why	-11679
▁config	-11680
▁scored	-11681
▁sarkozy	-11682
▁abortion	-11683
▁presidency	-11684
▁Dam	-11685
▁maj	-11686
▁Trad	-11687
▁sanct	-11688
▁trailer	-11689
▁privilege	-11690
▁celebrating	-11691
asma	-11692
▁Quiet	-11693
▁Hallow	-11694
▁insect	-11695
▁gardens	-11696
▁reluctant	-11697
▁photographer	-11698
▁biz	-11699
▁roses	-11700
▁climbed	-11701
▁stuffed	-11702
▁analyzing	-11703
▁hs	-11704
▁sod	-11705
▁Hund	-11706
▁Wang	-11707
▁steve	-11708
▁Current	-11709
▁Security	-11710
▁atlantic	-11711
▁approached	-11712
▁consultant	-11713
ugu	-11714
▁ecb	-11715
ilton	-11716
▁Late	-11717
▁maxim	-11718
▁comedy	-11719
▁Somewhere	-11720
▁consensus	-11721
▁vegetable	-11722
▁tournament	-11723
▁ky	-11724
erals	-11725
▁echo	-11726
▁amate	-11727
▁Studies	-11728
▁forming	-11729
▁survivors	-11730
etts	-11731
orrh	-11732
▁Aye	-11733
▁Low	-11734
▁tam	-11735
anded	-11736
luded	-11737
inates	-11738
▁African	-11739
▁politician	-11740
sylvania	-11741
▁Thinking	-11742
▁imprison	-11743
▁merg	-11744
▁puppy	-11745
looking	-11746
▁vacuum	-11747
▁immense	-11748
▁defending	-11749
▁preliminary	-11750
▁conversations	-11751
70	-11752
▁Ver	-11753
▁winners	-11754
fortunate	-11755
▁attacking	-11756
▁suspicion	-11757
▁violation	-11758
acts	-11759
real	-11760
aying	-11761
check	-11762
▁bald	-11763
▁dick	-11764
ranean	-11765
▁flowing	-11766
▁pricing	-11767
▁directed	-11768
▁versions	-11769
▁corporations	-11770
▁‘	-11771
▁cel	-11772
▁cem	-11773
▁tsun	-11774
▁cripp	-11775
▁breeze	-11776
▁arrives	-11777
ava	-11778
▁Sa	-11779
igen	-11780
▁Div	-11781
▁radi	-11782
▁inapp	-11783
▁crunch	-11784
▁novels	-11785
▁Definitely	-11786
▁accommodate	-11787
▁ga	-11788
▁Pete	-11789
▁aids	-11790
▁dive	-11791
▁diary	-11792
▁farms	-11793
▁aliens	-11794
▁evaluate	-11795
▁paranoid	-11796
rix	-11797
eded	-11798
▁Tem	-11799
▁June	-11800
▁bulk	-11801
▁slut	-11802
▁hardest	-11803
▁schemes	-11804
aka	-11805
▁Ahh	-11806
▁grasp	-11807
▁imported	-11808
itably	-11809
▁pyram	-11810
▁eighth	-11811
▁cognitive	-11812
▁investigated	-11813
▁congratulations	-11814
atis	-11815
▁bore	-11816
▁postp	-11817
▁fossil	-11818
▁discour	-11819
▁deer	-11820
▁premier	-11821
conscious	-11822
▁purchasing	-11823
▁42-	-11824
▁plum	-11825
ussels	-11826
▁Obama	-11827
▁backs	-11828
▁confuc	-11829
▁defeated	-11830
▁circulation	-11831
▁clo	-11832
oking	-11833
▁summar	-11834
▁balloon	-11835
▁holdings	-11836
▁Gre	-11837
▁jim	-11838
▁Roll	-11839
▁icon	-11840
antine	-11841
ogging	-11842
▁insure	-11843
▁vaccine	-11844
▁barriers	-11845
▁aesthetic	-11846
▁Bro	-11847
▁lease	-11848
▁mongol	-11849
▁abstract	-11850
atar	-11851
▁Oct	-11852
enter	-11853
▁Funny	-11854
▁Power	-11855
▁Located	-11856
▁neighbours	-11857
▁demonstrated	-11858
dem	-11859
▁macro	-11860
▁revel	-11861
▁sunset	-11862
▁moderate	-11863
▁cows	-11864
▁molecular	-11865
▁establishing	-11866
low	-11867
▁hipp	-11868
▁autopsy	-11869
struction	-11870
▁pharmaceutical	-11871
RE	-11872
▁Cast	-11873
▁beats	-11874
▁input	-11875
▁wished	-11876
▁cleaner	-11877
▁pressed	-11878
▁shortage	-11879
▁stunning	-11880
▁breakthrough	-11881
▁gra	-11882
▁lac	-11883
▁lag	-11884
orith	-11885
▁canal	-11886
▁virtue	-11887
▁tablets	-11888
▁Halloween	-11889
▁convincing	-11890
▁frustrated	-11891
▁occasional	-11892
▁($	-11893
▁65	-11894
▁ego	-11895
ichuan	-11896
▁dimin	-11897
▁insert	-11898
▁tackle	-11899
▁demonstration	-11900
bral	-11901
obal	-11902
▁vet	-11903
pling	-11904
store	-11905
▁Phys	-11906
▁petty	-11907
▁format	-11908
▁guaranteed	-11909
▁commissioner	-11910
ogs	-11911
▁Lex	-11912
▁slump	-11913
▁faculty	-11914
▁Officials	-11915
▁prosecutor	-11916
▁unprecedented	-11917
ON	-11918
ucted	-11919
▁Steven	-11920
▁compat	-11921
▁whistle	-11922
▁interven	-11923
▁delighted	-11924
▁perimeter	-11925
▁temporarily	-11926
fs	-11927
▁Sad	-11928
advant	-11929
▁Pakistan	-11930
▁hollywood	-11931
rors	-11932
▁Fre	-11933
▁Test	-11934
▁Intel	-11935
▁Route	-11936
▁inval	-11937
▁bucket	-11938
▁stakes	-11939
▁publish	-11940
▁possibilities	-11941
oped	-11942
▁obey	-11943
headed	-11944
▁Annie	-11945
▁stair	-11946
▁swept	-11947
▁supper	-11948
▁Academy	-11949
▁surgical	-11950
▁hazard	-11951
▁Seattle	-11952
▁reflected	-11953
▁obligation	-11954
▁operational	-11955
ela	-11956
▁Dor	-11957
:1	-11958
achus	-11959
▁brew	-11960
▁rans	-11961
▁brass	-11962
▁satisfy	-11963
▁modified	-11964
▁authorized	-11965
▁influenced	-11966
obe	-11967
▁squir	-11968
▁necklace	-11969
▁conviction	-11970
plate	-11971
▁Fall	-11972
▁nails	-11973
▁reign	-11974
hearted	-11975
▁Vietnam	-11976
▁corners	-11977
▁evident	-11978
▁defensive	-11979
▁37-	-11980
▁ladder	-11981
▁horizon	-11982
▁deterior	-11983
bled	-11984
▁Him	-11985
▁tran	-11986
▁ankle	-11987
▁escal	-11988
▁prote	-11989
▁Martin	-11990
▁supplement	-11991
▁Ent	-11992
▁Rad	-11993
▁nov	-11994
▁zhu	-11995
umble	-11996
▁Kyle	-11997
▁zomb	-11998
▁Knock	-11999
onsible	-12000
▁jehovah	-12001
▁whereas	-12002
▁displays	-12003
▁cafe	-12004
▁weep	-12005
▁feast	-12006
▁lakes	-12007
▁manners	-12008
pson	-12009
ques	-12010
some	-12011
▁Wind	-12012
▁beard	-12013
▁nutri	-12014
▁deluxe	-12015
▁patron	-12016
▁exploring	-12017
▁Ann	-12018
burgh	-12019
▁Victor	-12020
▁watches	-12021
▁understands	-12022
▁induced	-12023
▁scenery	-12024
▁shining	-12025
ardo	-12026
tyard	-12027
▁Berlin	-12028
▁Taylor	-12029
▁dancers	-12030
▁ratings	-12031
▁algorith	-12032
▁creativity	-12033
▁kidnapping	-12034
▁pand	-12035
▁respectively	-12036
iley	-12037
▁buys	-12038
▁bombing	-12039
▁hopeless	-12040
▁capabilities	-12041
nia	-12042
▁Sort	-12043
growing	-12044
▁acceptance	-12045
▁—	-12046
bod	-12047
▁Hug	-12048
▁Scot	-12049
▁mixture	-12050
▁shadows	-12051
▁ecosystem	-12052
▁scholarship	-12053
▁vod	-12054
▁Dean	-12055
▁bout	-12056
▁carn	-12057
▁grim	-12058
▁mant	-12059
▁slap	-12060
▁trim	-12061
▁extrem	-12062
▁malays	-12063
▁picnic	-12064
▁nearest	-12065
▁pursuing	-12066
▁introduces	-12067
AN	-12068
▁cyn	-12069
▁louis	-12070
▁oatmeal	-12071
des	-12072
hyl	-12073
▁ft	-12074
pton	-12075
▁8:00	-12076
▁whip	-12077
arding	-12078
resist	-12079
▁semin	-12080
century	-12081
▁remarks	-12082
▁graduates	-12083
▁Jones	-12084
▁courtesy	-12085
gage	-12086
riages	-12087
▁infer	-12088
▁vocal	-12089
ocratic	-12090
▁identical	-12091
▁loft	-12092
▁lined	-12093
▁weaker	-12094
interest	-12095
▁deficits	-12096
keeping	-12097
▁smiled	-12098
▁buddies	-12099
▁thieves	-12100
achusetts	-12101
▁activists	-12102
▁passionate	-12103
▁restricted	-12104
phy	-12105
aman	-12106
▁Dead	-12107
▁Tyler	-12108
ulative	-12109
▁claiming	-12110
▁curb	-12111
▁scal	-12112
▁Laura	-12113
▁artif	-12114
▁camps	-12115
▁widow	-12116
▁Muslim	-12117
▁metals	-12118
▁reckon	-12119
▁georgia	-12120
▁margins	-12121
▁knocking	-12122
▁prosecution	-12123
spec	-12124
▁Tre	-12125
opoly	-12126
▁poems	-12127
▁respir	-12128
▁copyright	-12129
▁instincts	-12130
▁tory	-12131
▁shelf	-12132
▁cookie	-12133
▁demanded	-12134
▁shenzhen	-12135
ologically	-12136
▁Thousands	-12137
▁submitted	-12138
▁unfortunate	-12139
▁jaw	-12140
▁intact	-12141
▁slower	-12142
▁northwest	-12143
▁witnessed	-12144
yer	-12145
izzy	-12146
▁Amy	-12147
▁arrow	-12148
▁southwest	-12149
▁explaining	-12150
▁120	-12151
chief	-12152
▁Beat	-12153
▁Infl	-12154
▁sire	-12155
ulsion	-12156
ilingual	-12157
▁decides	-12158
operation	-12159
▁incentives	-12160
big	-12161
aired	-12162
oulev	-12163
▁Jean	-12164
▁cuis	-12165
▁scrut	-12166
▁hockey	-12167
▁explode	-12168
▁illusion	-12169
▁nutrition	-12170
pot	-12171
eare	-12172
oken	-12173
after	-12174
▁mont	-12175
▁slic	-12176
ointed	-12177
▁flavor	-12178
▁scholar	-12179
▁travels	-12180
di	-12181
sk	-12182
▁~	-12183
chron	-12184
▁probe	-12185
▁reviews	-12186
▁Australia	-12187
▁elementary	-12188
AS	-12189
▁Sum	-12190
▁tid	-12191
▁mars	-12192
▁divid	-12193
▁Bureau	-12194
▁perceived	-12195
ocy	-12196
acht	-12197
▁masc	-12198
▁yoga	-12199
▁Kelly	-12200
▁cloth	-12201
▁explicit	-12202
▁necessity	-12203
▁mathematics	-12204
▁envy	-12205
school	-12206
▁Chuck	-12207
▁Jewish	-12208
▁doubled	-12209
▁freight	-12210
▁finances	-12211
▁maintained	-12212
▁"?	-12213
▁eve	-12214
▁sudan	-12215
▁feedback	-12216
▁disturbing	-12217
▁Boss	-12218
▁Till	-12219
▁jazz	-12220
▁recept	-12221
▁viewed	-12222
▁waking	-12223
▁Students	-12224
▁suitcase	-12225
▁il	-12226
▁ion	-12227
▁pel	-12228
▁une	-12229
icity	-12230
▁vain	-12231
rocery	-12232
▁array	-12233
▁swore	-12234
entials	-12235
▁recipe	-12236
▁Leaving	-12237
▁descend	-12238
▁judging	-12239
▁actively	-12240
▁athletes	-12241
▁envelope	-12242
▁Learn	-12243
▁jones	-12244
▁paras	-12245
▁Having	-12246
▁trades	-12247
▁thrilled	-12248
▁championship	-12249
hyd	-12250
▁Due	-12251
izers	-12252
▁Answ	-12253
▁expose	-12254
▁locate	-12255
▁inquiry	-12256
▁bothered	-12257
▁criteria	-12258
▁mistress	-12259
▁logistics	-12260
▁chancellor	-12261
▁supervisor	-12262
uity	-12263
ogram	-12264
▁Note	-12265
▁clues	-12266
▁perception	-12267
▁declaration	-12268
uz	-12269
bly	-12270
emen	-12271
▁2012.	-12272
▁vigil	-12273
▁poster	-12274
▁disadvant	-12275
ira	-12276
arin	-12277
eches	-12278
ieties	-12279
▁absent	-12280
▁metres	-12281
▁Usually	-12282
▁fulfill	-12283
▁jackson	-12284
▁johnson	-12285
▁touches	-12286
▁analyzes	-12287
▁designers	-12288
▁privately	-12289
▁accompanied	-12290
whe	-12291
▁filthy	-12292
▁magnet	-12293
▁prayers	-12294
▁secured	-12295
▁simultaneously	-12296
onto	-12297
▁192	-12298
▁tense	-12299
general	-12300
▁tougher	-12301
▁twisted	-12302
▁missions	-12303
▁incentive	-12304
osa	-12305
uccess	-12306
▁potatoes	-12307
ifully	-12308
▁parole	-12309
▁renmin	-12310
▁excuses	-12311
▁canceled	-12312
▁designated	-12313
▁harmonious	-12314
▁transformed	-12315
▁Came	-12316
▁epic	-12317
▁hath	-12318
orship	-12319
▁sniff	-12320
▁uncon	-12321
ongyang	-12322
▁relating	-12323
▁publicity	-12324
▁capability	-12325
▁contributions	-12326
ochem	-12327
▁Buff	-12328
▁transc	-12329
▁Totally	-12330
▁buttons	-12331
▁underest	-12332
▁offerings	-12333
▁seemingly	-12334
▁dramatically	-12335
holes	-12336
▁brac	-12337
▁Latin	-12338
▁Treat	-12339
▁prest	-12340
▁snacks	-12341
▁screens	-12342
▁accepting	-12343
▁referring	-12344
▁representing	-12345
▁packages	-12346
▁austerity	-12347
▁mah	-12348
▁mol	-12349
▁oak	-12350
▁Close	-12351
▁arena	-12352
▁asses	-12353
▁Design	-12354
▁utility	-12355
▁boarding	-12356
▁outbreak	-12357
▁boundaries	-12358
▁11.	-12359
▁July	-12360
▁tuck	-12361
estion	-12362
▁messy	-12363
▁Germans	-12364
▁charles	-12365
▁Straight	-12366
▁surprises	-12367
▁confirmation	-12368
▁participation	-12369
▁wik	-12370
profit	-12371
▁wholes	-12372
▁outrage	-12373
▁bachelor	-12374
▁influential	-12375
arre	-12376
▁canv	-12377
▁sunny	-12378
▁farther	-12379
iop	-12380
▁Lady	-12381
▁Leon	-12382
opping	-12383
▁recyc	-12384
▁Health	-12385
▁applies	-12386
▁advances	-12387
▁performances	-12388
▁Ham	-12389
oting	-12390
▁orche	-12391
▁belonged	-12392
▁poisoned	-12393
size	-12394
listed	-12395
▁chicks	-12396
▁safegu	-12397
▁unlock	-12398
economic	-12399
▁travelling	-12400
▁ethical	-12401
▁persist	-12402
▁balanced	-12403
▁greenhouse	-12404
▁meaningful	-12405
▁$10	-12406
▁cough	-12407
▁mustn	-12408
▁merger	-12409
▁nicely	-12410
▁precip	-12411
▁styles	-12412
▁chongqing	-12413
held	-12414
icts	-12415
ailed	-12416
guard	-12417
lanta	-12418
▁raid	-12419
▁huang	-12420
▁retrie	-12421
▁thirsty	-12422
▁organize	-12423
▁secretly	-12424
▁sessions	-12425
▁UN	-12426
▁clip	-12427
▁feas	-12428
▁thoroughly	-12429
▁Screw	-12430
▁Tommy	-12431
▁membr	-12432
▁caring	-12433
▁rescued	-12434
▁relieved	-12435
▁supplier	-12436
urb	-12437
ingo	-12438
erers	-12439
isive	-12440
▁paths	-12441
▁Hitler	-12442
▁naught	-12443
▁gesture	-12444
▁seasons	-12445
▁molecules	-12446
eb	-12447
▁fuk	-12448
▁jon	-12449
▁rash	-12450
▁Broad	-12451
▁absorb	-12452
▁cocaine	-12453
▁monkeys	-12454
▁philosoph	-12455
▁jurisdiction	-12456
du	-12457
▁heck	-12458
▁ruth	-12459
▁Franc	-12460
▁spoil	-12461
▁Central	-12462
▁despair	-12463
▁lottery	-12464
▁skilled	-12465
▁Brooklyn	-12466
▁Virginia	-12467
▁Nevertheless	-12468
ovo	-12469
airy	-12470
▁Fif	-12471
▁cod	-12472
▁ecl	-12473
▁anat	-12474
▁chee	-12475
▁expend	-12476
▁pepper	-12477
▁traitor	-12478
▁deliberately	-12479
▁Stu	-12480
mouth	-12481
▁offs	-12482
▁burgl	-12483
▁stain	-12484
▁tales	-12485
chester	-12486
▁immort	-12487
building	-12488
otherapy	-12489
▁justify	-12490
▁longest	-12491
▁airplane	-12492
▁instantly	-12493
otes	-12494
▁yun	-12495
▁Camp	-12496
▁fella	-12497
▁Afghan	-12498
▁hatred	-12499
▁splend	-12500
▁Together	-12501
▁helpless	-12502
▁sensible	-12503
▁amendment	-12504
▁hurricane	-12505
▁intercept	-12506
▁sentences	-12507
▁eagle	-12508
▁scott	-12509
▁ultra	-12510
▁jewish	-12511
▁cautious	-12512
▁curiosity	-12513
▁purchased	-12514
▁Ta	-12515
▁Buy	-12516
ishop	-12517
▁April	-12518
instein	-12519
▁arctic	-12520
▁reveals	-12521
▁fountain	-12522
zech	-12523
▁2004	-12524
master	-12525
rative	-12526
▁moron	-12527
esse	-12528
▁Neg	-12529
▁jelly	-12530
▁versus	-12531
▁slowing	-12532
▁arriving	-12533
▁explosive	-12534
high	-12535
▁FBI	-12536
▁Hand	-12537
▁Mall	-12538
▁sting	-12539
▁diverse	-12540
▁settings	-12541
▁breakdown	-12542
cs	-12543
▁#	-12544
iva	-12545
▁Ohh	-12546
▁berlin	-12547
▁Phoenix	-12548
▁iranian	-12549
▁shipment	-12550
hr	-12551
vell	-12552
itivity	-12553
▁distress	-12554
▁ideology	-12555
Iy	-12556
hend	-12557
▁glac	-12558
▁shave	-12559
▁errors	-12560
isations	-12561
▁grocery	-12562
▁bothering	-12563
▁emotionally	-12564
▁voy	-12565
▁yan	-12566
▁booze	-12567
▁clearance	-12568
▁reportedly	-12569
rett	-12570
▁sie	-12571
inite	-12572
▁virginia	-12573
▁retailers	-12574
▁delivering	-12575
▁Vol	-12576
▁Mars	-12577
▁arsen	-12578
▁dishon	-12579
▁merkel	-12580
▁prejud	-12581
▁blocking	-12582
▁disposal	-12583
▁liberation	-12584
▁Bal	-12585
▁Edd	-12586
▁ner	-12587
▁Kent	-12588
▁Ryan	-12589
▁cheng	-12590
▁dangers	-12591
▁daylight	-12592
▁morality	-12593
▁unnecessary	-12594
▁km	-12595
▁peel	-12596
urious	-12597
▁ferry	-12598
▁goose	-12599
▁meter	-12600
quality	-12601
▁motors	-12602
▁plasma	-12603
▁bubbles	-12604
▁teenagers	-12605
aby	-12606
unks	-12607
▁Leo	-12608
▁sap	-12609
▁appe	-12610
▁intest	-12611
▁Standing	-12612
▁collateral	-12613
▁continuous	-12614
eon	-12615
mans	-12616
etery	-12617
entions	-12618
▁idiots	-12619
vet	-12620
gets	-12621
ivia	-12622
amped	-12623
insula	-12624
▁2011,	-12625
▁homeland	-12626
▁resulted	-12627
rimination	-12628
▁supermarket	-12629
idity	-12630
▁cycl	-12631
▁niger	-12632
▁peers	-12633
▁layers	-12634
▁shirts	-12635
▁tsunami	-12636
▁charging	-12637
▁responses	-12638
mann	-12639
▁Rom	-12640
▁bees	-12641
▁lasting	-12642
▁analyses	-12643
45	-12644
drop	-12645
forced	-12646
▁designing	-12647
▁interviewed	-12648
ori	-12649
▁valve	-12650
▁routes	-12651
▁electro	-12652
▁fracture	-12653
▁spectrum	-12654
▁networking	-12655
▁preventing	-12656
▁subsequent	-12657
▁Name	-12658
▁dolp	-12659
▁dong	-12660
▁pets	-12661
▁irish	-12662
▁shook	-12663
▁robust	-12664
▁traces	-12665
▁fellows	-12666
▁aviation	-12667
pin	-12668
rade	-12669
dling	-12670
ostic	-12671
uling	-12672
▁Eric	-12673
▁Different	-12674
▁interfere	-12675
acon	-12676
ixon	-12677
ogan	-12678
ulent	-12679
▁debr	-12680
▁Social	-12681
oulevard	-12682
east	-12683
▁Aren	-12684
▁Anybody	-12685
▁sexually	-12686
controlled	-12687
▁succeeded	-12688
▁sandwiches	-12689
neum	-12690
post	-12691
ptions	-12692
▁fantas	-12693
▁Recently	-12694
▁momentum	-12695
▁underwater	-12696
▁compromised	-12697
▁exh	-12698
▁bass	-12699
▁cort	-12700
ishers	-12701
control	-12702
▁sucked	-12703
▁mattress	-12704
▁prompted	-12705
▁respects	-12706
▁affecting	-12707
▁corresponding	-12708
pher	-12709
▁Sand	-12710
▁boil	-12711
redict	-12712
▁Science	-12713
inational	-12714
▁courtyard	-12715
loe	-12716
▁43	-12717
▁brig	-12718
▁owed	-12719
▁tribes	-12720
▁pancakes	-12721
▁butterfly	-12722
▁policeman	-12723
▁attempting	-12724
▁hospitality	-12725
UR	-12726
fa	-12727
ju	-12728
guys	-12729
amous	-12730
inois	-12731
▁Dear	-12732
▁reef	-12733
▁reads	-12734
▁Caesar	-12735
▁Master	-12736
▁towers	-12737
▁wildlife	-12738
▁Ce	-12739
eeper	-12740
▁Hung	-12741
▁hatch	-12742
▁cooling	-12743
onge	-12744
stal	-12745
urned	-12746
anting	-12747
▁costly	-12748
▁firmly	-12749
▁franch	-12750
▁renminbi	-12751
▁shouting	-12752
rys	-12753
▁Ray	-12754
▁hier	-12755
▁Fresh	-12756
▁inflamm	-12757
▁prescribed	-12758
25	-12759
▁20.	-12760
▁guin	-12761
▁Karen	-12762
▁Organ	-12763
▁greet	-12764
ressive	-12765
▁bypass	-12766
▁deemed	-12767
▁submar	-12768
▁backyard	-12769
▁rehearsal	-12770
▁societies	-12771
▁credibility	-12772
wal	-12773
▁191	-12774
▁fuss	-12775
▁float	-12776
natural	-12777
ointing	-12778
▁heroin	-12779
▁tracked	-12780
▁utterly	-12781
▁operated	-12782
lude	-12783
odox	-12784
▁raz	-12785
▁Nine	-12786
▁feud	-12787
▁seller	-12788
▁damages	-12789
▁upgrade	-12790
▁tortured	-12791
▁categories	-12792
rin	-12793
akesp	-12794
▁2003	-12795
▁jade	-12796
ecraft	-12797
▁pencil	-12798
▁breasts	-12799
▁chickens	-12800
▁inappropriate	-12801
mic	-12802
enez	-12803
ealing	-12804
houses	-12805
▁Micro	-12806
▁slack	-12807
▁treats	-12808
▁fashioned	-12809
▁nu	-12810
ocate	-12811
▁bloss	-12812
▁praying	-12813
▁glorious	-12814
▁Pri	-12815
▁jeff	-12816
▁embed	-12817
▁Answer	-12818
▁rotten	-12819
▁measuring	-12820
▁traditions	-12821
ymph	-12822
▁Hosp	-12823
▁Push	-12824
▁2007.	-12825
▁Place	-12826
▁aging	-12827
▁spine	-12828
▁Carter	-12829
▁reviewed	-12830
▁admission	-12831
▁motorcycle	-12832
▁?-	-12833
▁5:00	-12834
▁reconc	-12835
▁prolong	-12836
▁peripher	-12837
▁ambitions	-12838
▁curriculum	-12839
osity	-12840
▁Wake	-12841
backed	-12842
quisite	-12843
▁bamboo	-12844
▁convey	-12845
▁severely	-12846
▁confusing	-12847
▁populations	-12848
▁publication	-12849
iche	-12850
othe	-12851
▁Key	-12852
▁wagon	-12853
▁honesty	-12854
▁resignation	-12855
▁disappointment	-12856
▁Lf	-12857
achs	-12858
▁exotic	-12859
▁sharks	-12860
▁topics	-12861
▁awarded	-12862
▁researcher	-12863
anz	-12864
▁rio	-12865
icken	-12866
▁gaza	-12867
▁pine	-12868
ulsive	-12869
▁Catch	-12870
▁Large	-12871
▁cataly	-12872
▁excell	-12873
▁filing	-12874
▁solving	-12875
▁warfare	-12876
▁ordering	-12877
▁railroad	-12878
mers	-12879
▁gee	-12880
ieval	-12881
▁gent	-12882
▁pulls	-12883
▁zones	-12884
▁layout	-12885
▁marvel	-12886
▁cuisine	-12887
▁cemetery	-12888
▁91	-12889
boat	-12890
▁hears	-12891
▁Meeting	-12892
▁cluster	-12893
connected	-12894
▁hostages	-12895
▁vampires	-12896
▁invention	-12897
▁contributed	-12898
▁congressional	-12899
▁vou	-12900
▁Fear	-12901
▁cass	-12902
ington	-12903
▁altar	-12904
▁blunt	-12905
▁delta	-12906
▁peanut	-12907
▁shrimp	-12908
irs	-12909
▁Ju	-12910
▁dwar	-12911
▁Associ	-12912
▁crowds	-12913
▁disabled	-12914
▁celebrated	-12915
▁len	-12916
helle	-12917
▁filter	-12918
▁rebell	-12919
▁reinforce	-12920
You	-12921
▁Gal	-12922
▁fred	-12923
athetic	-12924
▁prophe	-12925
▁stanley	-12926
▁sentenced	-12927
▁dictionary	-12928
pic	-12929
▁inh	-12930
rehend	-12931
▁cement	-12932
▁harmful	-12933
▁zealand	-12934
▁resolved	-12935
▁confessed	-12936
▁observers	-12937
rup	-12938
count	-12939
▁bets	-12940
health	-12941
▁chore	-12942
▁spont	-12943
▁sensors	-12944
▁wandering	-12945
▁conclusions	-12946
obi	-12947
othy	-12948
▁Van	-12949
▁sized	-12950
▁flames	-12951
▁forehead	-12952
▁specialized	-12953
▁..	-12954
amic	-12955
atus	-12956
bies	-12957
▁Dig	-12958
▁Nic	-12959
atter	-12960
▁helmet	-12961
▁nether	-12962
▁pirate	-12963
roductive	-12964
▁consists	-12965
iterranean	-12966
▁countless	-12967
▁elaborate	-12968
▁scattered	-12969
▁ji	-12970
anol	-12971
olds	-12972
▁chur	-12973
▁Party	-12974
▁prophet	-12975
▁screwing	-12976
▁slowdown	-12977
▁photography	-12978
▁mi	-12979
▁orb	-12980
▁affili	-12981
▁connecting	-12982
▁eliminated	-12983
orus	-12984
esity	-12985
rella	-12986
shaped	-12987
▁Diego	-12988
▁coins	-12989
▁crust	-12990
▁henry	-12991
▁tasty	-12992
istically	-12993
▁spinning	-12994
▁weekends	-12995
▁youngest	-12996
▁bilateral	-12997
sur	-12998
amps	-12999
stan	-13000
ships	-13001
▁tops	-13002
▁Plano	-13003
▁cakes	-13004
▁naive	-13005
▁Holmes	-13006
▁villagers	-13007
eton	-13008
▁lingu	-13009
▁Result	-13010
▁incons	-13011
▁poured	-13012
▁desires	-13013
cult	-13014
▁50%	-13015
inder	-13016
▁gren	-13017
▁abnormal	-13018
▁monsters	-13019
▁autonomous	-13020
▁hua	-13021
▁nanny	-13022
▁Knowing	-13023
▁adviser	-13024
▁sickness	-13025
alo	-13026
ncy	-13027
open	-13028
uana	-13029
ussion	-13030
▁Eddie	-13031
▁Irish	-13032
▁hence	-13033
▁proves	-13034
▁rented	-13035
▁stroll	-13036
▁thomas	-13037
▁wilder	-13038
▁perfume	-13039
▁reconstruction	-13040
lied	-13041
▁Ill	-13042
▁ted	-13043
▁Post	-13044
▁temp	-13045
▁beers	-13046
▁unders	-13047
children	-13048
▁isolation	-13049
▁wheelchair	-13050
▁effectiveness	-13051
cost	-13052
isle	-13053
▁rocky	-13054
▁Twenty	-13055
▁enjoys	-13056
▁favors	-13057
▁robots	-13058
▁beneficial	-13059
zzy	-13060
▁41	-13061
igue	-13062
▁mint	-13063
▁arabia	-13064
▁College	-13065
▁candles	-13066
▁adorable	-13067
▁argentina	-13068
▁supposedly	-13069
space	-13070
▁Bank	-13071
▁glam	-13072
igious	-13073
▁halluc	-13074
▁unstable	-13075
▁unemployed	-13076
▁desperately	-13077
▁ka	-13078
shan	-13079
▁3:00	-13080
▁pops	-13081
▁inequ	-13082
▁sworn	-13083
▁Seeing	-13084
▁tradem	-13085
akespeare	-13086
▁Hundreds	-13087
▁reserved	-13088
▁intensity	-13089
▁recommendation	-13090
oppy	-13091
▁Doug	-13092
▁Nancy	-13093
▁intens	-13094
▁catholic	-13095
▁composed	-13096
▁gratitude	-13097
hey	-13098
hard	-13099
▁ron	-13100
imity	-13101
▁blah	-13102
▁cush	-13103
▁jong	-13104
▁anest	-13105
▁encry	-13106
because	-13107
▁gently	-13108
▁paraly	-13109
▁lifting	-13110
▁mortgages	-13111
▁casualties	-13112
▁concentrated	-13113
▁pac	-13114
▁fork	-13115
▁tits	-13116
▁Enter	-13117
▁draws	-13118
regular	-13119
▁nitrogen	-13120
▁furnished	-13121
▁processed	-13122
IN	-13123
km	-13124
▁bark	-13125
ancial	-13126
▁Asian	-13127
▁Laure	-13128
▁stark	-13129
itorial	-13130
▁bagels	-13131
▁hallway	-13132
▁provider	-13133
hma	-13134
▁30%	-13135
▁dash	-13136
▁jing	-13137
▁ping	-13138
handed	-13139
▁erect	-13140
▁Modern	-13141
▁hollow	-13142
▁Analysts	-13143
▁inconven	-13144
▁2:00	-13145
▁cupc	-13146
▁glow	-13147
▁clerk	-13148
▁curve	-13149
▁ports	-13150
▁thrust	-13151
▁inviting	-13152
▁overwhelming	-13153
ulse	-13154
▁owes	-13155
▁dilig	-13156
▁flush	-13157
▁richer	-13158
▁needing	-13159
▁peninsula	-13160
He	-13161
sex	-13162
▁1960	-13163
ometry	-13164
▁panels	-13165
▁bitches	-13166
▁heights	-13167
▁resigned	-13168
▁tensions	-13169
▁Adv	-13170
▁aug	-13171
uffed	-13172
▁lens	-13173
▁apples	-13174
▁symptom	-13175
▁compounds	-13176
▁diagnosed	-13177
▁persistent	-13178
phia	-13179
ammar	-13180
▁Hill	-13181
▁roast	-13182
▁banker	-13183
▁forbid	-13184
▁juices	-13185
▁contacted	-13186
▁discretion	-13187
▁recommendations	-13188
0000	-13189
anth	-13190
green	-13191
▁anom	-13192
▁Psych	-13193
▁ridge	-13194
ensitive	-13195
▁Methods	-13196
▁reckons	-13197
▁addiction	-13198
▁successor	-13199
▁calculated	-13200
▁twe	-13201
▁Queen	-13202
▁blend	-13203
▁judged	-13204
▁beaches	-13205
▁refugees	-13206
▁pressures	-13207
▁destroying	-13208
▁Ap	-13209
rary	-13210
cuits	-13211
▁Duke	-13212
▁Korea	-13213
▁Uncle	-13214
▁midst	-13215
▁failures	-13216
▁remembers	-13217
:30.	-13218
umbs	-13219
atson	-13220
▁crab	-13221
▁Often	-13222
▁urine	-13223
▁hypocr	-13224
▁anthrop	-13225
▁colored	-13226
▁abundant	-13227
▁restored	-13228
OM	-13229
odies	-13230
▁lect	-13231
▁metabol	-13232
▁equality	-13233
▁implemented	-13234
▁unbelievable	-13235
▁Di	-13236
oresc	-13237
▁Blue	-13238
▁Mons	-13239
▁Quit	-13240
▁handc	-13241
▁Corpor	-13242
▁cardio	-13243
▁dental	-13244
▁resting	-13245
▁verdict	-13246
▁wonders	-13247
▁condemned	-13248
asis	-13249
▁Anne	-13250
▁Creat	-13251
▁Madam	-13252
▁crises	-13253
▁insurg	-13254
▁constitu	-13255
▁detected	-13256
▁responding	-13257
igo	-13258
▁46	-13259
educ	-13260
▁Fed	-13261
▁fug	-13262
▁ros	-13263
▁Brand	-13264
▁torch	-13265
▁Taiwan	-13266
▁cooler	-13267
▁loading	-13268
▁Standard	-13269
▁discharge	-13270
chi	-13271
opl	-13272
orph	-13273
▁Sea	-13274
▁ipo	-13275
▁Hence	-13276
▁fools	-13277
▁mobil	-13278
▁picks	-13279
▁texts	-13280
▁transparent	-13281
▁improvements	-13282
▁cn	-13283
bara	-13284
hill	-13285
▁Land	-13286
▁damp	-13287
▁dime	-13288
▁lesbian	-13289
▁vicious	-13290
mn	-13291
▁kh	-13292
▁hij	-13293
▁Asia	-13294
▁metro	-13295
▁roller	-13296
▁petition	-13297
mia	-13298
▁info	-13299
▁waist	-13300
olester	-13301
▁gamble	-13302
▁Following	-13303
mine	-13304
▁Ford	-13305
▁Tour	-13306
▁eyeb	-13307
develop	-13308
▁ballet	-13309
▁wolves	-13310
▁dentist	-13311
▁motivation	-13312
mid	-13313
uzz	-13314
▁joe	-13315
tical	-13316
▁fres	-13317
▁gaming	-13318
▁namely	-13319
▁verify	-13320
▁metaphor	-13321
▁disorders	-13322
▁extraction	-13323
▁instruction	-13324
▁counterparts	-13325
ID	-13326
▁-?	-13327
comp	-13328
help	-13329
graph	-13330
▁nasa	-13331
▁Beach	-13332
▁appra	-13333
▁tutor	-13334
leading	-13335
▁Stupid	-13336
▁cardiac	-13337
▁fitting	-13338
▁corridor	-13339
▁seasonal	-13340
▁measurement	-13341
▁investigations	-13342
fy	-13343
ocus	-13344
▁Merc	-13345
▁realm	-13346
▁plague	-13347
Oh	-13348
prot	-13349
▁Cop	-13350
▁Exp	-13351
▁Fun	-13352
▁meds	-13353
▁stap	-13354
▁sulf	-13355
▁stern	-13356
forward	-13357
▁Elaine	-13358
▁physic	-13359
▁browser	-13360
condition	-13361
▁inherited	-13362
▁obstacles	-13363
▁inevitably	-13364
',	-13365
ben	-13366
remlin	-13367
▁Donna	-13368
▁popped	-13369
adelphia	-13370
▁realise	-13371
▁colonial	-13372
▁multinational	-13373
week	-13374
▁Fast	-13375
▁Simon	-13376
▁merit	-13377
fulness	-13378
▁glance	-13379
▁teaches	-13380
▁Investors	-13381
ieur	-13382
gling	-13383
▁chim	-13384
▁Andrew	-13385
riptions	-13386
▁pipeline	-13387
▁displayed	-13388
etermination	-13389
▁1/	-13390
▁Bi	-13391
▁Bon	-13392
▁urg	-13393
▁danced	-13394
▁Running	-13395
▁Detective	-13396
▁followers	-13397
▁availability	-13398
▁az	-13399
cium	-13400
illes	-13401
▁amongst	-13402
▁bridges	-13403
▁females	-13404
▁launching	-13405
▁Understand	-13406
oven	-13407
▁40%	-13408
imore	-13409
▁lunar	-13410
▁stack	-13411
▁lasted	-13412
▁offset	-13413
▁petrol	-13414
▁poorly	-13415
▁springs	-13416
including	-13417
▁addresses	-13418
▁satellites	-13419
▁withdrawal	-13420
eav	-13421
prom	-13422
thew	-13423
▁disk	-13424
▁extr	-13425
▁jets	-13426
anguage	-13427
▁defect	-13428
▁pirates	-13429
▁smashed	-13430
ationally	-13431
▁reactions	-13432
▁Lieutenant	-13433
dep	-13434
ounding	-13435
▁accuse	-13436
▁entity	-13437
▁marking	-13438
▁conducting	-13439
▁references	-13440
▁2.00	-13441
▁quad	-13442
strong	-13443
▁tours	-13444
▁barbec	-13445
▁attitudes	-13446
▁fireplace	-13447
▁worthless	-13448
▁affordable	-13449
▁xia	-13450
▁medi	-13451
▁Senate	-13452
▁debris	-13453
▁listing	-13454
▁derivatives	-13455
mares	-13456
▁hobby	-13457
▁Number	-13458
▁Speaking	-13459
▁monument	-13460
▁enlighten	-13461
▁ze	-13462
▁15.	-13463
▁Jun	-13464
being	-13465
inkle	-13466
▁unle	-13467
▁vivid	-13468
▁guided	-13469
▁drowned	-13470
▁fraction	-13471
▁semester	-13472
▁constructed	-13473
wait	-13474
▁radius	-13475
▁exploded	-13476
▁decorated	-13477
rah	-13478
▁47	-13479
coll	-13480
▁Pack	-13481
▁flir	-13482
▁races	-13483
▁gasoline	-13484
▁umbrella	-13485
ati	-13486
▁Occ	-13487
comed	-13488
raine	-13489
▁Ball	-13490
irable	-13491
▁enlar	-13492
▁therm	-13493
▁salmon	-13494
▁shoots	-13495
▁arrogant	-13496
▁earliest	-13497
▁laughter	-13498
▁premature	-13499
▁consequence	-13500
ribes	-13501
verted	-13502
▁rumor	-13503
▁shade	-13504
itiveness	-13505
▁Catholic	-13506
▁grandson	-13507
▁landlord	-13508
▁shifting	-13509
▁disasters	-13510
▁acknowledged	-13511
▁experiencing	-13512
tor	-13513
▁Ln	-13514
▁cob	-13515
▁gau	-13516
athon	-13517
utter	-13518
▁Done	-13519
▁herb	-13520
▁pengu	-13521
▁begged	-13522
▁bounce	-13523
▁overre	-13524
▁sweden	-13525
▁sailing	-13526
▁99	-13527
▁cd	-13528
abel	-13529
bone	-13530
▁Ple	-13531
boards	-13532
▁cinema	-13533
▁refres	-13534
▁theirs	-13535
▁Jackson	-13536
▁camping	-13537
▁hormone	-13538
▁matching	-13539
▁interference	-13540
ippi	-13541
▁ark	-13542
occup	-13543
▁alpha	-13544
▁dryer	-13545
▁rides	-13546
▁unple	-13547
▁boxing	-13548
▁bizarre	-13549
▁accountant	-13550
▁disrespect	-13551
uri	-13552
jour	-13553
▁Jin	-13554
icism	-13555
soever	-13556
▁hosts	-13557
▁ranch	-13558
▁decrease	-13559
▁dynamics	-13560
▁narrative	-13561
▁targeting	-13562
▁propaganda	-13563
▁orientation	-13564
ml	-13565
two	-13566
moil	-13567
▁Ram	-13568
▁pistol	-13569
▁propri	-13570
▁September	-13571
▁perfection	-13572
▁smartphone	-13573
cus	-13574
▁Lost	-13575
▁Morgan	-13576
▁Moscow	-13577
▁agrees	-13578
▁demons	-13579
▁Houston	-13580
▁Patrick	-13581
▁carriers	-13582
▁undermin	-13583
▁associates	-13584
cal	-13585
▁gel	-13586
▁rav	-13587
▁gymn	-13588
▁lust	-13589
▁scam	-13590
▁Jason	-13591
berries	-13592
ructive	-13593
▁decomp	-13594
▁tranqu	-13595
▁mercury	-13596
▁reunion	-13597
▁carriage	-13598
▁occasions	-13599
500	-13600
abil	-13601
actic	-13602
anies	-13603
nered	-13604
reeks	-13605
▁migr	-13606
▁Tokyo	-13607
▁imbal	-13608
▁butcher	-13609
▁curtain	-13610
▁December	-13611
▁sections	-13612
▁europeans	-13613
▁intensive	-13614
▁complexity	-13615
▁sip	-13616
ellow	-13617
mails	-13618
▁Case	-13619
▁vodka	-13620
president	-13621
▁calories	-13622
▁medieval	-13623
▁tolerance	-13624
▁Sid	-13625
▁bun	-13626
adder	-13627
umping	-13628
▁coron	-13629
▁scent	-13630
▁burger	-13631
▁assisted	-13632
APD	-13633
might	-13634
▁jews	-13635
▁bands	-13636
▁blink	-13637
▁flock	-13638
▁lacks	-13639
▁overr	-13640
▁cherry	-13641
▁libyan	-13642
▁sodium	-13643
▁heavens	-13644
▁regards	-13645
▁shipped	-13646
▁vertical	-13647
▁esp	-13648
▁obl	-13649
▁LAPD	-13650
▁Pope	-13651
gments	-13652
rising	-13653
▁buses	-13654
▁colony	-13655
▁awfully	-13656
▁bidding	-13657
▁slaughter	-13658
▁Interesting	-13659
anmar	-13660
▁Gary	-13661
inence	-13662
▁Clean	-13663
▁thresh	-13664
▁binding	-13665
▁reminder	-13666
▁waitress	-13667
▁Boulevard	-13668
▁collaboration	-13669
ramer	-13670
▁bolt	-13671
▁aster	-13672
▁nucle	-13673
▁shove	-13674
▁ringing	-13675
▁companion	-13676
▁specialty	-13677
ushi	-13678
agram	-13679
ancies	-13680
▁insec	-13681
ulators	-13682
▁Russians	-13683
▁indirect	-13684
▁assumption	-13685
▁shareholder	-13686
▁parliamentary	-13687
otyp	-13688
▁Dong	-13689
▁dope	-13690
▁zhou	-13691
▁Heart	-13692
▁ruins	-13693
▁priests	-13694
▁sichuan	-13695
▁nowadays	-13696
bird	-13697
ammad	-13698
redit	-13699
▁adam	-13700
▁baked	-13701
▁Claire	-13702
▁Miranda	-13703
▁centres	-13704
▁hemorrh	-13705
▁portray	-13706
▁platforms	-13707
▁socialism	-13708
▁substitute	-13709
▁distinction	-13710
▁Wu	-13711
pert	-13712
▁Dun	-13713
otive	-13714
rived	-13715
▁amuse	-13716
▁ashes	-13717
▁cited	-13718
▁skies	-13719
largest	-13720
verages	-13721
▁buffett	-13722
▁particle	-13723
▁sporting	-13724
▁accounted	-13725
▁possessed	-13726
ean	-13727
may	-13728
▁3,	-13729
balls	-13730
▁abol	-13731
arming	-13732
driven	-13733
▁sabot	-13734
▁thigh	-13735
▁develops	-13736
▁removing	-13737
▁apartments	-13738
gium	-13739
▁hats	-13740
▁pawn	-13741
▁olive	-13742
▁tread	-13743
olation	-13744
▁banana	-13745
▁intermedi	-13746
▁motivated	-13747
▁Technically	-13748
▁inheritance	-13749
sche	-13750
▁lia	-13751
▁intu	-13752
▁comforts	-13753
▁flooding	-13754
▁detectives	-13755
▁separately	-13756
eat	-13757
aline	-13758
▁Coff	-13759
arency	-13760
▁tires	-13761
▁marshal	-13762
▁turmoil	-13763
▁churches	-13764
▁egyptian	-13765
▁scotland	-13766
-0	-13767
hea	-13768
▁700	-13769
▁Nik	-13770
▁Obs	-13771
▁Matt	-13772
▁hamb	-13773
▁appli	-13774
▁bible	-13775
▁sachs	-13776
▁smoked	-13777
▁Won	-13778
itime	-13779
▁hust	-13780
▁jane	-13781
▁1,000	-13782
▁diving	-13783
▁sights	-13784
▁whales	-13785
▁expedition	-13786
▁Book	-13787
▁Self	-13788
▁Emily	-13789
▁mummy	-13790
▁quoted	-13791
▁exhibit	-13792
▁furious	-13793
▁taiwanese	-13794
uliar	-13795
▁4:00	-13796
▁Hands	-13797
▁gover	-13798
▁traum	-13799
enezuel	-13800
limited	-13801
▁Pardon	-13802
▁greedy	-13803
▁waiter	-13804
▁biscuits	-13805
▁guarantees	-13806
isan	-13807
ldom	-13808
▁Conc	-13809
▁Poss	-13810
▁addressed	-13811
▁pyongyang	-13812
▁workplace	-13813
-4	-13814
anxi	-13815
▁prud	-13816
▁Robin	-13817
▁Spring	-13818
▁Suppose	-13819
▁exploit	-13820
▁tolerate	-13821
▁translate	-13822
▁spacecraft	-13823
omon	-13824
range	-13825
▁$100	-13826
▁Wild	-13827
▁seeks	-13828
▁obsess	-13829
icularly	-13830
▁inhabit	-13831
▁obesity	-13832
▁welcomed	-13833
▁radioactive	-13834
hdad	-13835
▁whit	-13836
▁trous	-13837
▁doomed	-13838
▁endeav	-13839
▁losers	-13840
▁pickup	-13841
▁segment	-13842
▁ventures	-13843
▁Companies	-13844
IS	-13845
▁1.5	-13846
▁Cat	-13847
▁dile	-13848
▁suspension	-13849
▁bp	-13850
rill	-13851
▁sib	-13852
adequ	-13853
▁bapt	-13854
income	-13855
▁Speak	-13856
▁energ	-13857
▁endure	-13858
▁naughty	-13859
▁veteran	-13860
▁cheerlead	-13861
▁fertility	-13862
▁preserved	-13863
▁compliance	-13864
▁ideological	-13865
▁policymakers	-13866
oyd	-13867
▁adequate	-13868
▁ignoring	-13869
▁proteins	-13870
▁shocking	-13871
▁physician	-13872
▁compelling	-13873
▁exceptional	-13874
ubs	-13875
ista	-13876
▁amateur	-13877
▁prefect	-13878
▁memorable	-13879
▁bir	-13880
▁lid	-13881
arious	-13882
▁hamas	-13883
▁pneum	-13884
▁Strong	-13885
▁Mountain	-13886
▁portrait	-13887
▁Valentine	-13888
▁fortunate	-13889
▁businessmen	-13890
kia	-13891
tra	-13892
▁McC	-13893
japan	-13894
rance	-13895
▁scor	-13896
issippi	-13897
▁hunters	-13898
▁rewards	-13899
cul	-13900
corn	-13901
▁hiv	-13902
uther	-13903
▁nurt	-13904
▁Cover	-13905
▁bunny	-13906
▁stunt	-13907
▁Giving	-13908
▁Walter	-13909
▁shapes	-13910
▁detection	-13911
▁fireworks	-13912
▁explosives	-13913
rose	-13914
▁yacht	-13915
▁hiking	-13916
▁muslims	-13917
▁mentally	-13918
▁occupation	-13919
ED	-13920
hop	-13921
hism	-13922
▁peg	-13923
▁plung	-13924
▁archae	-13925
▁rebuild	-13926
▁servers	-13927
▁disturbed	-13928
▁introducing	-13929
▁orch	-13930
▁prag	-13931
ijuana	-13932
▁bluff	-13933
▁pains	-13934
▁uranium	-13935
▁rhetoric	-13936
▁indication	-13937
▁continuously	-13938
▁interrogation	-13939
acre	-13940
▁gown	-13941
ogenic	-13942
▁spike	-13943
▁contag	-13944
▁lenders	-13945
▁Atlantic	-13946
▁acquaint	-13947
▁guangzhou	-13948
▁scrambled	-13949
▁proceedings	-13950
▁Eg	-13951
▁Sky	-13952
ringe	-13953
▁Mark	-13954
▁shiny	-13955
▁smiles	-13956
▁stance	-13957
▁trophy	-13958
▁October	-13959
▁advocate	-13960
▁dominate	-13961
▁uniforms	-13962
▁primitive	-13963
▁telescope	-13964
▁unpleasant	-13965
OR	-13966
▁Luke	-13967
owners	-13968
▁lethal	-13969
▁raining	-13970
▁damaging	-13971
▁influences	-13972
▁fag	-13973
estly	-13974
▁crawl	-13975
▁harry	-13976
▁incap	-13977
ignment	-13978
▁merchand	-13979
▁unpredict	-13980
▁eg	-13981
▁kan	-13982
▁armor	-13983
▁creep	-13984
▁venge	-13985
▁villa	-13986
▁hooker	-13987
▁goddess	-13988
ufficient	-13989
▁colorful	-13990
▁drawings	-13991
aya	-13992
eut	-13993
qual	-13994
▁eco	-13995
▁ratt	-13996
▁ribs	-13997
▁Daddy	-13998
▁Single	-13999
▁morgue	-14000
▁openly	-14001
▁millenn	-14002
▁updated	-14003
▁conclude	-14004
▁drilling	-14005
▁founding	-14006
▁husbands	-14007
▁homosexual	-14008
▁utilization	-14009
▁jul	-14010
▁limb	-14011
▁monk	-14012
▁Admir	-14013
▁Color	-14014
▁pools	-14015
▁slowed	-14016
▁supportive	-14017
▁thoughtful	-14018
▁flexibility	-14019
pace	-14020
▁swell	-14021
▁democrat	-14022
▁obsession	-14023
▁pakistani	-14024
▁negotiating	-14025
▁humanitarian	-14026
-5	-14027
▁!	-14028
-20	-14029
▁ibm	-14030
▁mim	-14031
▁Press	-14032
▁locks	-14033
▁sheer	-14034
▁Nations	-14035
akh	-14036
▁ko	-14037
ylon	-14038
▁pla	-14039
▁rang	-14040
▁spoon	-14041
loading	-14042
▁proving	-14043
▁transit	-14044
▁hormones	-14045
▁inherent	-14046
▁cer	-14047
▁Chloe	-14048
▁dairy	-14049
▁chased	-14050
▁traits	-14051
▁consume	-14052
▁deployed	-14053
▁nightmares	-14054
▁philippines	-14055
mun	-14056
erie	-14057
link	-14058
cient	-14059
▁Deep	-14060
agnetic	-14061
selling	-14062
▁Harvard	-14063
▁booking	-14064
▁frankly	-14065
▁speeches	-14066
▁sweeping	-14067
▁converted	-14068
▁simulation	-14069
▁$50	-14070
▁lur	-14071
▁tore	-14072
▁oceans	-14073
▁catalog	-14074
▁sadness	-14075
▁situated	-14076
ographical	-14077
▁navigation	-14078
▁bri	-14079
▁fry	-14080
▁tao	-14081
shire	-14082
▁cured	-14083
▁rains	-14084
▁coffin	-14085
▁pilots	-14086
▁conquer	-14087
▁Continue	-14088
▁peasants	-14089
▁planting	-14090
▁liverpool	-14091
▁complement	-14092
200	-14093
gel	-14094
oda	-14095
▁tig	-14096
▁unch	-14097
▁Earth	-14098
▁sandy	-14099
▁Author	-14100
▁shepher	-14101
▁doctrine	-14102
▁controversy	-14103
ders	-14104
▁Saw	-14105
▁rud	-14106
orate	-14107
table	-14108
▁Crit	-14109
▁cott	-14110
contin	-14111
ushima	-14112
▁Point	-14113
▁pedest	-14114
▁mansion	-14115
▁carolina	-14116
▁cancelled	-14117
▁Sol	-14118
ookie	-14119
steps	-14120
▁Cust	-14121
▁Pract	-14122
ountered	-14123
▁pouring	-14124
▁courtroom	-14125
▁taxpayers	-14126
▁appreciated	-14127
▁devastating	-14128
▁limitations	-14129
ecd	-14130
astics	-14131
urable	-14132
▁exert	-14133
▁purely	-14134
▁refuses	-14135
▁thermal	-14136
▁peculiar	-14137
▁portable	-14138
▁portugal	-14139
▁Ult	-14140
acted	-14141
▁fluct	-14142
▁fries	-14143
▁seize	-14144
▁unrest	-14145
▁focuses	-14146
▁gaining	-14147
▁incoming	-14148
▁dimensions	-14149
▁acquisitions	-14150
▁dy	-14151
▁ht	-14152
imal	-14153
nels	-14154
▁gem	-14155
▁usa	-14156
▁aven	-14157
▁bash	-14158
▁boobs	-14159
▁guinea	-14160
▁muffins	-14161
Don	-14162
mel	-14163
▁51	-14164
▁18.	-14165
▁Wish	-14166
▁clam	-14167
▁cups	-14168
▁Doctors	-14169
▁yourseIf	-14170
▁quantitative	-14171
eff	-14172
▁13.	-14173
▁Lib	-14174
▁spi	-14175
rants	-14176
▁heter	-14177
▁Coffee	-14178
▁relate	-14179
▁forensic	-14180
▁tactical	-14181
▁creditors	-14182
▁legislative	-14183
▁hp	-14184
esis	-14185
▁meg	-14186
▁Cany	-14187
▁grie	-14188
▁Suite	-14189
▁bully	-14190
▁reson	-14191
▁County	-14192
▁toyota	-14193
▁Putting	-14194
▁campaigns	-14195
▁distinguish	-14196
aton	-14197
into	-14198
▁pony	-14199
▁retro	-14200
▁bronze	-14201
▁imaging	-14202
▁powered	-14203
▁upright	-14204
▁brussels	-14205
▁diplomacy	-14206
▁infections	-14207
▁massachusetts	-14208
dest	-14209
lotte	-14210
▁plea	-14211
▁wool	-14212
forest	-14213
▁stagn	-14214
▁antibiotics	-14215
nap	-14216
unts	-14217
▁lith	-14218
heimer	-14219
▁pipes	-14220
▁runway	-14221
▁careers	-14222
▁reactors	-14223
▁priorities	-14224
▁encountered	-14225
nty	-14226
erce	-14227
▁dupl	-14228
▁2006,	-14229
▁harmless	-14230
▁allegedly	-14231
???	-14232
bin	-14233
aser	-14234
▁Ros	-14235
▁dum	-14236
▁mba	-14237
▁upt	-14238
▁logo	-14239
▁blackberry	-14240
hui	-14241
ths	-14242
quer	-14243
▁hut	-14244
▁kat	-14245
▁pairs	-14246
▁seeker	-14247
▁execute	-14248
▁screening	-14249
aba	-14250
▁16.	-14251
▁arise	-14252
▁leban	-14253
▁mosqu	-14254
▁Playing	-14255
▁cartoon	-14256
▁dragging	-14257
▁divisions	-14258
▁evolutionary	-14259
mill	-14260
vable	-14261
▁Govern	-14262
▁emails	-14263
▁accuracy	-14264
▁battlefield	-14265
▁traditionally	-14266
▁delhi	-14267
▁learnt	-14268
▁benefic	-14269
▁minimal	-14270
▁symbols	-14271
anas	-14272
ource	-14273
▁boast	-14274
▁nobel	-14275
▁prone	-14276
lements	-14277
▁Cheers	-14278
▁Korean	-14279
▁minded	-14280
dim	-14281
ova	-14282
pal	-14283
,...	-14284
fits	-14285
heric	-14286
oused	-14287
regon	-14288
▁Phot	-14289
rophic	-14290
▁ninth	-14291
▁cursed	-14292
▁noodles	-14293
▁strengthening	-14294
aky	-14295
▁$20	-14296
▁stro	-14297
▁gravy	-14298
powered	-14299
▁baggage	-14300
▁environ	-14301
▁Franklin	-14302
▁warriors	-14303
▁migration	-14304
▁prevented	-14305
▁variation	-14306
▁Department	-14307
▁statistical	-14308
maid	-14309
page	-14310
▁Lana	-14311
▁clan	-14312
▁throws	-14313
▁vitamin	-14314
▁consumed	-14315
▁Objection	-14316
▁irregular	-14317
▁accommodations	-14318
AR	-14319
▁72	-14320
▁daw	-14321
▁Kramer	-14322
▁misses	-14323
▁skiing	-14324
▁Indians	-14325
▁desired	-14326
▁stretched	-14327
▁halt	-14328
▁porch	-14329
▁recons	-14330
▁robber	-14331
▁storms	-14332
▁xinhua	-14333
▁Johnson	-14334
▁Hospital	-14335
▁offended	-14336
▁salesman	-14337
▁wei	-14338
▁suic	-14339
ulator	-14340
▁chunk	-14341
▁exams	-14342
▁admits	-14343
▁restrict	-14344
ipei	-14345
isse	-14346
▁cum	-14347
▁Yang	-14348
▁bells	-14349
▁pause	-14350
▁sizes	-14351
▁Admiral	-14352
▁synchron	-14353
▁wilderness	-14354
▁49	-14355
▁News	-14356
incent	-14357
thirds	-14358
▁spies	-14359
▁Oliver	-14360
▁armies	-14361
▁seldom	-14362
▁viable	-14363
▁endorse	-14364
▁incomes	-14365
▁museums	-14366
vironment	-14367
▁vanished	-14368
▁Afghanistan	-14369
▁cooperative	-14370
▁smartphones	-14371
onda	-14372
gener	-14373
▁sham	-14374
▁Kitty	-14375
▁tenth	-14376
▁awaken	-14377
▁charts	-14378
▁shorts	-14379
▁snakes	-14380
▁Lincoln	-14381
▁Strange	-14382
▁tibetan	-14383
▁accompany	-14384
▁ignorance	-14385
▁succession	-14386
▁mathematical	-14387
aa	-14388
core	-14389
ignty	-14390
jamin	-14391
▁blur	-14392
▁fret	-14393
ibbean	-14394
igible	-14395
▁feeds	-14396
▁spear	-14397
▁wells	-14398
▁Canyon	-14399
▁Fortun	-14400
▁rushing	-14401
▁unveiled	-14402
▁delegation	-14403
▁describing	-14404
vi	-14405
hero	-14406
▁Pers	-14407
▁crus	-14408
▁horr	-14409
▁basin	-14410
▁drift	-14411
▁setup	-14412
▁usage	-14413
▁Howard	-14414
▁advers	-14415
▁joseph	-14416
▁ranging	-14417
▁removal	-14418
▁maritime	-14419
▁swallowed	-14420
▁forgetting	-14421
plan	-14422
omatic	-14423
unning	-14424
▁jordan	-14425
▁fifteen	-14426
▁visions	-14427
▁malaysia	-14428
▁consistently	-14429
▁discrimination	-14430
ahu	-14431
▁Pen	-14432
▁ample	-14433
▁Global	-14434
▁calcium	-14435
▁samsung	-14436
▁infinite	-14437
▁workshop	-14438
▁capitalist	-14439
anti	-14440
five	-14441
mont	-14442
ennis	-14443
▁shin	-14444
▁choir	-14445
▁prett	-14446
▁shaft	-14447
▁secular	-14448
▁shotgun	-14449
▁contempt	-14450
▁whatsoever	-14451
▁alternatives	-14452
▁investigator	-14453
▁transparency	-14454
▁architectural	-14455
▁lent	-14456
ooping	-14457
▁Lucky	-14458
▁Moving	-14459
▁richest	-14460
▁accusing	-14461
▁federation	-14462
▁distinguished	-14463
,”	-14464
▁Bath	-14465
▁Card	-14466
▁frig	-14467
▁helm	-14468
▁labs	-14469
▁lure	-14470
▁subd	-14471
formed	-14472
▁Susan	-14473
▁troll	-14474
▁render	-14475
▁kremlin	-14476
▁whiskey	-14477
▁irrelevant	-14478
bas	-14479
arse	-14480
infl	-14481
ouId	-14482
umer	-14483
▁Doc	-14484
onies	-14485
▁Tess	-14486
▁issu	-14487
roduce	-14488
▁crank	-14489
▁Beyond	-14490
▁flooded	-14491
▁modeling	-14492
▁accusations	-14493
▁Ox	-14494
▁Lay	-14495
rowth	-14496
▁sway	-14497
ounces	-14498
▁batch	-14499
▁mexic	-14500
▁thorn	-14501
▁titles	-14502
▁traced	-14503
▁realised	-14504
▁legendary	-14505
▁vo	-14506
▁Ban	-14507
▁Kay	-14508
▁Resp	-14509
hedral	-14510
ocracy	-14511
▁chile	-14512
▁handing	-14513
▁columbia	-14514
▁incidents	-14515
▁girlfriends	-14516
▁competitiveness	-14517
kill	-14518
▁pilgr	-14519
▁regen	-14520
▁lacking	-14521
▁bedrooms	-14522
▁grounded	-14523
▁providers	-14524
▁Kr	-14525
▁Ly	-14526
▁Gosh	-14527
▁cans	-14528
▁edges	-14529
▁oxford	-14530
breaking	-14531
▁aluminum	-14532
▁trademark	-14533
sky	-14534
wen	-14535
▁Ho	-14536
auer	-14537
▁Gun	-14538
▁tai	-14539
uffle	-14540
▁Jews	-14541
usters	-14542
▁shack	-14543
▁scotch	-14544
▁relieve	-14545
▁netherlands	-14546
▁kr	-14547
▁Aud	-14548
puter	-14549
▁spur	-14550
▁tray	-14551
▁2005,	-14552
▁Chang	-14553
▁turtle	-14554
▁Clearly	-14555
▁blaming	-14556
▁derived	-14557
▁brazilian	-14558
▁counterme	-14559
▁dictators	-14560
▁headlines	-14561
▁arbitration	-14562
▁sovereignty	-14563
OD	-14564
city	-14565
tube	-14566
▁10,	-14567
▁Bag	-14568
▁puff	-14569
▁comply	-14570
▁rubbish	-14571
▁buddhist	-14572
▁operates	-14573
▁volatile	-14574
▁stimulate	-14575
▁threshold	-14576
▁switzerland	-14577
yu	-14578
▁hm	-14579
▁14.	-14580
ocity	-14581
owers	-14582
▁resur	-14583
▁seoul	-14584
▁runner	-14585
▁swords	-14586
▁Careful	-14587
▁Stephen	-14588
▁haircut	-14589
▁harness	-14590
▁telecommun	-14591
usk	-14592
erto	-14593
ullah	-14594
▁iraqi	-14595
▁merge	-14596
▁enters	-14597
▁sleeps	-14598
▁Assault	-14599
▁tightly	-14600
▁Hig	-14601
ailable	-14602
▁Greece	-14603
▁Valley	-14604
▁poland	-14605
▁Talking	-14606
▁nickname	-14607
▁behaviors	-14608
▁territorial	-14609
▁restructuring	-14610
hao	-14611
▁beck	-14612
▁swap	-14613
ankees	-14614
▁Above	-14615
▁comed	-14616
itories	-14617
▁scenic	-14618
ribution	-14619
▁ceremon	-14620
▁inadequ	-14621
▁lightly	-14622
▁optical	-14623
▁detained	-14624
▁vocational	-14625
erb	-14626
alph	-14627
ilib	-14628
▁moo	-14629
▁shi	-14630
▁Mess	-14631
▁hail	-14632
illery	-14633
▁Court	-14634
▁cries	-14635
service	-14636
▁asthma	-14637
▁cannon	-14638
▁cleans	-14639
▁matched	-14640
▁rehabil	-14641
▁backward	-14642
▁frontier	-14643
▁incompet	-14644
▁sneaking	-14645
▁forecasts	-14646
▁manhattan	-14647
▁frustration	-14648
▁willingness	-14649
ei	-14650
▁tac	-14651
▁Pear	-14652
▁Pool	-14653
laimed	-14654
▁chrys	-14655
emption	-14656
enhagen	-14657
▁valued	-14658
▁inclined	-14659
▁lipstick	-14660
▁generator	-14661
▁messenger	-14662
▁applicable	-14663
plex	-14664
▁Sep	-14665
▁cyl	-14666
▁fang	-14667
▁bowling	-14668
▁tempted	-14669
▁credible	-14670
▁electoral	-14671
▁specially	-14672
▁varieties	-14673
ixed	-14674
▁Kiss	-14675
▁Safe	-14676
arians	-14677
▁demol	-14678
▁merry	-14679
holding	-14680
▁pledged	-14681
▁summary	-14682
▁phenomena	-14683
▁nationality	-14684
gus	-14685
jan	-14686
▁Jam	-14687
dings	-14688
▁rene	-14689
estone	-14690
▁gases	-14691
▁clause	-14692
▁funded	-14693
▁liking	-14694
▁shovel	-14695
▁notably	-14696
▁overtime	-14697
IT	-14698
▁Deb	-14699
▁fatty	-14700
▁immin	-14701
▁lever	-14702
▁pinch	-14703
▁manages	-14704
▁shifted	-14705
▁receives	-14706
▁celebrities	-14707
▁documentary	-14708
▁psychologist	-14709
abri	-14710
▁Lew	-14711
▁bak	-14712
three	-14713
▁3.00	-14714
ompson	-14715
▁bount	-14716
▁gangs	-14717
▁oppose	-14718
▁painter	-14719
▁optimism	-14720
▁sweating	-14721
▁cellphone	-14722
▁guangdong	-14723
▁environments	-14724
▁Ign	-14725
▁duct	-14726
ecessor	-14727
▁fucker	-14728
asonable	-14729
▁inspire	-14730
▁presidents	-14731
▁bib	-14732
▁Emerg	-14733
▁lehman	-14734
▁pupils	-14735
▁ransom	-14736
▁sucker	-14737
▁tossed	-14738
▁chopper	-14739
▁melting	-14740
▁thereby	-14741
▁chambers	-14742
▁enhanced	-14743
▁equation	-14744
▁cholester	-14745
▁healthcare	-14746
AL	-14747
ubar	-14748
▁Bor	-14749
▁ench	-14750
▁epit	-14751
isting	-14752
▁wines	-14753
▁notify	-14754
▁syrian	-14755
▁governing	-14756
▁investigators	-14757
owa	-14758
itol	-14759
▁Gee	-14760
adesh	-14761
▁sarc	-14762
▁thai	-14763
urrent	-14764
▁hunch	-14765
▁infilt	-14766
▁colonel	-14767
▁Monsieur	-14768
▁archives	-14769
▁correlation	-14770
▁predecessor	-14771
▁probability	-14772
We	-14773
▁Ur	-14774
hong	-14775
▁Dow	-14776
▁Yup	-14777
otics	-14778
▁Iook	-14779
▁reli	-14780
▁dreamt	-14781
▁occupy	-14782
▁warmth	-14783
▁sucking	-14784
▁epidemic	-14785
▁appealing	-14786
▁tightening	-14787
via	-14788
vol	-14789
▁ak	-14790
▁ie	-14791
ancer	-14792
oping	-14793
▁Emma	-14794
▁peer	-14795
▁stove	-14796
▁carved	-14797
▁fooled	-14798
▁altered	-14799
▁quicker	-14800
▁viewing	-14801
▁destined	-14802
▁declining	-14803
▁developer	-14804
▁innocence	-14805
▁automobile	-14806
kok	-14807
▁ps	-14808
▁911	-14809
▁Pier	-14810
▁illum	-14811
▁Medical	-14812
▁chelsea	-14813
bes	-14814
disc	-14815
alism	-14816
▁smash	-14817
▁veins	-14818
▁spreads	-14819
▁cerebral	-14820
▁generals	-14821
▁surviving	-14822
▁parameters	-14823
▁psychiatrist	-14824
usc	-14825
vious	-14826
▁Amaz	-14827
▁gaze	-14828
seeing	-14829
▁peach	-14830
▁skate	-14831
▁dialect	-14832
▁inferior	-14833
▁replacing	-14834
▁salvation	-14835
YP	-14836
would	-14837
around	-14838
▁flick	-14839
essional	-14840
▁monopoly	-14841
▁requiring	-14842
▁complications	-14843
omo	-14844
tha	-14845
feld	-14846
ooke	-14847
vered	-14848
▁peep	-14849
▁aggreg	-14850
▁lining	-14851
▁warnings	-14852
▁catastrop	-14853
▁delightful	-14854
▁Ash	-14855
▁eyel	-14856
[...]
