<unk>	0
<pad>	0
<s>	0
</s>	0
。	-2.66097
,	-3.04411
▁	-3.52182
的	-3.61212
?	-4.26259
了	-4.55859
我	-4.9234
你	-5.14555
在	-5.15997
和	-5.28275
是	-5.36073
!	-5.36088
▁我	-5.38968
他	-5.61186
...	-5.74365
不	-5.787
有	-5.8695
、	-5.89618
我们	-5.90488
吗	-5.90747
▁你	-5.94497
上	-5.98736
人	-6.03581
她	-6.05134
来	-6.15039
中	-6.2079
对	-6.22406
▁他	-6.24079
到	-6.28293
他们	-6.29329
会	-6.29755
说	-6.30699
要	-6.32059
这	-6.33038
去	-6.33095
就	-6.37553
一个	-6.42366
▁我们	-6.43227
都	-6.48831
被	-6.49156
里	-6.4919
那	-6.51344
时	-6.53764
大	-6.53776
为	-6.54336
吧	-6.55612
▁在	-6.56024
一	-6.60419
好	-6.61402
地	-6.62061
▁她	-6.63291
-	-6.64192
”	-6.64423
“	-6.64978
这个	-6.66387
也	-6.68059
用	-6.6861
过	-6.68672
与	-6.69248
)	-6.71394
(	-6.74176
将	-6.75938
从	-6.75965
而	-6.76354
呢	-6.76826
没有	-6.78192
得	-6.79156
能	-6.81131
下	-6.83957
可以	-6.86371
啊	-6.86855
:	-6.86995
年	-6.8745
什么	-6.87546
想	-6.87923
着	-6.89101
它	-6.91431
出	-6.92035
把	-6.92504
后	-6.92815
▁但	-6.92988
很	-6.94548
你们	-6.95319
点	-6.96312
个	-6.96597
小	-6.98198
的人	-6.99327
但	-7.0088
你的	-7.01041
看	-7.03271
这些	-7.04116
做	-7.05539
前	-7.09077
性	-7.09975
的时候	-7.10496
自己	-7.11367
多	-7.125
还	-7.12665
子	-7.13888
可	-7.17191
已经	-7.1754
就是	-7.19998
或	-7.20319
以	-7.20639
者	-7.2107
没	-7.21464
不是	-7.21886
▁好吧	-7.22557
打	-7.23083
斯	-7.23138
公司	-7.23281
家	-7.23376
现在	-7.24134
走	-7.24322
我的	-7.24562
工作	-7.25833
向	-7.26523
比	-7.27308
开	-7.28307
之	-7.29612
所	-7.30001
水	-7.30233
头	-7.30561
给	-7.30695
开始	-7.32541
▁如果	-7.33466
更	-7.34121
.	-7.35392
▁不	-7.3568
高	-7.35692
再	-7.35796
于	-7.37009
心	-7.37142
可能	-7.37693
一样	-7.37822
并	-7.38572
那些	-7.38748
▁但是	-7.38761
新	-7.38951
▁他们	-7.41092
手	-7.41627
这样	-7.42911
又	-7.42939
的话	-7.43553
......	-7.44099
事	-7.44209
那个	-7.44775
拉	-7.44997
别	-7.46332
美国	-7.4689
们	-7.46916
需要	-7.47841
无	-7.48754
等	-7.49143
当	-7.49424
一些	-7.49913
特	-7.51177
还是	-7.51556
行	-7.51899
其	-7.52086
最	-7.52966
问题	-7.53222
▁别	-7.53424
该	-7.5377
让	-7.54678
先生	-7.54847
德	-7.55177
但是	-7.56175
中国	-7.56321
内	-7.56702
▁因为	-7.57259
像	-7.57271
太	-7.58252
生	-7.58741
天	-7.58851
死	-7.60681
时间	-7.61389
带	-7.61673
车	-7.62522
长	-7.62625
▁哦	-7.62782
▁好	-7.63474
发	-7.64548
他的	-7.65498
;	-7.65539
日	-7.65614
知道	-7.65783
政府	-7.659
"	-7.6607
因为	-7.66249
给我	-7.68294
进行	-7.68782
吃	-7.69132
那么	-7.69773
认为	-7.69915
快	-7.70037
还有	-7.70216
回	-7.7128
发现	-7.71869
▁当然	-7.72014
之前	-7.7266
这种	-7.72693
克	-7.72809
本	-7.72832
起	-7.72969
马	-7.73099
爱	-7.73298
才	-7.73353
分	-7.73664
及	-7.73702
一下	-7.74163
成	-7.7446
正	-7.74673
月	-7.74893
▁-	-7.75055
外	-7.75063
▁所以	-7.75086
不能	-7.7605
孩子	-7.76066
自	-7.76243
▁嘿	-7.76332
利	-7.77726
▁是的	-7.77794
非常	-7.77802
不会	-7.77996
尔	-7.78069
▁对	-7.78207
学	-7.78294
钱	-7.78919
提供	-7.79167
门	-7.79286
研究	-7.79667
跟	-7.80132
已	-7.80217
力	-7.8051
▁嗯	-7.80833
名	-7.81549
老	-7.81632
化	-7.81636
▁如果你	-7.81994
▁你们	-7.82189
▁不过	-7.83343
重	-7.83585
真	-7.84085
却	-7.84431
应该	-7.84599
机	-7.85641
都是	-7.86317
法	-7.87081
这是	-7.87259
听	-7.87537
让我	-7.87941
加	-7.88249
动	-7.8868
花	-7.88702
希望	-7.88703
只是	-7.8878
以及	-7.89152
1	-7.89198
▁我要	-7.89277
我会	-7.8971
进	-7.90178
▁从	-7.91093
出来	-7.91343
谁	-7.94083
给你	-7.94204
如果	-7.94219
的事	-7.94312
通过	-7.94934
▁我想	-7.95258
三	-7.9537
国家	-7.95394
只	-7.95488
正在	-7.9595
卡	-7.96051
5	-7.96095
放	-7.96096
拿	-7.96308
这么	-7.96395
3	-7.96515
喜欢	-7.96708
么	-7.96856
请	-7.96891
叫	-7.97106
干	-7.9759
计划	-7.981
西	-7.98301
道	-7.98794
使	-7.98905
住	-7.98999
路	-7.9912
见	-7.9915
不要	-7.99189
▁它	-7.99363
世界	-7.99422
之后	-7.99439
面	-7.99487
然后	-7.99499
所有	-7.99515
使用	-7.99641
气	-7.9998
您	-8.00162
先	-8.00522
或者	-8.00849
2	-8.01038
由	-8.01451
一次	-8.01508
光	-8.01799
号	-8.01976
两	-8.02069
回来	-8.0294
为什么	-8.03537
它们	-8.0473
▁把	-8.05034
▁噢	-8.05128
自己的	-8.05232
我想	-8.05236
得到	-8.06507
离开	-8.06573
▁你知道	-8.06975
找	-8.06983
▁我知道	-8.07259
问	-8.07311
人们	-8.07397
身	-8.07489
真的	-8.07505
作	-8.07522
一起	-8.07553
受	-8.07638
▁为什么	-8.0807
海	-8.08157
有点	-8.08816
找到	-8.0897
任何	-8.09137
区	-8.09166
看到	-8.09228
而且	-8.09276
金	-8.09391
起来	-8.10155
好吗	-8.10298
经济	-8.10444
▁当	-8.10469
朋友	-8.1054
一直	-8.10774
风	-8.10961
银行	-8.11086
罗	-8.11413
怎么	-8.11484
系统	-8.1149
表示	-8.12022
尼	-8.12064
一点	-8.12123
市场	-8.12598
火	-8.13141
这里	-8.13382
▁是啊	-8.1346
买	-8.13497
服务	-8.13713
包括	-8.14121
了吗	-8.14369
如何	-8.14418
s	-8.15113
出去	-8.15216
美	-8.15275
国	-8.15754
流	-8.16018
所以	-8.16078
8	-8.16161
。-	-8.16397
其他	-8.16439
安全	-8.16542
入	-8.1655
只有	-8.16637
技术	-8.16795
口	-8.17034
东西	-8.17219
继续	-8.17396
安	-8.17422
体	-8.17438
成为	-8.1768
▁好的	-8.17784
▁我是	-8.17792
写	-8.17812
我们的	-8.18534
器	-8.18749
有人	-8.19256
场	-8.19458
能够	-8.19466
想要	-8.19928
今天	-8.20064
全	-8.20121
一种	-8.20462
阿	-8.20589
万	-8.20638
必须	-8.20698
同	-8.20719
书	-8.20796
▁我可以	-8.2091
声	-8.21043
山	-8.21183
是个	-8.2131
选择	-8.21542
神	-8.21634
要求	-8.21737
过来	-8.21844
称	-8.22076
决定	-8.22227
线	-8.22551
那样	-8.22691
变	-8.2275
格	-8.22841
告诉我	-8.23178
准备	-8.23228
▁听着	-8.23232
酒店	-8.23235
我要	-8.2333
条	-8.2356
如	-8.23563
弄	-8.23581
企业	-8.23625
处	-8.24072
话	-8.24688
相	-8.24994
4	-8.25009
在这里	-8.25138
▁呃	-8.25333
的东西	-8.2605
数	-8.26466
10	-8.26552
让你	-8.26679
玩	-8.26821
6	-8.2742
达	-8.27663
觉得	-8.27801
完全	-8.27821
妈妈	-8.27839
生活	-8.27882
主	-8.28012
过去	-8.28053
电	-8.28068
控制	-8.28128
转	-8.28428
总	-8.28735
队	-8.28853
纳	-8.28921
些	-8.28953
物	-8.2928
低	-8.29335
电话	-8.29339
▁我不知道	-8.2986
很好	-8.29903
无法	-8.30062
就会	-8.30077
因	-8.30102
接受	-8.30197
文	-8.30253
是一个	-8.30445
帮助	-8.30755
▁是	-8.31031
不过	-8.31415
发生	-8.31548
▁有	-8.31781
如此	-8.31792
▁但我	-8.32074
▁我觉得	-8.32176
·	-8.3227
她的	-8.32291
方	-8.32527
关系	-8.32596
空	-8.3271
病	-8.32717
好的	-8.32907
州	-8.32996
枪	-8.33174
四	-8.33356
米	-8.33431
看看	-8.33743
装	-8.34019
社会	-8.34334
早	-8.34363
到了	-8.34541
应	-8.34738
来说	-8.34889
我就	-8.34915
信	-8.34992
教	-8.35064
哦	-8.35132
度	-8.35324
的地方	-8.3549
▁我在	-8.35649
7	-8.35828
他们的	-8.35869
掉	-8.36058
儿	-8.36102
女人	-8.3641
组织	-8.36717
▁因为我	-8.36726
热	-8.36792
科	-8.37019
巴	-8.3722
穿	-8.37284
位	-8.37429
警察	-8.37436
情	-8.37442
医生	-8.37677
相信	-8.37738
接	-8.37968
?-	-8.37972
是谁	-8.38188
量	-8.38459
总是	-8.38462
往	-8.38607
交	-8.38687
活动	-8.38758
亚	-8.39054
发展	-8.39115
权	-8.39262
派	-8.39399
▁什么	-8.39479
球	-8.39548
间	-8.39638
很多	-8.39837
女	-8.39849
管	-8.40004
送	-8.4017
别人	-8.40225
我是	-8.40351
这一	-8.40642
关于	-8.40643
的是	-8.41075
谈	-8.41086
20	-8.4117
酒	-8.41301
活	-8.41535
并且	-8.4162
难	-8.41708
白	-8.4172
连	-8.41813
大学	-8.4211
战	-8.42249
管理	-8.42266
二	-8.42266
几	-8.42606
《	-8.42609
也许	-8.42721
甚至	-8.42757
至	-8.42949
▁你得	-8.42982
选	-8.43103
通	-8.43246
血	-8.43398
告诉你	-8.4342
感觉	-8.43522
▁啊	-8.43538
中的	-8.43702
讲	-8.4378
跑	-8.43998
当然	-8.44253
倒	-8.4434
两个	-8.444
处理	-8.44709
药	-8.44881
了解	-8.45056
一切	-8.45303
布	-8.45347
取	-8.45397
是否	-8.45517
市	-8.4591
保护	-8.46154
并不	-8.46234
岁	-8.46286
感到	-8.46301
非	-8.46553
不同	-8.46624
拥有	-8.46674
在一起	-8.46728
曾	-8.46816
是什么	-8.46858
调	-8.46866
恩	-8.4693
调查	-8.46963
我知道	-8.47102
也是	-8.47102
努力	-8.47202
语	-8.47257
意	-8.47341
影响	-8.4746
国际	-8.47982
期	-8.48047
事情	-8.48333
作为	-8.48364
学校	-8.48375
部	-8.48383
许多	-8.48657
皮	-8.48744
坐	-8.4877
c	-8.48922
公	-8.49331
怎么样	-8.49347
▁我是说	-8.49371
夫	-8.49498
就像	-8.49549
▁你想	-8.49569
军	-8.49713
下来	-8.49745
单	-8.50237
个人	-8.50309
工	-8.50577
普	-8.50637
理	-8.50778
19	-8.50887
林	-8.50964
好吧	-8.51055
信息	-8.51204
南	-8.51246
出现	-8.51458
方面	-8.51517
9	-8.51573
地方	-8.51712
▁你要	-8.51796
回家	-8.5182
有些	-8.51875
式	-8.51913
一个人	-8.51979
中心	-8.52084
基	-8.52119
不知道	-8.5221
迪	-8.52486
则	-8.52504
森	-8.52631
▁这	-8.52648
谢谢	-8.52701
那里	-8.52741
分析	-8.52846
改变	-8.52879
▁为了	-8.52933
▁不是	-8.53132
塔	-8.53962
员	-8.54125
为了	-8.54293
支持	-8.54308
城	-8.54509
强	-8.54656
来了	-8.54737
约	-8.54943
▁你的	-8.55191
死了	-8.55288
站	-8.55441
进入	-8.55517
有关	-8.55545
喝	-8.55654
黑	-8.55731
新的	-8.55998
此	-8.56107
呀	-8.56384
伤	-8.564
哈	-8.5665
一定	-8.56658
方法	-8.56714
边	-8.569
对于	-8.5725
啦	-8.57307
英国	-8.57311
地区	-8.57356
自由	-8.57573
报	-8.57662
图	-8.5767
在这	-8.57743
以前	-8.57777
投资	-8.57985
》	-8.58037
肯定	-8.58095
离	-8.58121
男人	-8.58392
定	-8.58588
错	-8.58599
提	-8.58678
眼	-8.58686
以后	-8.5876
担心	-8.58876
交易	-8.59005
▁今天	-8.59043
▁只是	-8.59095
有个	-8.5928
明	-8.59318
▁你在	-8.59339
远	-8.59452
反	-8.59831
上的	-8.60036
飞	-8.60196
深	-8.60355
▁当我	-8.60459
常	-8.60541
爸爸	-8.60599
有什么	-8.60643
可能会	-8.60713
整个	-8.60764
查	-8.60766
近	-8.60875
房	-8.60901
d	-8.61021
结果	-8.61044
总统	-8.61385
收	-8.61416
雷	-8.61536
红	-8.61656
表	-8.61689
制	-8.61699
跳	-8.61763
船	-8.61936
脚	-8.62008
”。	-8.62035
获得	-8.62125
报告	-8.62251
是在	-8.62339
嗯	-8.62377
▁嗨	-8.62407
感	-8.62515
种	-8.62638
十	-8.62638
曼	-8.62862
便	-8.62865
合	-8.62919
你会	-8.63023
来自	-8.63101
这样的	-8.63229
率	-8.63319
台	-8.63324
片	-8.63425
保持	-8.63569
卖	-8.63636
落	-8.63717
诺	-8.63769
次	-8.64194
帮	-8.64201
呃	-8.64635
包	-8.64956
▁现在	-8.65083
情况	-8.65448
业	-8.65524
所有的	-8.65677
波	-8.65834
让他	-8.65996
说话	-8.66197
欧洲	-8.66429
e	-8.66455
城市	-8.66643
家庭	-8.66645
星	-8.66697
听到	-8.66809
费	-8.66879
利用	-8.66904
人类	-8.66995
在这儿	-8.67085
是不是	-8.67097
王	-8.67308
的事情	-8.67461
五	-8.67771
解释	-8.67793
拍	-8.67895
维	-8.68315
一位	-8.68353
不想	-8.68466
那是	-8.68933
行动	-8.6899
g	-8.69051
每	-8.69166
半	-8.69364
给他	-8.69473
伙计	-8.69477
满	-8.69621
赛	-8.69671
一家	-8.69979
参加	-8.7001
她们	-8.70095
品	-8.70315
回去	-8.70421
▁如果我	-8.70529
一天	-8.70614
▁我有	-8.70626
张	-8.7082
令人	-8.71113
清	-8.71211
政治	-8.7123
洛	-8.71538
案	-8.71734
设计	-8.71756
奥	-8.7189
晚上	-8.71955
救	-8.72057
你知道	-8.72194
之间	-8.72198
东	-8.7223
大家	-8.72335
兰	-8.72383
画	-8.72609
至少	-8.72688
运动	-8.7279
联系	-8.72989
睡	-8.73187
节	-8.73233
停	-8.73351
对吧	-8.73482
真是	-8.73549
你要	-8.73729
项目	-8.73813
重新	-8.73864
鱼	-8.73978
成功	-8.74117
命	-8.74124
是的	-8.74188
当时	-8.74231
华	-8.74334
产品	-8.74365
好了	-8.74388
走了	-8.7446
直接	-8.74627
圣	-8.74646
照	-8.74737
解决	-8.74811
局	-8.74896
教育	-8.75103
才能	-8.75259
治疗	-8.75311
原	-8.75375
的问题	-8.75578
都会	-8.75611
不错	-8.75661
是我	-8.75679
商	-8.75696
考虑	-8.75727
关	-8.75755
平	-8.75849
怎样	-8.75933
▁就像	-8.76101
杀	-8.76136
之一	-8.76143
今晚	-8.76258
笑	-8.76441
奇	-8.76493
超	-8.76506
音乐	-8.76707
汽车	-8.7673
世	-8.76734
这次	-8.76824
▁我也	-8.76858
嘛	-8.77069
日本	-8.77202
传	-8.77464
确定	-8.77746
将会	-8.77747
看起来	-8.78129
文化	-8.78195
法律	-8.78246
比赛	-8.78434
明白	-8.78468
各	-8.78634
河	-8.78663
完	-8.78724
愿意	-8.7873
▁就	-8.78805
证明	-8.78906
店	-8.79004
兄弟	-8.79082
实	-8.79391
油	-8.79539
换	-8.79547
更多	-8.79621
留	-8.79709
机构	-8.79747
全球	-8.79817
:“	-8.79897
记	-8.7992
古	-8.80003
做的	-8.80118
•	-8.80221
色	-8.80274
如果你	-8.80312
身上	-8.80762
我也	-8.8088
t	-8.81067
检查	-8.81536
▁去	-8.81632
亲爱的	-8.81659
洗	-8.81686
班	-8.81716
受到	-8.81797
上帝	-8.81912
失	-8.81948
伊	-8.81989
游戏	-8.82015
层	-8.82024
顿	-8.82024
托	-8.82074
机会	-8.82076
学生	-8.82091
萨	-8.82142
同时	-8.8225
帮你	-8.8239
12	-8.82429
未	-8.82695
a	-8.82824
房间	-8.83087
最后	-8.83105
偷	-8.83208
健康	-8.8357
假	-8.83581
行为	-8.83675
结	-8.83703
这么做	-8.8373
乱	-8.83766
y	-8.83836
生产	-8.83882
环境	-8.8391
按	-8.83926
算	-8.83956
养	-8.83974
▁他是	-8.84025
增长	-8.84045
吉	-8.84152
似乎	-8.8417
▁快	-8.84235
勒	-8.84238
仍然	-8.84332
刚	-8.84341
待	-8.84469
言	-8.84538
部分	-8.84636
立	-8.84897
学习	-8.84957
票	-8.85137
告诉	-8.8518
排	-8.8522
搞	-8.85471
石	-8.85571
主要	-8.85603
下去	-8.85647
乐	-8.85719
让我们	-8.85731
认识	-8.85817
多少	-8.85898
存在	-8.86006
双	-8.8611
b	-8.86193
具有	-8.86441
读	-8.8651
根	-8.86511
少	-8.86574
进来	-8.86672
▁我们要	-8.867
代表	-8.86836
▁因为你	-8.86845
核	-8.86847
了一个	-8.86863
30	-8.86876
飞机	-8.87039
不了	-8.8714
靠	-8.87369
电影	-8.87557
脸	-8.87608
型	-8.87699
合作	-8.87767
完成	-8.8777
最近	-8.87782
建议	-8.87822
人员	-8.87834
指	-8.87952
一份	-8.87957
▁我去	-8.87958
▁但你	-8.88034
网络	-8.88092
新闻	-8.88196
重要	-8.88257
其中	-8.88266
▁我来	-8.88269
块	-8.8836
挺	-8.88499
好像	-8.88815
首	-8.88888
动物	-8.88936
方式	-8.88982
一场	-8.89098
科学	-8.89117
n	-8.89133
记录	-8.89231
把它	-8.89472
即	-8.89531
目前	-8.89591
确实	-8.8974
保证	-8.89776
室	-8.898
一条	-8.89868
冲	-8.8993
▁你能	-8.90212
肉	-8.90376
也会	-8.90418
解	-8.90423
尽	-8.90448
做了	-8.90703
推	-8.90816
把我	-8.91006
事件	-8.9107
美元	-8.913
是你	-8.91315
塞	-8.91321
莫	-8.91352
▁然而	-8.91375
价格	-8.91386
狗	-8.91534
经常	-8.91576
把他	-8.91576
牌	-8.91581
干嘛	-8.9165
切	-8.91854
差	-8.91889
/	-8.91985
坏	-8.9201
件	-8.92028
列	-8.9206
第一	-8.92082
我在	-8.9209
可是	-8.92187
女孩	-8.92238
马上	-8.92427
越	-8.92445
食	-8.92476
目标	-8.92494
在那里	-8.92693
对我	-8.92755
北	-8.92763
的时间	-8.92784
▁我不想	-8.92828
k	-8.92921
有一个	-8.9301
p	-8.93011
数据	-8.93054
任	-8.93067
一张	-8.93088
夜	-8.93167
战争	-8.93275
结束	-8.93341
货	-8.93681
论	-8.93875
价	-8.93952
弹	-8.93965
进去	-8.94041
▁他说	-8.94081
增加	-8.94394
草	-8.94518
很难	-8.94523
艾	-8.9501
字	-8.95028
伯	-8.95114
压	-8.95134
永远	-8.95318
组	-8.95366
曾经	-8.95505
词	-8.95565
类	-8.9559
来的	-8.95663
政策	-8.95671
自然	-8.95673
视	-8.95686
经	-8.95739
直	-8.95801
不可能	-8.9584
因此	-8.96108
毛	-8.96144
做什么	-8.96248
文件	-8.96293
投	-8.96298
▁他在	-8.96428
最终	-8.96664
忙	-8.96734
▁它们	-8.96796
以为	-8.96823
而已	-8.96861
其它	-8.96878
哪	-8.97028
死亡	-8.97107
麻烦	-8.97122
你可以	-8.97151
打算	-8.97166
级	-8.97189
求	-8.97198
几乎	-8.9722
怪	-8.97316
讨论	-8.97441
世纪	-8.97509
击	-8.97552
民	-8.97701
这儿	-8.97816
极	-8.97826
贝	-8.97855
显示	-8.97902
去了	-8.9794
承认	-8.97971
代	-8.98123
原因	-8.98144
部门	-8.98228
你是	-8.98332
▁像	-8.98334
▁我就	-8.98513
党	-8.98545
英里	-8.98586
瑞	-8.98681
▁等等	-8.98813
▁因此	-8.98861
岛	-8.99019
提高	-8.99047
女士	-8.99126
理解	-8.99402
▁抱歉	-8.99466
冰	-8.99607
能力	-8.99639
百	-8.99654
不行	-8.99746
害怕	-8.99749
形	-8.99946
f	-8.99954
嘿	-8.99966
儿子	-8.99991
几个	-9.00024
l	-9.0004
▁你觉得	-9.00064
仍	-9.00114
房子	-9.00156
网	-9.00239
板	-9.00256
标准	-9.00258
令	-9.00514
负责	-9.00521
座	-9.00547
的小	-9.00578
m	-9.00842
更加	-9.00854
变得	-9.00905
只能	-9.00969
索	-9.00978
会议	-9.00992
改	-9.00996
唱	-9.01043
值	-9.01071
回到	-9.01106
把你	-9.01156
还要	-9.01161
历史	-9.01196
树	-9.01286
免费	-9.01303
亲	-9.01432
15	-9.01553
士	-9.0166
一只	-9.01695
千	-9.01784
省	-9.0184
主义	-9.01847
女性	-9.01917
父母	-9.01947
沙	-9.01969
蒂	-9.02005
里面	-9.0206
然	-9.02127
清楚	-9.02133
产	-9.02173
只要	-9.02213
一项	-9.0222
失去	-9.02328
医院	-9.02358
还在	-9.02437
而不是	-9.02439
比较	-9.02768
▁我能	-9.02807
姆	-9.0287
跟你	-9.02899
另一个	-9.02936
八	-9.02955
试图	-9.02959
瓦	-9.03032
木	-9.0315
你就	-9.03181
商业	-9.03338
象	-9.03451
生命	-9.03466
办	-9.03478
步	-9.03694
不用	-9.03803
放在	-9.03914
痛	-9.04106
印度	-9.04112
六	-9.04259
职	-9.04335
质	-9.04438
第一次	-9.04479
我可以	-9.04627
一名	-9.04754
到底	-9.04865
▁你知道吗	-9.04866
律师	-9.04939
元	-9.04963
音	-9.05086
实现	-9.05091
法国	-9.05111
没错	-9.0516
i	-9.0533
也不	-9.05397
提出	-9.05485
威胁	-9.05668
错误	-9.05673
旧	-9.05687
抓	-9.057
断	-9.05731
衣服	-9.05738
看见	-9.05767
结婚	-9.05767
▁尽管	-9.05781
德国	-9.05909
修	-9.05926
游	-9.05996
还没	-9.06003
咖啡	-9.06397
约会	-9.06421
纸	-9.06518
电视	-9.06571
一年	-9.06606
同意	-9.06677
母亲	-9.06728
朝	-9.06753
的工作	-9.06778
刚刚	-9.06942
温	-9.0709
不好	-9.07147
性的	-9.07213
全部	-9.07248
兵	-9.07316
其他人	-9.07373
跟我	-9.07376
安排	-9.07387
宝贝	-9.07451
不断	-9.07477
价值	-9.07504
博	-9.07634
委员会	-9.07667
特别	-9.07709
舞	-9.07723
设备	-9.07944
▁再	-9.07952
明天	-9.08234
或许	-9.0824
伦	-9.08258
帮我	-9.08272
不再	-9.08308
▁他的	-9.08323
分钟	-9.0833
运	-9.08343
都有	-9.08588
资金	-9.08614
我不知道	-9.08791
最好	-9.08873
▁我不	-9.08906
盘	-9.09081
衣	-9.09175
界	-9.09259
re	-9.09331
丝	-9.09373
精	-9.09378
精神	-9.09431
福	-9.09487
刀	-9.09526
享受	-9.09591
各种	-9.09621
通常	-9.09746
付	-9.09748
好好	-9.09968
就能	-9.09993
证	-9.10117
▁一	-9.10145
腿	-9.10241
h	-9.10245
样	-9.10267
套	-9.10431
等等	-9.10494
超过	-9.10578
▁可	-9.10688
反对	-9.1069
客	-9.10719
脱	-9.10813
我能	-9.10915
招	-9.11063
办公室	-9.11102
报道	-9.11258
群	-9.1135
紧	-9.11482
顶	-9.11604
领	-9.11666
鬼	-9.11729
11	-9.11738
牛	-9.11767
谈谈	-9.11847
注意	-9.1188
你想	-9.11935
▁我刚	-9.11994
造	-9.12038
▁我不是	-9.12053
▁对于	-9.12061
变成	-9.12096
课	-9.12133
罪	-9.12137
微	-9.1214
冷	-9.12141
50	-9.12201
我觉得	-9.12218
的影响	-9.12241
让人	-9.12244
空间	-9.12323
父亲	-9.12403
▁或者	-9.12517
不到	-9.12551
戴	-9.12619
加入	-9.12642
轮	-9.12653
▁好了	-9.12691
借	-9.12726
莱	-9.12755
规定	-9.12782
师	-9.12801
孩子们	-9.12864
电脑	-9.12867
▁她的	-9.12881
灯	-9.12898
▁你说	-9.12938
占	-9.12958
丽	-9.12985
▁我知道你	-9.12993
毒	-9.13068
▁可是	-9.1322
是为了	-9.13222
归	-9.13398
都在	-9.13463
手机	-9.13508
水平	-9.13691
旅行	-9.13722
为你	-9.13768
带着	-9.13795
库	-9.13882
破	-9.14192
你在	-9.14233
会有	-9.14249
但我	-9.14272
剂	-9.14297
见过	-9.14326
快点	-9.14393
位于	-9.14555
犯	-9.14843
角	-9.1491
作用	-9.14945
你能	-9.14974
拒绝	-9.15094
小时	-9.15095
导致	-9.15096
藏	-9.15113
娜	-9.15122
做出	-9.15183
▁你好	-9.15184
▁我不能	-9.15232
料	-9.15271
存	-9.15291
小姐	-9.15404
客户	-9.15726
手术	-9.15731
是吗	-9.15796
任务	-9.15819
减少	-9.15944
骨	-9.15953
产生	-9.15957
莉	-9.15961
帮忙	-9.15996
艺术	-9.16202
第	-9.16288
建立	-9.16406
o	-9.16413
在哪	-9.16415
出了	-9.16493
伤害	-9.16508
收入	-9.16553
▁所以我	-9.16657
的生活	-9.16713
由于	-9.16745
登	-9.16759
斯特	-9.16807
突然	-9.16821
事实	-9.16822
是因为	-9.16839
威	-9.16864
▁我把	-9.16938
配	-9.16973
保	-9.17011
应用	-9.17058
传统	-9.17145
演	-9.17334
每个	-9.17486
业务	-9.1749
▁很好	-9.17521
服	-9.17527
▁当你	-9.1761
尽管	-9.1768
干什么	-9.17685
阻止	-9.17696
龙	-9.17736
建	-9.17779
▁我们会	-9.17784
一直在	-9.17799
专家	-9.1781
那种	-9.1788
试	-9.17901
集	-9.17975
对你	-9.18056
r	-9.18069
▁我已经	-9.18093
出口	-9.18103
雨	-9.18134
床	-9.18186
退	-9.1823
绝	-9.18293
人的	-9.18299
直到	-9.18366
带来	-9.18497
脑	-9.18507
税	-9.18546
集团	-9.18643
最大的	-9.18671
更多的	-9.18774
留下	-9.18789
我们要	-9.18881
消息	-9.18986
打开	-9.18994
夫人	-9.1905
不可	-9.19052
它的	-9.1907
开发	-9.19074
▁她说	-9.19196
计	-9.19337
广告	-9.19353
坚持	-9.19356
并没有	-9.19499
并不是	-9.19504
风险	-9.19538
▁今晚	-9.19578
让她	-9.19795
知	-9.19828
男	-9.19853
帕	-9.19868
▁我没	-9.19877
▁我们的	-9.19923
测试	-9.19924
人民	-9.1997
故事	-9.20085
十分	-9.20155
▁这些	-9.20176
杰	-9.20211
寻找	-9.20221
回答	-9.20293
武器	-9.20387
证据	-9.20434
表现	-9.20509
款	-9.20518
额	-9.20569
建筑	-9.20631
正常	-9.20663
现	-9.20861
媒体	-9.20866
细胞	-9.20947
一般	-9.20984
食物	-9.21032
再次	-9.21067
身体	-9.21121
长官	-9.21135
除	-9.21137
的新	-9.21235
菜	-9.21244
停止	-9.21272
投资者	-9.21274
允许	-9.21328
果	-9.2133
他是	-9.21339
有可能	-9.21387
的方式	-9.21445
灵	-9.21599
打电话	-9.21693
射	-9.21702
年轻	-9.21751
听着	-9.21769
危险	-9.21773
快乐	-9.21773
守	-9.2209
真正	-9.22107
就可以	-9.22133
汉	-9.22252
对不起	-9.22271
相关	-9.22434
私人	-9.22455
就要	-9.22676
▁但是我	-9.22711
纽约	-9.22851
关注	-9.22859
严重	-9.22916
用户	-9.22918
结构	-9.2296
时代	-9.23047
是吧	-9.23107
▁妈妈	-9.23129
思	-9.2314
底	-9.23293
异	-9.23298
短	-9.23431
制造	-9.23446
▁你不能	-9.23487
参与	-9.23497
翻	-9.23584
致	-9.23585
区域	-9.23624
且	-9.23681
生物	-9.23686
in	-9.23701
训练	-9.23816
迷	-9.23846
al	-9.23942
意义	-9.23954
和你	-9.23977
没什么	-9.23998
我只是	-9.2422
语言	-9.24227
放弃	-9.24234
▁你就	-9.24269
警	-9.2429
不管	-9.24305
不喜欢	-9.24425
危机	-9.24427
压力	-9.24485
改革	-9.24548
家人	-9.24594
对吗	-9.246
反应	-9.24652
愿	-9.24681
九	-9.24722
楼	-9.24751
功能	-9.24795
有很多	-9.24817
笔	-9.24835
三个	-9.24854
也有	-9.24858
▁有人	-9.24962
攻击	-9.24981
▁你应该	-9.24996
逃	-9.24997
黄	-9.25085
怎么了	-9.25202
茶	-9.25358
铁	-9.25411
面对	-9.25468
金融	-9.2557
供	-9.25662
照片	-9.25679
标	-9.25729
▁你看	-9.25734
和我	-9.25945
我没	-9.26052
够	-9.26096
俄罗斯	-9.26349
梅	-9.26369
可能是	-9.26419
造成	-9.26602
女儿	-9.26621
派对	-9.26623
母	-9.26646
资源	-9.26656
混蛋	-9.26679
大部分	-9.26722
那儿	-9.26735
希	-9.2674
紧张	-9.26768
在哪里	-9.268
苦	-9.26801
贸易	-9.26968
▁怎么	-9.27025
地球	-9.27048
这事	-9.27084
期间	-9.271
怀疑	-9.27102
销售	-9.27162
▁即使	-9.27316
不是吗	-9.27438
我们会	-9.27505
秘密	-9.27557
小孩	-9.27626
措施	-9.27639
▁所有	-9.27666
很快	-9.27686
湖	-9.27788
酸	-9.27815
餐厅	-9.27883
糖	-9.27945
后面	-9.28087
盖	-9.28137
真正的	-9.28162
杀了	-9.28269
w	-9.28282
宝	-9.28308
麦	-9.28351
协议	-9.28377
18	-9.2841
给她	-9.2845
不需要	-9.28495
经过	-9.28529
成员	-9.28533
想象	-9.28776
▁拜托	-9.28865
仅	-9.29039
今年	-9.29068
贵	-9.29115
上了	-9.29139
理论	-9.29147
兹	-9.29193
你们的	-9.2921
破坏	-9.29297
恢复	-9.29331
野	-9.29397
现代	-9.29489
程序	-9.29693
和他	-9.29732
酒吧	-9.29822
成本	-9.2984
聪明	-9.29918
玛	-9.29955
急	-9.29998
杯	-9.29999
劳	-9.30051
相当	-9.30122
执行	-9.30277
发现了	-9.3033
混	-9.30405
男孩	-9.30484
共	-9.30573
站在	-9.30619
他会	-9.30645
独立	-9.30674
云	-9.30795
未来	-9.30879
就在	-9.30922
尝试	-9.3106
奖	-9.31065
雪	-9.31112
根据	-9.31182
让他们	-9.31186
行业	-9.3121
我不	-9.31256
公园	-9.31272
虽然	-9.313
保险	-9.31365
街	-9.31368
整	-9.31371
变化	-9.31397
▁可能	-9.31417
去年	-9.3151
▁我喜欢	-9.31529
里的	-9.3158
家里	-9.31641
较	-9.31667
的孩子	-9.31686
坐在	-9.31695
有多	-9.31762
▁别担心	-9.31793
弗	-9.31808
院	-9.31851
表演	-9.31908
看着	-9.31914
鸟	-9.31948
因素	-9.32012
条件	-9.32036
蒙	-9.32104
不得不	-9.32148
周	-9.32148
素	-9.32191
公共	-9.32216
观察	-9.32315
的一个	-9.32346
几天	-9.32354
指出	-9.32441
若	-9.32469
梦	-9.32472
具	-9.32489
大多数	-9.32489
怕	-9.32503
晚	-9.32561
博士	-9.32567
le	-9.32579
这件事	-9.32671
▁所以你	-9.3289
▁或许	-9.33013
▁如果我们	-9.33038
宣布	-9.33054
找到了	-9.33161
过了	-9.33181
他在	-9.33212
意大利	-9.33224
达到	-9.33311
员工	-9.33349
现实	-9.33399
▁而	-9.33415
土	-9.33472
方向	-9.33484
势	-9.33501
症	-9.33506
▁在我	-9.33597
背	-9.33601
啥	-9.33637
儿童	-9.33652
数字	-9.33766
神经	-9.33784
忘了	-9.33852
状况	-9.33905
▁不管	-9.33943
比如	-9.34013
名字	-9.34034
模式	-9.34057
当地	-9.34165
噢	-9.34425
碰	-9.34444
目	-9.34458
网站	-9.34468
电子	-9.34613
烟	-9.34654
而言	-9.34706
头发	-9.34799
轻	-9.34908
▁据	-9.34956
份	-9.3498
时期	-9.34994
▁我没有	-9.35014
▁我认为	-9.35053
卷	-9.35078
说过	-9.35096
密	-9.35136
第二	-9.35257
到达	-9.35304
犯罪	-9.35332
影	-9.35434
住在	-9.35481
鸡	-9.35487
伦敦	-9.35635
A	-9.35807
足	-9.35886
散	-9.35907
我都	-9.35911
傻	-9.35929
▁你还	-9.35962
状态	-9.36083
印	-9.36126
暴	-9.36186
关心	-9.36212
或是	-9.36276
值得	-9.36277
端	-9.36293
约翰	-9.363
开车	-9.36361
史	-9.36387
歌	-9.36471
七	-9.36495
▁你不	-9.36581
军队	-9.36601
专	-9.36628
记得	-9.36677
购买	-9.36799
持续	-9.36883
鲁	-9.36915
资产	-9.36986
想到	-9.37008
人士	-9.37008
▁关于	-9.3702
制度	-9.37032
最好的	-9.37046
抽	-9.37075
▁以	-9.37165
赶	-9.3726
的原因	-9.37679
说明	-9.3772
告诉他	-9.37747
早餐	-9.37769
义	-9.37848
放松	-9.38014
专业	-9.38023
必	-9.38032
以来	-9.38051
赢	-9.38072
曲	-9.38087
我们就	-9.38102
咱们	-9.38194
其实	-9.38222
睡觉	-9.38255
官	-9.38332
竞争	-9.38404
不该	-9.38463
我们可以	-9.38477
不同的	-9.38597
居	-9.38627
私	-9.38632
申请	-9.38715
附近	-9.38841
另一	-9.38884
我不能	-9.38925
挑战	-9.3901
距离	-9.3907
穿着	-9.39137
an	-9.39257
▁当时	-9.39288
怀	-9.39313
嘴	-9.39574
我不会	-9.3958
节目	-9.39645
防	-9.39711
休息	-9.39791
降	-9.39793
工具	-9.39801
团	-9.39841
ar	-9.39869
教授	-9.39882
客人	-9.39911
支	-9.40005
害	-9.40024
不太	-9.40236
说的	-9.4027
拖	-9.403
抱歉	-9.40356
表明	-9.40376
领导	-9.40426
菲	-9.40454
响	-9.40572
官员	-9.40603
沉	-9.40656
什么时候	-9.40668
香港	-9.40727
味	-9.40753
一件	-9.40763
既	-9.40829
刺	-9.4089
去找	-9.41021
▁我以为	-9.41078
某些	-9.41118
采取	-9.41146
▁美国	-9.41191
早上	-9.41199
简单	-9.41223
这就是	-9.41279
基金	-9.41338
源	-9.41346
叶	-9.41431
拿到	-9.41559
限制	-9.416
哥	-9.41609
观	-9.41611
是啊	-9.41632
绝对	-9.41671
没事	-9.41731
追	-9.41733
鞋	-9.42001
▁喂	-9.42046
老师	-9.42083
望	-9.42228
我没有	-9.42235
袭击	-9.4225
再见	-9.42256
病人	-9.4228
副	-9.42331
程	-9.42384
成了	-9.42412
因为我	-9.42435
er	-9.42454
富	-9.42458
松	-9.42505
40	-9.42516
▁最后	-9.42556
那边	-9.42623
怎么办	-9.42694
之间的	-9.42705
搬	-9.42904
除了	-9.42912
每天	-9.42929
是一种	-9.42982
说什么	-9.42997
他妈的	-9.42999
欧	-9.43056
滑	-9.43146
上面	-9.43186
这么说	-9.4325
胜	-9.43286
高兴	-9.43305
属于	-9.43347
S	-9.43351
苏	-9.43364
架	-9.43452
减	-9.43476
▁距	-9.4348
简	-9.43499
校	-9.43579
选举	-9.4372
亚洲	-9.43722
要去	-9.43734
食品	-9.4391
易	-9.43968
撞	-9.43976
锁	-9.44053
没人	-9.44092
贷款	-9.44167
长期	-9.44188
讨厌	-9.44255
习惯	-9.44273
▁如果他	-9.44293
太阳	-9.44363
速	-9.4442
▁但他	-9.44505
埃	-9.4455
越来越	-9.4469
终于	-9.44716
我喜欢	-9.44724
大量	-9.4475
▁我说	-9.44817
载	-9.44884
我已经	-9.44941
在那儿	-9.45134
100	-9.45247
系	-9.45294
00	-9.45341
牙	-9.45359
任何人	-9.45403
细	-9.45474
容易	-9.45514
看到了	-9.45621
晚餐	-9.45633
领域	-9.45768
u	-9.45774
国内	-9.45849
亮	-9.45912
引	-9.45926
公司的	-9.45936
还能	-9.45973
敢	-9.45995
工业	-9.46043
一半	-9.46101
准	-9.46256
也没有	-9.46267
困难	-9.46364
用于	-9.46478
盛	-9.46629
奥巴马	-9.46641
程度	-9.46683
英语	-9.46711
佩	-9.46774
懂	-9.46856
看来	-9.46978
哭	-9.4703
的确	-9.47039
意识到	-9.47057
吸引	-9.47067
这样做	-9.47155
失败	-9.47156
我有	-9.47205
共同	-9.47252
承诺	-9.47256
一切都	-9.47325
移动	-9.47349
考	-9.47517
编	-9.47552
年代	-9.4766
还没有	-9.47698
▁只有	-9.4773
▁快点	-9.47916
香	-9.48008
介绍	-9.48034
营	-9.48081
洞	-9.48143
人口	-9.48147
增	-9.48198
自我	-9.4825
丁	-9.48277
欢迎	-9.48278
项	-9.48293
偏	-9.48322
机场	-9.48369
同样	-9.4839
客房	-9.48544
▁你现在	-9.48577
大概	-9.48585
太多	-9.48624
吹	-9.4864
随	-9.48711
我来	-9.48711
大约	-9.48713
下降	-9.48756
而是	-9.48803
实验	-9.48877
沃	-9.48882
佛	-9.48896
我得	-9.48899
顺	-9.49009
都没	-9.49021
下午	-9.4904
▁为	-9.49061
照顾	-9.49239
工程	-9.49287
都没有	-9.4933
下面	-9.49363
个月	-9.49371
来看	-9.49378
抗	-9.49385
力量	-9.49504
进一步	-9.49577
举	-9.49605
听见	-9.49605
那就	-9.49682
内容	-9.49709
寄	-9.4973
在哪儿	-9.49738
M	-9.4974
植物	-9.4992
猫	-9.49923
面前	-9.49933
恶	-9.49973
倍	-9.50001
北京	-9.50046
把她	-9.50073
有所	-9.50126
有没有	-9.50182
告	-9.50253
办法	-9.50309
你自己	-9.50333
狂	-9.50343
建设	-9.50438
爆炸	-9.50462
▁我很	-9.50465
收到	-9.50474
警告	-9.50481
苹果	-9.50529
一定会	-9.50566
来吧	-9.50581
答案	-9.50599
现场	-9.5062
ch	-9.50766
蛋	-9.50838
v	-9.50903
属	-9.50978
抢	-9.51004
赫	-9.51011
采用	-9.51058
意味着	-9.51083
禁	-9.51113
使得	-9.51115
▁作为	-9.51151
和其他	-9.51177
预	-9.51189
独	-9.51202
债务	-9.51337
记者	-9.5139
了吧	-9.51438
▁你认为	-9.51487
雅	-9.51504
漂亮	-9.51622
及其	-9.51648
出生	-9.51654
治	-9.51726
目的	-9.51818
均	-9.51837
形成	-9.51876
▁英里	-9.51885
团队	-9.51934
虫	-9.51949
的声音	-9.51955
的研究	-9.51978
挂	-9.52018
▁又	-9.52025
x	-9.52046
设施	-9.52079
通知	-9.52096
创造	-9.52126
和她	-9.52127
过程	-9.52185
这位	-9.52199
▁因为我们	-9.52272
确保	-9.52328
见到	-9.52358
我不想	-9.52397
负	-9.52482
耳	-9.52556
资本	-9.52567
稳定	-9.52834
垃圾	-9.52907
婚礼	-9.5294
▁怎么了	-9.52964
知识	-9.53039
责任	-9.531
开枪	-9.5312
施	-9.5318
在那	-9.53216
初	-9.53223
避免	-9.5335
降低	-9.53396
职业	-9.53434
看上去	-9.53445
的方法	-9.53448
联	-9.53493
要是	-9.53532
疯狂	-9.53566
恨	-9.53574
军事	-9.53592
西方	-9.53618
英	-9.53659
▁这个	-9.53671
的朋友	-9.53684
效果	-9.53696
都要	-9.53711
分子	-9.5374
暗	-9.538
墙	-9.5382
段	-9.53844
▁我叫	-9.53863
更好	-9.53879
投票	-9.53916
遇到	-9.53931
开心	-9.53964
呆	-9.54028
▁一些	-9.54096
痛苦	-9.54106
例	-9.54202
希腊	-9.54204
▁很	-9.54292
对他	-9.54303
情绪	-9.54323
st	-9.5434
老板	-9.54383
▁我只是	-9.54465
用来	-9.54599
▁是吗	-9.54949
内部	-9.55001
都不	-9.55103
我现在	-9.55128
不仅	-9.55163
▁实际上	-9.55193
基因	-9.55271
▁我想我	-9.55294
针对	-9.55334
接近	-9.55353
学院	-9.55536
▁“	-9.55587
你也	-9.55703
全国	-9.55791
慢	-9.55832
发表	-9.55849
C	-9.55883
开玩笑	-9.5589
版	-9.55943
箱	-9.55953
重要的	-9.5597
给我们	-9.56023
杂志	-9.56089
谢谢你	-9.56093
监狱	-9.56142
做过	-9.56158
0	-9.56236
信任	-9.5631
去吧	-9.56359
▁我只想	-9.5636
▁我需要	-9.56434
▁我觉得你	-9.56435
告诉她	-9.56625
周围	-9.5667
—	-9.56726
田	-9.56744
露	-9.5675
年前	-9.56759
▁我只	-9.56814
感谢	-9.56825
等着	-9.56846
软件	-9.56853
休	-9.56931
石油	-9.56956
亿美元	-9.56992
俱乐部	-9.57086
信号	-9.57086
是我的	-9.57219
or	-9.57224
法官	-9.57267
关键	-9.57278
实施	-9.57361
错了	-9.57511
探	-9.57519
之中	-9.57559
形式	-9.57594
摆	-9.57617
银	-9.5762
ro	-9.57631
16	-9.57701
升	-9.57939
发布	-9.57963
族	-9.58016
公开	-9.5803
烦	-9.58076
镇	-9.58125
有效	-9.58209
历	-9.5822
粉	-9.58306
一定要	-9.58416
李	-9.58479
境	-9.58564
抱	-9.58568
签	-9.58682
24	-9.58766
我是说	-9.58784
华盛顿	-9.58788
满足	-9.58831
▁一旦	-9.58885
质量	-9.58899
z	-9.58981
▁孩子	-9.58994
念	-9.59065
眼睛	-9.59075
医疗	-9.59077
跟他	-9.59096
像个	-9.591
您的	-9.59126
抓住	-9.59148
需求	-9.59166
邀请	-9.59197
针	-9.59286
刺激	-9.59321
泰	-9.59364
才是	-9.59386
en	-9.59466
觉	-9.59479
也没	-9.59494
肯	-9.59545
支付	-9.59582
也可以	-9.59642
烧	-9.59655
准备好	-9.59748
餐	-9.59751
亿	-9.59792
猪	-9.59802
他们会	-9.59809
凶手	-9.5993
戏	-9.59961
疾病	-9.60036
章	-9.60111
一边	-9.6012
经验	-9.6017
的钱	-9.60171
一块	-9.60186
的感觉	-9.60261
的国家	-9.60264
完美	-9.60273
谋杀	-9.60314
年的	-9.60336
财政	-9.6034
工厂	-9.60342
时候	-9.60403
一会儿	-9.60406
第一个	-9.60428
的名字	-9.60512
能源	-9.60517
股	-9.6054
圆	-9.60591
▁希望	-9.60676
冒	-9.60678
应当	-9.60728
蓝	-9.60739
不得	-9.60747
太太	-9.60799
快速	-9.60826
经营	-9.60829
啤酒	-9.60833
依然	-9.60837
的女人	-9.60863
聚	-9.60877
很有	-9.60916
▁那	-9.60967
'	-9.60988
乔	-9.60992
剧	-9.61048
适合	-9.61063
▁每	-9.61094
贴	-9.61114
差不多	-9.61207
我们都	-9.61238
美国人	-9.61266
碎	-9.61297
吸	-9.61355
的情况	-9.61388
完了	-9.61397
法庭	-9.61403
费用	-9.61524
耶	-9.61544
我很	-9.61546
并非	-9.61553
厂	-9.61601
月份	-9.61633
尸体	-9.61742
墨西哥	-9.61835
教堂	-9.61923
状	-9.61927
羊	-9.61984
复	-9.62027
范围	-9.62058
这么多	-9.62135
面临	-9.6218
所有人	-9.62235
棒	-9.62359
损失	-9.62371
拜托	-9.62431
这不是	-9.62438
▁虽然	-9.62602
消费者	-9.6263
的机会	-9.6266
体系	-9.6271
环	-9.62754
备	-9.62804
逼	-9.62832
受害者	-9.6284
思想	-9.62842
25	-9.63015
注	-9.63032
▁我们得	-9.63042
大型	-9.63143
▁我们在	-9.6322
▁天啊	-9.6334
这项	-9.6334
想知道	-9.6339
描述	-9.63416
不够	-9.63418
展示	-9.635
圈	-9.63522
经历	-9.63534
对此	-9.63538
的故事	-9.63584
股票	-9.63596
忘记	-9.63608
青	-9.6363
▁想	-9.63657
实际上	-9.63712
呼吸	-9.63719
——	-9.63739
即使	-9.6375
表达	-9.63842
饭	-9.639
▁你不会	-9.63934
毒品	-9.63991
开放	-9.64014
ra	-9.64026
难以	-9.64106
久	-9.64113
▁不会	-9.64136
液	-9.64215
和平	-9.6425
药物	-9.64341
凡	-9.64344
外面	-9.64354
▁孩子们	-9.64467
还会	-9.64475
结束了	-9.64508
的想法	-9.646
▁这是	-9.64636
迅速	-9.64659
规则	-9.6466
幸福	-9.64736
末	-9.64744
安静	-9.64759
撒谎	-9.6477
正式	-9.64838
午餐	-9.64892
生气	-9.64956
胡	-9.65011
硬	-9.65024
--	-9.65036
在我	-9.65126
过程中	-9.65143
▁由于	-9.65158
看过	-9.65164
课程	-9.65188
根本	-9.65227
▁咱们	-9.65335
60	-9.65362
充满	-9.65364
昨天	-9.65462
策略	-9.65519
实际	-9.65534
▁就在	-9.65546
联邦	-9.65576
民主	-9.65589
干的	-9.65589
持	-9.65632
▁告诉我	-9.65647
礼	-9.65696
工人	-9.657
也不会	-9.65738
不在	-9.65758
心理	-9.65779
▁好啊	-9.65906
录	-9.65914
臭	-9.65973
宽	-9.65995
合同	-9.66014
后来	-9.66069
▁接下来	-9.66101
复杂	-9.66116
什	-9.6613
礼物	-9.66201
科技	-9.66231
身边	-9.66241
有着	-9.66243
以色列	-9.6627
位置	-9.66311
著	-9.66335
声音	-9.66362
▁但我们	-9.66383
杀人	-9.66405
从未	-9.66422
进行了	-9.66431
我去	-9.66479
就这样	-9.66505
最高	-9.6651
扎	-9.66551
自杀	-9.6658
基本	-9.6663
那时	-9.66706
▁太	-9.66724
意外	-9.6679
多久	-9.66839
他说	-9.66944
有时	-9.66949
▁你不是	-9.66972
说你	-9.67001
▁先	-9.67007
经理	-9.67036
处于	-9.67163
妻子	-9.67178
想法	-9.67193
小心	-9.67212
的行为	-9.67261
人物	-9.67303
我自己	-9.67415
甲	-9.67532
资料	-9.67538
货币	-9.67573
展	-9.67617
方案	-9.67658
▁好像	-9.67661
小子	-9.67755
息	-9.67759
何	-9.67845
上升	-9.67929
财	-9.67945
善	-9.67967
插	-9.67985
物质	-9.67987
妮	-9.68041
见面	-9.68048
这一切	-9.68154
第三	-9.68216
▁我们都	-9.68239
问你	-9.68254
▁但是你	-9.68258
护	-9.68322
权力	-9.68342
旅游	-9.68375
交通	-9.68384
非洲	-9.68509
哪里	-9.68612
另外	-9.68707
昨晚	-9.6872
道歉	-9.68748
霍	-9.68749
回来了	-9.68763
英雄	-9.6879
堂	-9.68886
▁无论	-9.69093
▁会	-9.69121
航	-9.69206
累	-9.69221
提到	-9.69226
惹	-9.69363
暴力	-9.69414
疯了	-9.69423
唯一	-9.69434
瓶	-9.69552
淡	-9.69557
刑	-9.69579
来这里	-9.69675
公寓	-9.69726
17	-9.6973
联盟	-9.69761
众	-9.69804
这一点	-9.69825
没法	-9.69839
足够	-9.69851
▁先生	-9.69895
14	-9.69925
注意到	-9.7001
缺	-9.70033
搭	-9.70094
▁她们	-9.70109
的样子	-9.70204
▁明天	-9.70269
面包	-9.70378
找个	-9.70391
杀死	-9.70423
的儿子	-9.70485
围	-9.70503
命令	-9.70513
於	-9.70525
大家都	-9.70543
试着	-9.70565
预测	-9.70601
某	-9.70619
小组	-9.7063
划	-9.7069
真相	-9.70839
克斯	-9.7088
权利	-9.70905
失望	-9.70937
la	-9.70985
▁同时	-9.71018
没有人	-9.71074
发出	-9.71149
农	-9.71318
友	-9.71319
消	-9.71392
科学家	-9.71403
实验室	-9.71414
敌	-9.7142
几年	-9.71433
出发	-9.71433
中间	-9.71521
年轻人	-9.71525
吃了	-9.71546
说了	-9.71593
屁股	-9.7165
恐惧	-9.71651
配有	-9.71681
走吧	-9.71799
联合	-9.718
哪儿	-9.7181
相信我	-9.71837
你得	-9.71896
穿过	-9.71995
租	-9.72002
很少	-9.72033
了个	-9.72059
丹	-9.72084
国王	-9.72087
明显	-9.72166
术	-9.72177
喜	-9.72252
发生了	-9.72253
就不会	-9.72374
熟	-9.72444
零	-9.72462
兴	-9.72463
获	-9.7249
确认	-9.72512
告诉我们	-9.7252
政	-9.72563
左	-9.72588
感染	-9.72604
如果我	-9.72629
跳舞	-9.72662
材料	-9.72667
债券	-9.72703
检	-9.72746
消失	-9.72751
销	-9.72802
烂	-9.72853
杰克	-9.72868
你说	-9.72875
相比	-9.72894
桥	-9.7292
消费	-9.72986
的男人	-9.73
学会	-9.73003
每个人都	-9.73065
战略	-9.73066
欠	-9.73113
务	-9.73115
他就	-9.73233
周末	-9.73241
园	-9.7326
宗教	-9.73282
绿	-9.73287
厚	-9.73316
朝鲜	-9.73355
积极	-9.73396
思考	-9.73472
▁一个	-9.73589
欧盟	-9.73598
杂	-9.73698
▁你们两个	-9.73775
彼此	-9.73827
怎么会	-9.73829
妈	-9.73845
刚才	-9.73928
试验	-9.73947
奇怪	-9.74036
几个月	-9.74044
病毒	-9.74056
取得	-9.74114
敬	-9.74127
商店	-9.74186
徒	-9.74191
父	-9.74197
交给	-9.74232
禁止	-9.74239
公众	-9.74274
菌	-9.74333
理由	-9.74374
据	-9.74476
生意	-9.74572
西班牙	-9.74611
风格	-9.74646
撒	-9.74649
动作	-9.74654
按照	-9.74659
没问题	-9.74696
在于	-9.74697
矿	-9.74722
容	-9.74749
斗	-9.74821
给他们	-9.74833
计算	-9.74944
嗨	-9.74959
患	-9.75142
软	-9.75155
吃饭	-9.75206
竞选	-9.7521
现象	-9.75218
首先	-9.75248
冷静	-9.75257
掉了	-9.75307
D	-9.75325
干净	-9.7537
为什么要	-9.75386
警方	-9.75483
▁上帝	-9.7549
基于	-9.75591
随着	-9.75633
从而	-9.75643
举行	-9.75683
创	-9.75716
巨大的	-9.75721
阶段	-9.75776
!-	-9.75812
齐	-9.75828
的一切	-9.75829
婚	-9.75868
互联网	-9.75927
弱	-9.75976
真实	-9.76002
一辆	-9.76012
封	-9.76031
▁恩	-9.7604
为我	-9.76041
吐	-9.76131
批评	-9.76195
品牌	-9.76209
在中国	-9.76237
的关系	-9.76238
能量	-9.76257
你有	-9.76346
领导人	-9.76391
规模	-9.76451
▁我真的	-9.76458
现金	-9.76478
我还	-9.76539
行驶	-9.76653
常常	-9.76675
闹	-9.76685
出来的	-9.76708
进展	-9.76754
▁另外	-9.76783
▁别这样	-9.76787
右	-9.76804
的大	-9.76838
制作	-9.76897
住了	-9.76908
道德	-9.76948
不应该	-9.76953
得很	-9.76959
呼	-9.76967
只会	-9.77062
为何	-9.7715
宇宙	-9.77198
依	-9.77265
去看	-9.77293
你不能	-9.77296
▁我的意思是	-9.77304
的一部分	-9.7733
某种	-9.7736
伊朗	-9.77368
▁喔	-9.77393
拿着	-9.77413
侧	-9.7742
▁你没	-9.77538
家族	-9.77596
空气	-9.776
知道你	-9.7762
很大	-9.77633
默	-9.77804
谷歌	-9.77873
乳	-9.77877
说他	-9.77885
去做	-9.77927
自动	-9.78002
演员	-9.78006
速度	-9.78055
婴儿	-9.78055
报纸	-9.78079
胸	-9.78091
到处	-9.78238
化学	-9.78263
丢	-9.78316
正是	-9.78344
泡	-9.78412
高级	-9.78443
买了	-9.78485
▁你真	-9.78489
移	-9.78503
▁我们是	-9.7851
收购	-9.78588
P	-9.78672
洋	-9.78699
旁边	-9.78705
欲	-9.78714
意见	-9.78717
女朋友	-9.78726
原则	-9.78733
朗	-9.78735
那天	-9.78803
接触	-9.78833
失去了	-9.78851
创新	-9.78853
超级	-9.78983
杜	-9.78994
士兵	-9.79004
土地	-9.7902
丈夫	-9.79032
线索	-9.79187
得到了	-9.79194
找不到	-9.79237
▁伙计	-9.79253
一段	-9.7927
对方	-9.7933
主席	-9.79377
也不是	-9.79379
妇女	-9.79435
姑娘	-9.79447
台湾	-9.79456
康	-9.79542
一周	-9.79546
扔	-9.79548
卢	-9.79599
尾	-9.79761
重大	-9.7979
我不是	-9.79806
限	-9.79815
替	-9.79827
钥匙	-9.80019
毫无	-9.80104
滚	-9.80138
▁当我们	-9.80147
忘	-9.80224
行政	-9.80255
套房	-9.80263
折	-9.80314
擦	-9.80362
往往	-9.80409
平均	-9.80451
熊	-9.80506
模型	-9.80522
吓	-9.80544
广	-9.80544
离婚	-9.80584
战斗	-9.80609
这边	-9.80675
秒	-9.80736
哪个	-9.8075
▁我们需要	-9.80868
▁因为她	-9.80871
馆	-9.80903
诗	-9.80904
麦克	-9.80905
人生	-9.80948
因为你	-9.80949
世界上	-9.8095
岁的	-9.80955
冲突	-9.81005
▁根据	-9.81034
什么都	-9.81086
开了	-9.81097
炸弹	-9.81099
机器	-9.81151
告诉他们	-9.81167
设	-9.81212
乘	-9.81244
外国	-9.81315
屋	-9.81441
旁	-9.8147
你还	-9.81493
调整	-9.81509
骑	-9.81516
长大	-9.81548
余	-9.81598
部队	-9.81614
把他们	-9.81676
的那个	-9.81716
引起	-9.81727
村	-9.81751
评论	-9.81821
国会	-9.8187
罗马	-9.81881
你不	-9.81983
13	-9.81987
户	-9.81994
即将	-9.82065
凯	-9.821
否则	-9.82178
很棒	-9.82195
喂	-9.822
彻底	-9.82244
置	-9.82296
更好的	-9.82313
免	-9.82316
等待	-9.82352
打击	-9.82451
仅仅	-9.8246
居民	-9.82483
患者	-9.82492
▁与	-9.82525
普通	-9.82569
些什么	-9.82586
赚	-9.82611
咬	-9.82636
会被	-9.82646
莎	-9.82801
来到	-9.82817
B	-9.82852
叫我	-9.82874
幕	-9.829
地点	-9.82925
输	-9.8294
那么多	-9.82965
缺乏	-9.82971
教学	-9.83094
▁你真的	-9.83101
花了	-9.83141
页	-9.83156
分享	-9.83167
革命	-9.83193
同性恋	-9.8322
天气	-9.83246
景	-9.83279
把这	-9.83339
韩国	-9.8334
立刻	-9.83368
肠	-9.8338
瑟	-9.83432
是真的	-9.83434
我们在	-9.83472
试试	-9.83474
答应	-9.83533
导	-9.83544
产业	-9.83578
胶	-9.83622
兴奋	-9.83625
骗	-9.83672
期待	-9.83689
▁每次	-9.83695
爬	-9.8372
不像	-9.83731
连接	-9.83735
庆祝	-9.83745
尊重	-9.83754
江	-9.83842
别的	-9.83854
吻	-9.83896
这场	-9.84095
示	-9.842
冒险	-9.84218
膜	-9.84229
▁这种	-9.84254
扣	-9.84288
胜利	-9.84295
把这个	-9.84316
赢得	-9.84344
..	-9.84347
细节	-9.84353
投入	-9.84369
在一个	-9.84484
能不能	-9.84575
事故	-9.84609
你应该	-9.84636
了他	-9.84684
炸	-9.84693
尤	-9.84753
–	-9.84771
港	-9.84798
踢	-9.84805
li	-9.84915
留在	-9.84929
谈判	-9.84971
刻	-9.84994
利润	-9.85018
随便	-9.85022
寻求	-9.85074
视频	-9.85277
的照片	-9.85295
毁了	-9.85313
中国的	-9.85345
靠近	-9.85349
500	-9.85378
爱情	-9.85426
博物馆	-9.85522
含	-9.85531
计算机	-9.85535
ri	-9.85572
E	-9.85591
供应	-9.85709
止	-9.85719
县	-9.85745
利益	-9.85812
像是	-9.85863
夏	-9.85883
社	-9.85896
左右	-9.85912
很重要	-9.85942
社区	-9.86017
跟踪	-9.86053
80	-9.86094
残	-9.86135
似的	-9.86158
数量	-9.86158
探讨	-9.86172
参	-9.86199
▁准备	-9.86277
一群	-9.86365
中央	-9.86372
假设	-9.86396
一致	-9.86425
法院	-9.86432
很高兴	-9.86463
老婆	-9.8647
某个	-9.86472
不久	-9.86497
就这么	-9.86524
的父亲	-9.86558
医	-9.8656
记住	-9.86642
两次	-9.86775
搞定	-9.86813
基础	-9.86823
上海	-9.86902
作出	-9.86902
仔细	-9.86912
谈话	-9.86933
透	-9.8694
是他	-9.86968
操	-9.86991
牢	-9.87011
本身	-9.87031
醉	-9.87068
天啊	-9.87129
更为	-9.87156
商品	-9.87176
公里	-9.87242
之外	-9.87255
联合国	-9.87258
袋	-9.87278
窗	-9.87302
方便	-9.8731
的主要	-9.87361
火车	-9.8737
的家伙	-9.87371
具体	-9.87467
心里	-9.87485
向你	-9.87533
那就是	-9.87612
▁有时候	-9.87637
身份	-9.87655
闭嘴	-9.87663
醒	-9.87667
on	-9.87689
对待	-9.87697
释放	-9.87755
案子	-9.87772
正确	-9.87782
上去	-9.87893
高中	-9.87928
愤怒	-9.87932
▁他是个	-9.88032
愉快	-9.8804
她会	-9.88069
年龄	-9.88161
单独	-9.88178
是这样	-9.88198
扬	-9.88295
显	-9.88321
宫	-9.88346
估计	-9.88369
▁天哪	-9.88373
谷	-9.88395
才会	-9.88416
赌	-9.88425
喝酒	-9.8846
两年	-9.88501
该死的	-9.88527
一旦	-9.886
原来	-9.88614
这些人	-9.88617
大脑	-9.88636
ma	-9.88661
请求	-9.88739
关闭	-9.88774
该公司	-9.888
优势	-9.88801
喷	-9.88809
猜	-9.8883
加拿大	-9.88847
唯一的	-9.88922
意识	-9.8893
▁我们可以	-9.88963
▁我看	-9.89031
特殊	-9.89172
功	-9.89187
谋	-9.89242
广泛	-9.89257
挑	-9.8926
隆	-9.89266
活着	-9.89273
秀	-9.89305
哥哥	-9.89351
积	-9.89429
得多	-9.8943
触	-9.89437
预算	-9.89457
激动	-9.89462
灰	-9.89469
情报	-9.89481
污染	-9.89489
一系列	-9.89515
▁离	-9.8954
资	-9.89589
桑	-9.8959
全世界	-9.89637
▁请	-9.89683
议	-9.89685
烤	-9.89708
不知	-9.89721
移民	-9.8982
谢	-9.89833
el	-9.8989
炎	-9.8991
喊	-9.89951
颜色	-9.89956
▁当然了	-9.89979
放下	-9.89981
森林	-9.89994
评估	-9.90004
聊	-9.90042
我们是	-9.90062
恐怖	-9.90064
体验	-9.90073
但他	-9.90214
早就	-9.90304
阵	-9.90362
▁把他	-9.90399
幸运	-9.90406
特征	-9.90436
ce	-9.90459
de	-9.90493
男性	-9.90498
在美国	-9.90506
满意	-9.90566
找出	-9.90575
稳	-9.90587
阴	-9.90604
平衡	-9.90643
▁现在你	-9.90666
干吗	-9.9068
拔	-9.90687
工资	-9.9069
维持	-9.90698
▁所以我们	-9.90765
埋	-9.90791
不介意	-9.90891
▁我们有	-9.90909
的所有	-9.9091
怒	-9.90918
自身	-9.90943
四个	-9.90954
如今	-9.90958
认	-9.90962
慢慢	-9.90968
▁但这	-9.91012
相互	-9.91035
▁我从	-9.91049
根本不	-9.91165
▁做	-9.91169
承	-9.91177
附	-9.91189
狼	-9.91193
改善	-9.9125
戈	-9.91374
伴	-9.91392
访问	-9.91402
怎么说	-9.91405
事业	-9.9144
我们得	-9.91457
茨	-9.91474
▁随着	-9.91586
角色	-9.91594
手段	-9.91598
类似	-9.91619
谈论	-9.91662
季	-9.91676
抱怨	-9.91687
闻	-9.91745
一步	-9.91756
监管	-9.91777
▁因为他	-9.91825
运行	-9.91835
相对	-9.91872
▁你必须	-9.91893
卫	-9.91932
的发展	-9.91947
2010	-9.91957
不明白	-9.92026
监视	-9.92038
以上	-9.9205
作品	-9.92056
神秘	-9.9207
事实上	-9.92082
横	-9.92085
爱你	-9.92125
接到	-9.92136
拜	-9.92143
地址	-9.92163
厨房	-9.92177
带走	-9.92232
出现在	-9.923
一片	-9.9234
静	-9.92361
孔	-9.92403
道路	-9.92414
订	-9.92415
都能	-9.92425
▁我们已经	-9.92441
钟	-9.92537
安装	-9.92559
官方	-9.92605
遗憾	-9.92654
湿	-9.92683
哥们	-9.9271
感兴趣	-9.92735
na	-9.92743
是由	-9.92769
挖	-9.92781
在你	-9.92801
前面	-9.92844
盐	-9.92856
提供了	-9.92869
▁如果你想	-9.92942
她是	-9.92947
毕业	-9.92968
鼓励	-9.92985
脏	-9.93043
白痴	-9.93066
出售	-9.9307
只是个	-9.93095
梦想	-9.93114
利率	-9.93179
合法	-9.93189
这家	-9.93191
浪费	-9.9324
沿	-9.93263
看了	-9.9332
老爸	-9.93323
▁不好意思	-9.93332
不去	-9.93395
俩	-9.9342
例如	-9.93424
得了	-9.93426
陈	-9.93444
很容易	-9.93466
推动	-9.93478
飞行	-9.93497
日子	-9.93529
惊	-9.93554
凭	-9.93558
司机	-9.9362
对象	-9.93648
镜	-9.93657
伊拉克	-9.93696
感情	-9.9372
指控	-9.93729
你怎么	-9.93787
适应	-9.93836
鼠	-9.93837
假装	-9.93872
观众	-9.93898
准备好了	-9.93961
▁有时	-9.93979
了很多	-9.94042
冰箱	-9.94078
终	-9.9417
他们在	-9.94189
对她	-9.94196
有机会	-9.94254
太好了	-9.94262
家伙	-9.94284
拯救	-9.94341
摸	-9.94372
当你	-9.94377
流行	-9.94407
阿富汗	-9.94416
在他	-9.9452
太空	-9.94563
再来	-9.94578
案件	-9.9463
聚会	-9.94636
卡车	-9.94636
每年	-9.9473
幅	-9.9482
在这个	-9.9483
是你的	-9.9488
特别是	-9.94892
当我	-9.94925
财富	-9.94935
酷	-9.94935
操作	-9.95022
看到你	-9.95032
抛	-9.95069
婚姻	-9.95102
预计	-9.95115
皮肤	-9.95126
结合	-9.95145
2008	-9.95195
隐	-9.95249
打扰	-9.95297
生存	-9.9532
ta	-9.95341
的信息	-9.95363
▁为什么不	-9.95483
承担	-9.95578
猎	-9.95588
显然	-9.95593
说我	-9.95656
符合	-9.95665
乌	-9.95695
掌握	-9.957
离开了	-9.957
智	-9.9574
背景	-9.95744
井	-9.95791
70	-9.95819
受伤	-9.95866
小说	-9.9588
▁该	-9.9588
甘	-9.95943
一会	-9.95947
什么事	-9.9597
艺	-9.96001
搜索	-9.96061
▁去年	-9.96136
紧急	-9.96147
我需要	-9.96156
扫	-9.96156
一杯	-9.96235
岸	-9.96247
▁我刚刚	-9.96256
明确	-9.96297
豆	-9.96362
▁我们现在	-9.96398
没关系	-9.96399
坏了	-9.96413
▁中国	-9.96445
严	-9.9645
ing	-9.96514
交流	-9.96551
不必	-9.96604
▁我应该	-9.96614
的车	-9.96622
▁小	-9.96634
演出	-9.96638
停车	-9.96641
记忆	-9.96663
知道我	-9.96668
▁我觉得我	-9.96766
制定	-9.96789
子弹	-9.96844
包含	-9.96852
▁新	-9.96859
方面的	-9.96867
究竟	-9.96877
补	-9.96878
发生的	-9.96882
大卫	-9.96943
扯	-9.96965
从来没有	-9.97076
上班	-9.9709
认真	-9.97098
剪	-9.97109
肥	-9.97155
T	-9.97179
埃及	-9.97196
男朋友	-9.97202
的经济	-9.97263
穆	-9.97263
一件事	-9.9728
胆	-9.97288
有趣	-9.97341
se	-9.97367
顾客	-9.97396
明星	-9.97412
一座	-9.97486
卫星	-9.97488
难道	-9.97492
除非	-9.9752
体育	-9.97526
掌	-9.97622
出来了	-9.97668
多数	-9.97668
摇	-9.97702
的情况下	-9.97716
▁后来	-9.97753
句	-9.97768
的计划	-9.97821
彩	-9.97839
天哪	-9.97841
协会	-9.97873
的能力	-9.97884
一把	-9.97895
会在	-9.97915
助	-9.97927
▁尤其是	-9.97959
▁对不起	-9.98035
巴西	-9.98038
名单	-9.98071
需	-9.98112
舍	-9.98142
被人	-9.98185
薄	-9.98246
时刻	-9.98264
浮	-9.98326
理想	-9.98346
态	-9.98369
有时候	-9.98412
要做	-9.98429
▁你只是	-9.98434
炮	-9.98464
另	-9.98491
宁	-9.98507
拆	-9.98548
一定是	-9.98571
赖	-9.98598
做个	-9.98624
你觉得	-9.98638
老兄	-9.98673
双方	-9.98676
许	-9.98693
最大	-9.98699
it	-9.9876
恶心	-9.98772
拍摄	-9.9879
▁我想要	-9.98793
▁结果	-9.98801
蛋糕	-9.98879
汤	-9.98964
玻璃	-9.99011
不然	-9.99045
金属	-9.99052
摩	-9.99082
最重要的	-9.99093
佳	-9.99108
也在	-9.99134
加强	-9.99193
无论	-9.9921
随时	-9.99224
你好	-9.99243
糟	-9.99243
乔治	-9.99268
澳大利亚	-9.99306
▁我听说	-9.99409
闲	-9.99442
了我的	-9.99453
▁我对	-9.99456
我们能	-9.99516
对付	-9.99538
心脏	-9.99563
▁好啦	-9.99579
两位	-9.99604
把自己	-9.99604
跟着	-9.99626
200	-9.99718
批准	-9.99749
扩大	-9.99778
▁太好了	-9.99789
普遍	-9.99876
测	-9.99887
声明	-9.99898
上床	-9.9992
同样的	-9.99954
教练	-9.99966
说服	-9.99971
知道吗	-9.99975
下一个	-9.99981
▁每天	-10.0013
篇	-10.0014
表面	-10.0014
你知道吗	-10.0019
惨	-10.0027
爆	-10.0035
简直	-10.0037
不安	-10.0039
的位置	-10.005
民族	-10.0053
G	-10.0053
多了	-10.0061
牺牲	-10.0065
实在	-10.0066
所以我	-10.0066
提醒	-10.0067
账	-10.0072
邻居	-10.0074
声称	-10.0079
立即	-10.0089
春	-10.0091
赢了	-10.0091
知道了	-10.0102
差点	-10.0102
地位	-10.0105
是怎么	-10.0105
斯坦	-10.0111
陷入	-10.0118
▁已经	-10.0118
观点	-10.0123
给了	-10.0126
在家	-10.0134
磨	-10.0134
它是	-10.014
我说	-10.014
早期	-10.0141
▁我可不想	-10.0143
准确	-10.0144
辛	-10.0147
医学	-10.0154
问我	-10.0155
给你们	-10.0157
题	-10.016
坦	-10.0162
农业	-10.0166
缓	-10.0174
将在	-10.0178
促进	-10.0179
宗	-10.018
公布	-10.0184
检测	-10.0184
建造	-10.0185
要么	-10.0188
售	-10.0189
暂时	-10.019
判断	-10.019
你现在	-10.0191
N	-10.0191
进了	-10.0192
蠢	-10.0193
单位	-10.0198
也能	-10.02
杆	-10.0201
吵	-10.0213
南部	-10.0213
韦	-10.0214
疼	-10.0222
▁本文	-10.0224
魔	-10.0227
现在就	-10.0229
不敢	-10.0231
糟糕	-10.0233
主意	-10.0236
答	-10.0238
不清楚	-10.0242
宾	-10.0242
的衣服	-10.0242
竟然	-10.0243
▁很抱歉	-10.0248
伙计们	-10.0251
co	-10.0253
听说	-10.0255
好处	-10.0257
尚	-10.0259
演讲	-10.026
败	-10.0263
辆	-10.0264
躲	-10.0274
一套	-10.0279
▁你已经	-10.0282
主题	-10.0283
想想	-10.0284
耶稣	-10.0291
饼	-10.0291
▁突然	-10.0294
挤	-10.0299
纯	-10.0299
▁他们是	-10.0301
巴黎	-10.0302
怎么做	-10.0303
巨大	-10.0305
效	-10.0306
给予	-10.031
为此	-10.031
海洋	-10.0312
全都	-10.0321
的眼睛	-10.0323
拼	-10.033
不一样	-10.0335
▁唯一	-10.0338
不懂	-10.0339
说的是	-10.0341
互相	-10.0352
绕	-10.0356
真的很	-10.0362
泥	-10.0362
评价	-10.0364
播	-10.0365
迟	-10.0376
尼克	-10.0379
舒适	-10.0384
驻	-10.0385
▁其实	-10.0387
妇	-10.0389
担忧	-10.0392
不如	-10.0393
的生命	-10.0398
讲话	-10.0401
尿	-10.0404
般	-10.0404
F	-10.0407
▁我真	-10.0408
不起	-10.0409
练习	-10.0411
迈	-10.0413
趋势	-10.0414
▁其他	-10.0414
th	-10.0417
听我说	-10.0422
没有任何	-10.0425
障碍	-10.0427
邮件	-10.0428
顾问	-10.0437
卫生	-10.0438
黑暗	-10.0444
做到	-10.0444
跟你说	-10.0447
▁是不是	-10.0448
文章	-10.0453
▁今年	-10.0457
麻	-10.0457
热情	-10.0462
最新	-10.0464
提升	-10.0464
潮	-10.0467
尽力	-10.0469
削减	-10.047
逮捕	-10.0475
暖	-10.0477
把它们	-10.048
意思	-10.0481
发射	-10.0481
阳	-10.0481
基地	-10.0485
疯	-10.0491
你们俩	-10.0497
奶奶	-10.0499
是从	-10.0505
每次	-10.0507
多年	-10.052
须	-10.0525
我国	-10.0529
尤其是	-10.0533
的女儿	-10.0534
▁好好	-10.0536
动力	-10.0542
抓到	-10.0545
在外面	-10.0545
的日子	-10.0546
绿色	-10.0547
一生	-10.0548
非法	-10.055
比你	-10.0553
很不错	-10.0556
收拾	-10.0566
▁我们应该	-10.0566
娱乐	-10.0568
在乎	-10.0583
机制	-10.0583
蛇	-10.0586
征	-10.0588
我认为	-10.059
作家	-10.0592
冠军	-10.0593
之下	-10.0594
甜	-10.0596
强调	-10.0606
武	-10.0608
收集	-10.061
巴基斯坦	-10.0612
取消	-10.0612
这个问题	-10.0618
固	-10.0622
不记得	-10.0623
预期	-10.0626
鼓	-10.0631
推出	-10.0632
铺	-10.0634
▁注意	-10.0643
期望	-10.0645
窗户	-10.0647
装置	-10.0651
▁否则	-10.0663
跟我说	-10.0669
退休	-10.0673
每天都	-10.0676
主管	-10.0685
从没	-10.0686
▁我就是	-10.0688
es	-10.0694
因为他	-10.0695
号码	-10.0698
▁三	-10.0699
明白了	-10.0701
送到	-10.0707
可爱	-10.0708
遍	-10.0708
伟大的	-10.071
了一些	-10.0713
证实	-10.0714
▁最	-10.0716
勤	-10.0717
隔	-10.0718
血液	-10.0719
▁你为什么	-10.0722
地震	-10.0725
外交	-10.0726
略	-10.073
作者	-10.0733
▁既然	-10.0734
当前	-10.0734
明白吗	-10.0737
祈祷	-10.0739
不对	-10.0743
请你	-10.0743
一遍	-10.0748
之类的	-10.075
启动	-10.0752
全面	-10.0752
引发	-10.0754
事儿	-10.0764
写的	-10.0765
黑人	-10.0767
阅读	-10.0768
稀	-10.0768
控	-10.077
都很	-10.0771
所在	-10.0772
争	-10.0772
欢	-10.0774
欣赏	-10.0775
尽快	-10.0776
届	-10.0783
90	-10.0785
为什么不	-10.0788
一大	-10.0789
但是我	-10.0793
这个人	-10.0798
跟她	-10.08
度过	-10.0801
接着	-10.0804
lo	-10.0811
做得	-10.0813
混乱	-10.0814
长的	-10.0817
就是这样	-10.0819
的身体	-10.082
出现了	-10.0822
耶和华	-10.0824
敌人	-10.0827
拨	-10.0828
▁我们就	-10.0833
奶	-10.0837
应该是	-10.0842
固定	-10.0852
手指	-10.0857
财产	-10.0858
▁我和	-10.0861
对手	-10.0863
不愿	-10.0866
带上	-10.0868
弟弟	-10.0869
惩罚	-10.0869
浴室	-10.0871
逐渐	-10.0872
信仰	-10.0873
I	-10.0877
红色	-10.0878
债	-10.088
显得	-10.0881
剑	-10.0884
同事	-10.0884
晕	-10.0887
傻瓜	-10.0887
这点	-10.0888
档案	-10.0889
劲	-10.0891
加州	-10.0893
跌	-10.0893
▁我可不	-10.0895
▁卡	-10.0897
尖	-10.0902
说谎	-10.0906
点儿	-10.0908
居然	-10.0913
听起来	-10.0918
险	-10.0921
割	-10.0922
集中	-10.0923
磁	-10.0923
的电话	-10.0924
回忆	-10.0928
的消息	-10.0933
成立	-10.0934
应对	-10.0935
▁如果他们	-10.0944
采	-10.0947
闪	-10.095
耍	-10.0953
粗	-10.0957
部长	-10.0963
▁昨晚	-10.0967
▁他有	-10.0969
成长	-10.097
死的	-10.0971
▁你对	-10.0972
主义者	-10.0976
不会再	-10.0977
▁以及	-10.0979
将军	-10.0979
圣诞	-10.098
j	-10.0981
故	-10.0982
失踪	-10.0983
巧克力	-10.0989
购	-10.099
漏	-10.0992
就算	-10.0997
去看看	-10.1
生长	-10.1001
发挥	-10.1002
追踪	-10.1002
把我们	-10.1004
成熟	-10.1011
达成	-10.1011
统计	-10.1016
灾难	-10.1018
21	-10.1019
很可能	-10.1024
变成了	-10.103
▁所有的	-10.1031
星期	-10.1032
公民	-10.1033
穿上	-10.1033
2009	-10.1049
探索	-10.1052
评	-10.1056
盯着	-10.1056
▁我记得	-10.1059
奈	-10.1061
不少	-10.1065
是最	-10.1067
我们有	-10.1071
做了什么	-10.1074
我真的	-10.1074
做爱	-10.1081
做的事	-10.1085
我还是	-10.1086
事物	-10.1086
议会	-10.1092
什么东西	-10.1095
滴	-10.1099
在我们	-10.1102
头上	-10.1106
带来了	-10.1107
室内	-10.1108
二十	-10.1109
▁把我	-10.1109
高度	-10.1111
▁例如	-10.1113
死去	-10.1114
考试	-10.1114
足球	-10.1115
妹妹	-10.1124
壳	-10.1127
海滩	-10.1133
你妈	-10.1134
下了	-10.1142
5%	-10.1144
时光	-10.1145
叫做	-10.1145
漂亮的	-10.1148
遭到	-10.1148
困	-10.1148
总理	-10.1155
分手	-10.1157
统治	-10.1163
配备	-10.1163
培养	-10.1163
▁我发誓	-10.1169
性感	-10.1174
旅馆	-10.1175
辞	-10.1186
意思是	-10.1188
公路	-10.1196
陪	-10.1199
起诉	-10.1205
练	-10.1208
农场	-10.1208
me	-10.1212
不愿意	-10.1219
不能再	-10.122
上涨	-10.1221
H	-10.1223
冻	-10.1224
▁但她	-10.1226
你知道的	-10.1231
便宜	-10.1232
▁我看到	-10.1234
▁我以为你	-10.1238
有过	-10.1242
各位	-10.1243
▁他想	-10.1243
上来	-10.1243
灭	-10.1244
其他的	-10.1246
数学	-10.1248
算是	-10.1255
奉	-10.1256
涂	-10.1256
腰	-10.1257
入住	-10.1259
学家	-10.1265
美国的	-10.1269
大的	-10.1275
教师	-10.1282
的观点	-10.1285
熟悉	-10.1286
本周	-10.1287
在里面	-10.1299
首次	-10.1306
爆发	-10.1306
保留	-10.1308
癌症	-10.1313
▁相信我	-10.1315
筹	-10.1318
耐	-10.1324
都被	-10.1325
规	-10.1325
把这些	-10.1327
指导	-10.1336
了他的	-10.1337
轻松	-10.1341
还不	-10.1344
乐队	-10.1346
无聊	-10.1348
航空	-10.1352
最佳	-10.1352
敲	-10.1354
访	-10.1356
密码	-10.1356
摆脱	-10.1357
议员	-10.1361
情况下	-10.1361
材	-10.1364
唐	-10.1368
尸	-10.137
sa	-10.137
运用	-10.1373
踏	-10.1383
承受	-10.1384
每个人	-10.1384
选手	-10.1391
误	-10.1398
之处	-10.14
戒	-10.1401
充分	-10.1407
第四	-10.1407
杀手	-10.1407
这是个	-10.1409
彼得	-10.141
背后	-10.1419
▁但如果	-10.1421
你没	-10.1422
不住	-10.1425
文学	-10.1425
证券	-10.1427
本来	-10.1428
是对的	-10.1428
地图	-10.1428
乡	-10.1429
厕所	-10.1433
抢劫	-10.1434
法案	-10.1437
饮料	-10.1439
天堂	-10.1442
诉讼	-10.1448
追求	-10.1452
生日	-10.1454
永	-10.1456
见到你	-10.1457
带到	-10.1464
胃	-10.1467
ti	-10.1471
te	-10.1473
醒来	-10.1473
不足	-10.1474
可不是	-10.1478
劳动	-10.1479
▁很多	-10.1481
▁如今	-10.1483
做好	-10.1485
看你	-10.1487
爱上	-10.1487
R	-10.1494
居住	-10.1495
发行	-10.1497
团体	-10.1497
裂	-10.1497
艰难	-10.1498
的女孩	-10.1501
▁我给你	-10.1503
席	-10.1504
▁你想要	-10.1504
泽	-10.1504
巨	-10.1505
运输	-10.1506
转变	-10.1508
也要	-10.1508
弃	-10.1511
一支	-10.1511
指数	-10.1514
很清楚	-10.1519
公平	-10.152
癌	-10.152
很喜欢	-10.1524
我们应该	-10.1527
浪	-10.153
阿尔	-10.1533
注射	-10.1543
卧室	-10.1543
花园	-10.1545
购物	-10.1546
打了	-10.155
临	-10.1551
废	-10.1553
探员	-10.1555
顾	-10.1556
丰	-10.1559
▁我相信	-10.156
我知道你	-10.1564
简单的	-10.1566
心情	-10.1566
商务	-10.1566
后果	-10.1568
他妈	-10.157
上次	-10.157
我们需要	-10.1573
咖啡机	-10.1582
地狱	-10.1584
凉	-10.1585
有助于	-10.1588
这类	-10.159
▁宝贝	-10.1591
个小时	-10.1592
渴望	-10.1594
脸上	-10.1594
姐姐	-10.1602
回报	-10.161
本地	-10.1611
维尔	-10.1612
is	-10.1613
指责	-10.1614
当中	-10.1617
每一个	-10.1618
男子	-10.162
码	-10.1623
▁到了	-10.1624
宝宝	-10.1625
发明	-10.1625
好多	-10.1628
大学的	-10.1629
扮演	-10.163
▁提供	-10.1639
没有什么	-10.1642
重点	-10.1642
放到	-10.1642
宣传	-10.1642
汗	-10.1643
你说的	-10.1653
从来不	-10.1654
可怜的	-10.1654
驾驶	-10.1656
某人	-10.1657
海军	-10.1663
琳	-10.1663
会让	-10.1664
传播	-10.1666
▁如果她	-10.1667
万美元	-10.1669
审判	-10.1669
否认	-10.167
堆	-10.1673
最多	-10.1674
持有	-10.1675
贝斯特韦斯特	-10.1682
▁把你的	-10.1689
猛	-10.169
停下来	-10.169
氏	-10.1697
前往	-10.1699
有些人	-10.1706
你不会	-10.1707
不是我	-10.171
过度	-10.1713
结论	-10.1714
担任	-10.1726
▁我可	-10.1727
厉害	-10.1729
顺利	-10.1731
邦	-10.1734
钻	-10.174
▁再见	-10.1743
从不	-10.1743
都可以	-10.1749
恋	-10.1751
伙伴	-10.1755
卡尔	-10.1756
舰	-10.1757
就业	-10.1757
为他	-10.1758
手上	-10.1761
▁可能是	-10.1763
很多人	-10.1764
▁你没有	-10.1764
看到的	-10.1765
振	-10.1766
▁你需要	-10.1766
度假	-10.1769
to	-10.177
国家的	-10.177
吃的	-10.1774
亲自	-10.1774
新鲜	-10.1776
专门	-10.178
但你	-10.1783
就有	-10.1786
行吗	-10.1788
溜	-10.1792
堡	-10.1799
成功的	-10.1801
也不能	-10.1802
提出了	-10.1803
的公司	-10.1804
能否	-10.1815
富有	-10.1823
过去的	-10.1823
一段时间	-10.1826
英尺	-10.1829
孤独	-10.183
在此	-10.1831
奔	-10.1832
链	-10.1834
▁距离	-10.1836
浪漫	-10.1837
就行了	-10.184
述	-10.184
遗	-10.1841
游客	-10.1841
两个人	-10.1847
屁	-10.1847
▁她会	-10.1847
警官	-10.1848
玛丽	-10.1848
拳	-10.1853
▁你以为	-10.1853
我才	-10.1856
我是个	-10.1857
▁你以前	-10.1863
一间	-10.1864
又不是	-10.1865
▁他还	-10.1866
两人	-10.1868
是要	-10.1872
的结果	-10.1874
燃料	-10.188
信心	-10.1881
一直都	-10.189
援助	-10.1892
采访	-10.1892
找你	-10.1894
农民	-10.1895
强烈	-10.1896
出版	-10.1896
▁在我们	-10.1905
最初	-10.1905
地下	-10.1907
帽子	-10.1908
我家	-10.1912
夹	-10.1915
的目标	-10.1917
搭档	-10.192
话题	-10.1921
32	-10.1922
▁多	-10.1923
皇	-10.1924
可以在	-10.1924
有趣的	-10.1924
也很	-10.1931
▁停	-10.1934
汇	-10.1941
的世界	-10.1946
▁我听到	-10.1949
▁我明白	-10.1951
定义	-10.1957
爱尔兰	-10.1958
俗	-10.1966
以下	-10.1969
黄金	-10.197
态度	-10.1972
▁我以前	-10.1981
民主党	-10.1982
临时	-10.1986
等一下	-10.1987
▁我要去	-10.1987
效率	-10.199
将其	-10.1993
详细	-10.1993
这是一个	-10.1993
劝	-10.1995
职位	-10.1995
绑	-10.1998
刷	-10.1999
两天	-10.1999
在找	-10.2001
他是个	-10.2013
美丽的	-10.2016
壮	-10.2018
造成的	-10.2019
相似	-10.2019
收益	-10.202
美丽	-10.2027
缘	-10.2027
不好意思	-10.2031
对我们	-10.2032
去哪	-10.2034
等你	-10.2035
▁以前	-10.2041
海岸	-10.2041
太棒了	-10.2047
▁我要你	-10.2049
比例	-10.2051
缩	-10.2053
还活着	-10.2058
就不能	-10.2063
老鼠	-10.2068
委	-10.2068
能找到	-10.207
缝	-10.2072
特点	-10.2075
ur	-10.208
讨	-10.2082
微波炉	-10.2084
不幸	-10.2085
阳光	-10.2087
标志	-10.209
知道他	-10.2094
il	-10.2103
豪华	-10.2108
听听	-10.2111
▁为什么你	-10.2112
一部	-10.2116
护士	-10.212
我的朋友	-10.2123
敏感	-10.2132
▁我是个	-10.2133
石头	-10.2133
从事	-10.2138
帅	-10.2138
一部分	-10.2138
领袖	-10.2139
呆在	-10.214
来这儿	-10.214
事务	-10.2143
培训	-10.2146
荡	-10.2147
捕	-10.215
提议	-10.215
实践	-10.2151
停车场	-10.2152
有了	-10.2152
设置	-10.2153
肺	-10.2153
在我的	-10.2158
叔叔	-10.2158
▁两	-10.216
看我	-10.2162
舞会	-10.2166
进口	-10.2172
律	-10.2175
友好	-10.2176
带有	-10.2178
穷	-10.2181
来源	-10.2181
资格	-10.2181
妙	-10.2183
的重要	-10.2183
▁她在	-10.2184
退出	-10.2187
▁我们还	-10.2187
症状	-10.2191
帝国	-10.2191
遭	-10.2191
欧元区	-10.2199
内心	-10.2201
清理	-10.2202
厅	-10.2205
豪	-10.2205
沿着	-10.2207
就不	-10.2208
依赖	-10.2212
印象	-10.2215
志	-10.2215
防止	-10.2218
染	-10.2218
瓜	-10.2229
吊	-10.2229
你需要	-10.2231
登记	-10.2237
有问题	-10.2238
哪些	-10.2243
的家庭	-10.2248
一些人	-10.2248
攻	-10.225
介	-10.2261
天使	-10.2265
证人	-10.2269
遭受	-10.2272
空中	-10.2273
我一直	-10.2275
粘	-10.2279
几分钟	-10.2284
洛杉矶	-10.2285
的风险	-10.229
混合	-10.229
▁两个	-10.229
告诉我你	-10.2292
这条	-10.2298
分开	-10.2299
▁把它	-10.2299
餐馆	-10.2301
的力量	-10.2302
保罗	-10.2303
几次	-10.2303
规划	-10.2305
手里	-10.2305
汤姆	-10.2306
故意	-10.2312
范	-10.2315
者的	-10.2318
不上	-10.2325
房间里	-10.233
鸡蛋	-10.2331
问问	-10.2331
合理	-10.2335
经济学家	-10.2336
充	-10.2339
净	-10.2342
▁全	-10.2342
夺	-10.2345
是指	-10.2346
裤子	-10.2346
还可以	-10.235
伤口	-10.2351
人群	-10.2352
想起	-10.2352
的作用	-10.2352
我说的	-10.2353
批	-10.2354
勇敢	-10.2357
疑	-10.2362
我们必须	-10.2363
的政治	-10.2364
展开	-10.2365
你必须	-10.2366
上学	-10.2369
付出	-10.2371
玩具	-10.2376
瞎	-10.2376
昏	-10.2378
▁听我说	-10.2385
as	-10.2386
优	-10.2387
涨	-10.2399
称为	-10.2405
进步	-10.2408
所谓的	-10.2412
盒	-10.2414
平台	-10.2415
感受	-10.2416
这里的	-10.2418
良	-10.2419
▁天	-10.2421
以便	-10.2425
的妻子	-10.2428
化的	-10.2434
是不	-10.2441
不过是	-10.2443
伸	-10.2443
瞧	-10.2444
O	-10.2447
mi	-10.2447
虎	-10.2452
仪式	-10.2456
不清	-10.2466
我们走	-10.2469
队伍	-10.2471
L	-10.2472
北部	-10.2473
湾	-10.2474
▁如果你们	-10.2479
水果	-10.2483
▁哈	-10.2483
有一些	-10.2487
介意	-10.2492
欧元	-10.2494
这就	-10.2496
星球	-10.25
日益	-10.2501
ca	-10.2501
的房子	-10.2508
at	-10.2515
惊喜	-10.2516
类型	-10.2518
哇	-10.252
跨	-10.2521
迹	-10.2521
宠物	-10.2524
过的	-10.2524
海外	-10.2524
▁我再	-10.2527
岩	-10.253
创建	-10.2531
▁一切都	-10.2535
巧	-10.254
注意力	-10.2541
去过	-10.2545
ve	-10.2551
折磨	-10.2552
转移	-10.2554
颗	-10.2555
咨询	-10.2556
机器人	-10.2556
的第一	-10.2556
戒指	-10.2561
寻	-10.2562
我应该	-10.2566
的房间	-10.2567
报警	-10.2567
成就	-10.2569
柜	-10.2572
mo	-10.2573
严重的	-10.2573
在过去	-10.2574
百万	-10.2579
牛奶	-10.2583
电池	-10.2583
2011	-10.2586
当局	-10.2589
▁如	-10.2591
坎	-10.26
▁哇	-10.2605
▁你为什么不	-10.2605
撤	-10.2605
广播	-10.2606
两种	-10.2607
她在	-10.2608
伤心	-10.261
将来	-10.2613
▁我本来	-10.2615
幼	-10.262
比我	-10.2622
荒	-10.2622
ic	-10.2623
你已经	-10.2632
以外	-10.2637
扶	-10.2638
和一个	-10.2638
图书馆	-10.2641
da	-10.2642
忍	-10.2642
不出	-10.2646
构成	-10.2649
地区的	-10.2652
财务	-10.2657
参观	-10.2657
诊断	-10.266
的书	-10.2662
是什么意思	-10.2664
一台	-10.2667
快走	-10.267
▁整个	-10.2673
▁你要是	-10.2674
受欢迎	-10.2676
不仅仅是	-10.2682
发誓	-10.2684
虚	-10.2686
挡	-10.2687
威尔	-10.2688
完美的	-10.2688
时尚	-10.2689
很快就	-10.2691
育	-10.2695
▁昨天	-10.2696
▁其中	-10.2698
很漂亮	-10.2701
宿	-10.2706
▁只	-10.2706
适	-10.2713
碰到	-10.2715
坚	-10.2716
重复	-10.2716
▁却	-10.2717
是我们	-10.2718
会不会	-10.2721
雇	-10.2722
帮他	-10.2732
▁很高兴	-10.2734
可靠	-10.2734
偶尔	-10.2739
婊子	-10.2742
夏天	-10.2744
已经有	-10.2747
英寸	-10.275
统一	-10.275
因为他们	-10.2752
白色	-10.2752
庭	-10.2755
雄	-10.2758
暗示	-10.2759
大陆	-10.2762
继	-10.2768
仪	-10.2769
广场	-10.2773
渡	-10.2775
▁不错	-10.2775
上周	-10.2775
勇气	-10.2776
三年	-10.2778
组合	-10.2779
指挥	-10.2787
小型	-10.2789
很久	-10.279
纽	-10.2799
区别	-10.28
一起去	-10.2801
破产	-10.2802
这家伙	-10.2804
绑架	-10.2807
▁我只能	-10.2808
▁我无法	-10.2808
可怕的	-10.2811
为自己	-10.2813
▁我刚才	-10.2819
▁感觉	-10.282
爽	-10.282
综合	-10.2821
兼	-10.2822
帐	-10.2823
争论	-10.2823
阿拉伯	-10.2823
她就	-10.2825
著名的	-10.2829
勃	-10.283
舞蹈	-10.2833
然而	-10.2834
▁如果你不	-10.2834
怎么回事	-10.2836
▁我想我们	-10.284
笨蛋	-10.2842
W	-10.2848
代价	-10.2848
花费	-10.2851
会让你	-10.2855
停下	-10.286
▁我都	-10.2864
▁她要	-10.2866
健	-10.2868
铁路	-10.2868
有限公司	-10.2872
举办	-10.2873
一对	-10.2874
一本	-10.2877
智慧	-10.2878
对话	-10.2883
游泳	-10.2886
把枪	-10.2886
干了	-10.2893
上述	-10.2894
肩	-10.2894
别动	-10.2898
谱	-10.2903
西部	-10.2905
写了	-10.2908
疯子	-10.2908
咱	-10.2909
是如何	-10.2911
罐	-10.2912
车里	-10.2912
很好的	-10.2917
▁医生	-10.2919
▁有没有	-10.2919
装饰	-10.2921
很大的	-10.2925
序	-10.2928
惠	-10.2929
我必须	-10.2933
决策	-10.2934
所说的	-10.2936
同情	-10.2938
逊	-10.294
图片	-10.2947
铜	-10.2952
在线	-10.2952
怀孕	-10.2953
交换	-10.2955
肯定会	-10.2957
上午	-10.2958
▁唔	-10.296
当作	-10.2963
钢	-10.2969
有一	-10.297
抗议	-10.2972
里有	-10.2974
唱歌	-10.2975
许多人	-10.2975
我们现在	-10.298
天才	-10.2981
十年	-10.2982
等我	-10.2985
▁给你	-10.2987
你看	-10.2988
▁我告诉你	-10.2994
有多少	-10.2994
制造商	-10.2997
民众	-10.2998
有钱	-10.3
我希望	-10.3
就得	-10.3003
审	-10.3003
冠	-10.3008
人数	-10.3008
嘘	-10.3011
已经被	-10.3012
责	-10.3013
高速	-10.3015
向我	-10.302
它们的	-10.3029
喜欢你	-10.3034
一个月	-10.3037
推荐	-10.3038
不相信	-10.3039
杀了他	-10.3042
着我	-10.3043
▁通过	-10.3044
的父母	-10.3044
你想要	-10.3048
行李	-10.305
舒适的	-10.3053
技巧	-10.3055
确信	-10.3055
坐下	-10.3056
▁你很	-10.3056
就像是	-10.3056
接下来	-10.3059
注册	-10.306
论文	-10.3062
押	-10.3062
吞	-10.3067
罗斯	-10.307
车上	-10.3071
凶	-10.3071
税收	-10.3073
▁你只要	-10.3076
爸	-10.3077
严格	-10.3078
感觉到	-10.3082
罪犯	-10.3084
成绩	-10.3085
柯	-10.3086
共和党	-10.3087
研究人员	-10.3089
透露	-10.3092
离开这里	-10.3094
好事	-10.3098
机关	-10.3099
▁我先	-10.3099
了么	-10.3104
激烈	-10.3105
et	-10.3108
支出	-10.3109
我妈	-10.3112
回应	-10.3112
芝加哥	-10.3113
卵	-10.3113
模	-10.3114
碳	-10.3124
发生在	-10.3124
得出	-10.3124
▁我发现	-10.3126
明年	-10.3127
人都	-10.3127
早晨	-10.3128
讯	-10.3128
争取	-10.3132
改变了	-10.3133
下次	-10.3133
▁伙计们	-10.3136
我们不能	-10.3151
赶紧	-10.3155
保障	-10.3157
芬	-10.3157
市长	-10.3159
多少钱	-10.3159
▁我可能	-10.3171
床上	-10.3171
更大的	-10.3173
每周	-10.3174
你是个	-10.3174
大量的	-10.3176
导弹	-10.3177
差异	-10.3181
斑	-10.3181
一颗	-10.3181
享用	-10.3182
十二	-10.3189
忍受	-10.3189
生活中	-10.3194
填	-10.3197
分别	-10.3197
▁而且	-10.3198
译	-10.3199
从来没	-10.3204
留下来	-10.3213
Fi	-10.3215
一点点	-10.3216
文明	-10.3217
单身	-10.3218
的母亲	-10.322
黑色	-10.3221
决	-10.3224
好消息	-10.3226
够了	-10.3227
无人	-10.3229
互	-10.3229
最后一	-10.3231
成人	-10.3233
ho	-10.3233
腹	-10.3235
技能	-10.3243
大楼	-10.3247
监督	-10.3249
所有人都	-10.3252
头脑	-10.3253
1.	-10.3254
舒服	-10.3254
就好	-10.3256
祝	-10.3261
45	-10.3263
工作的	-10.3267
我父亲	-10.3273
腾	-10.3273
那样的	-10.3273
武装	-10.3274
崩溃	-10.3274
教训	-10.3278
不在乎	-10.3279
了你的	-10.328
你妈妈	-10.328
骂	-10.3285
你父亲	-10.3287
夜晚	-10.329
署	-10.329
作业	-10.3291
相信你	-10.3294
把钱	-10.3297
提前	-10.3298
异常	-10.3299
圣诞节	-10.3301
▁我们能	-10.3302
尽量	-10.3302
错过	-10.3307
司	-10.3307
随后	-10.331
气候	-10.3313
亦	-10.3315
炒	-10.332
弗兰克	-10.3321
听说过	-10.3328
之内	-10.3329
邪恶	-10.3329
污	-10.3334
好啊	-10.3334
礼拜	-10.3335
娘	-10.3337
▁我知道我	-10.3341
过于	-10.3343
ter	-10.3345
就开始	-10.3345
us	-10.3346
丢了	-10.3348
一句	-10.335
沙发	-10.3355
用了	-10.3357
▁摘要	-10.3357
是想	-10.3357
ni	-10.3358
阻	-10.3358
2007	-10.3359
ed	-10.336
维护	-10.3371
补充	-10.3374
带来的	-10.3376
情感	-10.3379
耗	-10.3381
犬	-10.3381
选民	-10.3382
毁	-10.3382
的表现	-10.3384
把我的	-10.3385
的价格	-10.3388
边缘	-10.3391
遭遇	-10.3392
奇怪的	-10.34
man	-10.3402
▁他把	-10.3404
贝尔	-10.3405
囊	-10.3406
ol	-10.3408
那么做	-10.341
相同	-10.3412
季度	-10.3417
电力	-10.342
回头	-10.3421
峰	-10.3423
奇迹	-10.3423
这是我	-10.3425
吸血鬼	-10.3426
叫你	-10.3428
▁准备好	-10.3431
骄傲	-10.3432
什么都没	-10.3434
你喜欢	-10.3435
远离	-10.3438
这种事	-10.3439
白人	-10.3443
信贷	-10.3448
柱	-10.345
今	-10.3452
加油	-10.3456
教会	-10.3456
的支持	-10.3456
稿	-10.3457
彻	-10.3458
营养	-10.3459
房地产	-10.3461
有限	-10.3466
▁哪	-10.3467
整天	-10.3471
对其	-10.3473
有权	-10.3474
很开心	-10.3475
的证据	-10.3477
▁很明显	-10.3481
22	-10.3481
吸烟	-10.3482
听你	-10.3484
鼻子	-10.3484
他们是	-10.3485
必要	-10.3487
你来	-10.3489
救了	-10.3491
损	-10.3492
可爱的	-10.3493
频道	-10.3493
看不到	-10.3494
说的话	-10.3496
▁英国	-10.3497
▁听起来	-10.3499
想去	-10.3507
摔	-10.3507
▁它是	-10.3508
避	-10.3508
种族	-10.3508
有意思	-10.3509
年纪	-10.351
墨	-10.3515
▁我可没	-10.3517
蓝色	-10.3517
▁哪个	-10.3517
打破	-10.3524
桌	-10.3526
今早	-10.3528
公主	-10.3533
的数据	-10.3534
角度	-10.3536
看着我	-10.3537
▁我不喜欢	-10.3538
的身份	-10.3539
没想到	-10.3541
抛弃	-10.3541
的意思	-10.3542
▁上面	-10.3543
人民币	-10.3545
过你	-10.3546
2000	-10.3554
乐观	-10.3555
捉	-10.3557
昂	-10.3559
灾	-10.3562
鼻	-10.3564
Wi	-10.3564
地面	-10.3566
▁此外	-10.3573
国外	-10.3573
生态	-10.3574
通讯	-10.3574
贡献	-10.3578
启	-10.3582
几个小时	-10.3585
▁你就是	-10.3586
的那样	-10.3586
街道	-10.3588
动机	-10.3588
清洁	-10.3588
上市	-10.3588
服装	-10.359
纪念	-10.3594
涉及	-10.3596
自信	-10.3601
相处	-10.3602
正好	-10.3602
逃跑	-10.3603
舱	-10.3603
别再	-10.3604
▁在这	-10.3607
天空	-10.3611
ne	-10.3611
▁把你	-10.3613
对他们	-10.3613
物品	-10.3619
纪录	-10.3621
真好	-10.3625
好莱坞	-10.3626
罢了	-10.3627
▁C	-10.3628
无关	-10.3629
依靠	-10.3635
能让	-10.364
赞	-10.3641
微笑	-10.3645
的任务	-10.3645
指定	-10.3646
幻想	-10.3647
我们已经	-10.3647
临床	-10.3649
▁你不知道	-10.3651
300	-10.3651
微软	-10.3655
而非	-10.3657
中国人	-10.3657
想让我	-10.3659
幻	-10.366
喔	-10.3664
饮	-10.367
违反	-10.367
连续	-10.367
概念	-10.3675
你这个	-10.3675
男友	-10.3679
▁比	-10.3681
死者	-10.3687
这份	-10.3688
我们俩	-10.3692
发生了什么	-10.3693
▁找	-10.3694
▁事实上	-10.3698
运动员	-10.3699
什么吗	-10.37
编辑	-10.3703
▁有什么	-10.3703
深入	-10.3704
壁	-10.3704
》(	-10.3705
桌子	-10.3711
艺术家	-10.3712
▁我很抱歉	-10.3714
隐藏	-10.3716
首席执行官	-10.3717
找到他	-10.3718
亡	-10.3718
汁	-10.3718
保守	-10.3721
那位	-10.3721
▁她说她	-10.3725
▁但是他	-10.3725
衰	-10.3726
市中心	-10.3729
偷了	-10.3729
▁S	-10.3731
▁可我	-10.3731
开门	-10.3731
▁如果是	-10.3734
杀了你	-10.3736
大众	-10.3736
这个国家	-10.3737
两张	-10.3742
的安全	-10.3744
精彩	-10.3745
经济增长	-10.3748
多么	-10.3749
灵魂	-10.375
聊天	-10.3752
嫁给	-10.3753
干掉	-10.3755
不认识	-10.3755
走到	-10.3756
损害	-10.3758
永远不会	-10.3758
▁不如	-10.3765
候	-10.3765
分配	-10.3767
▁但在	-10.3768
可怜	-10.377
尺	-10.3774
肌肉	-10.3776
▁几乎	-10.3778
我儿子	-10.3783
腐败	-10.3784
酱	-10.3786
耳朵	-10.3787
想过	-10.3789
把你的	-10.3791
拐	-10.3792
▁他说他	-10.3795
的历史	-10.3799
女生	-10.38
那个人	-10.3804
他们都	-10.3808
球队	-10.381
是很	-10.381
一小时	-10.3811
魔法	-10.3817
大规模	-10.3817
劫	-10.3822
笑话	-10.3826
协助	-10.383
很有趣	-10.383
少数	-10.3832
极端	-10.3833
房屋	-10.3845
间谍	-10.3847
附近的	-10.3849
哼	-10.385
貌	-10.3852
穆斯林	-10.3859
▁他要	-10.3861
技	-10.3862
国民	-10.387
的学生	-10.3876
听过	-10.3878
▁伊	-10.3883
浅	-10.3885
失业	-10.3886
的一种	-10.3886
▁但是我们	-10.3887
没办法	-10.3889
尴尬	-10.3891
玉米	-10.3895
生活在	-10.3898
胖	-10.3898
让它	-10.3898
烈	-10.39
温度	-10.3903
最低	-10.3909
不算	-10.391
获取	-10.3913
磅	-10.3917
脑袋	-10.3928
一路	-10.3929
潜	-10.393
为我们	-10.3931
你就会	-10.3931
保存	-10.3934
被杀	-10.3935
▁比如	-10.3937
原本	-10.3938
▁你一定	-10.394
什么呢	-10.3945
感谢你	-10.3945
他人	-10.3946
甚	-10.3948
▁目前	-10.3948
说是	-10.3949
炉	-10.3949
的态度	-10.396
我女儿	-10.396
立法	-10.3972
就好了	-10.3972
▁许多	-10.398
件事	-10.3981
▁我又	-10.3984
大幅	-10.3985
式的	-10.3986
主人	-10.3992
喝了	-10.3995
no	-10.4003
马克	-10.4003
邮	-10.4006
众多	-10.401
我妈妈	-10.4014
上有	-10.4018
幸	-10.4021
整体	-10.4024
肝	-10.4026
神父	-10.4026
前进	-10.4029
此次	-10.403
对抗	-10.403
我保证	-10.4035
美好	-10.4037
矛盾	-10.4038
ad	-10.4039
倾	-10.4039
船上	-10.404
祖	-10.4048
斗争	-10.4052
五年	-10.4052
觉得自己	-10.4054
那你	-10.4061
董事会	-10.4062
的权利	-10.4064
我猜	-10.4066
年轻的	-10.407
砸	-10.4072
就没	-10.4078
博客	-10.4079
来着	-10.4082
大道	-10.4084
无烟	-10.4085
球员	-10.4088
福利	-10.4089
录像	-10.4089
弟	-10.4093
年来	-10.4097
总部	-10.41
执	-10.4101
的选择	-10.4104
暴露	-10.4106
我想要	-10.4115
延	-10.4116
指望	-10.4122
爱我	-10.4128
太多了	-10.4128
去拿	-10.4128
南方	-10.413
账户	-10.4131
一声	-10.4137
首都	-10.4141
▁别再	-10.4144
▁妈	-10.4146
规矩	-10.4146
英格兰	-10.4149
信用卡	-10.4152
▁但他们	-10.4153
只有一个	-10.4157
营业范围	-10.4161
你所	-10.4162
怎么能	-10.4162
谨慎	-10.4163
沙漠	-10.4167
▁我可是	-10.4167
人家	-10.4173
走进	-10.4175
后悔	-10.4176
当初	-10.418
的目的	-10.4186
秋	-10.4189
▁日本	-10.4192
大会	-10.4198
纹	-10.4198
扇	-10.4199
跑了	-10.42
拿走	-10.42
诚	-10.4201
股东	-10.4206
盟	-10.4207
如果我们	-10.4207
元素	-10.4211
等到	-10.4213
23	-10.4214
相反	-10.4215
下跌	-10.4217
▁最好	-10.4218
钉	-10.422
想着	-10.4223
对自己	-10.4224
把手	-10.4225
坡	-10.4226
股市	-10.423
清醒	-10.4233
上校	-10.4235
路线	-10.4235
箱子	-10.424
更大	-10.4244
分析师	-10.4246
途径	-10.4246
原谅	-10.4249
肿	-10.425
如同	-10.4252
贾	-10.4254
平静	-10.4255
没用	-10.4257
贼	-10.4257
所做的	-10.4258
分离	-10.4258
小镇	-10.4259
对我来说	-10.4259
不见了	-10.426
提起	-10.426
见你	-10.426
的最	-10.426
候选人	-10.4261
葡萄酒	-10.4262
机械	-10.4264
市场的	-10.4268
档	-10.4269
尼亚	-10.4269
大声	-10.4273
君	-10.4276
传统的	-10.4277
反映	-10.4282
▁你看到	-10.4286
咯	-10.4287
负担	-10.4289
有一天	-10.429
前景	-10.429
▁更	-10.4291
手下	-10.4292
不肯	-10.4293
辞职	-10.4295
路上	-10.4296
实行	-10.4296
的需求	-10.4297
及时	-10.4301
抹	-10.4302
肚子	-10.4305
起来了	-10.4307
▁一切	-10.431
诉	-10.4315
老大	-10.4323
致命	-10.4323
当事人	-10.4324
愚蠢	-10.4324
结婚了	-10.4325
这么想	-10.4325
的唯一	-10.4332
义务	-10.4334
▁我们去	-10.4334
强迫	-10.434
女士们	-10.434
佐	-10.4342
中国政府	-10.4342
震	-10.4342
35	-10.4344
币	-10.435
脑子	-10.4351
你没有	-10.4352
饿	-10.4354
两国	-10.4356
▁找到	-10.436
成为一个	-10.4364
再说	-10.4364
游泳池	-10.4364
加速	-10.4366
质疑	-10.4367
厄	-10.4369
一辈子	-10.4369
王子	-10.4369
不停	-10.4379
授权	-10.4381
版本	-10.4382
的灵魂	-10.4384
这两个	-10.439
▁刚才	-10.4394
最近的	-10.4396
▁假如	-10.4396
支票	-10.4399
增强	-10.44
可真	-10.44
▁他不	-10.44
观看	-10.4405
争议	-10.4405
最后一次	-10.4409
▁我们知道	-10.4411
远远	-10.4412
我很抱歉	-10.4412
强大的	-10.4414
更有	-10.4415
轨	-10.442
的人们	-10.442
血管	-10.442
垂	-10.4421
砍	-10.4425
队长	-10.4425
获得了	-10.4426
怪物	-10.4428
各个	-10.4428
类似的	-10.4429
可怕	-10.4435
un	-10.4435
运作	-10.4439
▁我做了	-10.4439
在做什么	-10.4442
大人	-10.4442
吹风机	-10.4443
继承	-10.4446
我也是	-10.4453
▁少	-10.4455
谈过	-10.4455
你不是	-10.4458
想办法	-10.4458
说得	-10.4458
似	-10.4464
不止	-10.4464
迷人	-10.4464
只是想	-10.4471
三天	-10.4477
始终	-10.4478
大小	-10.448
范围内	-10.4486
模特	-10.4487
的食物	-10.4489
你这	-10.449
象征	-10.449
组成	-10.4493
我爸	-10.4493
周五	-10.4496
我们去	-10.4499
就是个	-10.4502
听到了	-10.4502
创作	-10.4504
刮	-10.4505
纵	-10.4507
▁我正在	-10.4507
却是	-10.4508
该国	-10.451
还真	-10.451
各国	-10.451
杀了我	-10.451
开支	-10.4512
你去	-10.4512
饱	-10.4514
地上	-10.4515
既然	-10.4515
觉得我	-10.4518
一笔	-10.4519
得以	-10.4523
---	-10.4524
闭	-10.4524
有许多	-10.4525
的看法	-10.4526
自行车	-10.4526
挥	-10.4528
▁你该	-10.4529
一堆	-10.4529
在意	-10.453
嫉妒	-10.453
要把	-10.4531
ke	-10.4532
仅仅是	-10.4532
效应	-10.4532
布朗	-10.4534
摧毁	-10.4535
识	-10.4536
良好	-10.4538
琴	-10.4542
感激	-10.4544
什么意思	-10.4547
收费	-10.4549
翻译	-10.455
周一	-10.4552
让自己	-10.4554
饰	-10.4554
pa	-10.4555
com	-10.4555
▁所以他	-10.4557
过得	-10.4558
▁贝斯特韦斯特	-10.4561
遵守	-10.4568
颇	-10.457
几周	-10.4571
▁我有点	-10.4573
犹太人	-10.4573
椅	-10.458
本人	-10.4581
布什	-10.4588
哲学	-10.4591
现有	-10.4591
我爱你	-10.4594
」	-10.4596
体内	-10.4597
and	-10.4598
群体	-10.4599
「	-10.4602
递	-10.4602
欺骗	-10.4603
的律师	-10.4607
嘉	-10.4607
陆	-10.4609
珠	-10.4612
待在	-10.4615
比尔	-10.4618
老人	-10.4619
斯基	-10.4621
被迫	-10.4624
睡眠	-10.4625
思维	-10.4627
怎么样了	-10.463
手中	-10.463
我就是	-10.4631
尽可能	-10.4632
径	-10.4632
▁各位	-10.4633
ss	-10.4639
你呢	-10.4641
带你	-10.4642
▁我在想	-10.4643
am	-10.4644
▁我今天	-10.4645
形象	-10.4648
高管	-10.4652
的角色	-10.4655
住手	-10.4656
担	-10.4657
▁我想知道	-10.4658
珍	-10.4658
被捕	-10.466
女友	-10.4663
动手	-10.4664
瑞士	-10.4664
桶	-10.4666
垫	-10.4667
但这	-10.4668
缠	-10.4668
抑制	-10.4669
一点也不	-10.467
替代	-10.4673
家长	-10.468
此事	-10.468
盆	-10.468
在纽约	-10.4682
丑	-10.4683
背叛	-10.4687
运气	-10.4687
有两个	-10.4688
ga	-10.4689
旗	-10.4693
观念	-10.4693
是个好	-10.4694
很抱歉	-10.4695
▁当他	-10.4696
舒	-10.4701
门口	-10.4702
娶	-10.4703
利比亚	-10.4703
已经在	-10.4705
首相	-10.4709
波士顿	-10.4709
域	-10.471
▁但现在	-10.4712
和他的	-10.4715
一点都不	-10.4719
签署	-10.4719
一人	-10.4729
寒	-10.4734
规范	-10.4738
眼镜	-10.474
笨	-10.4743
她说	-10.4744
兴趣	-10.4744
恐怕	-10.4745
主动	-10.4747
毁灭	-10.4749
说出	-10.4749
正确的	-10.4751
下一	-10.4751
以为我	-10.4753
的人都	-10.4754
27	-10.4754
的理由	-10.4764
好奇	-10.4765
他还	-10.477
窝	-10.4776
城里	-10.4776
▁但是如果	-10.4785
强大	-10.4787
去哪儿	-10.4789
主任	-10.479
晃	-10.4792
统	-10.4792
▁帮我	-10.4793
己	-10.4793
朋友们	-10.4795
做事	-10.48
青年	-10.4804
场所	-10.4808
▁最近	-10.481
这张	-10.4812
在家里	-10.4815
正如	-10.482
未来的	-10.482
回家了	-10.4823
渔	-10.4824
循环	-10.4824
饮食	-10.4826
神奇	-10.4831
地说	-10.4831
2012	-10.4832
夫妇	-10.4836
学者	-10.4839
高速公路	-10.484
的社会	-10.4841
生活的	-10.4841
直升机	-10.4849
合适	-10.486
弯	-10.4861
特性	-10.4862
来这	-10.4864
美联储	-10.4869
受不了	-10.4869
告诉你们	-10.487
杀害	-10.4874
pe	-10.4875
瘦	-10.4882
▁他妈的	-10.4884
▁原来	-10.4888
表现出	-10.4889
日期	-10.4891
▁对啊	-10.4892
释	-10.4893
网上	-10.4895
ge	-10.4895
清晰	-10.4901
现在是	-10.4901
sh	-10.4902
整理	-10.4907
含量	-10.4907
两周	-10.4908
扩张	-10.4911
▁我做	-10.4914
的决定	-10.4915
一顿	-10.4918
又是	-10.4918
▁他不是	-10.4922
牵	-10.4927
说她	-10.4929
条款	-10.4934
鹿	-10.4936
▁我只知道	-10.4939
的部分	-10.494
引擎	-10.4943
郡	-10.4946
束	-10.4952
参议员	-10.4953
这座	-10.4954
排除	-10.4955
同时也	-10.4957
牧师	-10.4963
诚实	-10.4966
审查	-10.4969
代理	-10.4972
年度	-10.4973
货物	-10.4979
遗传	-10.4981
产生的	-10.4988
判	-10.4989
撑	-10.4991
发言人	-10.4999
当成	-10.5
▁据说	-10.5004
氧	-10.5004
全身	-10.5004
荣	-10.5007
于是	-10.5008
vi	-10.5009
诊	-10.5012
个孩子	-10.5014
不确定	-10.5018
一根	-10.5018
浓	-10.5019
酸奶	-10.5022
的作品	-10.5029
爵士	-10.5031
旋	-10.5032
献	-10.5033
回事	-10.5041
转向	-10.5041
泡沫	-10.5041
全是	-10.5045
▁一直	-10.5046
赏	-10.5046
▁在这个	-10.5049
非常好	-10.5053
辩	-10.5061
图像	-10.5061
出租车	-10.5068
还得	-10.5071
左转	-10.5072
队员	-10.5075
读者	-10.5077
ba	-10.5081
谎言	-10.5083
会儿	-10.5084
都不会	-10.5085
鲜	-10.5086
祭	-10.5086
农村	-10.5087
股份	-10.5088
多大	-10.509
女子	-10.5093
繁荣	-10.5094
难过	-10.5097
察	-10.5101
消除	-10.5102
俄国	-10.5103
▁他就	-10.5103
死于	-10.5106
柔	-10.5107
什么都不	-10.5107
裤	-10.5107
屏幕	-10.5107
庄	-10.5112
池	-10.5112
四处	-10.5116
能在	-10.5116
锋	-10.5117
监控	-10.5119
把所有	-10.512
应付	-10.512
匹	-10.5131
肯定是	-10.5132
不准	-10.5133
头儿	-10.5138
已经开始	-10.5145
魅力	-10.5145
忠诚	-10.5147
别想	-10.515
总会	-10.5151
巡	-10.5152
娅	-10.5153
擅长	-10.5155
测量	-10.5156
桃	-10.5156
很高	-10.5156
融资	-10.5157
对你来说	-10.5158
部落	-10.516
重建	-10.5163
装备	-10.5164
浴	-10.5165
右转	-10.5166
工程师	-10.5169
的建议	-10.5172
奴隶	-10.5173
定位	-10.5174
▁你又	-10.5177
苏联	-10.5184
更新	-10.5186
返回	-10.5189
分布	-10.519
开展	-10.5191
影响力	-10.5191
的速度	-10.5193
信用	-10.5198
进化	-10.5201
妓女	-10.5202
冲击	-10.5203
勾	-10.5212
汇率	-10.522
仍在	-10.5221
覆盖	-10.5222
帽	-10.5223
的可能性	-10.5223
▁除了	-10.5226
看他	-10.5227
抬	-10.5227
▁就会	-10.5228
▁神	-10.5231
▁我知道这	-10.5234
纤维	-10.5237
骨头	-10.5237
▁我就知道	-10.5238
▁我当时	-10.524
不舒服	-10.5241
电梯	-10.5248
司法	-10.5252
荷兰	-10.5255
保安	-10.5255
出发地	-10.5258
盗	-10.5258
同学	-10.526
会很	-10.5262
长时间	-10.5263
车辆	-10.5265
马上就	-10.5265
震惊	-10.5268
尚未	-10.5271
氧化	-10.5275
▁是个	-10.5288
无线	-10.5288
世上	-10.529
忠	-10.5292
受害人	-10.5293
握	-10.5296
安娜	-10.5296
我给你	-10.5297
的关键	-10.5302
ha	-10.5303
扫描	-10.5303
独自	-10.5305
葛	-10.5306
辐射	-10.5307
过去了	-10.5309
打电话给	-10.5311
将是	-10.5312
显著	-10.5314
▁我正	-10.5316
鹰	-10.5316
▁乔	-10.5316
者们	-10.5319
变态	-10.5322
而来	-10.5324
修改	-10.5325
▁显然	-10.5326
浆	-10.5327
摘	-10.5327
很奇怪	-10.5327
不容易	-10.5327
相同的	-10.5329
般的	-10.5329
那家伙	-10.5333
首席	-10.5333
驶	-10.5333
取代	-10.5334
并未	-10.5334
打败	-10.5335
骗子	-10.5336
营销	-10.5343
出于	-10.5344
可不	-10.5345
频	-10.5346
颈	-10.5347
▁人们	-10.5348
起了	-10.5349
将要	-10.5351
▁你们要	-10.5353
ry	-10.5353
▁我觉得他	-10.5356
只想	-10.536
土耳其	-10.536
完成了	-10.5366
行星	-10.5367
▁我听说你	-10.5367
洁	-10.5367
会把	-10.5369
不动	-10.5371
▁别管	-10.5371
有必要	-10.5373
那些人	-10.5378
竞争对手	-10.5379
同一	-10.5381
利亚	-10.5384
和他们	-10.539
这意味着	-10.5391
尔斯	-10.5392
▁与此同时	-10.5395
扭	-10.5395
白宫	-10.5395
依据	-10.5399
▁你可以	-10.54
▁他现在	-10.5406
吃惊	-10.5407
浴缸	-10.5409
他要	-10.5409
推进	-10.541
借口	-10.5413
我真	-10.5415
试过	-10.542
像这样	-10.5425
陷	-10.5427
繁	-10.543
铃	-10.5432
通胀	-10.5432
满了	-10.5436
许可	-10.5439
签名	-10.5445
免费的	-10.5447
婆	-10.5447
一小	-10.5449
希望能	-10.5453
包装	-10.5456
一个小	-10.5456
毫不	-10.5462
心中	-10.5471
相关的	-10.5473
尊敬	-10.548
没必要	-10.548
中有	-10.5481
警局	-10.5484
平等	-10.5489
要找	-10.5495
理念	-10.5496
完善	-10.5497
协调	-10.5497
嫌犯	-10.5498
蛋白	-10.55
成果	-10.5504
▁不能	-10.5506
这本书	-10.5506
对着	-10.5507
真是个	-10.5512
这个世界	-10.5513
美好的	-10.5515
这也	-10.5517
齿	-10.552
的秘密	-10.5524
果汁	-10.5526
因为它	-10.5527
英镑	-10.5528
历史上	-10.5529
我刚	-10.5529
看起来像	-10.5529
经历了	-10.553
克拉克	-10.5531
别担心	-10.5533
看到他	-10.5533
此类	-10.5533
加上	-10.5535
bo	-10.5536
同志	-10.5536
何时	-10.5538
搞砸了	-10.5538
只不过是	-10.5543
考虑到	-10.5544
催	-10.5545
地球上	-10.5545
薪	-10.5545
仙	-10.5547
提供的	-10.5551
宣称	-10.5554
必须要	-10.5559
是如此	-10.556
房子里	-10.556
旨在	-10.5561
不满	-10.5562
▁波	-10.5563
成年人	-10.5565
咱俩	-10.5567
则是	-10.5567
环保	-10.5567
开始了	-10.5569
足以	-10.5571
son	-10.5576
辩论	-10.5579
站起来	-10.5584
他也	-10.5584
找我	-10.5588
▁我觉得我们	-10.5588
忽视	-10.559
下周	-10.5591
干活	-10.5592
益	-10.5592
葬礼	-10.5593
宪法	-10.5598
妹	-10.5601
鞋子	-10.5602
逗	-10.5603
丘	-10.5603
求你	-10.5607
&	-10.561
惊讶	-10.5612
▁我准备	-10.5613
什么的	-10.5615
搜	-10.562
....	-10.5622
检验	-10.5622
密切	-10.5623
我爸爸	-10.5623
你到底	-10.5624
聚集	-10.5626
小时候	-10.5627
说得对	-10.563
▁我告诉过你	-10.5632
器官	-10.5632
▁不要	-10.5633
你的朋友	-10.5635
冬	-10.5639
典	-10.5639
问题是	-10.5641
个小	-10.5642
镜头	-10.5642
28	-10.5642
去世	-10.5642
心灵	-10.5642
让你们	-10.5643
戏剧	-10.5643
很想	-10.5644
▁我不明白	-10.5647
▁当她	-10.5647
这个地方	-10.5648
的未来	-10.5649
能看到	-10.5649
乘客	-10.5649
悲伤	-10.565
被称为	-10.5653
有用	-10.5653
▁恐怕	-10.5655
V	-10.5656
都知道	-10.5656
动脉	-10.5658
去见	-10.5659
改进	-10.5661
航班	-10.5661
潜在	-10.5665
大麻	-10.5665
子里	-10.5669
无数	-10.5679
窃	-10.5682
希望你	-10.5683
朱	-10.5686
沟通	-10.5688
时机	-10.5689
▁上周	-10.5689
葡萄	-10.5694
构	-10.5695
基本上	-10.5698
天然气	-10.57
一百	-10.5701
乡村	-10.5705
检察官	-10.5709
公正	-10.571
呈	-10.5715
金融危机	-10.5719
我妻子	-10.5724
自豪	-10.5725
有任何	-10.5729
遮	-10.5729
的尸体	-10.5731
慈善	-10.5731
恶魔	-10.5733
稍	-10.5733
续	-10.5733
戴着	-10.5733
犯了	-10.5735
废话	-10.5743
放了	-10.5744
东京	-10.5744
截	-10.5747
而不	-10.5747
还需要	-10.5747
▁我儿子	-10.5753
呼吁	-10.5754
是怎么回事	-10.5756
与其	-10.5756
ill	-10.5756
焦	-10.5757
辩护	-10.5757
座位	-10.5758
▁我将	-10.5759
代码	-10.5761
悬	-10.5764
▁一定	-10.5767
做一个	-10.5772
枝	-10.5776
▁我们只是	-10.5779
金钱	-10.578
第五	-10.578
▁因为如果	-10.5783
逝	-10.5785
肿瘤	-10.5786
▁我不知道你	-10.5789
▁这一	-10.5792
捡	-10.5792
郎	-10.5795
拿了	-10.5798
入侵	-10.5798
开着	-10.5799
特色	-10.5799
▁他已经	-10.5802
告诉过你	-10.5803
墓	-10.5804
大街	-10.581
毕竟	-10.581
袭	-10.5813
裔	-10.5814
他们就	-10.5814
无辜	-10.5815
泉	-10.5815
上车	-10.5816
▁在我看来	-10.5821
复杂的	-10.5822
已经死了	-10.5823
腔	-10.5825
其中一个	-10.5825
助理	-10.5829
”(	-10.5829
复制	-10.583
走向	-10.583
之所以	-10.5831
好人	-10.5832
带了	-10.5837
关掉	-10.584
向前	-10.5841
▁一位	-10.5842
原始	-10.5843
26	-10.5847
设立	-10.5848
预防	-10.5849
提交	-10.585
有效的	-10.5852
ia	-10.5853
▁我很高兴	-10.5856
孙	-10.5859
▁我父亲	-10.5864
卸	-10.5867
棒球	-10.5867
▁你妈妈	-10.5871
太平洋	-10.5874
的那种	-10.5875
报复	-10.5877
沮丧	-10.5877
我该	-10.5885
付钱	-10.5886
关联	-10.5886
吸引力	-10.5887
使他	-10.5887
说出来	-10.5892
美女	-10.5893
伏	-10.5895
2.	-10.5897
交谈	-10.59
▁穿	-10.5901
指示	-10.5906
社交	-10.5907
珀	-10.591
轨道	-10.5911
恐怖分子	-10.5911
赤字	-10.5914
求你了	-10.5916
所有这些	-10.5917
人才	-10.5918
在他的	-10.5922
有事	-10.5922
三明治	-10.5924
得太	-10.5924
▁你这个	-10.5929
补偿	-10.593
▁想想	-10.5934
▁他也	-10.5939
▁你不想	-10.5939
核心	-10.5945
影片	-10.5945
出席	-10.5947
不良	-10.5948
脆弱	-10.5949
拥	-10.5954
会计	-10.5957
有机	-10.5958
了些	-10.5958
吸收	-10.596
想念	-10.5961
女王	-10.5962
升级	-10.5969
椅子	-10.5972
我的心	-10.5973
岛上	-10.5975
饼干	-10.5976
安慰	-10.5976
点什么	-10.5976
来过	-10.598
粒	-10.5981
0.	-10.5981
佬	-10.5981
矮	-10.5981
以此	-10.5984
煮	-10.5985
重视	-10.599
的产品	-10.5992
只需	-10.5992
伊斯兰	-10.5993
学术	-10.5993
明智	-10.5995
会使	-10.5996
多个	-10.5997
识别	-10.6002
仓库	-10.6003
苏格兰	-10.6003
是因为我	-10.6004
添加	-10.6006
诸如	-10.6008
设有	-10.6011
脂肪	-10.6014
塑料	-10.6014
童	-10.6014
常见	-10.6015
储	-10.6018
现状	-10.6019
跟我们	-10.6019
经济学	-10.602
运营	-10.6022
录音	-10.6022
裙子	-10.6025
比利	-10.6026
看见了	-10.6032
▁他对	-10.6037
适当	-10.6039
罩	-10.6042
好玩	-10.6042
▁B	-10.6043
的内容	-10.6048
▁完全	-10.6048
飘	-10.605
存在的	-10.605
尤其	-10.6054
政权	-10.606
新加坡	-10.6061
小小的	-10.6062
使我	-10.6062
仁	-10.6064
极其	-10.6067
体制	-10.6075
你都	-10.6076
▁你跟	-10.6076
▁奥	-10.6081
特大床	-10.6086
送你	-10.6086
乎	-10.6088
的变化	-10.6088
但却	-10.6089
▁我们将	-10.6096
的做法	-10.6097
脂	-10.61
吉尔	-10.61
的城市	-10.61
笼	-10.61
也许会	-10.6101
文字	-10.6103
恋爱	-10.6106
专利	-10.6106
学到	-10.611
煤	-10.611
良好的	-10.611
会员	-10.6114
激情	-10.6114
两名	-10.6114
你该	-10.6117
个星期	-10.6117
▁我从没	-10.6124
K	-10.6126
来看看	-10.6128
锻炼	-10.613
魔鬼	-10.6134
进程	-10.6135
走出	-10.6138
别这样	-10.614
我只	-10.614
亲密	-10.614
自从	-10.6142
藏在	-10.6147
迎	-10.6148
这些东西	-10.6153
你丈夫	-10.6154
好么	-10.6155
喝一杯	-10.6156
揍	-10.6159
贫	-10.6161
▁A	-10.6161
看不见	-10.6164
也就是	-10.6167
地铁	-10.6169
伟大	-10.6169
▁把她	-10.6172
▁告诉他	-10.6172
▁他不会	-10.6172
您可以	-10.6174
数据库	-10.6175
反抗	-10.6175
愚蠢的	-10.6177
▁上次	-10.6178
钻石	-10.618
唯	-10.6182
你们两个	-10.6182
▁s	-10.6183
上个月	-10.6184
移植	-10.6184
眼前	-10.6186
陌生人	-10.6186
1000	-10.6187
北方	-10.6188
那只	-10.6191
困扰	-10.6192
我要去	-10.6193
的投资	-10.6194
诸	-10.6199
保密	-10.62
个性	-10.6202
叙利亚	-10.6203
不再是	-10.6204
先进	-10.6209
42	-10.6209
偶	-10.6211
再也	-10.6211
命运	-10.6212
▁我妈妈	-10.6213
是时候	-10.6213
栏	-10.6217
解放	-10.6218
去买	-10.6219
稍微	-10.6223
物种	-10.6224
你爸爸	-10.623
强奸	-10.623
锅	-10.6233
原子	-10.6237
这件	-10.6239
透明	-10.6241
流动	-10.6241
间的	-10.6242
洛克	-10.6246
火箭	-10.6247
的说法	-10.6248
wa	-10.6249
很明显	-10.6252
的意见	-10.6253
经济体	-10.6253
真实的	-10.6253
模拟	-10.6255
飞船	-10.6256
▁of	-10.6256
气体	-10.6259
产量	-10.626
打扮	-10.6261
剩下的	-10.6263
边境	-10.627
那不是	-10.6271
▁你怎么	-10.6272
辣	-10.6274
的路上	-10.6275
越南	-10.6276
籍	-10.6276
夸	-10.6286
姓	-10.6287
美洲	-10.629
▁我说了	-10.6295
形势	-10.6297
赚钱	-10.6301
抵达	-10.6303
消失了	-10.6307
▁离开	-10.6308
姐	-10.6308
的味道	-10.6308
你最好	-10.6309
细菌	-10.6309
过敏	-10.631
正义	-10.6311
你为什么	-10.6311
你认为	-10.6312
品质	-10.6312
钱包	-10.6312
合适的	-10.6312
37	-10.6316
倒是	-10.6317
发动	-10.6319
泪	-10.6321
是这样的	-10.6321
各自	-10.6323
雇员	-10.6324
成分	-10.6324
坑	-10.6325
你爸	-10.6328
又有	-10.633
至今	-10.6331
的压力	-10.6332
罚	-10.6334
天赋	-10.6335
坏人	-10.6336
痕	-10.6336
出门	-10.6342
礼貌	-10.6342
情形	-10.6347
胎	-10.635
一分钟	-10.6354
无疑	-10.6359
向他	-10.636
▁即便	-10.636
是一位	-10.6361
对不对	-10.6366
保险箱	-10.6366
困境	-10.6366
映	-10.6368
喜爱	-10.637
妥	-10.6371
多种	-10.6372
领先	-10.6372
凯特	-10.6374
蜂	-10.6374
▁或是	-10.6375
躺在	-10.6376
传说	-10.6377
系列	-10.6377
拥抱	-10.6378
▁也不	-10.6378
很高兴见到你	-10.6382
遇见	-10.6383
损伤	-10.6384
反正	-10.6388
联络	-10.639
指标	-10.6391
穿越	-10.6393
▁我决定	-10.6394
奥运会	-10.6395
疼痛	-10.6399
▁巴	-10.6402
克里斯	-10.6403
华尔街	-10.6404
该怎么办	-10.6404
不觉得	-10.6405
展现	-10.6406
坚强	-10.6406
合并	-10.6408
手臂	-10.6409
制服	-10.6409
危险的	-10.6411
出去了	-10.6412
府	-10.6421
的员工	-10.6421
就象	-10.6424
一眼	-10.6425
突破	-10.6426
踩	-10.6427
疗	-10.6427
▁我说过	-10.6432
外部	-10.6432
可以用	-10.6436
400	-10.6441
女孩子	-10.6441
)、	-10.6442
面试	-10.6442
坐着	-10.6443
尝	-10.6444
人权	-10.6448
就行	-10.6452
希尔	-10.6453
卖给	-10.6454
不会有	-10.6459
你儿子	-10.6459
不信	-10.646
特工	-10.6465
一整天	-10.6468
布兰	-10.6471
看一下	-10.6471
火山	-10.6471
▁你看起来	-10.6472
车子	-10.6472
▁你只	-10.6473
断了	-10.6474
小女孩	-10.6475
给了我	-10.6478
走开	-10.6479
泰国	-10.6481
古代	-10.6484
写作	-10.6484
▁P	-10.6486
屋子	-10.6486
里斯	-10.6487
洪	-10.6488
把那	-10.6489
在你的	-10.6489
撕	-10.649
东部	-10.6493
他已经	-10.6499
原谅我	-10.65
尘	-10.65
央行	-10.6501
玫瑰	-10.6502
未能	-10.6502
▁我也是	-10.6504
也许是	-10.6505
布里	-10.6515
爷爷	-10.6516
工作了	-10.6517
▁他们把	-10.6518
增加了	-10.6518
陪审团	-10.6521
▁他知道	-10.6523
一番	-10.6528
不是很	-10.6531
耐心	-10.6534
含有	-10.6536
大选	-10.6537
味道	-10.6537
黛	-10.654
▁对我来说	-10.654
竟	-10.6542
另外一个	-10.6545
特定	-10.6546
千万	-10.6551
逻辑	-10.6551
刚好	-10.6554
护理	-10.6558
五个	-10.6561
叫他	-10.6564
的设计	-10.6567
我以为	-10.6568
丰富	-10.6568
尊	-10.6569
挣	-10.657
如果他	-10.6572
留给	-10.6576
什么也没	-10.6577
汉堡	-10.6578
▁你今天	-10.6579
艇	-10.6581
懒	-10.6582
年级	-10.6583
空调	-10.6585
旺	-10.6586
潘	-10.6586
周期	-10.6586
好朋友	-10.6587
▁你知道我们	-10.6588
那次	-10.6589
两者	-10.6593
放进	-10.6593
扁	-10.6597
指纹	-10.6598
也知道	-10.66
第二次	-10.6602
脖子	-10.6603
使用的	-10.6604
拍卖	-10.6607
是怎样	-10.6607
商人	-10.661
体现	-10.6611
▁换	-10.6612
不许	-10.6616
do	-10.6617
赐	-10.662
皆	-10.662
在干什么	-10.6624
2006	-10.6624
优秀的	-10.6625
贫困	-10.6626
搅	-10.6632
▁似乎	-10.6632
衰退	-10.6632
涌	-10.6633
同一个	-10.6635
洗澡	-10.664
季节	-10.6641
寻常	-10.6643
风暴	-10.6643
蔬菜	-10.6643
好运	-10.6647
通道	-10.6648
种植	-10.665
这段	-10.6653
我明白	-10.6654
很简单	-10.6656
教徒	-10.6657
喝点	-10.6657
di	-10.6658
大厅	-10.6659
剩	-10.6663
很小	-10.6664
主张	-10.6664
3.	-10.6667
演奏	-10.6668
▁你什么时候	-10.6669
心脏病	-10.6671
波兰	-10.6671
所知	-10.6672
这里有	-10.6674
干扰	-10.6678
去参加	-10.6678
聊聊	-10.6684
帮我们	-10.6685
给自己	-10.6688
怨	-10.6688
大床	-10.669
团结	-10.669
詹姆斯	-10.6697
ci	-10.6699
上尉	-10.6699
最后的	-10.6699
迫使	-10.6699
隐瞒	-10.6701
我想我	-10.6703
作战	-10.6703
太久	-10.6704
代替	-10.6706
说说	-10.6707
燃烧	-10.6708
2%	-10.6709
▁你可	-10.6713
一头	-10.6715
雇佣	-10.6717
▁在此	-10.6719
做到了	-10.672
需要一个	-10.672
▁就这样	-10.6722
严肃	-10.6725
是多么	-10.6725
什么地方	-10.673
圣经	-10.673
分裂	-10.6733
排放	-10.6734
有人在	-10.6734
际	-10.6734
乐趣	-10.6734
以往	-10.6737
你真	-10.6738
泰勒	-10.6739
担保	-10.6739
▁多谢	-10.6741
家具	-10.6761
城镇	-10.6763
俄	-10.6763
战士	-10.677
▁我觉得她	-10.6771
牙齿	-10.6772
说法	-10.6777
一篇	-10.6777
查看	-10.6779
▁为何	-10.6781
周二	-10.6781
▁我讨厌	-10.6782
凝	-10.6784
已被	-10.6786
第二个	-10.6788
表现得	-10.6789
来做	-10.6789
会导致	-10.679
最后一个	-10.6793
缺陷	-10.6795
▁正如	-10.6798
码头	-10.6798
燃	-10.6799
玩笑	-10.6799
死人	-10.68
还有什么	-10.68
瘤	-10.6802
想像	-10.6802
交往	-10.6803
▁最终	-10.6804
支持者	-10.6804
▁科	-10.6805
六个月	-10.6806
携带	-10.681
小伙子	-10.681
秒钟	-10.6811
的记忆	-10.6812
那条	-10.6814
古怪	-10.6815
的角度	-10.6816
为什么会	-10.6816
工作人员	-10.6819
优先	-10.682
说吧	-10.682
这里是	-10.6822
最喜欢的	-10.6823
因为她	-10.6825
肾	-10.6825
创意	-10.6825
▁因为他们	-10.6826
▁哪里	-10.6828
做些	-10.683
了一下	-10.6834
青少年	-10.6834
或者是	-10.6835
危	-10.6835
完整	-10.6837
拿来	-10.684
低于	-10.684
生病	-10.6842
双手	-10.6845
放弃了	-10.6846
鲍	-10.6847
社会主义	-10.6849
尖叫	-10.6851
人体	-10.6853
本质	-10.6855
我们将	-10.6857
模糊	-10.6857
皇家	-10.6858
促使	-10.686
询问	-10.686
赶快	-10.6868
忽略	-10.6869
射击	-10.6871
的案子	-10.6874
侵犯	-10.6875
为啥	-10.6876
钩	-10.6877
柏	-10.6879
▁每年	-10.6881
言论	-10.6882
2005	-10.6883
▁看上去	-10.6888
29	-10.689
▁安	-10.6893
这对	-10.6897
留言	-10.6898
三个月	-10.6902
嘲笑	-10.6905
宴会	-10.6908
3%	-10.691
周六	-10.6911
风景	-10.6912
底下	-10.6913
跟他们	-10.6913
问题上	-10.6914
股价	-10.6914
只是一个	-10.6915
发生什么事	-10.6915
ka	-10.6917
屈	-10.6919
当地的	-10.6922
倾向	-10.6923
帝	-10.6926
这会	-10.6926
结局	-10.6935
输入	-10.6936
搜查	-10.6937
抵	-10.6939
土壤	-10.694
企图	-10.6941
没能	-10.6942
在场	-10.6943
屏	-10.6947
放开	-10.6947
更糟	-10.6947
看看你	-10.6951
我告诉你	-10.6953
楼梯	-10.6955
精力	-10.6956
▁够了	-10.6956
问他	-10.6962
也可能	-10.6962
伍德	-10.6964
走廊	-10.6964
最为	-10.6964
用品	-10.6965
性和	-10.6965
弄到	-10.6967
好多了	-10.6967
绝望	-10.6967
斯塔	-10.6968
工会	-10.6968
局面	-10.6969
城堡	-10.6971
伯特	-10.6978
会发生	-10.698
赔偿	-10.698
必要的	-10.6982
十五	-10.6984
他自己	-10.6984
外套	-10.6986
▁我被	-10.6987
‘	-10.6988
▁然后	-10.6994
上网	-10.6996
屋顶	-10.6997
▁他很	-10.6997
假期	-10.7
去哪里	-10.7001
和谐	-10.7002
凌晨	-10.7004
修复	-10.7005
看起来很	-10.7007
还记得	-10.7008
突	-10.7013
任何东西	-10.7017
没那么	-10.7019
的血	-10.7022
不公平	-10.7023
经典	-10.7027
▁你这	-10.7027
▁你还是	-10.7028
懂得	-10.7029
判决	-10.7033
更高	-10.7035
具备	-10.7035
侠	-10.7035
格林	-10.7036
在其	-10.7038
▁再说	-10.7038
并在	-10.7039
凑	-10.7039
点东西	-10.704
当年	-10.704
怎	-10.7043
一个小时	-10.7043
棋	-10.7043
蕾	-10.7047
供应商	-10.7048
墙上	-10.7049
更容易	-10.7052
展览	-10.7057
长得	-10.7059
角落	-10.7061
电子邮件	-10.7061
▁你刚才	-10.7062
搬到	-10.7062
呈现	-10.7064
名叫	-10.7064
强制	-10.7065
带我	-10.7065
▁万一	-10.7071
酶	-10.7072
的办法	-10.7072
打架	-10.7073
习	-10.7073
留着	-10.7074
必然	-10.7079
阻碍	-10.708
迁	-10.7082
德尔	-10.7083
会发现	-10.7085
掌控	-10.7088
不要再	-10.7089
箭	-10.7089
▁首先	-10.7089
不希望	-10.7089
ell	-10.7089
你又	-10.709
警报	-10.7091
▁也许	-10.7091
不大	-10.7091
砖	-10.7092
一个新的	-10.7092
亨利	-10.7092
的基本	-10.7092
名为	-10.7097
抽烟	-10.7097
集体	-10.7101
无可	-10.7102
今日	-10.7103
ard	-10.7104
视为	-10.7105
▁必须	-10.7106
庆	-10.7106
不允许	-10.711
占据	-10.7111
很忙	-10.7112
物理	-10.7113
1%	-10.7114
▁我肯定	-10.7114
超越	-10.7115
臂	-10.7119
南非	-10.7121
负责人	-10.7122
被发现	-10.7122
配合	-10.7123
沉默	-10.7123
得知	-10.7123
这只	-10.7126
变了	-10.7127
伞	-10.7128
帮她	-10.7129
▁他没有	-10.713
进攻	-10.7131
受到了	-10.714
歌曲	-10.7142
累了	-10.7143
特别的	-10.7146
没说	-10.7147
梯	-10.7151
但我们	-10.7153
我们也	-10.7154
开口	-10.7155
场景	-10.7156
玉	-10.7158
一道	-10.7158
▁你自己	-10.7159
平民	-10.7162
任命	-10.7163
牧	-10.7164
迈克尔	-10.7165
叫什么	-10.7169
威廉	-10.7169
邻	-10.7169
的丈夫	-10.7171
一瓶	-10.7172
轴	-10.7172
额外	-10.7174
便利	-10.7174
不受	-10.7175
成为了	-10.718
串	-10.718
焦虑	-10.7181
地下室	-10.7181
逐	-10.7182
就知道	-10.7182
名称	-10.7183
友谊	-10.7185
这只是	-10.7187
政党	-10.7191
使你	-10.7191
充满了	-10.7195
膏	-10.7197
▁就因为	-10.7197
没事的	-10.7198
船长	-10.7198
▁告诉你	-10.7202
买卖	-10.7202
决心	-10.7203
法规	-10.7204
▁为什么要	-10.7204
和你一起	-10.7206
▁别说	-10.7207
不论	-10.7208
巢	-10.7213
我正在	-10.7214
但它	-10.7214
到这里	-10.7215
我没事	-10.7216
▁包括	-10.7218
一架	-10.7219
激	-10.7221
不利	-10.7221
秘	-10.7223
是非常	-10.7227
the	-10.7229
拜访	-10.7233
散步	-10.7234
的危险	-10.7235
弥补	-10.7236
犹太	-10.724
▁b	-10.724
老是	-10.7244
伯格	-10.7247
你知道我	-10.725
▁她知道	-10.7251
那样做	-10.7253
三次	-10.7257
发起	-10.7261
冲动	-10.7261
理性	-10.7261
详	-10.7261
误会	-10.7261
因为我们	-10.7261
温暖	-10.7264
屋里	-10.7266
一刻	-10.727
我发誓	-10.7273
无所谓	-10.7273
卡特	-10.7274
▁你可能	-10.7281
你家	-10.7282
让您	-10.7285
服务器	-10.7287
的歌	-10.7288
的法律	-10.7289
航空公司	-10.729
作为一个	-10.7291
▁这间	-10.7294
丰富的	-10.7297
标记	-10.7297
不敢相信	-10.7297
碎片	-10.7297
办公	-10.7298
按摩	-10.7299
拉斯	-10.73
活力	-10.7301
胳膊	-10.7303
都不知道	-10.7303
从前	-10.7312
种子	-10.7317
一代	-10.7318
街头	-10.7319
认出	-10.7321
我只是想	-10.7322
很快就会	-10.7323
三十	-10.7324
的调查	-10.7329
▁你也	-10.733
吸毒	-10.733
脱离	-10.7335
▁我不认为	-10.7335
这种情况	-10.7336
工艺	-10.7338
▁你干嘛	-10.7339
粉丝	-10.7339
亿美元的	-10.7342
国有	-10.7345
资助	-10.735
是不会	-10.7352
▁若	-10.7355
样子	-10.7356
甜心	-10.7358
的政策	-10.7358
伍	-10.7359
监	-10.7359
场合	-10.7365
排名	-10.7367
脉	-10.7367
有能力	-10.7375
短期	-10.7375
om	-10.7376
极了	-10.7377
援	-10.7382
精确	-10.7383
像你这样	-10.7384
来找我	-10.7386
住宅	-10.7388
激励	-10.739
逆	-10.7391
收藏	-10.7397
韩	-10.7398
产生了	-10.7399
紫	-10.7401
遇	-10.7401
姐妹	-10.7405
胡子	-10.7408
天生	-10.7409
但她	-10.7411
老公	-10.7414
减轻	-10.7416
形容	-10.7416
只需要	-10.7416
糊	-10.7417
港口	-10.7418
零售	-10.7418
着他	-10.7418
篮球	-10.742
织	-10.742
我就会	-10.7421
一面	-10.7425
转换	-10.7426
福特	-10.7428
的价值	-10.7429
逃避	-10.743
设计的	-10.743
镜子	-10.7431
妞	-10.7431
▁你说什么	-10.7431
tt	-10.7432
的责任	-10.7432
溶	-10.7435
配置	-10.744
基督	-10.7442
▁别让	-10.7443
舞台	-10.7444
独特的	-10.7447
辈	-10.7448
是因为你	-10.7451
▁兄弟	-10.7451
复苏	-10.7452
▁把他们	-10.7453
来点	-10.7453
革	-10.7456
恶化	-10.7458
▁早上好	-10.7459
变得更	-10.7461
抵抗	-10.7461
样本	-10.7463
之时	-10.7466
共产党	-10.7469
真的吗	-10.7469
美元的	-10.7469
实力	-10.747
的感受	-10.747
绳	-10.7473
实在是	-10.7474
怎么想	-10.7475
却没有	-10.7476
基督教	-10.7479
号公路	-10.7479
干预	-10.7481
钢琴	-10.7482
出血	-10.7482
共和国	-10.7486
im	-10.7488
沟	-10.7489
霸	-10.749
廉价	-10.7493
取决于	-10.7494
爷	-10.7495
交叉	-10.7496
的最后	-10.7496
赌场	-10.7497
ay	-10.7497
觉得你	-10.7497
句话	-10.7498
谋杀案	-10.7499
查理	-10.7501
面积	-10.7501
我的手	-10.7502
优秀	-10.7502
多次	-10.7503
健身	-10.7504
▁不管怎样	-10.7506
荷	-10.7508
的梦想	-10.7509
一开始	-10.7511
带你去	-10.7512
早点	-10.7514
▁一定是	-10.7515
性格	-10.7517
那人	-10.7517
有罪	-10.7519
老天	-10.7522
忧	-10.7523
人心	-10.7523
是我们的	-10.7528
周日	-10.7529
想让你	-10.7529
的电影	-10.7529
咋	-10.7531
史密斯	-10.7532
旋转	-10.7533
▁是因为	-10.7534
可笑	-10.7535
就该	-10.7538
▁你让我	-10.7538
策划	-10.754
人工	-10.7541
日常	-10.7546
▁当时我	-10.7551
闷	-10.7552
谈到	-10.7553
每晚	-10.7555
坦白	-10.7557
引导	-10.7558
▁咱	-10.7559
使其	-10.7559
▁像是	-10.7559
ie	-10.756
拿出	-10.7566
饭店	-10.7568
准备好了吗	-10.7569
茜	-10.7569
得很好	-10.757
柏林	-10.7572
称之为	-10.7574
洲	-10.7574
会说	-10.7577
孤	-10.7578
美妙	-10.7581
最棒的	-10.7586
入口	-10.7587
阅	-10.7588
乖	-10.759
共享	-10.7593
亨	-10.7594
尺寸	-10.7596
剧院	-10.7597
葬	-10.7599
色彩	-10.7601
还想	-10.7601
敏	-10.7601
晚了	-10.7608
隐私	-10.7609
▁我爱你	-10.7611
走路	-10.7611
坏事	-10.7612
一个女人	-10.7612
▁希望你	-10.7614
大多数人	-10.7614
送给	-10.7614
▁你说你	-10.7615
荣誉	-10.7616
特殊的	-10.7616
哥伦比亚	-10.762
与你	-10.7622
缓慢	-10.7624
年以来	-10.7624
杨	-10.7624
体重	-10.7626
的同时	-10.7626
▁听说	-10.7627
其中包括	-10.763
我的生活	-10.763
灌	-10.7636
相应	-10.764
阶级	-10.7642
▁如果有	-10.7645
轻易	-10.7646
偷偷	-10.7646
直觉	-10.765
罗伯特	-10.7653
ou	-10.7659
创业	-10.7659
被认为是	-10.766
有种	-10.766
因而	-10.7665
刘	-10.7667
深刻	-10.767
没时间	-10.7671
完全是	-10.7673
的人生	-10.7673
给出	-10.7673
设计师	-10.7676
▁我爱	-10.7676
性能	-10.7677
输了	-10.7677
▁不是我	-10.7679
悲剧	-10.768
救援	-10.7681
性质	-10.7681
认为他	-10.7683
畅	-10.7683
的行动	-10.7691
沾	-10.7692
歇	-10.7692
大师	-10.7695
洗手间	-10.7698
带他	-10.7699
围绕	-10.77
光明	-10.77
道理	-10.7701
是唯一	-10.7705
标签	-10.7706
镇上	-10.7706
基金会	-10.7708
捐	-10.7709
空军	-10.7711
树林	-10.7711
在那边	-10.7714
的手机	-10.7714
▁子弹	-10.7715
丧失	-10.7715
极大	-10.7717
还不够	-10.772
的思想	-10.7724
驾	-10.7729
过分	-10.773
be	-10.773
看见你	-10.7732
拿到了	-10.7734
对比	-10.7734
沙发床	-10.7735
这是我的	-10.7735
▁在这里	-10.7738
拿出来	-10.7739
唱片	-10.7739
致力于	-10.774
外星人	-10.774
盈利	-10.774
中东	-10.7742
▁泰	-10.7744
百分之	-10.775
爱她	-10.7752
▁你总是	-10.7758
一口	-10.7762
回归	-10.7763
ja	-10.7767
支撑	-10.7767
难以置信	-10.777
为您	-10.7773
滑雪	-10.7774
谴责	-10.7774
漆	-10.778
节日	-10.7781
几百	-10.7783
休闲	-10.7784
我很好	-10.7785
周四	-10.7787
岁了	-10.7788
近期	-10.7788
肌	-10.7788
乔伊	-10.7789
塞尔	-10.7791
坛	-10.7792
们都	-10.7792
▁反正	-10.7793
明显的	-10.7794
斯先生	-10.7795
洒	-10.78
▁是呀	-10.7801
后者	-10.7805
活跃	-10.7806
清单	-10.7809
还好	-10.781
▁你父亲	-10.781
认识到	-10.7811
传递	-10.7811
也就	-10.7812
寸	-10.7815
弄得	-10.7817
突出	-10.7817
驱	-10.7819
新娘	-10.782
流感	-10.7821
衬衫	-10.7822
我们一起	-10.7822
浪费时间	-10.7826
案例	-10.7826
是他的	-10.7826
之旅	-10.7827
夫妻	-10.7831
淋浴	-10.7831
好看	-10.7835
智能	-10.7835
认可	-10.7836
hi	-10.7843
旧金山	-10.7843
有兴趣	-10.7843
年后	-10.7844
冬天	-10.7845
奏	-10.7846
ac	-10.7851
奎	-10.7852
算了	-10.7853
之际	-10.7855
揭	-10.7856
应用程序	-10.7856
克莱	-10.7857
世界上最	-10.7857
优质	-10.7868
▁每个	-10.787
规律	-10.787
驱动	-10.7873
谜	-10.7873
一夜	-10.7874
炼	-10.7878
没见过	-10.7879
这个词	-10.7888
营业	-10.7891
主要是	-10.7892
没事了	-10.7892
曾在	-10.7893
古老的	-10.7895
毁掉	-10.79
感受到	-10.79
迷你	-10.7903
任何事	-10.7907
▁刚	-10.7908
店里	-10.791
把事情	-10.791
▁但愿	-10.7915
美味	-10.7921
的狗	-10.7921
挨	-10.7924
免疫	-10.7928
这也是	-10.7929
势力	-10.7931
块钱	-10.7932
一千	-10.7934
阔	-10.7934
▁我当然	-10.7939
si	-10.7939
德拉	-10.794
的反应	-10.7941
操纵	-10.7941
平常	-10.7944
会成为	-10.7945
对中国	-10.7946
四年	-10.7946
华夫饼	-10.795
和我一起	-10.7953
路易斯	-10.7953
找一个	-10.7954
在上面	-10.7956
▁因为它	-10.7959
药品	-10.7962
腺	-10.7965
却不	-10.7965
但他们	-10.7966
什么样的	-10.7967
举行的	-10.7968
稻	-10.797
以至于	-10.797
号高速公路	-10.797
珠宝	-10.797
设法	-10.7972
的客人	-10.7972
好不好	-10.7978
▁你一直	-10.7978
盒子	-10.7981
嘴里	-10.7985
兄	-10.7987
巴勒斯坦	-10.7987
这东西	-10.7988
隔离	-10.7988
性别	-10.7989
见他	-10.7992
最好的朋友	-10.7992
已有	-10.7992
打断	-10.7992
伴侣	-10.7996
你的手	-10.7996
▁我同意	-10.7997
瑞典	-10.7998
奶酪	-10.7998
号州际公路	-10.8001
得先	-10.8004
岁时	-10.8005
▁印度	-10.8005
春天	-10.8005
希望你能	-10.8006
客厅	-10.8007
he	-10.8007
克劳	-10.8009
吨	-10.8014
歌手	-10.8014
知道她	-10.8015
导演	-10.8019
为她	-10.8021
执政	-10.8022
ex	-10.8023
埃尔	-10.8028
丧	-10.8028
斯顿	-10.8029
裁	-10.8034
妈的	-10.8036
补贴	-10.8038
引起的	-10.8039
锡	-10.804
篮	-10.8042
真的是	-10.8045
巡逻	-10.8049
▁结论	-10.8051
能让你	-10.8056
行事	-10.8058
通信	-10.806
旅客	-10.8065
facebook	-10.8067
▁啥	-10.8069
▁如果不是	-10.8069
要说	-10.8069
意志	-10.8072
漫	-10.8076
相机	-10.8077
始	-10.8077
游行	-10.8078
创始人	-10.808
也将	-10.8081
召开	-10.8084
8%	-10.8084
吼	-10.8084
香槟	-10.8084
侦探	-10.8085
偷走	-10.8087
任何一个	-10.8089
五分钟	-10.8089
这将	-10.8091
高于	-10.8091
趋	-10.8092
名人	-10.8096
ir	-10.8096
字母	-10.8097
google	-10.8098
仰	-10.8098
你们都	-10.8098
正当	-10.81
被告	-10.81
▁你觉得我	-10.8101
▁我该	-10.8108
▁他没	-10.8108
管道	-10.8111
之地	-10.8116
▁上帝啊	-10.8118
只是为了	-10.8119
平板电视	-10.8124
远点	-10.8125
▁我听	-10.8126
▁他从	-10.8128
在英国	-10.8128
测定	-10.8128
▁我只是在	-10.8131
发送	-10.8133
哪种	-10.8134
预定	-10.8135
绵	-10.8138
死后	-10.8138
晚安	-10.8138
发生过	-10.8138
提取	-10.814
你还好吗	-10.8146
点时间	-10.815
岗位	-10.815
安妮	-10.8153
中午	-10.816
裙	-10.816
富裕	-10.8161
一个大	-10.8161
格雷	-10.8161
稍等	-10.8162
卖了	-10.8165
扩展	-10.8167
做的事情	-10.8169
不适合	-10.817
说真的	-10.8171
距	-10.8172
总体	-10.8172
▁我们一起	-10.8174
想说	-10.8174
授	-10.8174
雾	-10.8176
坚定	-10.8178
崇拜	-10.8179
根本没	-10.8181
悠	-10.8182
模仿	-10.8187
薪水	-10.8189
返	-10.8192
宝贝儿	-10.8192
周三	-10.8192
喜欢我	-10.8193
想让	-10.8194
他不会	-10.8195
趁	-10.8196
鉴于	-10.82
伟	-10.8206
说实话	-10.8208
会面	-10.8209
衫	-10.8209
可以通过	-10.8212
fi	-10.8213
在学校	-10.8219
换个	-10.8219
永久	-10.822
仔	-10.8221
摊	-10.8223
10%	-10.8224
贫穷	-10.8224
州长	-10.8226
研究所	-10.8227
的存在	-10.8227
诅咒	-10.8228
好笑	-10.8228
缺少	-10.8231
现代化	-10.8234
ton	-10.8238
乐意	-10.8239
村庄	-10.824
物体	-10.8241
谁是	-10.8241
屎	-10.8243
肖	-10.8244
狱	-10.8254
我感觉	-10.8257
▁我看见	-10.8258
沃尔	-10.8258
罪行	-10.8258
▁你不觉得	-10.8268
猴子	-10.8268
奖励	-10.8269
月球	-10.827
兽	-10.8272
遥	-10.8273
分散	-10.8276
存款	-10.8278
平安	-10.828
播放	-10.8281
我的车	-10.8281
黄色	-10.8281
军方	-10.8281
老实	-10.8282
卖掉	-10.8283
北极	-10.8283
翼	-10.8285
的客户	-10.8285
大门	-10.8286
框	-10.8289
va	-10.829
4%	-10.829
很棒的	-10.829
▁在美国	-10.8291
能做到	-10.8291
刑事	-10.8294
克服	-10.8294
仅有	-10.8294
祸	-10.8294
收音机	-10.8295
有自己的	-10.8297
那晚	-10.8298
这个案子	-10.8298
布拉	-10.83
秩序	-10.83
娃娃	-10.83
很有可能	-10.83
仓	-10.8301
下班	-10.8301
7%	-10.8301
的理论	-10.8302
精神病	-10.8302
嫁	-10.8303
为止	-10.8304
我叫	-10.8304
在网上	-10.8305
不存在	-10.8305
将被	-10.8307
谁会	-10.8312
好像是	-10.8312
挣扎	-10.8314
接收	-10.8315
替我	-10.8315
全新的	-10.8318
占领	-10.8318
改造	-10.8319
酒精	-10.8319
▁如果有人	-10.8319
危害	-10.8319
辛苦	-10.832
太阳能	-10.8321
晚饭	-10.8321
反复	-10.8322
绝不会	-10.8323
爱他	-10.8324
主权	-10.8326
在未来	-10.8328
该死	-10.8329
况	-10.8331
能把	-10.8331
知道自己	-10.8333
粮食	-10.8336
遗产	-10.8339
盲	-10.834
奴	-10.8341
讽刺	-10.8341
受够了	-10.8344
巴士	-10.8344
构建	-10.8344
两个月	-10.8345
我丈夫	-10.8346
大大	-10.8351
仿	-10.8353
宁愿	-10.8355
流血	-10.8359
淫	-10.8359
有一种	-10.8361
你却	-10.8363
储备	-10.8363
人质	-10.8364
植	-10.8365
仇	-10.8367
分类	-10.8369
汽油	-10.8369
▁凶手	-10.8372
降落	-10.8372
轰	-10.8372
重组	-10.8373
有意	-10.8375
东方	-10.8377
宰	-10.8379
原理	-10.8382
注定	-10.8382
虚拟	-10.8382
边界	-10.8382
整整	-10.8386
受益	-10.8386
合伙人	-10.8391
有空	-10.8392
卧	-10.8395
那时候	-10.8395
▁这位	-10.8396
扮	-10.84
这么大	-10.84
趣	-10.8401
有何	-10.8402
知道我们	-10.8403
扑	-10.8414
秘书	-10.8415
肢	-10.8415
摇滚	-10.8415
这样一个	-10.8416
宜	-10.8416
巾	-10.8417
只不过	-10.8419
▁我需要你	-10.842
服用	-10.8422
倾向于	-10.8422
很聪明	-10.8427
▁回到	-10.8429
是我的错	-10.843
星期五	-10.8431
丑闻	-10.8434
又要	-10.8434
一阵	-10.8435
修理	-10.8438
右边	-10.8442
中最	-10.8443
摄影	-10.8444
糟糕的	-10.8445
助手	-10.8445
必须得	-10.8446
海盗	-10.8446
囚犯	-10.8447
楼下	-10.8449
不多	-10.8449
合成	-10.845
多久了	-10.8455
下车	-10.8456
防御	-10.8456
舌	-10.8462
这样说	-10.8463
赤	-10.8463
贯	-10.8467
古巴	-10.8468
创造了	-10.8468
参考	-10.8471
骑士	-10.8473
晒	-10.8474
电视台	-10.8474
需要你	-10.8475
卡拉	-10.8476
顺便	-10.8476
75	-10.8479
预言	-10.8484
气氛	-10.8488
为他们	-10.8489
形状	-10.8489
符	-10.8491
疗法	-10.8491
▁一般	-10.8492
▁我只要	-10.8494
都不能	-10.8498
一趟	-10.8499
对你的	-10.8502
的时刻	-10.8504
关门	-10.8505
陛下	-10.8506
一个男人	-10.851
另一种	-10.8512
菜单	-10.8512
6%	-10.8514
漂	-10.8514
桌上	-10.8514
伤了	-10.8515
强壮	-10.8515
劳动力	-10.8521
读书	-10.8521
你俩	-10.8521
有一点	-10.853
资本主义	-10.853
棍	-10.8533
关上	-10.8534
简直是	-10.8537
泄	-10.8538
指的是	-10.8538
▁你想让我	-10.8541
但是他	-10.8541
一艘	-10.8542
障	-10.8542
严厉	-10.8544
的命运	-10.8546
垮	-10.8548
▁别忘了	-10.855
真心	-10.8553
总裁	-10.8562
骚扰	-10.8562
上课	-10.8567
自私	-10.8568
无限	-10.857
做梦	-10.857
▁你太	-10.8578
ver	-10.8578
劣	-10.858
短信	-10.858
洗衣	-10.8581
更快	-10.8583
十分钟	-10.8585
▁太棒了	-10.8588
猜测	-10.8591
堵	-10.8595
键	-10.8595
功夫	-10.8597
花钱	-10.86
尽情	-10.86
~	-10.8604
for	-10.8606
的最佳	-10.8607
老妈	-10.8608
常规	-10.8608
打个电话	-10.8608
小孩子	-10.8612
处在	-10.8614
的事实	-10.8624
市场上	-10.8624
戴上	-10.8625
▁我去拿	-10.8626
原因是	-10.8631
可以让	-10.8635
换了	-10.8636
崇	-10.8636
碗	-10.8637
ru	-10.8639
会谈	-10.864
尼尔	-10.8642
鉴	-10.8647
下载	-10.8651
不成	-10.8654
台上	-10.8658
册	-10.8661
▁哪怕	-10.8665
▁每当	-10.8667
绝不	-10.8669
群岛	-10.8669
▁同样	-10.867
从这里	-10.8672
熬	-10.8674
合理的	-10.8674
偿	-10.8676
什么样	-10.8677
ab	-10.8677
今天晚上	-10.8677
疫苗	-10.8678
在说什么	-10.8678
可惜	-10.8679
情人	-10.8684
不只是	-10.8688
此前	-10.8697
这两	-10.8703
来自于	-10.8705
早已	-10.8706
的痛苦	-10.8706
把握	-10.8707
召	-10.8707
▁她想	-10.8709
哈里	-10.871
普通的	-10.8711
美食	-10.8711
更喜欢	-10.8711
画面	-10.8714
不可思议	-10.8716
举动	-10.8722
自愿	-10.8724
▁我担心	-10.8725
半小时	-10.8726
实话	-10.8727
着手	-10.8727
勇	-10.8729
很长时间	-10.8732
教你	-10.8732
了她的	-10.8733
赢得了	-10.8735
氢	-10.8736
受过	-10.874
阴谋	-10.874
所谓	-10.8741
匠	-10.8745
无论是	-10.8746
苗	-10.8747
无线电	-10.8747
▁唉	-10.8747
协定	-10.8748
我的工作	-10.8749
ki	-10.875
恐慌	-10.8751
成功了	-10.8752
场比赛	-10.8753
加工	-10.8753
杀我	-10.8753
兔子	-10.8754
po	-10.8758
将成为	-10.876
辅助	-10.876
▁我自己	-10.876
认知	-10.8765
泛	-10.8768
视觉	-10.8769
信念	-10.877
考验	-10.877
掩盖	-10.877
庞	-10.8771
券	-10.8773
阁下	-10.8773
的病人	-10.8776
非常重要	-10.8777
不是为了	-10.8779
些东西	-10.878
生理	-10.878
做完	-10.8781
这是什么	-10.8781
各地	-10.8783
愈	-10.8783
有利	-10.8783
钓鱼	-10.8785
虽	-10.8786
有办法	-10.8786
逃走	-10.8787
好极了	-10.8792
拟	-10.8792
高层	-10.8792
大事	-10.8792
步行	-10.8793
包裹	-10.8795
剧本	-10.8797
亚马逊	-10.8798
刚开始	-10.8799
发动机	-10.8799
摄像机	-10.8803
莫斯科	-10.8805
此时	-10.8807
你和我	-10.8809
斜	-10.8812
岩石	-10.8812
烦恼	-10.8814
了不起	-10.8814
150	-10.8815
门票	-10.8816
车祸	-10.8818
热带	-10.8819
将于	-10.8823
住房	-10.8823
今后	-10.8824
知名	-10.8826
添	-10.8827
刊	-10.8828
迫	-10.8829
警察局	-10.883
分歧	-10.8832
披	-10.8838
决赛	-10.8844
接待	-10.8847
保姆	-10.8847
最新的	-10.8848
▁但是在	-10.8848
筒	-10.885
仿佛	-10.8851
丹尼	-10.8852
不了解	-10.8856
着呢	-10.8856
香肠	-10.8857
挑选	-10.8857
是一名	-10.8857
灵活	-10.886
我相信	-10.8861
的过程	-10.8862
大多	-10.8862
萝	-10.8865
警长	-10.8869
提供免费	-10.887
吵架	-10.8871
就没有	-10.8872
毛病	-10.8873
给你看	-10.8873
它会	-10.8876
接受了	-10.8882
so	-10.8887
病了	-10.8888
虐待	-10.8889
销量	-10.889
救助	-10.8893
拦	-10.8893
我的意思是	-10.8895
见见	-10.8898
履行	-10.8903
雀	-10.8903
少年	-10.8905
带她	-10.8907
克里	-10.8907
地带	-10.891
ut	-10.891
大胆	-10.8911
太过	-10.8912
要知道	-10.8913
▁你怎么能	-10.8918
▁但那	-10.8926
的经历	-10.8927
毙	-10.8927
听我	-10.893
要比	-10.8936
ec	-10.8936
男生	-10.8937
裸	-10.8939
马丁	-10.894
走过	-10.894
托尼	-10.894
敦	-10.8945
全体	-10.8947
▁于是	-10.8947
途	-10.8949
▁别说了	-10.895
警探	-10.8951
前任	-10.8954
招待	-10.8955
促	-10.8956
亏	-10.8961
每位	-10.8962
恒星	-10.8964
▁你先	-10.8965
即便	-10.8967
聘	-10.8967
引用	-10.8971
的老板	-10.8972
艳	-10.8981
平时	-10.8981
的大脑	-10.8982
叫什么名字	-10.8982
去那里	-10.8982
其余	-10.8982
出卖	-10.8983
商场	-10.8985
白天	-10.8985
衡量	-10.8987
兜	-10.8987
初步	-10.8988
命名	-10.8988
一度	-10.8989
通话	-10.8989
你们要	-10.8991
▁一定要	-10.8991
储蓄	-10.8991
的那个人	-10.8994
设定	-10.8994
鸣	-10.8994
军人	-10.8994
写信	-10.8999
侍	-10.9
J	-10.9
巨头	-10.9
牛排	-10.9
真是太	-10.9003
至关重要	-10.9005
无需	-10.9006
▁好极了	-10.9006
摄	-10.9009
姑	-10.9009
董事	-10.901
左边	-10.9013
适用	-10.9013
收回	-10.9013
在内的	-10.9015
讲述	-10.9017
热爱	-10.9022
更高的	-10.9024
▁但我想	-10.9025
你真的	-10.9026
英国人	-10.903
银行业	-10.903
被抓	-10.903
很幸运	-10.9032
是否有	-10.9034
新鲜水果	-10.9035
马尔	-10.9036
恒	-10.9036
把车	-10.9037
对我说	-10.9037
新型	-10.9041
英文	-10.9041
有时间	-10.9046
▁乔治	-10.9051
基础设施	-10.9052
吓到	-10.9052
一款	-10.9055
挪	-10.9058
的土地	-10.9059
本国	-10.9059
景点	-10.906
气候变化	-10.906
▁我妈	-10.9061
魂	-10.9066
▁我不需要	-10.9067
货车	-10.9068
os	-10.9071
的一员	-10.9074
竞	-10.9077
还有一个	-10.9085
只好	-10.9085
欲望	-10.9086
罪恶	-10.9087
之上	-10.9087
的表演	-10.9088
著名	-10.9091
卜	-10.9093
也一样	-10.9093
我们知道	-10.9094
跃	-10.9094
▁第	-10.9095
奸	-10.9096
浸	-10.9098
睡着了	-10.9098
宽敞的	-10.9098
定了	-10.9099
消耗	-10.91
斯托	-10.91
渴	-10.91
克拉	-10.9105
的感情	-10.9106
到现在	-10.9107
关了	-10.9108
大使	-10.9111
眉	-10.9111
菲尔德	-10.9114
你的名字	-10.9114
介绍了	-10.9114
脑子里	-10.9117
解除	-10.9117
在想什么	-10.9117
▁他就是	-10.9118
天然	-10.912
亲眼	-10.912
可以看到	-10.9125
死刑	-10.9127
列车	-10.9127
廷	-10.9127
解决方案	-10.9128
每日	-10.9132
的婚姻	-10.9136
从中	-10.9137
au	-10.9137
重量	-10.9139
欢乐	-10.9142
赋予	-10.9142
商学院	-10.9148
生育	-10.9149
带回	-10.915
挺好的	-10.915
动物园	-10.9151
是中国	-10.9152
包围	-10.9154
▁第二	-10.9155
我还没	-10.9157
获胜	-10.9157
U	-10.9162
下滑	-10.9163
相信他	-10.9165
脾气	-10.9168
整合	-10.917
瘾	-10.9173
奖金	-10.9173
消防	-10.9175
48	-10.9176
诱惑	-10.9177
如果你想	-10.9177
理智	-10.918
依旧	-10.9181
还有其他	-10.9181
晶	-10.9183
2004	-10.9185
快要	-10.9185
吉姆	-10.9186
竹	-10.9187
努	-10.9187
使命	-10.9189
艘	-10.9192
狄	-10.9192
合约	-10.9194
足够的	-10.9199
go	-10.92
▁即使是	-10.9202
▁你还记得	-10.9204
做这个	-10.9204
世界各地	-10.9205
布莱	-10.921
温和	-10.921
随意	-10.921
▁我不得不	-10.9211
棚	-10.9212
摄像头	-10.9212
不是个	-10.9212
▁你说过	-10.9214
该地区	-10.9215
定期	-10.9219
▁他们想	-10.9228
管制	-10.9228
星星	-10.9228
几十年	-10.9228
经纪人	-10.9232
善良	-10.9234
越来越多的	-10.9239
▁估计	-10.9239
离子	-10.924
狮子	-10.9242
车库	-10.9243
总结	-10.9244
的第一个	-10.9247
能理解	-10.9247
错过了	-10.9249
别碰	-10.925
我的孩子	-10.9252
▁停下	-10.9256
午夜	-10.926
噩梦	-10.9262
当代	-10.9265
栋	-10.9265
潜力	-10.9268
▁我拿	-10.9269
一晚	-10.927
地毯	-10.927
滋	-10.927
住宿	-10.9273
犯罪现场	-10.9275
ul	-10.9279
彼	-10.9281
解决问题	-10.9281
真理	-10.9282
捐赠	-10.9282
约束	-10.9285
芳	-10.9286
▁史	-10.9288
得不到	-10.9292
▁今天是	-10.9297
殿	-10.9297
使他们	-10.9299
多年来	-10.9303
昏迷	-10.9303
制造业	-10.9306
哀	-10.9306
我以前	-10.931
了解你	-10.9311
我很喜欢	-10.9312
的办公室	-10.9312
▁你们知道	-10.9315
的利益	-10.9319
睡了	-10.932
赞成	-10.9322
当天	-10.9326
还是个	-10.9327
掩护	-10.9327
校长	-10.9328
▁你真是	-10.9328
旅程	-10.9333
研发	-10.9333
枪击	-10.9336
美国政府	-10.934
100%	-10.9342
每一	-10.9347
便利设施	-10.9348
▁她被	-10.9348
领土	-10.9355
打扫	-10.9356
医师	-10.9356
走运	-10.9357
芯片	-10.9358
紧缩	-10.9358
▁我早就	-10.9358
一直是	-10.9359
看法	-10.9361
也不知道	-10.9363
学位	-10.9363
科学家们	-10.9364
▁作为一个	-10.9367
奋	-10.9372
护照	-10.9372
迟到	-10.9373
以为你	-10.9373
腐	-10.9375
挺好	-10.9376
起床	-10.9379
wi	-10.9382
书中	-10.9383
替你	-10.9383
这间	-10.9386
企业家	-10.9386
陶	-10.9387
诊所	-10.9388
我听说	-10.9391
争吵	-10.9391
玩意儿	-10.9391
享	-10.9393
研	-10.9393
街上	-10.9394
伙	-10.9395
高盛	-10.9395
放心	-10.9396
契	-10.9399
很可爱	-10.9399
分析了	-10.9401
指南	-10.9401
缓解	-10.9402
bi	-10.9402
托马斯	-10.9402
困惑	-10.9402
发育	-10.9403
击中	-10.9405
▁你认识	-10.9406
强硬	-10.9406
比赛中	-10.9406
超出	-10.9407
打给你	-10.9407
外界	-10.9411
回顾	-10.9411
贱	-10.9412
▁现在他	-10.9412
所说	-10.9413
的精神	-10.9413
有两	-10.9413
知情	-10.9413
忙着	-10.9415
渣	-10.9418
毕	-10.9419
也被	-10.9421
36	-10.9422
这片	-10.9425
穴	-10.9427
做些什么	-10.9427
在伦敦	-10.9429
莲	-10.9432
哨	-10.9433
克林顿	-10.9433
延长	-10.9433
▁先生们	-10.9433
查查	-10.9436
本该	-10.9439
穷人	-10.9444
找到她	-10.9444
呆了	-10.9444
变革	-10.9444
康复	-10.9451
一处	-10.9452
▁别紧张	-10.9452
过多	-10.9452
不稳定	-10.9454
深深	-10.9455
从此	-10.9457
宴	-10.9459
很危险	-10.946
的经验	-10.9461
阳台	-10.9464
拍照	-10.9467
朴	-10.9468
快去	-10.9471
一组	-10.9477
意愿	-10.9477
短暂	-10.9478
加快	-10.9478
痒	-10.9479
槽	-10.9479
一个问题	-10.9482
充足	-10.9483
▁晚安	-10.9485
济	-10.9486
我有个	-10.9486
嫌疑人	-10.9488
条约	-10.9489
尝尝	-10.9489
给人	-10.9489
今天早上	-10.949
一副	-10.9492
出色的	-10.9493
来临	-10.9493
中学	-10.9493
欣	-10.9493
现在已经	-10.9497
要不要	-10.9499
喜剧	-10.9499
打电话给我	-10.9499
飞行员	-10.9499
上下	-10.95
的核心	-10.9501
午饭	-10.9502
蛋白质	-10.9502
市民	-10.9505
采购	-10.9508
的礼物	-10.9514
私下	-10.9514
怎么可能	-10.9515
种类	-10.9516
估	-10.9521
跑步	-10.9521
▁如果你能	-10.9522
电信	-10.9524
兆	-10.9524
ber	-10.9525
监护	-10.9525
景观	-10.9526
迈克	-10.9526
恰	-10.9526
日记	-10.9527
地板	-10.9528
大臣	-10.9529
罪名	-10.9529
龄	-10.9529
反而	-10.9532
一所	-10.9532
被判	-10.9536
逃离	-10.9537
寿	-10.9538
形态	-10.9538
斥	-10.9539
31	-10.954
饿了	-10.9542
▁相反	-10.9546
被视为	-10.9547
过来了	-10.9549
为例	-10.9549
几个星期	-10.955
消灭	-10.9552
卑	-10.9555
写着	-10.9556
删除	-10.9557
风味	-10.9557
的资料	-10.9557
落后	-10.9559
解雇	-10.9559
所能	-10.9561
毫无疑问	-10.9561
身材	-10.9566
会喜欢	-10.9567
指挥官	-10.9567
利斯	-10.957
饶	-10.9571
头部	-10.9573
精英	-10.9576
这地方	-10.9577
ation	-10.9578
▁你喜欢	-10.9578
印刷	-10.9578
成年	-10.9578
五十	-10.9579
su	-10.958
威士忌	-10.9581
棉	-10.9582
做点	-10.9582
▁你知道你	-10.9584
发生的事	-10.9585
···	-10.9586
先生们	-10.9588
前提	-10.959
雌	-10.9592
口气	-10.9592
机密	-10.9595
手套	-10.9595
柄	-10.9597
盯	-10.9597
处境	-10.96
没看到	-10.9602
推迟	-10.9603
特里	-10.9607
搞得	-10.9613
政治家	-10.9614
不明	-10.9615
带领	-10.9617
蜜	-10.9617
糖尿病	-10.9617
吃过	-10.9619
壶	-10.9623
不同意	-10.9626
杀了她	-10.9626
有足够的	-10.9627
早些时候	-10.9628
这部	-10.963
认识他	-10.9634
▁你俩	-10.9635
局势	-10.9635
会没事的	-10.9636
上司	-10.9637
打赌	-10.9637
昆	-10.9637
再也不	-10.9638
大西洋	-10.9638
存储	-10.9639
all	-10.9643
站着	-10.9643
诞生	-10.9643
吃东西	-10.9643
查尔斯	-10.9644
举措	-10.9644
冲浪	-10.9646
少了	-10.9647
▁你怎么知道	-10.9648
衷	-10.9649
还不知道	-10.965
就越	-10.9651
竞争力	-10.9654
▁我认识	-10.9657
▁你不用	-10.9657
犯人	-10.9658
宅	-10.9661
琪	-10.9664
还不错	-10.9667
润	-10.9668
找人	-10.9668
波特	-10.9669
终结	-10.9673
不怕	-10.9676
预订	-10.9677
双人	-10.9678
觉得这	-10.968
诱	-10.968
的文章	-10.9681
一枪	-10.9683
不仅是	-10.9684
相当于	-10.9687
有意义	-10.9691
膝盖	-10.9696
拘留	-10.97
▁他们不会	-10.9703
的重要性	-10.9705
和其它	-10.9711
不是真的	-10.9712
名声	-10.9718
偶然	-10.9719
赛季	-10.972
蛮	-10.9721
把他带	-10.9722
在街上	-10.9722
▁是他	-10.9723
领域的	-10.9724
残忍	-10.9728
ig	-10.9729
航天	-10.9729
交易所	-10.973
看到我	-10.9731
愤	-10.9732
制品	-10.9735
绒	-10.9742
役	-10.9743
▁恭喜	-10.9746
买家	-10.9747
2003	-10.9748
校园	-10.9748
新兴市场	-10.975
ns	-10.9752
生命中	-10.9753
藤	-10.9753
都将	-10.9753
解决了	-10.9753
叉	-10.9756
礼服	-10.9758
躺	-10.9759
通用	-10.9762
带我去	-10.9763
先前	-10.9764
权威	-10.9767
逃脱	-10.9767
轿车	-10.9768
清除	-10.9769
灵感	-10.9772
娃	-10.9774
高达	-10.9776
就已经	-10.9777
接电话	-10.9779
妖	-10.9779
曼哈顿	-10.9779
很担心	-10.978
不停地	-10.978
个体	-10.9783
会怎样	-10.9786
祖父	-10.9788
六个	-10.9789
哈利	-10.979
封锁	-10.9793
额外的	-10.9793
生活方式	-10.9794
铝	-10.9795
无烟客房	-10.9796
想做	-10.9797
品种	-10.9797
的地位	-10.9799
激素	-10.98
商量	-10.98
建立了	-10.9804
愚	-10.9805
▁很显然	-10.9807
坏消息	-10.9808
高尔夫	-10.9812
格拉	-10.9813
跑到	-10.9813
不堪	-10.9813
切断	-10.9815
侮辱	-10.9816
瞬间	-10.9817
强烈的	-10.9819
多谢	-10.982
无情	-10.9821
雇主	-10.9821
使我们	-10.9823
ran	-10.9823
推广	-10.9826
我只想	-10.9826
肮脏	-10.9827
猴	-10.9827
参加了	-10.9829
的生日	-10.9835
大厦	-10.9835
确切	-10.9836
洪水	-10.9836
作证	-10.9839
起作用	-10.9841
附加	-10.9842
更重要	-10.9844
我们都知道	-10.9847
传奇	-10.9847
拒绝了	-10.9849
假如	-10.985
q	-10.9852
覆	-10.9852
验证	-10.9853
你不知道	-10.9853
出色	-10.9854
川	-10.9855
这样的人	-10.9856
不顾	-10.9858
有用的	-10.9859
贝克	-10.9859
夏季	-10.9859
这份工作	-10.986
球场	-10.986
战场	-10.9862
妻	-10.9864
做点什么	-10.9864
了不少	-10.9865
干杯	-10.9866
涉	-10.987
办公桌	-10.9872
乖乖	-10.9875
是最好的	-10.9875
▁T	-10.9876
别提	-10.9877
治理	-10.9878
阐述	-10.988
不是因为	-10.988
优惠	-10.988
数百	-10.9881
王国	-10.9883
认同	-10.9888
留下了	-10.9888
宣	-10.9892
真想	-10.9893
糕点	-10.9894
进监狱	-10.9895
例外	-10.9897
令我	-10.9897
我可不	-10.99
国债	-10.99
兔	-10.9902
帮助你	-10.9904
有什么问题	-10.9904
会议上	-10.9905
男女	-10.9909
纪	-10.9909
性爱	-10.9912
该怎么做	-10.9912
三分之一	-10.9912
你说什么	-10.9914
验	-10.9914
心理学	-10.9915
▁他一直	-10.9915
抵押	-10.9917
会出现	-10.9918
立场	-10.992
匹配	-10.9924
西亚	-10.9926
搞笑	-10.9928
全套服务	-10.9928
番	-10.9928
厌恶	-10.9934
闻到	-10.9935
那张	-10.9939
我不喜欢	-10.994
丹尼尔	-10.9941
钢铁	-10.9942
梁	-10.9943
例子	-10.9944
就是那个	-10.9944
玩意	-10.9947
一方	-10.9948
哭了	-10.9955
20%	-10.9957
银行家	-10.9958
缅甸	-10.996
学校里	-10.9961
有益	-10.9963
研究表明	-10.9963
仍然是	-10.9963
藉	-10.9965
祝福	-10.9967
布鲁	-10.9969
悟	-10.997
颜	-10.9974
▁但是她	-10.9974
彭	-10.9976
终止	-10.9977
经历过	-10.9981
▁凯	-10.9983
读过	-10.9983
ack	-10.9984
开会	-10.9984
极为	-10.9987
一时	-10.9989
一个新	-10.9989
军官	-10.9989
▁第三	-10.9989
老虎	-10.999
你是说	-10.999
第一天	-10.999
由此	-10.9991
糖果	-10.9991
迈阿密	-10.9992
别无选择	-10.9992
执法	-10.9992
很糟糕	-10.9992
失败了	-10.9993
在医院	-10.9995
我老婆	-10.9998
意图	-10.9999
创伤	-11
融	-11.0005
必需	-11.0009
无意	-11.0009
奥斯	-11.0009
海湾	-11.001
下一步	-11.0017
地理	-11.0018
蓄	-11.0022
层面	-11.0023
紧密	-11.0024
建筑物	-11.0025
mer	-11.0026
她是个	-11.0027
一首	-11.0029
▁很多人	-11.003
来讲	-11.0031
再多	-11.0033
史蒂夫	-11.0035
掏	-11.0035
妨碍	-11.0035
赞助	-11.0036
回复	-11.0038
丢下	-11.0039
装修	-11.0043
▁他认为	-11.0043
超市	-11.0044
现在还	-11.0045
▁怎么回事	-11.0046
告诉了	-11.0048
▁你要我	-11.0048
当今	-11.0049
大伙	-11.0051
蜘蛛	-11.0051
这首歌	-11.0051
少校	-11.0055
予	-11.0056
这块	-11.0056
发生了什么事	-11.0059
传送	-11.006
决议	-11.0062
不是什么	-11.0063
唇	-11.0063
格里	-11.0063
幽默	-11.0066
▁如果没有	-11.0067
违	-11.0069
泄露	-11.0071
烫	-11.0073
熨斗	-11.0073
赶上	-11.0077
你一定	-11.008
看到她	-11.008
取得了	-11.0083
什么都没有	-11.0087
乃	-11.0087
两倍	-11.0087
漫长	-11.0087
波动	-11.0089
过后	-11.0089
融合	-11.0089
卡扎菲	-11.0089
你女儿	-11.0096
层次	-11.0099
优雅	-11.0102
的表情	-11.0104
▁自从	-11.0109
享有	-11.0109
乐园	-11.0113
我就要	-11.0113
楼上	-11.0114
宏	-11.0115
凌	-11.0116
下手	-11.0116
血迹	-11.0117
那是什么	-11.0118
9%	-11.0119
维克	-11.012
▁我也不知道	-11.0121
故障	-11.0122
离开这	-11.0124
溢	-11.0127
一定很	-11.0131
迟到了	-11.0132
这些事	-11.0132
业绩	-11.0134
海上	-11.0136
激光	-11.014
几点	-11.014
说了什么	-11.0143
赶到	-11.0144
极度	-11.0144
▁你刚	-11.0145
残酷	-11.0145
仆人	-11.0146
调节	-11.0146
暂停	-11.0146
午	-11.0146
办理	-11.0153
确实是	-11.0154
抄	-11.0154
吃点	-11.0155
买下	-11.0155
认识你	-11.0155
不太好	-11.0155
▁你知道她	-11.0156
投降	-11.0159
这款	-11.0164
打死	-11.0164
半夜	-11.0168
你妻子	-11.017
数千	-11.0171
消化	-11.0178
lin	-11.018
加以	-11.0181
弦	-11.0182
▁你别	-11.0183
频率	-11.0185
▁我承认	-11.0186
峰会	-11.0187
慷慨	-11.0187
肩膀	-11.0187
人们对	-11.0188
ct	-11.0191
▁我想她	-11.0192
厨	-11.0195
他的名字	-11.0195
悔	-11.0197
挂了	-11.0197
▁为什么你不	-11.02
很感激	-11.0202
一句话	-11.0203
吉他	-11.0206
鲸	-11.0208
该怎么	-11.021
罗德	-11.0211
tra	-11.0212
种种	-11.0215
招聘	-11.0216
朵	-11.0222
就在这	-11.0223
提名	-11.0226
斯科	-11.0227
把它放	-11.0228
运转	-11.0228
月亮	-11.0229
适用于	-11.0231
▁但如果你	-11.0232
会议室	-11.0238
一团糟	-11.0239
街区	-11.024
房里	-11.024
眠	-11.0244
▁你爸爸	-11.0246
弗里	-11.0247
四十	-11.0251
受伤了	-11.0251
第六	-11.0252
叹	-11.0258
是正确的	-11.0259
好吃	-11.026
的主意	-11.026
趟	-11.0262
出什么事了	-11.0265
um	-11.0267
攀	-11.0269
藏起来	-11.0271
击败	-11.0275
孤单	-11.0276
提示	-11.0276
对外	-11.0277
见证	-11.028
支援	-11.0282
星期一	-11.029
蹲	-11.0292
麻醉	-11.0294
你做的	-11.0295
一幅	-11.0297
▁当然可以	-11.0298
在路上	-11.0301
这么认为	-11.0302
橄榄球	-11.0303
决不	-11.0303
畜	-11.0303
主持	-11.0304
群众	-11.0305
一向	-11.0307
很酷	-11.0307
誓	-11.0307
法语	-11.0308
▁算了	-11.0313
造成了	-11.0313
几乎没有	-11.0315
舌头	-11.0317
期限	-11.0318
其他地方	-11.0319
欧式早餐	-11.032
车站	-11.0324
我也不想	-11.0325
旨	-11.0327
又一次	-11.0328
艾伦	-11.0331
挖掘	-11.0331
感冒	-11.0332
大海	-11.0334
米尔	-11.0334
一点儿	-11.0335
赔	-11.0335
亚当	-11.0336
溪	-11.0336
特拉	-11.0337
▁你叫	-11.0338
万人	-11.0339
抱着	-11.034
▁我再也不	-11.034
推测	-11.034
孕	-11.0342
星系	-11.0343
记得吗	-11.0344
成员国	-11.0347
付费	-11.0348
枚	-11.0349
挽救	-11.035
掩	-11.0351
在附近	-11.0352
其他国家	-11.0353
芽	-11.0353
收获	-11.0363
所需的	-11.0366
的心脏	-11.0366
我很高兴	-11.0368
是由于	-11.0369
贷	-11.037
赌博	-11.0373
房产	-11.0376
正准备	-11.0376
目光	-11.0376
使人	-11.0379
有点儿	-11.0381
把你们	-11.0381
一封	-11.0384
身后	-11.0384
岁的时候	-11.0385
看待	-11.0385
战胜	-11.0386
芙	-11.0387
似乎是	-11.0387
科尔	-11.0388
就好像	-11.0389
▁尤其	-11.039
遥远	-11.0391
慌	-11.0391
难题	-11.0392
缩小	-11.0394
楚	-11.0396
时间来	-11.0396
见过他	-11.0397
胸部	-11.0399
来找	-11.04
几小时	-11.0403
河流	-11.0406
皇后	-11.041
谎	-11.0412
稍后	-11.0414
等级	-11.0417
粒子	-11.042
贝斯特韦斯特普拉斯	-11.042
捞	-11.042
抓住他	-11.042
申	-11.0421
付款	-11.0422
一直以来	-11.0422
4.	-11.0423
失业率	-11.0424
想看看	-11.0426
政客	-11.0426
发现自己	-11.0426
按钮	-11.0426
组成的	-11.0429
根本没有	-11.043
哎	-11.0431
小心点	-11.0432
谁都	-11.0434
征服	-11.0436
加剧	-11.0436
注入	-11.0437
id	-11.0439
伪装	-11.0439
有几个	-11.044
▁总之	-11.0441
析	-11.0443
传染	-11.0445
不想让	-11.0447
不见	-11.0452
躁	-11.0453
狠	-11.0454
鲨鱼	-11.0454
价钱	-11.0455
你的工作	-11.0456
厌倦了	-11.0457
表情	-11.0458
到这里来	-11.0458
狂热	-11.046
较低	-11.0462
框架	-11.0462
典型的	-11.0466
可用	-11.0468
电话号码	-11.0469
呵	-11.0471
面具	-11.0471
每月	-11.0471
抚养	-11.0472
▁只不过	-11.0475
制裁	-11.0476
耕	-11.0476
拉斯维加斯	-11.0477
太大	-11.0481
推销	-11.0482
后退	-11.0482
贱人	-11.0483
全家	-11.0486
引起了	-11.0487
容忍	-11.0487
救护车	-11.0488
包里	-11.0491
琼斯	-11.0491
违约	-11.0493
子女	-11.0493
接入	-11.0494
能得到	-11.0494
nt	-11.0497
7.	-11.0497
千万别	-11.0497
去医院	-11.0498
审讯	-11.0499
干涉	-11.0504
算了吧	-11.0505
▁你愿意	-11.0507
弗雷	-11.0509
op	-11.0511
总有一天	-11.0511
垒	-11.0513
尔顿	-11.0513
流程	-11.0514
不怎么	-11.0516
报导	-11.0519
缴	-11.0519
废物	-11.052
电动	-11.0521
成千上万	-11.0522
和免费	-11.0525
加大	-11.0527
发展中国家	-11.0528
怎么知道	-11.053
fe	-11.0531
哟	-11.0533
戴维	-11.0533
透了	-11.0538
厨师	-11.054
证书	-11.0541
主教	-11.0543
妥协	-11.0543
心跳	-11.0548
面临着	-11.0553
经济衰退	-11.0554
尼斯	-11.0555
宇	-11.0556
订婚	-11.0559
从没见过	-11.0559
探险	-11.0563
辨	-11.0566
的基础上	-11.0567
驱逐	-11.0568
的数量	-11.0568
再去	-11.0571
阿里	-11.0572
本书	-11.0573
眼中	-11.0573
又没	-11.0575
损坏	-11.0577
就跟	-11.058
潜水	-11.058
你是不是	-11.0582
透过	-11.0584
谷类食品	-11.0584
找找	-11.0585
气味	-11.0588
辆车	-11.0589
害死	-11.0592
干脆	-11.0592
开始吧	-11.0597
嫌疑犯	-11.0597
手枪	-11.0601
br	-11.0602
懂吗	-11.0603
党派	-11.0607
神话	-11.0607
渐	-11.0607
gdp	-11.0613
绳子	-11.0613
我就知道	-11.0615
打包	-11.0616
眼里	-11.0616
百姓	-11.0621
典型	-11.0621
▁一开始	-11.0621
京	-11.0621
的同事	-11.0622
级别	-11.0622
薇	-11.063
纷纷	-11.063
ly	-11.0633
哈哈	-11.0633
目录	-11.0636
发型	-11.0638
留了	-11.0638
甚至是	-11.0639
总有	-11.064
只剩下	-11.064
保险公司	-11.0641
主导	-11.0642
小男孩	-11.0643
把那个	-11.0644
证明了	-11.0646
昆虫	-11.0648
昨天晚上	-11.0648
ph	-11.0648
以防	-11.0649
着急	-11.0651
酒店内	-11.0653
节奏	-11.0656
结束后	-11.0657
55	-11.0659
是什么时候	-11.066
志愿者	-11.066
北约	-11.0662
.....	-11.0664
还给我	-11.0664
越多	-11.0665
岛屿	-11.0665
的基础	-11.0665
一个朋友	-11.0666
在欧洲	-11.0667
晚点	-11.0668
唤	-11.0668
未经	-11.0669
枕头	-11.0669
’	-11.067
祷告	-11.067
介入	-11.0671
强劲	-11.0672
指甲	-11.0674
通货膨胀	-11.0676
描绘	-11.0676
▁我叫你	-11.0677
那孩子	-11.0677
查到	-11.0677
修好	-11.0677
就是为了	-11.0679
泳池	-11.0681
乘坐	-11.0682
▁我把它	-11.0687
线路	-11.0688
营地	-11.0688
拿走了	-11.0696
上楼	-11.0696
头痛	-11.0698
理查德	-11.0699
看不出	-11.0699
口袋里	-11.0701
落在	-11.0701
不高兴	-11.0702
出名	-11.0703
负面	-11.0703
户外	-11.0704
祝贺	-11.0705
网球	-11.0707
因为它们	-11.0709
在车里	-11.0711
发言	-11.0715
储存	-11.0715
一层	-11.072
完整的	-11.0723
罢工	-11.0723
找他	-11.0724
并将	-11.0726
金斯	-11.0728
火星	-11.0729
严格的	-11.073
的命令	-11.073
发电	-11.0731
两只	-11.0737
怀孕了	-11.0738
牛仔	-11.0739
求婚	-11.0739
停留	-11.074
昨日	-11.0741
是否会	-11.0741
祖母	-11.0745
布雷	-11.0745
随机	-11.0746
▁我把你	-11.0748
嘴唇	-11.075
绅士	-11.0751
训	-11.0751
鸡尾酒	-11.0751
全球化	-11.0751
市区	-11.0752
本月	-11.0754
鉴定	-11.0754
弄清楚	-11.0754
避开	-11.0755
波斯	-11.0755
可疑	-11.0755
列表	-11.0757
幻觉	-11.0758
策	-11.0759
客观	-11.0765
独特	-11.0768
打得	-11.0769
焦点	-11.0772
的最大	-11.0773
动态	-11.0773
明早	-11.0773
来找你	-11.0774
袍	-11.0774
扩散	-11.0775
的职责	-11.0776
伪造	-11.0776
星期六	-11.0776
单一	-11.0777
阴影	-11.0777
失控	-11.0777
▁当然是	-11.0779
开启	-11.0779
审计	-11.0782
小丑	-11.0784
的生意	-11.0785
▁我几乎	-11.0787
▁但是他们	-11.0787
▁你在说什么	-11.0787
投诉	-11.0788
▁可惜	-11.079
坐下来	-11.0796
扳	-11.0798
吴	-11.0798
的确是	-11.0798
有什么事	-11.0801
难民	-11.0802
杀掉	-11.0804
竞赛	-11.0805
慰	-11.0806
秃	-11.0809
智能手机	-11.0811
局长	-11.0812
共和党人	-11.0813
ko	-11.0814
撞到	-11.0814
艾米	-11.0815
了解我	-11.0815
逐步	-11.0817
很生气	-11.0817
打造	-11.0819
文本	-11.082
童年	-11.0821
我的意思	-11.0825
5000	-11.0826
一同	-11.0826
收取	-11.0827
书籍	-11.0829
温柔	-11.0829
不是一个	-11.0829
▁今天早上	-11.0831
老头	-11.0832
▁我不想再	-11.0834
倒霉	-11.0834
拉丁	-11.0836
股权	-11.0837
0.00	-11.0838
发达国家	-11.0839
电台	-11.0839
爱人	-11.084
赞同	-11.084
手表	-11.0847
死掉	-11.0848
报酬	-11.0852
研究者	-11.0852
里亚	-11.0852
臣	-11.0857
听我的	-11.0858
fa	-11.0859
无力	-11.0861
▁就像是	-11.0866
主流	-11.0866
经济发展	-11.0866
有几	-11.0869
知道怎么	-11.0871
硫	-11.0874
休息一下	-11.0874
的概念	-11.0874
新生	-11.0876
一家人	-11.0876
评级	-11.0877
在地上	-11.0877
不那么	-11.0878
折扣	-11.0881
火灾	-11.0883
狂欢	-11.0884
解开	-11.0885
乙	-11.0885
色情	-11.0886
这家公司	-11.0887
吃完	-11.089
600	-11.0891
歪	-11.0891
等于	-11.0894
无效	-11.0894
大学生	-11.0895
导致了	-11.0898
喉咙	-11.0903
治愈	-11.0904
的例子	-11.0905
性命	-11.0905
纹身	-11.0906
澡	-11.0907
邪	-11.0908
祖先	-11.0908
得起	-11.0909
有那么	-11.0911
学生们	-11.0911
此刻	-11.0913
的迹象	-11.0915
爪	-11.0915
哄	-11.0915
渐渐	-11.0915
亲戚	-11.0915
遇到了	-11.0915
会觉得	-11.0915
福德	-11.0916
年底	-11.0916
放过	-11.0917
督	-11.0918
事先	-11.0919
起飞	-11.0921
苏丹	-11.0924
麻烦了	-11.0926
引入	-11.0928
好象	-11.093
已经成为	-11.0933
不重要	-11.0936
两年前	-11.0937
叠	-11.0938
就应该	-11.0938
其实是	-11.0939
书面	-11.0942
我的名字	-11.0942
瞧瞧	-11.0943
称呼	-11.0946
一无所知	-11.095
参议院	-11.095
我要你	-11.095
北美	-11.0953
生产商	-11.0955
我们走吧	-11.0956
▁所有人都	-11.0957
赎	-11.0959
只要你	-11.0962
隧道	-11.0962
坚信	-11.0963
毫	-11.0964
▁别这么	-11.0966
半年	-11.0968
骨折	-11.0969
网页	-11.0969
内衣	-11.0973
我母亲	-11.0975
说道	-11.0979
跟他说	-11.098
只剩	-11.0983
ers	-11.0986
薪酬	-11.0986
无比	-11.0986
很荣幸	-11.0988
再也不会	-11.0988
取消了	-11.0988
jo	-11.0989
知道什么	-11.0989
她丈夫	-11.099
牛肉	-11.099
还有很多	-11.0993
派人	-11.0994
夸张	-11.0994
美国总统	-11.0996
▁我去找	-11.0998
▁她现在	-11.1006
与中国	-11.1007
搞清楚	-11.1009
发疯	-11.1011
家乡	-11.1019
扔掉	-11.1026
德国人	-11.1029
才行	-11.1029
很久了	-11.1029
做生意	-11.103
犹豫	-11.1033
Facebook	-11.1033
凯尔	-11.1033
粮	-11.1034
全球经济	-11.1034
▁但当	-11.1037
待遇	-11.104
化妆	-11.1042
办公室里	-11.1044
半个	-11.1046
看电视	-11.1047
曾是	-11.1048
杂种	-11.1048
不打算	-11.1048
激进	-11.105
吃晚饭	-11.1052
帐户	-11.1052
已成为	-11.1053
收到了	-11.1054
当选	-11.1054
条例	-11.1055
肥胖	-11.1058
老朋友	-11.1058
准则	-11.106
双人床	-11.1067
本土	-11.1069
做不到	-11.107
监测	-11.1071
露出	-11.1072
800	-11.1073
中的一个	-11.1073
5.00	-11.1074
看电影	-11.1078
把戏	-11.1081
慕	-11.1081
6.	-11.1083
▁洛杉矶	-11.1086
他父亲	-11.1088
▁我可不是	-11.1088
山上	-11.1089
一共	-11.109
38	-11.1091
证词	-11.1092
灯光	-11.1092
剥	-11.1093
崩	-11.1093
▁我也想	-11.1094
阶层	-11.1095
ste	-11.1095
有点像	-11.1096
便是	-11.1103
那个女孩	-11.1105
mar	-11.1105
闻名	-11.1106
传真	-11.111
梳	-11.1111
死定了	-11.1112
想出	-11.1112
▁我们认为	-11.1112
大气	-11.1114
▁天呐	-11.1115
或其他	-11.1117
栓	-11.1117
金发	-11.1122
放缓	-11.1127
下雨	-11.1127
荣幸	-11.1128
指令	-11.1129
棒极了	-11.1131
减肥	-11.1132
胺	-11.1135
新兴	-11.1137
让我来	-11.114
窥	-11.1141
设想	-11.1147
急救	-11.1149
点钟	-11.115
美味的	-11.1152
喘	-11.1153
过夜	-11.1153
集会	-11.1154
轮胎	-11.1155
战术	-11.1156
对面	-11.1158
蒙特	-11.1158
高潮	-11.116
揭示	-11.116
这套	-11.1162
这可是	-11.1165
罢	-11.1168
跟我来	-11.1172
西北	-11.1173
弥	-11.1174
忘掉	-11.1175
下一次	-11.1175
仆	-11.1175
硬币	-11.1179
的形象	-11.1179
和别人	-11.1182
的敌人	-11.1184
待会	-11.1185
告诉过	-11.1185
斯蒂	-11.1187
企	-11.1188
小家伙	-11.1188
不定	-11.1189
纯粹	-11.119
安东尼	-11.119
你没事吧	-11.1191
闯	-11.1191
激发	-11.1191
一批	-11.1192
几千	-11.1195
标牌	-11.1195
点半	-11.1198
西装	-11.1198
可能性	-11.1199
打过	-11.12
外表	-11.1202
选票	-11.1204
陪你	-11.1205
到处都是	-11.1207
偿还	-11.1207
詹	-11.1208
订单	-11.1209
提及	-11.1209
锯	-11.1214
丹麦	-11.1214
ff	-11.1214
袋子	-11.1216
看出来	-11.1217
保护你	-11.1218
与众不同	-11.122
转移到	-11.122
星期天	-11.1221
还是要	-11.1222
就此	-11.1224
▁我只有	-11.1227
丛林	-11.123
完毕	-11.1232
每人	-11.1233
艺术品	-11.1233
汀	-11.1238
好久	-11.1239
怪异	-11.124
迹象	-11.124
论坛	-11.1243
实用	-11.1246
那份	-11.1248
嘴巴	-11.1248
脊	-11.125
昧	-11.125
起码	-11.1252
患有	-11.1254
ok	-11.1255
▁每次我	-11.1258
碟	-11.1263
鞭	-11.1263
痕迹	-11.1264
不用担心	-11.1268
警卫	-11.1268
破了	-11.127
格尔	-11.127
任何事情	-11.1271
最小	-11.1275
即使是	-11.1275
没人会	-11.1277
伪	-11.1277
差别	-11.1277
▁如果您	-11.128
遵	-11.128
我真的很	-11.1281
甜点	-11.1286
忌	-11.1287
潜在的	-11.1287
融入	-11.129
三角	-11.129
在床上	-11.129
同伴	-11.1292
晚会	-11.1293
眼泪	-11.1296
▁你知道他	-11.1298
lu	-11.1299
跪	-11.1299
教室	-11.1301
摩托车	-11.1302
宠	-11.1302
榜	-11.1304
进去了	-11.1305
自主	-11.1309
职员	-11.1309
热华夫饼	-11.1309
翅膀	-11.1312
签字	-11.1315
裁决	-11.1315
伐	-11.1319
塌	-11.1322
对美国	-11.1323
与其他	-11.1325
一开始就	-11.1326
它能	-11.1326
病例	-11.1328
爹	-11.133
姿势	-11.1331
较高	-11.1334
长久	-11.1338
富人	-11.1342
遵循	-11.1342
我们之间	-11.1342
▁几年前	-11.1343
放手	-11.1347
妈咪	-11.1347
美军	-11.1348
送去	-11.1349
一个孩子	-11.1349
爱好	-11.1349
要离开	-11.135
披萨	-11.135
可见	-11.135
▁他总是	-11.1354
步骤	-11.1354
愁	-11.1355
栖	-11.1355
▁你只需要	-11.1361
专心	-11.1361
帐篷	-11.1361
削弱	-11.1361
称作	-11.1361
存在着	-11.1362
我说过	-11.1363
购物中心	-11.1366
认定	-11.1366
株	-11.1367
供给	-11.1368
无论如何	-11.137
通常是	-11.1373
无障碍	-11.1377
预约	-11.1377
偶像	-11.1378
快跑	-11.1378
糊涂	-11.138
这是你的	-11.1381
动荡	-11.1383
▁我从未	-11.1385
宽恕	-11.1386
都快	-11.1387
场地	-11.1388
超过了	-11.1389
表格	-11.1391
文档	-11.1393
并不能	-11.1395
这些问题	-11.1395
欠你	-11.1395
的事业	-11.1396
目的地	-11.1396
贸	-11.1397
晓得	-11.1399
违法	-11.1401
告知	-11.1402
中尉	-11.1404
坝	-11.1404
想找	-11.1405
盘子	-11.1406
很强	-11.1407
一些东西	-11.1409
圣诞老人	-11.1411
▁你记得	-11.1413
你的车	-11.1415
▁你刚刚	-11.1415
内裤	-11.1416
网站上	-11.1417
这话	-11.1421
巴斯	-11.1421
容纳	-11.1421
这么久	-11.1424
玩家	-11.1427
以及其他	-11.1428
惯	-11.1433
做饭	-11.1435
披露	-11.1437
光线	-11.1437
手法	-11.1443
还是会	-11.1448
数目	-11.1449
有责任	-11.1449
要花	-11.145
打交道	-11.1454
哭泣	-11.146
毕业生	-11.1463
仗	-11.1465
类型的	-11.1466
▁冷静点	-11.147
留在这里	-11.1475
照看	-11.1476
▁就好像	-11.1477
前途	-11.1477
显示出	-11.1478
泊	-11.1478
耀	-11.1478
难受	-11.1478
垄断	-11.1479
天天	-11.1479
罕见	-11.1481
带给	-11.1481
我觉得你	-11.1481
克鲁	-11.1481
傻子	-11.1482
外科	-11.1483
当做	-11.1484
▁我不在乎	-11.1485
什麽	-11.1491
淋	-11.1493
刚从	-11.1494
▁每人	-11.1497
你在说什么	-11.1498
互动	-11.15
▁无论如何	-11.1503
巴克	-11.1503
不仅仅	-11.1505
你以为	-11.1507
贩	-11.1507
回收	-11.1508
贪	-11.1509
沙拉	-11.151
室友	-11.1511
生涯	-11.1511
坐牢	-11.1514
枯	-11.1516
很像	-11.1518
不断地	-11.1521
tor	-11.1528
根本就不	-11.153
反应堆	-11.1532
闹钟	-11.1537
价值观	-11.154
问过	-11.1541
捏	-11.1541
接手	-11.1541
概	-11.1542
数百万	-11.1544
见到他	-11.1544
65	-11.1548
我要走了	-11.1548
陈述	-11.1549
菲尔	-11.1549
峡谷	-11.1554
它将	-11.1555
起到	-11.1557
厌	-11.156
驴	-11.1566
别墅	-11.1566
比如说	-11.1568
窗口	-11.157
生成	-11.157
扭曲	-11.1574
鬼魂	-11.1574
夺走	-11.1576
帮帮我	-11.1576
永恒	-11.1579
国家安全	-11.158
一起来	-11.1581
破裂	-11.1582
这笔	-11.1583
幢	-11.1585
少女	-11.1585
监禁	-11.1586
汇报	-11.159
漫画	-11.159
符号	-11.1591
▁当他们	-11.1592
部署	-11.1596
▁听上去	-11.1599
静脉	-11.1604
不应	-11.1607
本文	-11.1608
纳粹	-11.1623
很害怕	-11.1624
▁但它	-11.1625
有线电视	-11.1626
▁据我所知	-11.163
赴	-11.163
为其	-11.1631
不关心	-11.1632
今天下午	-11.1633
有利于	-11.1634
we	-11.1636
缺点	-11.1643
你就可以	-11.1645
引发了	-11.1646
主角	-11.1646
雷斯	-11.1647
▁我很想	-11.1647
▁我知道他	-11.1649
泳	-11.1653
不可避免	-11.1654
沙滩	-11.1655
的一面	-11.1656
引爆	-11.1658
旅途	-11.1658
冒犯	-11.1659
加利福尼亚	-11.1661
丢掉	-11.1661
每次都	-11.1662
找到一个	-11.1663
龟	-11.1667
和你在一起	-11.1669
拉德	-11.1671
此举	-11.1673
前台	-11.1673
精心	-11.1677
很久以前	-11.1678
小麦	-11.1678
更像是	-11.168
查出	-11.1684
贺	-11.1686
太晚了	-11.1689
将近	-11.1689
连锁	-11.1689
占有	-11.169
之路	-11.1694
而又	-11.1696
该走了	-11.1696
有毒	-11.1696
反对派	-11.1697
延伸	-11.1698
救你	-11.1699
宽敞	-11.1699
失踪了	-11.17
核武器	-11.1703
惊人	-11.1703
钓	-11.1704
美人	-11.1707
周边	-11.1707
har	-11.1708
巧合	-11.171
邓	-11.1712
永远都	-11.1715
ow	-11.1716
最早	-11.1717
▁因为我想	-11.1718
上诉	-11.1718
节省	-11.1719
著作	-11.172
高效	-11.1721
手续	-11.1721
▁又是	-11.1721
吉米	-11.1722
平面	-11.1723
一个地方	-11.1724
的兴趣	-11.1724
确	-11.1725
传达	-11.1726
不想再	-11.1726
参赛	-11.1728
有多大	-11.1729
人人都	-11.173
排队	-11.173
实体	-11.1731
夕	-11.1731
影响到	-11.1733
差距	-11.1733
长达	-11.1733
美金	-11.1737
成这样	-11.1737
艾滋病	-11.1738
闯进	-11.1739
盟友	-11.174
看着你	-11.1746
很难过	-11.1748
咽	-11.175
吃掉	-11.1752
登上	-11.1753
▁你也知道	-11.1755
2001	-11.1757
奥尔	-11.1759
外国人	-11.1761
拳击	-11.1762
对冲基金	-11.1763
▁它会	-11.1764
幽灵	-11.1764
你还好吧	-11.1765
▁我要把	-11.1765
这是我们	-11.1766
中文	-11.1768
骗我	-11.1769
感恩节	-11.177
不小心	-11.177
二氧化碳	-11.177
但现在	-11.1771
发达	-11.1771
会变成	-11.1772
会产生	-11.1772
逢	-11.1776
塔利班	-11.1776
一股	-11.1776
他死了	-11.178
▁他是一个	-11.178
另一方面	-11.1782
需要帮助	-11.1784
可信	-11.179
开火	-11.1792
很有意思	-11.1795
疑问	-11.1795
iphone	-11.1802
中情局	-11.1802
这句话	-11.1802
鲍勃	-11.1802
你的生活	-11.1805
格兰	-11.1807
哈佛	-11.1807
ts	-11.1808
丸	-11.1808
冬季	-11.181
我记得	-11.181
想吃	-11.181
找回	-11.1811
仍旧	-11.1812
陷阱	-11.1815
恐吓	-11.1815
隔壁	-11.1816
诗人	-11.1817
考察	-11.182
集合	-11.1824
喝醉了	-11.1825
瑞克	-11.1826
离开这儿	-11.1826
达到了	-11.1826
屋子里	-11.1832
房价	-11.1833
高尔夫球	-11.1835
葡萄牙	-11.1835
不对劲	-11.1837
顶级	-11.1838
复仇	-11.1838
有好处	-11.1839
通往	-11.1841
孙子	-11.1846
凶器	-11.1847
频繁	-11.1847
这事儿	-11.1849
踪	-11.1849
中毒	-11.1852
art	-11.1852
纳德	-11.1853
夏威夷	-11.1853
郊区	-11.1854
得分	-11.1856
推翻	-11.1856
再一次	-11.1859
几句	-11.1859
维修	-11.1859
天呐	-11.186
噪音	-11.186
那东西	-11.1862
筋	-11.1865
▁我喜欢你	-11.1868
准时	-11.1872
伊丽莎白	-11.1873
拓	-11.1878
按摩浴缸	-11.188
我对你	-11.1881
人选	-11.1883
der	-11.1885
碱	-11.1886
耶路撒冷	-11.1886
精灵	-11.1887
在同一	-11.189
迎接	-11.1893
更改	-11.1894
环境中	-11.1895
兄弟们	-11.1895
杯子	-11.19
▁既然你	-11.19
▁就为了	-11.19
吓坏了	-11.1901
看见他	-11.1902
我需要你	-11.1902
跟着我	-11.1904
双重	-11.1905
就在这里	-11.1906
搜寻	-11.1907
▁或者是	-11.1907
探测	-11.1907
专用	-11.1909
莱斯	-11.1914
带子	-11.1915
▁别让我	-11.1917
财政部	-11.1922
夹克	-11.1929
的主人	-11.193
▁你这是	-11.1932
一号	-11.1935
幕后	-11.1936
▁你好吗	-11.1936
这么干	-11.1939
董事长	-11.1939
珍贵	-11.194
小狗	-11.1941
新年	-11.1941
部位	-11.1942
浏览	-11.1942
姬	-11.1951
呼叫	-11.1951
小学	-11.1956
官僚	-11.1959
关节	-11.1963
膨胀	-11.1964
在今年	-11.1968
械	-11.1968
或者说	-11.197
巨额	-11.1971
萧条	-11.1972
找到你	-11.1979
秋天	-11.1982
杀他	-11.1983
蔓延	-11.1984
掩饰	-11.1984
宾馆	-11.1985
誉	-11.1986
凭什么	-11.1987
食用	-11.1987
到目前为止	-11.1987
音乐会	-11.1987
睁	-11.199
恶劣	-11.1991
小屋	-11.1996
这孩子	-11.1996
庙	-11.1997
疏	-11.1999
两条	-11.2002
蒸	-11.2002
共有	-11.2002
遣	-11.2006
灭绝	-11.2007
有理由	-11.2007
戴尔	-11.2008
一整	-11.2009
尔德	-11.201
赶出	-11.201
巴拉	-11.2013
忘记了	-11.2013
采取行动	-11.2014
仍是	-11.2014
惊奇	-11.202
血压	-11.2028
我妹妹	-11.2029
自治	-11.2032
咒	-11.2034
他的妻子	-11.2034
就是这么	-11.2035
甩	-11.2036
单词	-11.2036
核电站	-11.2036
利息	-11.2037
客气	-11.204
匿名	-11.2041
姓名	-11.2042
氮	-11.2043
比起	-11.2043
荣耀	-11.2043
渠道	-11.2044
跟你们	-11.2044
密度	-11.2049
▁你就不能	-11.2049
▁当然不是	-11.2049
做一些	-11.2052
活下去	-11.2052
实质	-11.2055
要是你	-11.2056
丛	-11.2061
如果他们	-11.2062
予以	-11.2062
职务	-11.2062
流动性	-11.2063
熏	-11.2063
飓风	-11.2063
实习	-11.2065
具尸体	-11.2067
面向	-11.2072
有帮助	-11.2072
那一刻	-11.2072
▁我不管	-11.2073
降临	-11.2073
持久	-11.2074
即可	-11.2076
等下	-11.2076
应该知道	-11.2077
以为自己	-11.2079
爱好者	-11.208
印第安	-11.208
一大堆	-11.2087
冰淇淋	-11.2089
茎	-11.2089
复合	-11.2092
税务	-11.2095
菲律宾	-11.2096
一个星期	-11.2097
摄影师	-11.2097
In	-11.2099
情节	-11.2101
活下来	-11.2103
庞大的	-11.2105
接吻	-11.2105
守护	-11.2107
半岛	-11.211
印尼	-11.211
并不意味着	-11.2111
普拉	-11.2111
那段	-11.2112
单纯	-11.2114
海边	-11.2114
佛罗里达	-11.2115
身处	-11.2115
维多利亚	-11.2116
形成了	-11.2116
中部	-11.2117
液体	-11.2117
然后就	-11.212
▁你在干什么	-11.212
住院	-11.2123
内疚	-11.2123
可恶	-11.2123
▁尽管如此	-11.2124
逛	-11.2126
十八	-11.2127
虾	-11.2127
这一次	-11.2129
翘	-11.2129
内阁	-11.2131
33	-11.2133
打印	-11.2134
深度	-11.2134
的脑袋	-11.2134
你说过	-11.2135
氯	-11.2136
▁我得去	-11.2138
处罚	-11.2138
总统先生	-11.2139
▁得了吧	-11.2139
ick	-11.214
首要	-11.214
说不定	-11.2141
几个月前	-11.2141
▁我对你	-11.2144
伯克	-11.2145
叛	-11.2148
很严重	-11.2148
坠	-11.2149
盾	-11.2156
国务院	-11.2156
在我身上	-11.2156
你的脸	-11.2156
友善	-11.2156
树上	-11.2158
小偷	-11.2159
寡	-11.2162
听上去	-11.2165
氧气	-11.2166
沉重	-11.2167
四周	-11.2172
▁她肯定	-11.2174
而死	-11.2178
会发生什么	-11.2181
我做不到	-11.2181
无知	-11.2182
看上去像	-11.2183
环节	-11.2183
理论上	-11.2184
能使	-11.2188
好转	-11.219
检查一下	-11.2191
毛巾	-11.2191
非常感谢	-11.2192
日程	-11.2193
滞	-11.2194
源于	-11.2195
和解	-11.2196
大使馆	-11.2197
签证	-11.2197
较大	-11.2198
集中在	-11.2199
为您提供	-11.22
全力	-11.2201
pi	-11.2201
做成	-11.2201
比利时	-11.2203
鼓舞	-11.2207
东北	-11.221
很美	-11.2211
施工	-11.2212
会见	-11.2213
示威	-11.2216
蜡烛	-11.2216
真不敢相信	-11.2217
女孩们	-11.222
纱	-11.2222
滥用	-11.2225
影像	-11.2226
边上	-11.2226
这些都是	-11.2226
▁我不敢相信	-11.2227
ang	-11.2227
别忘了	-11.2229
疹	-11.2229
酒廊	-11.2231
学科	-11.2236
之夜	-11.2237
约定	-11.2237
在某些	-11.224
可以帮助	-11.2241
特定的	-11.2241
接管	-11.2241
捧	-11.2243
ner	-11.2244
艘船	-11.2245
拖延	-11.2247
树木	-11.2248
址	-11.2254
tu	-11.2255
伤害你	-11.2255
让人们	-11.2256
▁我从来没	-11.2257
的每一	-11.226
活性	-11.226
传输	-11.2261
是不可能的	-11.2262
用途	-11.2263
弗吉尼亚	-11.2263
阿根廷	-11.2263
晓	-11.2264
搏	-11.2264
给了你	-11.2266
簿	-11.227
杰克逊	-11.2271
惊人的	-11.2272
把东西	-11.2273
服从	-11.2275
燕	-11.2276
平方	-11.2277
的人来说	-11.2277
无视	-11.228
奋斗	-11.2281
畏	-11.2283
天下	-11.2286
任何人都	-11.2287
47	-11.2289
昔	-11.229
目击者	-11.229
等不及	-11.2291
职责	-11.2291
还有个	-11.2293
发放	-11.2293
然后再	-11.2295
一丝	-11.2296
可悲	-11.2296
古典	-11.2298
上世纪	-11.23
这周	-11.2305
▁我不希望	-11.2306
▁当心	-11.2306
抓住了	-11.2308
哑	-11.231
喉	-11.231
管理局	-11.2311
乔布斯	-11.2312
一些事情	-11.2314
多长时间	-11.2316
一枚	-11.2316
相爱	-11.2317
抵押贷款	-11.2318
航行	-11.2319
从现在开始	-11.2321
的指纹	-11.2322
也不想	-11.2323
你有没有	-11.2326
别管	-11.2327
效力	-11.2327
躲在	-11.2329
选项	-11.2329
郁	-11.233
我讨厌	-11.233
郊	-11.2331
也不要	-11.2331
▁所以她	-11.2332
这个时候	-11.2336
政府官员	-11.2336
我希望你	-11.2337
本酒店	-11.2337
阀	-11.2338
廉	-11.2338
别的地方	-11.2341
寿命	-11.2347
真不错	-11.2347
▁你也许	-11.2348
瓦尔	-11.2349
注重	-11.2349
茅	-11.2351
站住	-11.2352
撤离	-11.2354
桩	-11.2356
捅	-11.2358
醋	-11.2358
金额	-11.236
给我打电话	-11.2362
分为	-11.2363
执照	-11.2368
上帝啊	-11.237
荒谬	-11.2371
丢失	-11.2371
俱	-11.2372
柠檬	-11.2372
曾经是	-11.2372
以免	-11.2373
明晚	-11.2374
吓人	-11.2374
将继续	-11.2376
好些	-11.2376
室里	-11.2378
ine	-11.2379
偏见	-11.2379
普通人	-11.2381
卷入	-11.2384
他妻子	-11.2384
办事	-11.2388
放大	-11.2388
门外	-11.239
拉克	-11.2392
都市	-11.2392
点子	-11.2392
授予	-11.2393
▁我敢说	-11.2394
机遇	-11.2394
▁我帮你	-11.2394
39	-11.2397
布置	-11.2401
歧视	-11.2406
零售商	-11.2406
昂贵的	-11.2408
分辨	-11.2411
新泽西	-11.2413
泄漏	-11.2413
棘手	-11.2415
▁换句话说	-11.2419
中产阶级	-11.2419
繁殖	-11.242
份工作	-11.2422
毒贩	-11.2423
▁你不必	-11.2427
皇帝	-11.2428
有多么	-11.2432
回避	-11.2437
更好地	-11.2439
本能	-11.244
我俩	-11.244
撤销	-11.2443
每件事	-11.2443
发作	-11.2444
分钟后	-11.2448
寒冷	-11.2448
有害	-11.2448
雅虎	-11.2449
▁你瞧	-11.245
▁我明天	-11.2454
真诚	-11.2454
谢了	-11.2455
普京	-11.2456
土豆	-11.246
预见	-11.2462
司令	-11.2464
能让我	-11.2465
爱德华	-11.2468
捕捉	-11.2469
境内	-11.2469
每天早上	-11.2471
没看见	-11.2471
罗伊	-11.2471
与之	-11.2472
嫌	-11.2472
强化	-11.2473
变得更加	-11.2474
船只	-11.248
醇	-11.2481
洞穴	-11.2483
正面	-11.2483
bar	-11.2487
许可证	-11.2488
格斯	-11.2489
扩	-11.249
一年前	-11.249
2013	-11.2491
的痕迹	-11.2492
就一直	-11.2493
星期二	-11.2494
叔	-11.2495
5.	-11.2495
寂寞	-11.2495
高速互联网接入	-11.2495
这就是我	-11.2497
线上	-11.2497
维斯	-11.25
的所作所为	-11.2502
望远镜	-11.2502
坟墓	-11.2502
要走了	-11.2504
我很乐意	-11.2505
上演	-11.2505
负责任	-11.2509
生物学	-11.2509
挪威	-11.251
赞美	-11.2511
▁所以他们	-11.2511
指着	-11.2515
忏悔	-11.2516
仍有	-11.2518
巨人	-11.2521
误解	-11.2521
第三个	-11.2521
姑娘们	-11.2524
给你打电话	-11.2524
弗莱	-11.2525
除非你	-11.2526
▁我收到	-11.2526
▁别跟我	-11.2527
国际机场	-11.2528
我也不知道	-11.2529
号出口	-11.2529
神圣的	-11.253
ub	-11.253
每一个人	-11.2534
酮	-11.2537
举起	-11.2538
恰当	-11.2538
用力	-11.2539
写道	-11.254
货币政策	-11.2542
哪怕	-11.2543
烘	-11.2544
行程	-11.2544
时装	-11.2544
建立一个	-11.2547
马车	-11.255
存活	-11.2551
整晚	-11.2554
希特勒	-11.2557
▁我不想让	-11.2559
见鬼	-11.256
瓶子	-11.256
伸出	-11.2562
名单上	-11.2562
贵族	-11.2562
骗了	-11.2563
搞到	-11.2564
▁我不觉得	-11.2565
链接	-11.2572
嗜	-11.2578
浩	-11.2578
山姆	-11.2588
几十	-11.2589
呐	-11.2594
还好吗	-11.2601
哥们儿	-11.2601
出租	-11.2603
投机	-11.2604
洛伊	-11.2604
巫师	-11.2604
一个女孩	-11.2605
悄悄	-11.2606
▁我敢肯定	-11.2606
海水	-11.2607
是个好人	-11.2611
饥饿	-11.2613
季第	-11.2614
梦中	-11.2614
石油公司	-11.2614
业余	-11.2615
我从没	-11.262
重新开始	-11.2621
下令	-11.2622
从哪里	-11.2624
凯文	-11.2624
禽	-11.2625
也无法	-11.2626
口味	-11.2626
为基础	-11.2626
很大程度上	-11.2627
美式	-11.2628
竖	-11.2634
的名义	-11.2636
可不能	-11.2639
有更多的	-11.264
的立场	-11.2642
高尔夫球场	-11.2645
羞	-11.2647
当地人	-11.2647
▁你知不知道	-11.2648
闯入	-11.2651
去世了	-11.2654
和你谈谈	-11.2654
观光	-11.2654
争夺	-11.2654
谨	-11.2655
第七	-11.2656
我还以为	-11.2659
影子	-11.2659
这么好	-11.2662
近年来	-11.2663
他们不会	-11.2665
我弟弟	-11.2666
灰色	-11.2668
感动	-11.2673
撞击	-11.2675
狮	-11.2675
创立	-11.2676
仁慈	-11.2676
任何地方	-11.2679
柴	-11.2679
唯一能	-11.268
我哥哥	-11.2681
把那些	-11.2682
强度	-11.2682
子宫	-11.2683
笑容	-11.2683
里面有	-11.2694
善于	-11.2695
某种程度上	-11.2697
和你说	-11.2698
过一次	-11.2699
机票	-11.2699
尽头	-11.27
在全球	-11.2701
恐龙	-11.2704
卧底	-11.2706
▁你还没	-11.2707
哪一个	-11.2708
切尔	-11.2708
斯卡	-11.2709
考虑一下	-11.2709
几年前	-11.2711
烹饪	-11.2711
▁你一定要	-11.2714
船员	-11.2718
迪克	-11.2718
封闭	-11.2721
反射	-11.2722
奶油	-11.2724
着迷	-11.2724
闭上	-11.2724
个国家	-11.2724
所需要的	-11.2724
瀑布	-11.2726
神圣	-11.2727
民间	-11.2731
另有	-11.2732
仪器	-11.2733
傲慢	-11.2733
及其他	-11.2734
高校	-11.2735
不幸的是	-11.2738
纳斯	-11.2743
不远	-11.2744
螺	-11.2744
膝	-11.2746
恭	-11.2746
窒息	-11.2747
路边	-11.2748
还未	-11.2752
何不	-11.2753
睡着	-11.2754
完全不同	-11.2755
听起来很	-11.2755
先知	-11.2756
指引	-11.2758
登陆	-11.2759
把枪放下	-11.2762
匹马	-11.2763
岗	-11.2763
恭喜	-11.2764
保住	-11.2764
右侧	-11.2765
领带	-11.2765
双胞胎	-11.2768
逸	-11.2768
四分之一	-11.2768
西雅图	-11.2768
蜜蜂	-11.2768
到那里	-11.2769
大国	-11.2775
共产主义	-11.2775
恼	-11.2775
给您	-11.2778
列出	-11.2778
这一切都	-11.278
低估	-11.278
山脉	-11.278
宵	-11.2782
蝴蝶	-11.2782
才不会	-11.2784
抓紧	-11.2786
▁我认为你	-11.2787
里奇	-11.2791
赶走	-11.2791
抚	-11.2791
地板上	-11.2792
战争中	-11.2793
买到	-11.2795
所见	-11.2796
不爽	-11.2796
勒斯	-11.2796
▁我知道你们	-11.2797
卓	-11.2799
紧紧	-11.2799
过渡	-11.2799
床单	-11.2802
逾	-11.2804
任期	-11.2804
评委	-11.2805
认为这是	-11.2806
直播	-11.2806
近来	-11.2807
跟随	-11.2809
察觉	-11.281
萨拉	-11.2812
劳工	-11.2813
这个城市	-11.2814
委托人	-11.2815
旅	-11.2816
私营	-11.2816
纳米	-11.2819
上大学	-11.2823
罗姆尼	-11.2825
专注于	-11.2825
珍妮	-11.2826
地质	-11.2829
▁女士们先生们	-11.2832
扔了	-11.2834
视线	-11.2834
不太可能	-11.2834
清洗	-11.2835
赠	-11.2836
听起来像	-11.2837
防护	-11.2838
卑鄙	-11.2839
小时内	-11.2841
赛车	-11.2841
监管机构	-11.2845
解剖	-11.2846
看着他	-11.2848
十足	-11.2854
完全没有	-11.2854
比较好	-11.2856
杰瑞	-11.2859
预料	-11.286
安德鲁	-11.2861
的眼神	-11.2865
否决	-11.2868
贿赂	-11.2868
出局	-11.2868
定价	-11.2873
拼命	-11.2873
庸	-11.2875
依照	-11.2876
多少次	-11.2877
ai	-11.2879
一级	-11.2882
▁我向你保证	-11.2882
场面	-11.2882
肚	-11.2884
电视机	-11.2886
领导者	-11.2887
换成	-11.2888
送回	-11.289
脚步	-11.289
报纸上	-11.2892
同步	-11.2894
大城市	-11.2894
阿拉	-11.2895
景象	-11.2896
延迟	-11.29
看看这个	-11.2901
ya	-11.2907
con	-11.2908
项链	-11.2908
修建	-11.291
见识	-11.2914
转到	-11.2916
挂在	-11.2916
存在于	-11.2917
铭	-11.2918
着陆	-11.2921
能帮我	-11.2922
是那种	-11.2925
崔	-11.2925
拒	-11.2926
剥夺	-11.2926
爱国	-11.293
首歌	-11.2932
氛围	-11.2933
收养	-11.2933
大批	-11.2934
跟我一起	-11.2937
▁我其实	-11.2939
幸存者	-11.2942
特权	-11.2943
St	-11.2947
羞辱	-11.2947
30%	-11.2948
品尝	-11.2951
油价	-11.2952
在监狱里	-11.2952
另一边	-11.2953
能做的	-11.2956
那件	-11.2959
直至	-11.2963
答应我	-11.2967
袖	-11.2968
我什么都	-11.2969
伦理	-11.2971
帅哥	-11.2971
排练	-11.2973
我说了	-11.2974
演说	-11.2974
奥运	-11.2975
日本人	-11.2976
欺诈	-11.2977
你就能	-11.2977
先把	-11.2977
西藏	-11.2979
新来的	-11.298
轮到	-11.298
两家	-11.2982
从来都	-11.2982
年间	-11.2982
即便是	-11.2983
那辆	-11.2984
那个女人	-11.2985
能听到	-11.2986
提案	-11.2989
50%	-11.2989
合格	-11.2989
打电话给你	-11.299
典礼	-11.2992
智力	-11.2994
▁所以我想	-11.2994
一本书	-11.2995
未知	-11.2997
2002	-11.2997
怎么啦	-11.2999
豹	-11.3002
蠢货	-11.3002
两分钟	-11.3003
是个大	-11.3004
那场	-11.3005
杖	-11.3005
十六	-11.3009
per	-11.3012
想要什么	-11.3013
仇恨	-11.3013
保守党	-11.3015
不信任	-11.3015
心理医生	-11.3017
化石	-11.3018
违背	-11.3021
布莱恩	-11.3024
苹果公司	-11.3024
剂量	-11.3025
给了他	-11.3025
翁	-11.3027
弓	-11.3027
情景	-11.3027
再说一遍	-11.3029
提过	-11.303
特先生	-11.303
充电	-11.3032
爱着	-11.3032
陵	-11.3034
嵌	-11.3034
舞台上	-11.3035
人格	-11.3035
保健	-11.3035
学期	-11.3036
诸多	-11.3038
前妻	-11.3041
祥	-11.3041
来参加	-11.3042
床垫	-11.3042
我马上就	-11.3042
你为什么不	-11.3043
做法	-11.3047
运营商	-11.3048
气象	-11.3049
职业生涯	-11.305
▁你觉得他	-11.305
▁你听到	-11.3052
本来就	-11.3054
很安全	-11.3054
骚	-11.3054
整个世界	-11.3055
皱	-11.3056
抽屉	-11.3056
发生的事情	-11.3057
卫生间	-11.3058
廊	-11.3058
参与者	-11.306
良心	-11.306
鸭	-11.3062
又来了	-11.3064
欢呼	-11.3065
共识	-11.3065
▁他喜欢	-11.3068
▁我不确定	-11.3069
那是个	-11.3073
说清楚	-11.3075
瞄准	-11.3078
曝光	-11.3078
可供	-11.308
圈子	-11.3082
页面	-11.3082
大象	-11.3086
文献	-11.309
天主教	-11.3091
就意味着	-11.3092
天真	-11.3092
辱	-11.3092
酗酒	-11.3093
之间的关系	-11.3094
林肯	-11.3096
愿望	-11.3098
弱点	-11.31
害羞	-11.3101
ap	-11.3104
怀念	-11.3104
保释	-11.3106
▁你什么意思	-11.3107
CEO	-11.3107
图案	-11.311
含义	-11.3111
处女	-11.3112
凳	-11.3115
藻	-11.3115
不错啊	-11.3115
函	-11.3115
身份证	-11.3117
是错的	-11.3118
▁她不会	-11.3119
▁我从来没有	-11.312
颂	-11.3122
▁你们不能	-11.3122
轻轻	-11.3122
说完	-11.3127
ak	-11.3128
贪婪	-11.3129
抵制	-11.3129
弟兄	-11.313
条件下	-11.3132
传言	-11.3133
西蒙	-11.3133
急性	-11.3135
奇妙	-11.3135
委托	-11.3137
▁她觉得	-11.314
屠	-11.314
就像个	-11.314
net	-11.3144
得不错	-11.3144
整件事	-11.3145
账单	-11.3145
对策	-11.3146
忧虑	-11.3147
笛	-11.3151
蝙蝠	-11.3151
实际上是	-11.3155
而且还	-11.3155
快餐	-11.3157
莎拉	-11.3158
40%	-11.3159
留意	-11.316
协商	-11.316
在日本	-11.3163
有信心	-11.3163
我的家人	-11.3165
三个人	-11.3165
霜	-11.3166
目睹	-11.3166
尊严	-11.3167
野兽	-11.3168
会变得	-11.3168
▁听说你	-11.3171
位子	-11.3173
画家	-11.3173
扔到	-11.3176
去找他	-11.3176
的愿望	-11.3177
同行	-11.3178
迷失	-11.3181
▁所以我才	-11.3181
局限	-11.3183
认为自己	-11.3184
在后面	-11.3184
植入	-11.3187
侵	-11.3188
有史以来	-11.3188
别说了	-11.3188
枪支	-11.3189
回到家	-11.319
44	-11.3191
面部	-11.3193
后代	-11.3195
口音	-11.3198
控告	-11.3204
厂商	-11.3209
坏蛋	-11.3211
辅导	-11.3214
盖茨	-11.3214
疾	-11.3214
克雷	-11.3215
捣	-11.3216
是否能	-11.3221
景色	-11.3221
非得	-11.3222
做好准备	-11.3223
衡	-11.3224
那我就	-11.3225
那件事	-11.3226
一类	-11.3228
在电视上	-11.3231
受损	-11.3232
溺	-11.3233
上台	-11.3235
▁不是吧	-11.3235
烧烤	-11.3236
▁我宁愿	-11.3236
世界杯	-11.3238
叙	-11.324
伯爵	-11.324
到这儿	-11.324
我在想	-11.3241
ip	-11.3241
公爵	-11.3244
裸体	-11.3244
合作伙伴	-11.3245
杀人犯	-11.3248
馅饼	-11.3248
他们认为	-11.3249
桌子上	-11.3251
吻合	-11.3254
慎	-11.3262
浇	-11.3263
斯克	-11.3265
▁你知道么	-11.3265
几乎所有	-11.3269
开采	-11.3271
负债	-11.3272
nn	-11.3274
1/	-11.3277
34	-11.3279
很多人都	-11.328
亲人	-11.3281
美术	-11.3284
告别	-11.3284
ea	-11.3287
袜子	-11.3289
把刀	-11.329
脱掉	-11.329
吃午饭	-11.3293
剩下	-11.3293
眼光	-11.3296
丙	-11.33
碧	-11.33
修正	-11.3301
泼	-11.3301
筑	-11.3305
犯下	-11.3307
琐	-11.3307
绝对是	-11.3311
行走	-11.3312
守卫	-11.3312
失误	-11.3313
低调	-11.3314
茫	-11.3315
国防	-11.3317
尾巴	-11.3318
hu	-11.3319
勉强	-11.332
健身房	-11.332
你刚才	-11.3322
挚	-11.3322
又能	-11.3325
埃德	-11.3327
主体	-11.3332
家园	-11.3332
管用	-11.3333
打电话来	-11.3334
浓度	-11.3335
▁你不该	-11.3337
更重要的是	-11.3338
一身	-11.3339
点钱	-11.3341
贞	-11.3345
纠纷	-11.3345
运送	-11.3346
就必须	-11.3347
来到这里	-11.3347
假日	-11.3348
到这儿来	-11.3348
旗下	-11.3349
这正是	-11.335
在洛杉矶	-11.3352
蒙古	-11.3352
▁或许你	-11.3353
je	-11.3353
好友	-11.3354
是因为他	-11.3357
金融机构	-11.3357
3000	-11.3358
顺序	-11.3359
中断	-11.3363
山谷	-11.3364
升值	-11.3366
后门	-11.3372
滨	-11.3372
绞	-11.3375
租赁	-11.3375
悉	-11.3377
▁我不相信	-11.3378
我们就能	-11.338
融化	-11.338
指向	-11.3381
室外	-11.3381
甩了	-11.3382
fo	-11.3385
签订	-11.3388
坦克	-11.339
慢性	-11.339
卡片	-11.339
废弃	-11.3391
女巫	-11.3395
布尔	-11.3395
女郎	-11.3396
管理者	-11.3396
爸妈	-11.3396
力气	-11.3397
*	-11.3398
远程	-11.3403
优点	-11.3403
华丽	-11.3405
效益	-11.3407
搞什么	-11.3408
套房酒店	-11.3408
改变主意	-11.3413
衍生	-11.3413
变为	-11.3414
作物	-11.3415
去查	-11.3416
什么也不	-11.3418
火车站	-11.3419
休假	-11.3419
匪	-11.342
一轮	-11.342
更换	-11.342
香烟	-11.3424
越来越多	-11.3425
一次机会	-11.3427
为主	-11.3428
原料	-11.343
某一	-11.3431
视角	-11.3434
剃	-11.3435
总算	-11.3436
法国人	-11.3437
听不到	-11.344
巴尔	-11.3441
呗	-11.3443
朝着	-11.3445
弗兰	-11.3448
▁你看见	-11.3449
疫	-11.345
听证会	-11.3451
谣言	-11.3451
气球	-11.3453
在北京	-11.3455
诗歌	-11.3456
铅	-11.3457
塑	-11.3459
你能不能	-11.3461
最具	-11.3462
以色列人	-11.3466
西南	-11.3466
mm	-11.3467
陆地	-11.347
才不是	-11.347
十四	-11.3472
不值得	-11.3474
香水	-11.3474
难堪	-11.3475
▁至于	-11.3477
培	-11.3478
服务员	-11.3481
▁我只需要	-11.3482
不正常	-11.3482
荒唐	-11.3482
抬起	-11.3482
席位	-11.3484
商标	-11.3484
认证	-11.3486
在印度	-11.3487
中期	-11.3487
显而易见	-11.3489
ley	-11.3493
失陪	-11.3494
豁免	-11.3497
疗效	-11.3499
升高	-11.35
会怎么样	-11.3501
非凡	-11.3501
明天早上	-11.3502
无能为力	-11.3504
变得越来越	-11.3507
皮特	-11.3508
募	-11.351
亭	-11.3512
凯瑟琳	-11.3512
冷静点	-11.3512
人造	-11.3512
妓	-11.3513
能帮助	-11.3516
间客房	-11.3519
躯	-11.3519
外出	-11.352
较为	-11.3529
右手	-11.3531
ent	-11.3532
于此	-11.3533
术语	-11.3537
一辆车	-11.3539
像你一样	-11.354
三种	-11.3541
被解雇	-11.3541
预感	-11.3543
拘	-11.3543
帕克	-11.3544
图书	-11.3546
屠杀	-11.3547
有太多	-11.3548
gu	-11.3549
吩咐	-11.355
支配	-11.3554
纳税人	-11.3558
无罪	-11.3563
幽	-11.3564
论述	-11.3564
晚宴	-11.3565
一起工作	-11.3567
▁如果我能	-11.3567
好主意	-11.3569
聋	-11.3573
部电影	-11.3577
熔	-11.3581
这个家伙	-11.3582
ps	-11.3583
赠送	-11.3584
ds	-11.3586
韵	-11.3588
雷达	-11.3589
ot	-11.3592
乏	-11.3595
迄今为止	-11.3596
这样的话	-11.3599
小冰箱	-11.3599
去接	-11.3601
点击	-11.3602
管理员	-11.3604
会引起	-11.3605
点燃	-11.3605
声誉	-11.3607
夜间	-11.3607
恶意	-11.3608
72	-11.3608
笔记本	-11.3608
蜡	-11.3611
高科技	-11.3612
丰田	-11.3614
标题	-11.3615
分支	-11.3615
借贷	-11.3617
能看见	-11.3618
等候	-11.3619
纷	-11.3619
每小时	-11.3621
扰	-11.3622
嫩	-11.3627
个街区	-11.3628
99	-11.363
捷	-11.3633
让别人	-11.3634
倾听	-11.3634
磷	-11.3635
延续	-11.3635
不开心	-11.3636
召集	-11.3636
布鲁克	-11.3637
尤其是在	-11.364
雕像	-11.3642
膛	-11.365
把她带	-11.365
请问	-11.3651
雇用	-11.3651
io	-11.3654
走私	-11.3654
将使	-11.3656
两小时	-11.3658
安迪	-11.3659
属性	-11.3659
罗宾	-11.3662
热量	-11.3665
崛起	-11.3666
优化	-11.3667
左侧	-11.3669
谁知道	-11.367
野蛮	-11.3675
电源	-11.3677
终身	-11.3677
联邦政府	-11.3678
95	-11.3682
村子	-11.3682
est	-11.3685
人死亡	-11.3686
兰德	-11.3687
星期四	-11.3688
管理层	-11.3689
深处	-11.3689
锤	-11.3689
迷惑	-11.3689
听众	-11.369
资讯	-11.3691
向北	-11.3692
妆	-11.3692
治好	-11.3694
短缺	-11.3694
开关	-11.3694
无礼	-11.3695
数据显示	-11.3695
玩得	-11.3695
米兰	-11.3697
某个人	-11.3699
▁你叫我	-11.3702
看上去很	-11.3705
宁可	-11.3705
积累	-11.3706
个电话	-11.3708
禁令	-11.3711
呕吐	-11.3713
平板电脑	-11.3713
软弱	-11.3713
转身	-11.3714
亲近	-11.3715
▁你不应该	-11.3719
坊	-11.372
乡下	-11.372
拿起	-11.3722
语音	-11.3724
打给我	-11.3728
脚趾	-11.3728
手腕	-11.3729
现任	-11.3731
cl	-11.3732
感应	-11.3732
颅	-11.3736
毒素	-11.3737
样东西	-11.3739
制成	-11.3745
变动	-11.375
是一样的	-11.375
帮派	-11.3755
两个小时	-11.3755
外汇	-11.3759
把孩子	-11.3759
黑客	-11.3762
战役	-11.3762
伤亡	-11.3764
活儿	-11.3767
氨	-11.3767
绝大多数	-11.3768
陪我	-11.3768
审问	-11.3771
水晶	-11.3774
信托	-11.3775
养老金	-11.3775
妄	-11.3776
ag	-11.3776
弊	-11.378
里奥	-11.3782
球迷	-11.3782
万圣节	-11.3783
肯尼迪	-11.3783
忽然	-11.3784
信徒	-11.3786
该如何	-11.3786
但如果	-11.3787
▁我不是说	-11.3789
你妹妹	-11.379
安置	-11.3794
第二天	-11.3795
更少	-11.3796
颤	-11.3798
提醒你	-11.3798
叛徒	-11.3799
打仗	-11.38
宝石	-11.3802
艾尔	-11.3803
总得	-11.3806
单元	-11.3807
开除	-11.3807
mp	-11.3809
宪	-11.381
很糟	-11.3812
处方	-11.3819
上帝保佑	-11.3819
陌生	-11.382
大街上	-11.3822
鸿	-11.3822
新西兰	-11.3822
施加	-11.3823
更具	-11.3824
法官大人	-11.3824
海关	-11.3825
电视节目	-11.3826
这才是	-11.383
铲	-11.383
多样性	-11.383
睡不着	-11.383
祖国	-11.3831
福音	-11.3832
有时会	-11.3833
再生	-11.3833
报告中	-11.3833
mu	-11.3836
好好想想	-11.3837
很紧张	-11.3837
戳	-11.3838
悲惨	-11.3838
孤立	-11.3841
漏洞	-11.3841
宁静	-11.3841
邀	-11.3845
亏损	-11.3846
张照片	-11.3848
同盟	-11.3853
美国经济	-11.3853
外科医生	-11.3853
驯	-11.3854
und	-11.3855
绘画	-11.3855
医学院	-11.3859
梅尔	-11.386
浦	-11.3862
承包商	-11.3862
火焰	-11.3863
口袋	-11.3863
感谢上帝	-11.3863
意味	-11.3866
不会让你	-11.3868
布斯	-11.3868
警惕	-11.3869
过滤	-11.387
魔术	-11.3871
追查	-11.3873
学费	-11.3876
可不可以	-11.3876
挫	-11.3876
有什么关系	-11.3877
让我看看	-11.3878
印第安人	-11.388
保卫	-11.388
三星	-11.3882
▁我都不知道	-11.3884
电报	-11.3884
途中	-11.3885
瘫痪	-11.3885
各种各样的	-11.3885
奖学金	-11.3885
那是我的	-11.3885
也就是说	-11.3886
轰炸	-11.3886
250	-11.3888
颠	-11.3891
▁你只能	-11.3894
把钥匙	-11.3896
操作系统	-11.3898
bu	-11.39
硬件	-11.3901
拥挤	-11.3902
伴随着	-11.3904
德州	-11.3904
对你说	-11.3905
要做什么	-11.3906
差劲	-11.3906
空白	-11.3906
观测	-11.3907
再度	-11.3908
掷	-11.3909
拿回	-11.3913
姆斯	-11.3916
翠	-11.3917
环境下	-11.3918
冷却	-11.3919
遥控	-11.3919
歌唱	-11.3923
闪电	-11.3926
水管	-11.3927
你的孩子	-11.3928
下场	-11.3931
协	-11.3938
仲裁	-11.3938
导师	-11.394
浑身	-11.394
想起来	-11.3941
斯坦福	-11.3942
一百万	-11.3943
反击	-11.3944
滩	-11.3944
量子	-11.3946
很厉害	-11.3946
小姑娘	-11.3947
封面	-11.3948
喀	-11.3949
众人	-11.3949
可卡因	-11.3949
堕落	-11.3949
自尊	-11.3951
陪着	-11.3953
斯堡	-11.3954
分数	-11.3955
费尔	-11.3956
舔	-11.3957
嗅	-11.3957
奥斯卡	-11.3958
宏观	-11.3959
越过	-11.3959
有多少人	-11.396
板上	-11.3963
课堂	-11.3963
小鸟	-11.3964
我正要	-11.3964
分泌	-11.3966
念头	-11.3966
区分	-11.397
twitter	-11.3973
官司	-11.3974
开玩笑吧	-11.3974
掉下来	-11.3977
锐	-11.398
陀	-11.3981
要做的就是	-11.3983
忽	-11.3986
以致	-11.3989
科医生	-11.399
怀特	-11.3991
车道	-11.3991
收益率	-11.3995
让步	-11.3995
淘汰	-11.3995
ee	-11.3996
一双	-11.3997
理事会	-11.4002
中国经济	-11.4004
虫子	-11.4005
柳	-11.4005
疆	-11.4005
her	-11.4005
坚决	-11.4006
做不了	-11.4007
萨尔	-11.4009
老年人	-11.4011
宋	-11.4013
大宗商品	-11.4013
塑造	-11.4013
浑	-11.4014
笔记	-11.4014
呆着	-11.4015
男士	-11.4016
不是么	-11.4017
到时候	-11.4018
犯错	-11.4023
木头	-11.4026
作案	-11.4026
▁你知道什么	-11.4028
火鸡	-11.4029
斧	-11.4029
滑稽	-11.4029
基督徒	-11.403
▁你想知道	-11.4031
六年	-11.4033
房租	-11.4036
硅	-11.4037
奢华	-11.4038
古老	-11.4038
欧洲央行	-11.404
亲吻	-11.4042
想和你	-11.4044
谦	-11.4045
仅此而已	-11.4045
英寸液晶电视	-11.4045
舞者	-11.4047
布鲁克林	-11.4047
▁你好像	-11.4049
▁我只希望	-11.4051
裁判	-11.4053
我也不会	-11.4054
隐形	-11.4059
探长	-11.4059
双眼	-11.406
法则	-11.4063
一生中	-11.4064
热门	-11.4064
变异	-11.4069
在法庭上	-11.407
这就是为什么	-11.4071
911	-11.4071
插手	-11.4071
产物	-11.4075
女神	-11.4078
样品	-11.4079
鸡肉	-11.408
我的钱	-11.4083
▁我本想	-11.4083
礼品	-11.4085
头疼	-11.4085
佛教	-11.4085
格式	-11.4086
医药	-11.4094
一团	-11.4094
我得走了	-11.4094
推行	-11.4094
青春	-11.4095
▁但我觉得	-11.4096
消极	-11.4096
霉	-11.4099
素质	-11.4105
玩玩	-11.4107
厌烦	-11.4108
栽	-11.4109
寺	-11.411
本事	-11.411
姿态	-11.411
9.	-11.4111
反弹	-11.4117
帖	-11.4118
蓬	-11.4118
最喜欢	-11.4118
原油	-11.4121
你是怎么	-11.4123
劳拉	-11.4124
起源	-11.4124
几个人	-11.4125
不属于	-11.4126
召唤	-11.4126
举止	-11.413
太快了	-11.4131
修女	-11.4134
时髦	-11.4134
桂	-11.4134
悬崖	-11.4134
拜拜	-11.414
流氓	-11.4142
游览	-11.4143
跟她说	-11.4144
已经够	-11.4145
才知道	-11.4147
手册	-11.4147
狗狗	-11.4148
一些事	-11.4149
凯恩	-11.415
大哥	-11.4153
路径	-11.4153
che	-11.4154
很近	-11.4156
舰队	-11.4162
从哪儿	-11.4162
遇上	-11.4163
津	-11.4164
这是一种	-11.4166
傲	-11.4166
会带来	-11.4166
众议院	-11.4167
礁	-11.4167
悲	-11.4168
斯科特	-11.4171
国家公园	-11.4175
沃尔玛	-11.4177
封信	-11.4177
▁但是当	-11.4179
瓣	-11.4183
金融市场	-11.4193
究	-11.4197
听到了吗	-11.4199
这一天	-11.42
轻微	-11.42
说些什么	-11.4201
从哪	-11.4203
类似于	-11.4203
勒索	-11.4203
去那儿	-11.4204
还有一些	-11.4204
教皇	-11.4204
奉献	-11.4204
只是因为	-11.4205
han	-11.4206
还包括	-11.4207
舟	-11.4208
炫耀	-11.4208
邮箱	-11.421
700	-11.4211
锁定	-11.4212
研究发现	-11.4213
恐怖主义	-11.4215
组建	-11.4215
很正常	-11.4215
枪手	-11.4218
写下	-11.422
▁我可不会	-11.4224
cr	-11.4226
费城	-11.4226
教导	-11.4227
救济	-11.4227
干旱	-11.4227
收缩	-11.423
有三个	-11.4233
村民	-11.4235
奥巴马总统	-11.4237
明亮	-11.4237
很乐意	-11.4237
阶	-11.4239
加热	-11.424
图表	-11.424
造型	-11.4241
大自然	-11.4242
鸽子	-11.4244
忠实	-11.4244
联赛	-11.4247
敲门	-11.4247
▁我昨晚	-11.4248
传感器	-11.4249
权益	-11.4251
泰迪	-11.4253
认得	-11.4253
名誉	-11.4254
远处	-11.4255
猎物	-11.4256
太大了	-11.4257
蹦	-11.4257
沦	-11.4257
我相信你	-11.4258
工党	-11.4261
▁你看上去	-11.4263
▁她看起来	-11.4265
很晚	-11.4268
搞砸	-11.4269
民事	-11.4271
一阵子	-11.4271
小费	-11.4271
蜜月	-11.4272
僵尸	-11.4274
服役	-11.4275
做手术	-11.4278
微生物	-11.4279
丝毫	-11.428
读到	-11.428
联邦调查局	-11.4282
堪	-11.4284
碰巧	-11.4285
欺负	-11.4291
轮椅	-11.4292
引力	-11.4292
因子	-11.4297
恕	-11.4298
糟透了	-11.4299
出差	-11.4299
实在太	-11.43
专栏	-11.43
49	-11.4302
分成	-11.4302
地产	-11.4303
冈	-11.4307
批判	-11.4308
▁你不需要	-11.4309
兑	-11.4312
保管	-11.4313
在我面前	-11.4315
有道理	-11.4315
所需	-11.4316
免得	-11.432
肝脏	-11.4325
打球	-11.4325
眼下	-11.4326
真漂亮	-11.4327
麦片	-11.4329
非要	-11.4331
猎人	-11.4331
午餐和晚餐	-11.4331
sp	-11.4332
car	-11.4336
绊	-11.434
专辑	-11.434
口水	-11.4341
重重	-11.4343
酒店位于	-11.4343
并不想	-11.4347
压缩	-11.4349
给你买	-11.4351
生效	-11.4353
的目标是	-11.4356
驾车	-11.4357
那天晚上	-11.4357
几位	-11.4358
du	-11.4358
哲	-11.4365
定居	-11.4366
pl	-11.4366
是世界上最	-11.4367
解脱	-11.4368
用不着	-11.437
我也想	-11.4371
待会儿	-11.4372
诡异	-11.4373
或许会	-11.4375
触摸	-11.4375
▁你难道	-11.4377
喝咖啡	-11.4377
红酒	-11.4378
抗议者	-11.4379
信件	-11.4381
科罗拉多	-11.4381
外婆	-11.4384
关税	-11.4385
齐全	-11.4385
无家可归	-11.439
被困在	-11.439
永不	-11.4392
晨	-11.4392
ian	-11.4395
切除	-11.4395
很远	-11.4397
嚼	-11.4398
看到过	-11.4398
你是对的	-11.4403
old	-11.4405
有名的	-11.4405
苯	-11.4406
山羊	-11.4406
根本就没	-11.4407
是什么样的	-11.4408
这个故事	-11.4409
sch	-11.4411
电线	-11.4414
一切都会	-11.4416
生死	-11.4416
架飞机	-11.4417
帕特	-11.4419
决不会	-11.4422
迦	-11.4423
虔诚	-11.4423
启发	-11.4424
自行	-11.4431
马路	-11.4432
lt	-11.4433
▁你居然	-11.4439
星际	-11.4441
高端	-11.4445
分解	-11.4445
七年	-11.4446
激活	-11.4446
后院	-11.4448
利物浦	-11.4448
局里	-11.4449
相遇	-11.445
屑	-11.4457
英寸平板电视	-11.4457
壁炉	-11.4458
你为什么要	-11.4459
师父	-11.446
组成部分	-11.4461
狗屎	-11.4461
锦	-11.4465
送来	-11.4467
升起	-11.4468
杰夫	-11.4469
手术室	-11.4471
ty	-11.4471
这些事情	-11.4473
oo	-11.4473
敦促	-11.4474
萨姆	-11.4474
mon	-11.4478
二战	-11.448
one	-11.4489
可能需要	-11.4489
当晚	-11.449
砂	-11.449
心思	-11.4491
贝斯特韦斯特酒店	-11.4492
任何时候	-11.4493
求求你	-11.4494
羽	-11.4496
泵	-11.4499
克隆	-11.4502
根本不知道	-11.4504
46	-11.4507
国防部	-11.4508
在巴黎	-11.4509
很可能是	-11.4511
有价值的	-11.4512
再来一次	-11.4516
跟谁	-11.4517
没钱	-11.4521
成功地	-11.4522
事务所	-11.4526
星期三	-11.4527
杰西	-11.4527
多远	-11.4528
车型	-11.4528
法定	-11.4532
120	-11.4532
吾	-11.4533
蟹	-11.4533
宣誓	-11.4533
言语	-11.4534
烟草	-11.4535
七个	-11.4537
躲避	-11.4545
佣	-11.4546
好啦	-11.4546
失败者	-11.4548
对于那些	-11.4549
瓷	-11.4549
在接下来的	-11.4549
晚些时候	-11.4549
追溯	-11.455
就成了	-11.4554
否定	-11.4557
牛津	-11.4559
你就得	-11.4562
晴	-11.4566
香蕉	-11.4567
冥	-11.4568
就在这儿	-11.4572
涉嫌	-11.4573
征收	-11.4573
纲	-11.4575
棺材	-11.4575
鸟类	-11.4575
通用汽车	-11.458
借款	-11.458
委员	-11.4582
乌克兰	-11.4583
备受	-11.4585
倒下	-11.4586
那个家伙	-11.4588
凭借	-11.4588
殖民	-11.459
制止	-11.4592
庇护	-11.4592
绝对不会	-11.4593
耻	-11.4595
剩余	-11.4599
干细胞	-11.4599
年初	-11.4599
是假的	-11.4601
罗杰	-11.4602
维亚	-11.4608
掺	-11.4609
Co	-11.461
全美	-11.4617
手铐	-11.4619
你怎么知道	-11.4623
热水	-11.4624
转型	-11.4627
库存	-11.4631
沿海	-11.4632
亲手	-11.4632
後	-11.4635
甜蜜	-11.4635
议题	-11.4636
比率	-11.4636
伊斯兰教	-11.4642
这条路	-11.4642
涉及到	-11.4645
警员	-11.465
ron	-11.465
加班	-11.465
深圳	-11.4652
曲线	-11.4652
盗窃	-11.4652
才华	-11.4655
变形	-11.4658
反馈	-11.4661
贬值	-11.4662
大人物	-11.4664
不容	-11.4668
精子	-11.4669
擅	-11.467
海底	-11.4673
往下	-11.4676
我以为你	-11.4678
我不认为	-11.4678
卓越	-11.4679
巷	-11.4683
你弟弟	-11.4684
抢走	-11.469
昂贵	-11.4694
陷害	-11.4697
粗鲁	-11.4698
揭露	-11.4699
这座城市	-11.4699
椅子上	-11.4704
▁我真希望	-11.4705
巴特	-11.4706
意味着什么	-11.4708
传来	-11.4709
芒	-11.471
苏珊	-11.4713
付出代价	-11.4713
套餐	-11.4713
思路	-11.4713
开设	-11.4713
住在这里	-11.4719
扎克	-11.472
dna	-11.4721
之道	-11.4722
销售额	-11.4724
预备	-11.4726
入睡	-11.4727
租金	-11.4728
怎么看	-11.4729
吸引人	-11.4729
病情	-11.4729
束缚	-11.4729
激怒	-11.473
插入	-11.4732
各类	-11.4732
僵	-11.4735
那块	-11.4735
阿姨	-11.4739
渗透	-11.4739
幅度	-11.4742
最糟糕的	-11.4745
流浪	-11.4747
依赖于	-11.4748
纠正	-11.4749
羽毛	-11.475
微博	-11.4754
除掉	-11.4755
恶作剧	-11.4755
处理好	-11.4757
▁我可以帮你	-11.4759
已知	-11.4759
契约	-11.4761
▁我敢打赌	-11.4764
我也要	-11.4767
冷静下来	-11.4767
在你身上	-11.477
密集	-11.477
追捕	-11.4771
岭	-11.4772
底特律	-11.4772
侵略	-11.4773
不足以	-11.4773
没什么好	-11.4773
出台	-11.4775
残留	-11.4776
需要更多	-11.4777
罕	-11.4777
发觉	-11.4779
骑马	-11.4787
ster	-11.4789
钙	-11.479
英俊	-11.479
司法部	-11.4794
总共	-11.4797
草地	-11.4798
总比	-11.4798
娇	-11.4798
喝杯	-11.4799
棕色	-11.4799
看似	-11.4804
史上	-11.4804
临近	-11.4804
电厂	-11.4807
别处	-11.4807
脱衣舞	-11.4807
旷	-11.4807
做得很好	-11.4808
1999	-11.481
缸	-11.4812
搬家	-11.4814
帆	-11.4817
最高法院	-11.4819
和我们一起	-11.4819
第八	-11.4823
假定	-11.4824
自助早餐	-11.4825
忍不住	-11.4826
暂	-11.4829
宿舍	-11.483
辉	-11.483
废除	-11.4832
合资	-11.4834
陆军	-11.4836
罚款	-11.4841
流量	-11.4843
超能力	-11.4843
依法	-11.4844
地方政府	-11.4848
复印	-11.4848
邻国	-11.4851
windows	-11.4851
这案子	-11.4851
纪律	-11.4852
▁你真是个	-11.4856
议案	-11.4858
咸	-11.4859
遗嘱	-11.486
催眠	-11.486
建成	-11.4861
虚弱	-11.4861
太远	-11.4863
落下	-11.4864
和你一样	-11.4865
救命	-11.4865
游说	-11.4868
测验	-11.4869
带回来	-11.487
你懂的	-11.4871
是个好主意	-11.4872
难度	-11.4873
慈	-11.4874
猜猜	-11.4878
惹麻烦	-11.4879
萨克	-11.488
汽	-11.4884
掠	-11.4884
一直都是	-11.4886
顽固	-11.4886
炸药	-11.4888
没想过	-11.4889
抑郁	-11.4889
标识	-11.4891
松饼	-11.4898
浏览器	-11.4898
▁所以如果	-11.4899
据说	-11.4901
住处	-11.4903
视野	-11.4905
庞大	-11.4906
复活	-11.4907
ms	-11.4911
美容	-11.4911
副作用	-11.4912
叫醒	-11.4912
称赞	-11.4918
好好享受	-11.4919
自己的生活	-11.4921
印象深刻	-11.4922
追逐	-11.4922
梦到	-11.4923
蒙德	-11.4924
划分	-11.4925
暴风雨	-11.493
高峰	-11.4931
赫尔	-11.4931
部件	-11.4931
珍珠	-11.4934
不客气	-11.4934
柔软	-11.4934
有麻烦了	-11.4936
ong	-11.4936
听话	-11.4937
地步	-11.4937
退后	-11.4938
腻	-11.4938
牢房	-11.4939
肯尼亚	-11.494
开枪打	-11.4941
借助	-11.4943
三位	-11.4946
西班牙语	-11.495
宽松	-11.4952
品味	-11.4955
俯	-11.4956
做决定	-11.4956
抨击	-11.4956
海域	-11.4957
za	-11.4959
她的名字	-11.4959
窗外	-11.4959
研究中心	-11.4961
维奇	-11.4962
米勒	-11.4962
创造出	-11.4963
冷冻	-11.4963
丢脸	-11.4964
从没想过	-11.4965
john	-11.4965
十七	-11.4967
没事吧	-11.4968
报仇	-11.4969
奇特	-11.4969
参数	-11.4969
向东	-11.4971
导航	-11.4971
内战	-11.4977
争端	-11.4977
明天就	-11.4977
台词	-11.498
携	-11.4984
爬上	-11.4984
海啸	-11.4985
长途	-11.4986
每隔	-11.4986
蒸汽	-11.4988
并购	-11.4992
泰德	-11.4995
证件	-11.4998
勺	-11.5
索马里	-11.5001
变成一个	-11.5001
派出	-11.5001
在楼上	-11.5002
ate	-11.5006
亚瑟	-11.5012
假释	-11.5014
告诉别人	-11.5015
丽莎	-11.502
搬走	-11.502
开发商	-11.5025
固执	-11.5027
隙	-11.5027
引进	-11.503
很可能会	-11.5034
步伐	-11.5034
希拉里	-11.5036
起初	-11.5037
可能导致	-11.5038
杯咖啡	-11.5043
以后再	-11.5043
背上	-11.5044
悲观	-11.5045
第一位	-11.5046
一张特大床	-11.5046
病房	-11.5048
正直	-11.5053
菊	-11.5054
雕	-11.5054
野生动物	-11.5055
一伙	-11.5057
潮流	-11.5061
原谅你	-11.5063
惠普	-11.5069
顽	-11.5071
作弊	-11.5075
照顾好	-11.5075
期货	-11.5077
射线	-11.5077
很多次	-11.5078
自助	-11.5079
亚历山大	-11.5081
bank	-11.5081
经济危机	-11.5081
古董	-11.5081
花旗	-11.5082
野生	-11.5086
自制	-11.5088
绘	-11.5089
有效地	-11.509
雕塑	-11.509
钞票	-11.5091
滋味	-11.5091
资深	-11.5092
塞进	-11.5093
录像带	-11.5094
▁因为我不想	-11.5094
宇航员	-11.5098
vo	-11.5106
各项	-11.5107
裹	-11.5113
工作室	-11.5114
匈牙利	-11.5116
茂	-11.5116
你的家人	-11.5119
船舶	-11.5119
▁医生说	-11.512
酬	-11.5123
压迫	-11.5127
布莱克	-11.5128
巨型	-11.5131
能感觉到	-11.5131
43	-11.5132
德里克	-11.5133
贤	-11.5134
化合物	-11.5135
神经病	-11.5136
正经	-11.5137
防守	-11.514
喜悦	-11.5144
事项	-11.5146
意义上	-11.515
胡说	-11.5151
流入	-11.5152
发光	-11.5154
保镖	-11.5162
2.00	-11.5168
我可不想	-11.5171
认罪	-11.5172
置于	-11.5175
询	-11.5177
很特别	-11.5178
伯恩	-11.518
潜艇	-11.518
到这来	-11.518
唐纳	-11.518
数码	-11.5181
▁我可以给你	-11.5181
棵树	-11.5184
零件	-11.5187
马来西亚	-11.5188
伊利	-11.5189
迫切	-11.5191
武士	-11.5194
童话	-11.5195
演示	-11.5195
责备	-11.5197
悍	-11.5197
shi	-11.5199
海峡	-11.5199
这种感觉	-11.52
我是认真的	-11.52
这种方式	-11.5201
od	-11.5202
倒闭	-11.5204
灾害	-11.5209
最伟大的	-11.5212
媚	-11.5216
憎恨	-11.5216
宫殿	-11.5217
穿梭	-11.5218
切尔西	-11.5223
黏	-11.5225
Y	-11.5225
▁晚上好	-11.5227
十万	-11.5229
第一步	-11.5231
信赖	-11.5232
生殖	-11.5233
炭	-11.5233
哪位	-11.5235
imf	-11.5236
篷	-11.5242
界面	-11.5248
只知道	-11.5249
什么事都	-11.525
碍	-11.5251
揽	-11.5252
很惊讶	-11.5252
黑帮	-11.5253
搜集	-11.5255
约翰逊	-11.5255
我得去	-11.5256
性行为	-11.5256
姿	-11.526
遗忘	-11.5265
明明	-11.5265
▁我来告诉你	-11.5267
有钱人	-11.527
这辈子	-11.527
侦察	-11.527
唤醒	-11.5272
记载	-11.5273
扔进	-11.5273
重申	-11.5276
公寓里	-11.5276
貌似	-11.5279
的地盘	-11.5279
他的脸	-11.5279
坦诚	-11.5282
通常会	-11.5283
芬兰	-11.5285
握手	-11.5289
飙升	-11.5289
ser	-11.529
出了什么事	-11.5291
词汇	-11.5293
是唯一一个	-11.5294
是无辜的	-11.5297
陪伴	-11.5299
彩色	-11.5301
摇摆	-11.5301
碑	-11.5306
企鹅	-11.5307
哈特	-11.5308
事情发生	-11.531
要素	-11.5312
关起来	-11.5312
我的脸	-11.5313
急剧	-11.5313
见到她	-11.5315
胃口	-11.5318
奥利	-11.5318
不感兴趣	-11.5319
简直就是	-11.532
头骨	-11.5324
迪亚	-11.5324
安保	-11.5328
课题	-11.533
间接	-11.5332
▁是么	-11.5333
肥皂	-11.5334
任意	-11.5335
螺旋	-11.5336
十字	-11.5338
心理学家	-11.534
草坪	-11.5344
等方面	-11.5348
旱	-11.5349
就够了	-11.5352
众所周知	-11.5362
▁我查了	-11.5365
可持续	-11.5371
反恐	-11.5372
甚至连	-11.5374
▁不会吧	-11.5375
缩减	-11.5376
▁别碰我	-11.5378
求助	-11.5379
无所不	-11.5381
夸大	-11.5382
几种	-11.5382
誓言	-11.5382
那你就	-11.5384
▁所以我就	-11.5389
终点	-11.5389
女孩儿	-11.5393
一圈	-11.5396
新技术	-11.5396
也曾	-11.5397
掐	-11.5398
堤	-11.5398
底部	-11.5399
歌剧	-11.54
客房配有	-11.5402
叮	-11.5408
靴子	-11.5408
喝醉	-11.5412
虚假	-11.5413
很多钱	-11.5413
叶子	-11.5414
暗杀	-11.5415
突发	-11.5415
做错了	-11.5416
很多事	-11.5418
夜总会	-11.5421
赌注	-11.5423
+	-11.5426
小妞	-11.5426
电路	-11.5427
这部电影	-11.543
管辖	-11.5431
还挺	-11.5431
帮不了	-11.5431
耶鲁	-11.5432
班车	-11.5433
昌	-11.5435
纠缠	-11.5435
洋葱	-11.5436
西方国家	-11.544
制药	-11.544
最快的	-11.5443
蒜	-11.5445
冤	-11.5445
铸	-11.5445
幼稚	-11.5445
辉煌	-11.5445
激起	-11.5447
初期	-11.5449
优越	-11.545
忙碌	-11.545
咨询公司	-11.5453
完蛋了	-11.5454
十字架	-11.5455
结尾	-11.5462
珊瑚	-11.5463
狠狠	-11.5463
也是个	-11.5464
▁但我知道	-11.5465
没有必要	-11.5467
公共汽车	-11.5468
有些事	-11.5469
耸	-11.5473
拖车	-11.5473
入狱	-11.5474
在这种情况下	-11.5474
我姐姐	-11.5474
真高兴	-11.5486
拷	-11.549
民族主义	-11.549
牙医	-11.5493
殖民地	-11.5494
安息	-11.5495
64	-11.5498
布拉德	-11.55
橘	-11.55
极限	-11.5508
象征性收费	-11.551
气息	-11.5511
某个地方	-11.5511
就不用	-11.5512
被逮捕	-11.5515
帮你们	-11.5517
敷	-11.5519
草原	-11.5523
共事	-11.5525
何处	-11.5525
衬	-11.5527
望着	-11.5527
真爱	-11.5528
为了保护	-11.5529
鹅	-11.553
Mo	-11.5531
游艇	-11.5531
做任何事	-11.5532
业主	-11.5533
没收	-11.5535
▁啊哈	-11.5535
恰好	-11.5538
侯	-11.5538
帮个忙	-11.5538
毯子	-11.5538
▁而且我们	-11.5538
动画	-11.5539
tel	-11.5539
争执	-11.5539
界限	-11.5542
所有权	-11.5544
扑克	-11.5548
逮	-11.5549
核弹	-11.5551
请不要	-11.5553
妄想	-11.5556
喽	-11.5557
狡猾	-11.5557
派遣	-11.5561
靶	-11.5566
番茄	-11.5566
应急	-11.5571
碰撞	-11.5572
力度	-11.5575
阿拉斯加	-11.5576
少量	-11.5577
拉姆	-11.558
悦	-11.5582
猩猩	-11.5583
奥林匹克	-11.5585
离我远点	-11.5585
搞错了	-11.5586
救生	-11.5587
弯曲	-11.5587
你的眼睛	-11.5589
没人能	-11.559
筹集	-11.5591
可行的	-11.5593
橄榄	-11.5595
情侣	-11.5598
投资银行	-11.5598
出价	-11.5598
版权	-11.5599
鲍尔	-11.5599
冻结	-11.5603
X	-11.5604
太难	-11.5604
ris	-11.5606
做了个	-11.5609
节约	-11.561
会把你	-11.5611
各方	-11.5612
凯蒂	-11.5616
侵入	-11.5617
换衣服	-11.562
检察	-11.5621
舰长	-11.5623
查一下	-11.5623
墙壁	-11.5625
你就要	-11.5631
涅	-11.5632
干燥	-11.5633
何况	-11.5633
院长	-11.5634
万物	-11.5636
德克萨斯	-11.5639
大桥	-11.5641
枪杀	-11.5641
mc	-11.5642
▁你要知道	-11.5647
是错误的	-11.5648
长期以来	-11.5649
热烈	-11.565
颗粒	-11.5653
路程	-11.5655
听好了	-11.5656
就在那	-11.5658
推断	-11.5661
玩游戏	-11.5663
更糟糕	-11.5665
处置	-11.5667
中央银行	-11.5668
狗屁	-11.5672
头盔	-11.5674
压抑	-11.5674
真棒	-11.5675
酿	-11.5675
被谋杀	-11.5677
创造性	-11.5677
酯	-11.5679
撤退	-11.568
基地组织	-11.568
袜	-11.5683
通风	-11.5683
成为一名	-11.5683
放置	-11.5684
小鬼	-11.5684
纤	-11.5687
弹性	-11.5689
僧	-11.5689
履	-11.5689
总监	-11.5689
腐烂	-11.569
份额	-11.5691
吃药	-11.5692
定制	-11.5693
专注	-11.5693
凯莉	-11.5693
几个问题	-11.5695
橱	-11.5696
ger	-11.5697
绷	-11.5698
斯蒂芬	-11.5699
必定	-11.5699
讯息	-11.57
是认真的	-11.5701
面孔	-11.5704
ipad	-11.5705
打猎	-11.5706
可乐	-11.5707
啰	-11.5708
埋葬	-11.5709
胜过	-11.5712
长远	-11.5714
装满	-11.5715
联合会	-11.5715
狐	-11.5717
蚊	-11.5717
调情	-11.5719
客房提供	-11.572
下个月	-11.5724
出院	-11.5731
广州	-11.5731
触发	-11.5732
早上好	-11.5733
窍	-11.5736
体力	-11.5738
建筑师	-11.5738
操控	-11.5739
引诱	-11.574
要去哪	-11.5744
三名	-11.5745
急着	-11.5745
民主党人	-11.5746
捐款	-11.575
研制	-11.5751
官员们	-11.5752
分析人士	-11.5754
重庆	-11.5755
引人注目	-11.5755
艰苦	-11.5756
防卫	-11.5756
的世界里	-11.5757
不是那种	-11.5757
发烧	-11.5758
权限	-11.5761
殿下	-11.5763
环绕	-11.5768
这使得	-11.5776
领养	-11.5777
亲生	-11.5778
马桶	-11.5778
鲜花	-11.5781
若干	-11.5782
拱	-11.5784
天花板	-11.5784
墓地	-11.579
黑洞	-11.579
萎缩	-11.5794
棉花	-11.5802
加油站	-11.5802
韧	-11.5803
尼古拉	-11.5804
解释一下	-11.5806
创造力	-11.5808
情人节	-11.5809
梗	-11.5813
加密	-11.5814
六月	-11.5816
les	-11.5816
抓狂	-11.5822
特大床房	-11.5822
圣地亚哥	-11.5823
庆幸	-11.5823
电影院	-11.5824
桑德	-11.5824
野心	-11.5828
报道称	-11.5828
布伦	-11.5829
去上班	-11.5833
榜样	-11.5834
重返	-11.5835
演习	-11.5835
编码	-11.5835
控股	-11.5836
缔	-11.5842
启示	-11.5844
毒气	-11.5845
已婚	-11.5848
安全带	-11.5849
日落	-11.585
勇士	-11.585
▁我只是不想	-11.585
分钟内	-11.5851
丑陋	-11.5852
被指控	-11.5853
叛乱	-11.5853
乐器	-11.5853
大堂	-11.5853
这个样子	-11.5854
烟雾	-11.5856
可是个	-11.5856
周年	-11.5857
验尸	-11.5858
预先	-11.5859
嘲	-11.586
维生素	-11.5861
亚特兰大	-11.5861
驳	-11.5862
营业时间	-11.5863
啦啦队	-11.5863
那辆车	-11.5867
盈	-11.5868
在我身边	-11.587
肉体	-11.5871
煤炭	-11.5871
闪光	-11.5874
黑鬼	-11.5874
同时也是	-11.5874
很困难	-11.5878
热狗	-11.588
架构	-11.5885
ud	-11.589
沼泽	-11.589
纽约市	-11.5892
余生	-11.5895
路易	-11.5897
$	-11.59
答复	-11.5903
日报	-11.5903
渗	-11.5908
序列	-11.5909
瞪	-11.591
莱特	-11.5912
不管怎样	-11.5914
our	-11.5914
动摇	-11.5915
数月	-11.5915
光彩	-11.5919
观赏	-11.5922
宣言	-11.5922
物流	-11.5922
产出	-11.5923
是出于	-11.5927
删	-11.5927
干了什么	-11.5929
勿	-11.5929
光荣	-11.5929
地理位置	-11.593
疏散	-11.593
一封信	-11.593
研究员	-11.5931
国会议员	-11.5932
减弱	-11.5934
第二大	-11.5937
路口	-11.5937
日志	-11.5938
脑部	-11.5939
溅	-11.5939
▁别让他	-11.5941
屈服	-11.5941
野餐	-11.5942
发掘	-11.5942
摩西	-11.5944
▁为什么你要	-11.5945
安定	-11.5945
还有别的	-11.5947
一份工作	-11.5952
tion	-11.5952
跨越	-11.5952
挽回	-11.5952
露营	-11.5954
房内	-11.5954
狩猎	-11.5958
终极	-11.596
世界上最大的	-11.5964
贬	-11.5966
何种	-11.5967
知觉	-11.5967
诈骗	-11.5968
疮	-11.5968
探测器	-11.5972
拽	-11.5978
毫无意义	-11.5984
和他一起	-11.5985
米奇	-11.5988
一流的	-11.5989
餐桌	-11.5992
这件事情	-11.5994
献给	-11.6
醒过来	-11.6001
五月	-11.6001
低迷	-11.6002
责怪	-11.6002
最爱的	-11.6002
杉	-11.6007
金字塔	-11.6007
尼日利亚	-11.6007
抗生素	-11.6007
烷	-11.6007
堕胎	-11.6007
吓唬	-11.6007
奥地利	-11.6007
衰竭	-11.6008
怎能	-11.6008
副总统	-11.6011
演唱	-11.6011
致死	-11.6015
是这么说的	-11.6017
儒	-11.6017
▁什么叫	-11.6021
别太	-11.6024
这个名字	-11.6024
放射性	-11.6027
ock	-11.6027
被害人	-11.6027
抖	-11.6028
摩尔	-11.6028
搜索引擎	-11.6028
误导	-11.6033
汽车旅馆	-11.6034
纽约时报	-11.6037
人力资源	-11.6037
ue	-11.6043
疲惫	-11.6047
全球变暖	-11.6047
扭转	-11.6052
提问	-11.6053
胀	-11.6054
拾	-11.6054
加沙	-11.6055
棕榈	-11.6056
法兰克	-11.6057
通缉	-11.6058
到底是什么	-11.6058
骚乱	-11.6058
体面	-11.6059
最严重的	-11.6061
显现	-11.6062
镇压	-11.6062
你和你的	-11.6064
整晚都	-11.6066
通电话	-11.6066
蔑	-11.6066
次数	-11.6068
脸色	-11.6069
吵醒	-11.6069
ity	-11.6069
跟你一起	-11.607
哈尔	-11.6075
获利	-11.6075
杀戮	-11.6077
代理人	-11.6078
八年	-11.6078
手工	-11.6082
早饭	-11.6083
构造	-11.6084
很爱	-11.6084
异议	-11.6085
光临	-11.6085
辟	-11.6086
填补	-11.6088
骗局	-11.6088
增长率	-11.6088
片子	-11.6093
▁你能帮我	-11.6095
孩	-11.6095
窗帘	-11.6096
这辆车	-11.6097
你说的对	-11.6097
公车	-11.6098
被告知	-11.6098
辛格	-11.61
2014	-11.6101
兑现	-11.6101
默克尔	-11.6106
整夜	-11.6106
备用	-11.6107
厨房里	-11.611
只狗	-11.6111
高档	-11.6113
疲	-11.6114
差点就	-11.6115
捆	-11.6115
知识产权	-11.6116
或者其他	-11.6116
畅销	-11.6117
演变	-11.6117
淹死	-11.6118
打来的	-11.6119
这是因为	-11.6121
自卫	-11.6122
水泥	-11.6127
喻	-11.6128
怎么这么	-11.6129
戴维斯	-11.6129
所有事情	-11.613
寄给	-11.613
所带来的	-11.6131
优美	-11.6132
虐	-11.6134
新奥尔良	-11.6136
丧生	-11.6136
算法	-11.6137
原先	-11.6137
发泄	-11.6141
赢家	-11.6143
效劳	-11.6152
骗人	-11.6157
坐在这里	-11.6159
76	-11.616
疤	-11.6162
遏制	-11.6166
左手	-11.6167
爵	-11.6168
外资	-11.6169
体温	-11.617
境地	-11.617
欺	-11.617
脆	-11.6171
哪去了	-11.6171
66	-11.6181
胎儿	-11.6183
贡	-11.6183
感知	-11.6184
珊	-11.6185
折叠	-11.6186
有魅力	-11.6189
没啥	-11.6192
偷窃	-11.6193
无穷	-11.6198
地中海	-11.6205
穆罕默德	-11.6205
钠	-11.6205
蕴	-11.6205
鸭子	-11.6207
容器	-11.6208
跟我说话	-11.621
抬头	-11.621
金色	-11.6213
庭院	-11.6214
金正日	-11.6215
很多事情	-11.6216
很兴奋	-11.6217
酒鬼	-11.6223
相识	-11.6225
试试看	-11.6225
巴菲特	-11.6225
魔力	-11.6226
南极	-11.6226
宣告	-11.6227
被淘汰	-11.6228
尽全力	-11.6232
拇指	-11.6234
玩儿	-11.6235
带她去	-11.6237
国土	-11.6237
精明	-11.6239
挡住	-11.624
输出	-11.6245
杠杆	-11.6246
▁我原以为	-11.6246
平原	-11.6247
牵扯	-11.6247
秘书长	-11.6247
导向	-11.6252
总经理	-11.6253
报价	-11.6255
癖	-11.6256
叙述	-11.6256
环球	-11.6257
相对于	-11.6259
刹车	-11.6259
也同样	-11.6263
脖子上	-11.6263
饿死	-11.6268
画廊	-11.6268
共度	-11.627
绩效	-11.6272
团伙	-11.6274
朽	-11.6276
我可没	-11.6278
淹没	-11.6279
驾照	-11.6279
传闻	-11.6284
口香糖	-11.6286
愉悦	-11.6286
宾夕法尼亚	-11.6286
郑	-11.6286
八卦	-11.6286
冰川	-11.6288
在那之前	-11.629
税率	-11.6293
唠叨	-11.6296
唾	-11.6296
焊	-11.6296
徐	-11.6296
巩固	-11.6296
抽象	-11.6297
恰恰	-11.6298
吓得	-11.6299
牧场	-11.6304
狭	-11.6306
贿	-11.6306
布莱尔	-11.6307
祈求	-11.6307
海报	-11.6309
戴夫	-11.6311
下楼	-11.6313
混球	-11.6314
经受	-11.6317
好几年	-11.6318
一星期	-11.632
冷酷	-11.6322
一倍	-11.6325
电磁	-11.6328
我和我的	-11.6329
客人提供	-11.633
总额	-11.6335
僻	-11.6336
恐	-11.6343
宽容	-11.6344
家庭影院	-11.6346
泻	-11.6346
睡衣	-11.6347
反驳	-11.6348
补助	-11.6349
搜查令	-11.635
苦难	-11.635
复兴	-11.6352
ion	-11.6353
懦夫	-11.6357
嫌疑	-11.6358
平板	-11.6358
住在一起	-11.6359
德曼	-11.636
滚开	-11.6361
▁哪有	-11.6361
这种事情	-11.6362
内涵	-11.6362
第九	-11.6363
览	-11.6363
粪	-11.6365
部份	-11.6366
朋	-11.6366
海伦	-11.6368
带他去	-11.6369
厌倦	-11.6371
巧妙	-11.6377
凤	-11.6377
iPhone	-11.6377
又回到	-11.6377
广阔	-11.6378
孤儿	-11.6379
键盘	-11.6379
社交网络	-11.6381
拿回来	-11.6383
让大家	-11.6386
操心	-11.6387
光芒	-11.639
字体	-11.6395
某处	-11.6396
芝	-11.6396
高等教育	-11.6397
现行	-11.6401
所做的一切	-11.6407
bl	-11.6407
奥巴马政府	-11.6407
唔	-11.6408
腹部	-11.6409
海豚	-11.6409
精致	-11.641
去死吧	-11.6411
物理学	-11.6413
公告	-11.6415
漠	-11.6415
橙	-11.6416
幸存	-11.6418
狗娘养的	-11.6418
道菜	-11.642
紫色	-11.6421
要去哪里	-11.6422
演唱会	-11.6424
武力	-11.6426
微型	-11.6431
up	-11.6436
独一无二	-11.6438
抉择	-11.6438
冯	-11.6438
索尼	-11.6439
镇定	-11.6439
广东	-11.6439
毒药	-11.644
毛衣	-11.644
匆匆	-11.6443
冰箱里	-11.6443
我的腿	-11.6444
采集	-11.6445
贩毒	-11.6446
77	-11.6447
所作的	-11.6448
怜悯	-11.6448
凸	-11.645
警戒	-11.6453
福尔摩斯	-11.6459
帮我个忙	-11.6459
立马	-11.646
那该死的	-11.646
不合适	-11.6463
竭	-11.6464
那个时候	-11.6465
枢	-11.6469
秦	-11.6469
忧郁	-11.6469
成效	-11.647
反映出	-11.6472
用餐	-11.6476
背着	-11.6477
很累	-11.6477
岔	-11.6479
觅	-11.6479
乏味	-11.648
此项	-11.6482
三周	-11.6483
对他来说	-11.6487
无关紧要	-11.649
1998	-11.649
共同点	-11.6491
局部	-11.6492
排斥	-11.6492
凯撒	-11.6494
简历	-11.6496
凯西	-11.6497
ler	-11.65
达拉斯	-11.65
澳洲	-11.65
只管	-11.6503
德克萨斯州	-11.6503
作为一名	-11.6507
裁员	-11.6509
跟别人	-11.651
纳入	-11.651
▁你的意思是	-11.6511
海滨	-11.6514
摄入	-11.6516
好戏	-11.6519
刃	-11.652
丰盛早餐	-11.652
不确定性	-11.6521
同胞	-11.6522
客房内	-11.6522
在你身边	-11.6523
法令	-11.6524
布鲁斯	-11.6527
是这个意思	-11.6534
保佑	-11.6535
找寻	-11.6536
布局	-11.6537
外交政策	-11.6537
东南	-11.6537
水域	-11.6538
25%	-11.654
未婚夫	-11.6541
缩短	-11.6542
两边	-11.6543
的几率	-11.6543
弹药	-11.6544
温泉	-11.6544
霍尔	-11.6545
首领	-11.6547
在这方面	-11.6547
散发	-11.655
翅	-11.6551
片段	-11.6553
想和我	-11.6554
很好玩	-11.6554
波尔	-11.6558
突变	-11.6559
不过是个	-11.6559
听不见	-11.656
副总裁	-11.6564
体育馆	-11.6565
模样	-11.6569
菲利普	-11.6572
丹尼斯	-11.6573
祭司	-11.6573
想象力	-11.6574
没兴趣	-11.6576
审视	-11.6577
值钱	-11.6579
你想要什么	-11.6583
伏特加	-11.6583
洗手	-11.6584
清晨	-11.6585
摩擦	-11.6586
出版商	-11.6587
呆在这里	-11.6588
▁听好	-11.6589
清白	-11.659
密歇根	-11.6593
苍蝇	-11.6593
严峻	-11.6593
架子	-11.6594
特质	-11.6595
跳跃	-11.6597
查询	-11.6598
雄性	-11.6599
ren	-11.6601
喷气	-11.6602
很久没	-11.6602
雕刻	-11.6604
血腥	-11.6605
应得的	-11.6606
大鼠	-11.6608
什么都不知道	-11.6609
科研	-11.6612
花样	-11.6612
写下来	-11.6613
驰	-11.6613
窃听	-11.6616
枕	-11.6616
无法想象	-11.6618
15%	-11.6618
离职	-11.6621
ham	-11.6624
车厢	-11.6625
▁其次	-11.6628
化疗	-11.6628
油漆	-11.663
同类	-11.6632
射杀	-11.6633
粥	-11.6635
铀	-11.6635
再加上	-11.6635
漫步	-11.6637
打过电话	-11.6639
一种新的	-11.664
硬盘	-11.6643
撇	-11.6645
红绿灯	-11.6645
已经准备好	-11.6645
疲劳	-11.6646
那么久	-11.6646
恶性	-11.6646
会好起来的	-11.6648
怪兽	-11.6648
鲸鱼	-11.6648
兼职	-11.6657
一桩	-11.6658
体育场	-11.666
剧烈	-11.6661
▁我本来想	-11.6662
化验	-11.6664
这些家伙	-11.6665
河边	-11.6665
雪茄	-11.6667
抗拒	-11.6667
悲痛	-11.6668
宝藏	-11.667
毫米	-11.667
高贵	-11.6673
婴	-11.6674
惟	-11.6677
橡胶	-11.6677
州立大学	-11.668
做得好	-11.6682
每年都	-11.6685
破解	-11.6686
目击证人	-11.6687
瑜伽	-11.6687
书店	-11.6688
浓缩	-11.6688
招募	-11.6689
家属	-11.6691
庄园	-11.6693
还算	-11.6694
这笔钱	-11.6694
狭窄	-11.6698
牛仔裤	-11.6698
胜任	-11.67
听懂	-11.6702
pro	-11.6703
别的什么	-11.6704
奢侈品	-11.6704
鱼类	-11.6708
热腾腾的	-11.6708
逞	-11.6708
羡慕	-11.6708
为什么不能	-11.671
木材	-11.6715
信封	-11.6717
除此之外	-11.6719
哩	-11.6719
姜	-11.6719
硝	-11.6719
个百分点	-11.6719
问候	-11.672
ment	-11.672
密封	-11.6722
澳门	-11.6725
日常生活	-11.6726
web	-11.6727
这项研究	-11.6727
阴道	-11.6728
血统	-11.6729
沸	-11.6729
诱人	-11.6733
保护区	-11.6737
君主	-11.6737
比喻	-11.6737
梨	-11.674
气温	-11.674
增多	-11.674
草莓	-11.6741
凤凰	-11.675
我是不会	-11.6752
罗夫	-11.6755
粉碎	-11.6756
刊登	-11.6759
感觉如何	-11.676
摩根大通	-11.6761
跟你说过	-11.6764
琳娜	-11.6766
MP	-11.6766
哪来的	-11.6769
赛马	-11.677
高速互联网	-11.6774
公约	-11.6778
撰写	-11.678
一模一样	-11.6782
书桌	-11.6782
智利	-11.6786
天鹅	-11.6791
科夫	-11.6791
很多东西	-11.6792
land	-11.6792
珍惜	-11.6793
怎样才能	-11.6794
最少	-11.6795
露面	-11.6796
名片	-11.6796
队友	-11.6802
国际货币基金组织	-11.6803
盲目	-11.6804
被绑架	-11.6808
几周前	-11.681
这玩意	-11.681
调查显示	-11.6811
市场份额	-11.6812
沙特	-11.6818
人受伤	-11.6824
纺织	-11.6825
羞耻	-11.6825
汉语	-11.6826
min	-11.6827
丫	-11.6828
新郎	-11.6829
排列	-11.6835
捍卫	-11.6835
响应	-11.6836
▁关键是	-11.6836
笔记本电脑	-11.6837
赞扬	-11.6837
玩耍	-11.6838
九月	-11.684
煎饼	-11.6846
好好照顾	-11.6847
很显然	-11.6851
十年前	-11.6851
压制	-11.6853
冷战	-11.6853
沃特	-11.6855
让我想起	-11.6855
腕	-11.6866
▁你还想	-11.6867
条街	-11.6867
联系起来	-11.6869
配偶	-11.687
旦	-11.6871
现今	-11.6874
任职	-11.6875
囚	-11.6876
物理学家	-11.6876
两个孩子	-11.6876
1990	-11.6877
祝你好运	-11.6878
以确保	-11.6878
80%	-11.6879
tri	-11.688
概率	-11.6881
筛选	-11.6882
随之	-11.6882
被开除	-11.6884
迁移	-11.6885
一个巨大的	-11.6887
扔下	-11.6887
放射	-11.689
其中之一	-11.689
事宜	-11.6895
疑犯	-11.6895
哪天	-11.6896
好样的	-11.6897
高尚	-11.6906
御	-11.6908
兴起	-11.6909
抵消	-11.6909
平凡	-11.6909
孟加拉	-11.691
恶梦	-11.6921
敞开	-11.6923
聚合	-11.6923
待命	-11.6926
别急	-11.6926
顶尖	-11.6928
扰乱	-11.6929
别闹了	-11.693
山顶	-11.6931
大床房	-11.6931
david	-11.6931
阿拉比卡咖啡	-11.6932
心态	-11.6936
刻薄	-11.6938
这封信	-11.6939
解读	-11.6939
怯	-11.6942
青蛙	-11.6943
黑莓	-11.6944
裂缝	-11.6944
右翼	-11.6945
澳	-11.6946
正处于	-11.6947
阁楼	-11.6949
免费早餐	-11.695
俊	-11.6952
研究显示	-11.6955
中途	-11.6956
管理人员	-11.6958
发电机	-11.6959
残疾人	-11.6961
亿欧元	-11.6961
上瘾	-11.6962
ft	-11.6964
均衡	-11.6965
不惜	-11.6977
像我这样	-11.6977
文件夹	-11.698
咖啡馆	-11.6982
伽	-11.6985
崽	-11.6985
黎巴嫩	-11.6985
第十	-11.699
代表团	-11.6992
不会有事的	-11.6992
吃点东西	-11.6992
世俗	-11.6992
嗓	-11.6995
精美	-11.6996
以防万一	-11.6996
纯洁	-11.6998
威尔士	-11.6998
统治者	-11.6999
作为一种	-11.7
流传	-11.7006
餐饮	-11.7006
再也不能	-11.7007
椎	-11.7007
硕士	-11.7008
能搞定	-11.701
可以理解	-11.7011
视力	-11.7011
也是如此	-11.7014
三年前	-11.7018
生态系统	-11.7019
意识形态	-11.7019
滚出去	-11.7028
霍华德	-11.7029
柜子	-11.703
咒语	-11.7032
凹	-11.704
知晓	-11.7045
太阳系	-11.7047
最坏的	-11.7049
不妨	-11.705
约瑟夫	-11.7051
羞愧	-11.7051
竞争者	-11.7051
奏效	-11.7055
你觉得呢	-11.7056
近乎	-11.7057
之举	-11.7058
创办	-11.7064
趴	-11.7065
咕	-11.7072
新闻发布会	-11.7072
债权人	-11.7072
掌管	-11.7074
流失	-11.7075
壮观	-11.7076
背包	-11.7076
公关	-11.7077
树枝	-11.7079
综合症	-11.708
克莱尔	-11.7082
瘾君子	-11.7083
温馨	-11.7084
猛烈	-11.7085
恶棍	-11.7085
秘鲁	-11.7086
苍	-11.7086
这两种	-11.7089
诈	-11.7093
钦	-11.7093
摔倒	-11.7094
辣椒	-11.7094
研讨会	-11.7094
公斤	-11.7096
评判	-11.7097
三倍	-11.7098
化学物质	-11.7098
步入	-11.7099
络	-11.7102
晶体	-11.7104
厢	-11.7104
归咎于	-11.7105
联想	-11.7106
强有力的	-11.7106
脉冲	-11.7108
ny	-11.7109
第三次	-11.711
弗雷德	-11.7112
经纪	-11.7116
肘	-11.7116
颊	-11.7116
狐狸	-11.7116
庆典	-11.7117
一幕	-11.7119
够多了	-11.7121
外交官	-11.7123
怪怪的	-11.7125
暑	-11.7126
脊椎	-11.7127
圆形	-11.7128
gra	-11.7132
上市公司	-11.7132
裁定	-11.7132
紧身	-11.7138
金融时报	-11.7138
两份	-11.714
家务	-11.714
犹	-11.7141
胖子	-11.7141
这段时间	-11.7144
可谓	-11.7149
太迟了	-11.715
无助	-11.7153
逆转	-11.7156
暑假	-11.7161
出庭	-11.7162
使劲	-11.7167
对我们来说	-11.7167
第三方	-11.7169
反对党	-11.7169
悲哀	-11.7171
话语	-11.7172
替换	-11.7174
微妙	-11.7176
邻近	-11.7176
亲热	-11.7177
穿衣服	-11.7179
翔	-11.718
埃里克	-11.7182
90%	-11.7183
巡回	-11.7185
颠覆	-11.7185
匆忙	-11.7188
gen	-11.7189
净化	-11.7189
马上就要	-11.719
日元	-11.7191
遍布	-11.7192
▁打扰一下	-11.7194
丰厚	-11.7196
莱恩	-11.7197
树立	-11.7199
酒店就在	-11.72
懈	-11.7204
纠结	-11.7204
美景	-11.7205
拓展	-11.7206
偏离	-11.7206
站在这里	-11.7208
淋巴	-11.7208
辅	-11.721
立体	-11.721
熟练	-11.7211
把尸体	-11.7212
挑剔	-11.7216
审美	-11.7216
真是太好了	-11.7221
结算	-11.7222
野外	-11.7225
my	-11.7225
dia	-11.7227
不用再	-11.7229
示威者	-11.723
往返	-11.7233
甲板	-11.7242
皮尔	-11.7244
素食	-11.7245
中国人民	-11.7246
窄	-11.7248
猿	-11.7248
播出	-11.7249
什么时候开始	-11.7253
捷克	-11.7253
一贯	-11.7255
时不时	-11.7256
防治	-11.7259
榨	-11.726
劫持	-11.7262
薯条	-11.7263
谷物	-11.7264
建立起	-11.7265
孟	-11.7267
芭	-11.727
san	-11.7273
威尼斯	-11.7273
图形	-11.7274
看作是	-11.7276
间房	-11.7276
较少	-11.7278
传媒	-11.7281
交易员	-11.7282
根源	-11.7282
诱导	-11.7284
电缆	-11.7284
动静	-11.7287
吃晚餐	-11.7288
孕妇	-11.7289
矫	-11.7293
1997	-11.7293
再也没有	-11.7296
要迟到了	-11.7298
同伙	-11.73
电邮	-11.73
矩	-11.73
多余的	-11.7301
sha	-11.7303
徘徊	-11.7304
卡梅伦	-11.7304
主持人	-11.7306
孟买	-11.7308
dr	-11.7313
师傅	-11.7313
迪拜	-11.7317
所得税	-11.7318
战斗机	-11.7321
par	-11.7322
ies	-11.7324
镇子	-11.7326
斐	-11.7326
寡妇	-11.7327
贩卖	-11.7327
梦见	-11.7328
从来都不	-11.733
审核	-11.7332
圣母	-11.7334
简短	-11.7336
抗争	-11.7342
很痛苦	-11.7342
两杯	-11.7345
说了算	-11.7347
不至于	-11.7348
栗	-11.7349
蹄	-11.7349
倾斜	-11.735
dy	-11.735
流产	-11.7351
顿饭	-11.7351
初次	-11.7352
吸入	-11.7353
免受	-11.7358
一件事情	-11.7358
鄙	-11.736
绰	-11.736
畏惧	-11.736
胚胎	-11.736
照明	-11.7362
航线	-11.7362
ven	-11.7366
代谢	-11.737
迄今	-11.7371
ica	-11.7372
拳头	-11.7373
捕鱼	-11.7377
照料	-11.7379
国有企业	-11.7379
砰	-11.7383
雅典	-11.7385
勾引	-11.7385
哲学家	-11.7387
平息	-11.7387
件衣服	-11.7388
促成	-11.7388
yo	-11.7389
摩根	-11.7391
搁	-11.7392
所知道的	-11.7394
定罪	-11.7394
pp	-11.7399
瞒着	-11.7399
她的丈夫	-11.7402
果实	-11.7404
亲属	-11.7405
升职	-11.7413
半数	-11.7414
强势	-11.7414
那么简单	-11.742
薯	-11.7424
斩	-11.7428
徽章	-11.7428
物资	-11.7429
经费	-11.7429
把他弄	-11.7431
琼	-11.7432
史上最	-11.7436
彰	-11.7439
把他送	-11.7441
简化	-11.7441
两个星期	-11.7441
商务中心	-11.7445
是个不错的	-11.7447
编程	-11.7449
功课	-11.745
喇叭	-11.745
买东西	-11.7458
阵营	-11.7459
诞	-11.746
铅笔	-11.7464
矿业	-11.7465
飞往	-11.7468
另一半	-11.7473
钾	-11.7473
管闲事	-11.7473
iz	-11.7474
很出色	-11.7477
百货	-11.7482
定量	-11.7484
70%	-11.7485
▁我本以为	-11.7488
标志着	-11.749
滥	-11.7491
岂	-11.7496
萌	-11.7496
需要你的帮助	-11.7499
保守派	-11.7501
普林	-11.7502
很高兴认识你	-11.7503
协作	-11.7503
澄清	-11.7507
振奋	-11.7508
实习生	-11.7511
听不懂	-11.7511
据称	-11.7512
月底	-11.7512
阻挡	-11.7513
口径	-11.752
流浪汉	-11.752
半个小时	-11.7522
柜台	-11.753
更不用说	-11.7531
筹码	-11.7532
燃油	-11.7537
苍白	-11.7539
非常棒	-11.754
锈	-11.7541
拧	-11.7541
盒子里	-11.7545
办事处	-11.7546
同样也	-11.7547
会怎么做	-11.755
削	-11.7551
芦	-11.7553
乾	-11.7553
紧迫	-11.7556
来不及	-11.7558
随身	-11.7563
骨骼	-11.7564
牵涉	-11.7565
罐子	-11.7566
定律	-11.7566
遗弃	-11.7566
商界	-11.7575
公务员	-11.7576
迭	-11.7576
解救	-11.7579
会计师	-11.7579
血清	-11.7581
那么容易	-11.7583
几百万	-11.7587
减速	-11.7587
猪肉	-11.7588
明天再	-11.7588
鸟儿	-11.7592
兑换	-11.7596
七月	-11.7599
世界末日	-11.7599
闪烁	-11.7599
短裤	-11.7599
培育	-11.7599
熊猫	-11.7604
引领	-11.761
熙	-11.761
原材料	-11.7611
急需	-11.7611
泡泡	-11.7614
蒸发	-11.7617
帮帮	-11.7619
矛	-11.7622
▁况且	-11.7622
市政	-11.7622
桥梁	-11.7624
肋骨	-11.763
售价	-11.7632
默默	-11.7634
敏锐	-11.7634
尿布	-11.7635
深爱	-11.7639
面板	-11.764
像我一样	-11.7643
副本	-11.7644
源自	-11.7654
呜	-11.7656
诺言	-11.7663
搞不懂	-11.7664
一分钱	-11.7665
敌意	-11.7667
禅	-11.7668
鼎	-11.7668
黄油	-11.7673
蚂蚁	-11.768
air	-11.7681
供应链	-11.7682
两张大床	-11.7684
伤痕	-11.7684
悉尼	-11.7685
见解	-11.769
解散	-11.769
诵	-11.7691
眼球	-11.7699
这张照片	-11.77
面对面	-11.7701
吸取	-11.7702
蔽	-11.7702
吱	-11.7703
渍	-11.7703
沈	-11.7703
侵蚀	-11.7703
ight	-11.7703
垂直	-11.7705
太可怕了	-11.7707
特许	-11.7708
实例	-11.7712
海军陆战队	-11.7715
老太太	-11.7715
深远	-11.7718
条狗	-11.7718
戈尔	-11.7719
来源于	-11.772
健全	-11.7722
到此为止	-11.7726
三分之二	-11.7726
灼	-11.7726
硅谷	-11.7727
猜想	-11.7727
寂	-11.7735
否	-11.7738
毁坏	-11.7742
制备	-11.7745
法医	-11.7746
那本书	-11.7746
化妆品	-11.7762
与否	-11.7764
弄明白	-11.7765
经济复苏	-11.7767
酒馆	-11.7768
是这么想的	-11.7768
罗斯福	-11.7769
待在这里	-11.777
体贴	-11.7772
椰	-11.7773
缪	-11.7773
前所未有的	-11.7773
万美金	-11.7776
报表	-11.7776
麽	-11.7784
置评	-11.7784
淑	-11.7784
苔	-11.7784
恤	-11.7784
拢	-11.7784
搭配	-11.7786
sen	-11.7786
龙虾	-11.7788
捐献	-11.7792
一块儿	-11.7794
日渐	-11.7794
衍	-11.7796
180	-11.7796
奠	-11.7796
耻辱	-11.7796
别傻了	-11.7799
饮酒	-11.78
另一些	-11.7801
住嘴	-11.7803
趴下	-11.7804
免疫系统	-11.7804
俘	-11.7808
紧急情况	-11.7817
噪	-11.7819
我不是故意	-11.7819
废墟	-11.782
60%	-11.782
事态	-11.782
安抚	-11.7825
很好奇	-11.7826
收据	-11.7826
闻起来	-11.7828
世上最	-11.7828
物价	-11.7831
六十	-11.7832
确立	-11.7832
左翼	-11.7833
运河	-11.7837
开创	-11.7839
咳嗽	-11.7843
博弈	-11.7843
一无所有	-11.7844
巫	-11.7851
很擅长	-11.7857
可持续发展	-11.7858
液晶电视	-11.7859
醒醒	-11.786
方针	-11.786
金牌	-11.786
琳达	-11.7868
存放	-11.7868
悠久	-11.7869
证据表明	-11.7869
很性感	-11.7869
组装	-11.787
震动	-11.7871
”、“	-11.7873
医疗保险	-11.7875
虚构	-11.7876
避孕	-11.7878
锦标赛	-11.7879
财政部长	-11.7886
残疾	-11.7887
体操	-11.7893
age	-11.7894
梦幻	-11.7894
米兰达	-11.7894
水池	-11.7895
哈维	-11.7898
修道院	-11.7902
青睐	-11.7902
桌面	-11.7904
怪胎	-11.7906
此案	-11.7907
南瓜	-11.7912
钞	-11.7913
填写	-11.7913
魄	-11.7914
震撼	-11.7915
头衔	-11.792
身旁	-11.792
躺着	-11.7922
免于	-11.7923
褐色	-11.7927
四川	-11.7931
头绪	-11.7932
媒	-11.7933
句子	-11.7935
彩票	-11.7935
太疯狂了	-11.7935
正规	-11.7936
鲜明	-11.7936
裕	-11.7937
麦当劳	-11.7938
职工	-11.7944
寓	-11.7947
犹大	-11.7948
两天前	-11.7948
安宁	-11.7948
减税	-11.7948
始于	-11.7949
密西西比	-11.795
辨认	-11.7954
和我在一起	-11.7957
录取	-11.796
智商	-11.796
外遇	-11.7961
没人知道	-11.7961
犀	-11.7962
▁每位成人	-11.7962
▁我觉得你应该	-11.7962
少数民族	-11.7964
配方	-11.7966
事要做	-11.7967
跟你谈谈	-11.7968
充当	-11.7969
公牛	-11.7971
独裁	-11.7974
每一天	-11.7975
剖	-11.7975
静静	-11.7976
特大号床	-11.7978
打了电话	-11.7986
一口气	-11.7987
天津	-11.7987
我要告诉你	-11.7988
人行道	-11.7989
顶部	-11.7991
春季	-11.7993
破碎	-11.7995
挠	-11.7997
天文学家	-11.7998
华尔街日报	-11.7998
开拓	-11.7998
焚	-11.8007
孝	-11.801
end	-11.801
大肆	-11.8011
访谈	-11.8012
岳	-11.8022
期刊	-11.8022
宣扬	-11.8023
灰尘	-11.8023
毯	-11.8024
迷恋	-11.8025
匿	-11.8026
修补	-11.8027
盼	-11.8032
树叶	-11.8032
Z	-11.8034
哈马斯	-11.8034
探究	-11.8036
容量	-11.8043
劈	-11.8046
颤抖	-11.8046
画画	-11.8046
鲜血	-11.8049
痴	-11.8052
中国大陆	-11.8057
叨	-11.8058
童子军	-11.8058
冰岛	-11.8058
福克斯	-11.8063
强盗	-11.8065
跟你说话	-11.8065
绩	-11.8066
黎明	-11.8067
聆听	-11.8069
主办	-11.8069
莎士比亚	-11.807
布鲁塞尔	-11.807
伴随	-11.8072
190	-11.8077
独裁者	-11.8081
下一代	-11.8082
急诊室	-11.8082
秽	-11.8082
倘若	-11.8082
波音	-11.8083
mac	-11.8086
消防员	-11.8087
原型	-11.8087
补给	-11.8089
从未见过	-11.809
原告	-11.8091
嘎	-11.8094
社交媒体	-11.8097
汽水	-11.8103
一大笔钱	-11.8106
荫	-11.8106
南京	-11.811
完成任务	-11.8114
延期	-11.8115
截至	-11.8116
欧文	-11.8121
3.00	-11.8122
阴暗	-11.8123
交际	-11.8125
我也爱你	-11.8127
很帅	-11.8127
10:00	-11.813
倡导	-11.8131
冷漠	-11.8131
千万不要	-11.8132
胡扯	-11.8134
弄丢了	-11.8137
消毒	-11.8141
大屠杀	-11.8142
委内瑞拉	-11.8142
马拉松	-11.8142
英勇	-11.8143
访客	-11.8145
繁忙	-11.8145
入境	-11.8149
最受欢迎的	-11.8149
谢尔	-11.815
一首歌	-11.815
环境保护	-11.8152
充斥着	-11.8154
烛	-11.8167
堪萨斯	-11.8167
突袭	-11.8167
侄子	-11.8168
烧伤	-11.817
ipo	-11.8172
感到骄傲	-11.8176
不会伤害	-11.8176
亲切	-11.8176
斗士	-11.8176
ung	-11.8177
魏	-11.8179
@	-11.8179
法学院	-11.8183
数额	-11.8183
达成协议	-11.8184
直线	-11.8186
五千	-11.8186
远的地方	-11.8188
致使	-11.819
等会儿	-11.819
干啥	-11.8194
解决办法	-11.8195
这么简单	-11.8196
关押	-11.8199
高昂	-11.8205
竭力	-11.8208
街对面	-11.8214
与此同时	-11.8214
各国政府	-11.8214
茱	-11.8215
混凝土	-11.8215
减缓	-11.8217
小巷	-11.822
获奖	-11.8222
撬	-11.8228
屡	-11.8228
米歇尔	-11.8228
毗邻	-11.8228
脚踝	-11.8228
转弯	-11.8229
邮政	-11.823
微不足道	-11.824
羔	-11.824
防范	-11.8242
真够	-11.8245
要去哪儿	-11.8252
伺	-11.8252
出狱	-11.8252
露西	-11.8254
签约	-11.8255
汽车制造商	-11.8256
app	-11.8263
赃	-11.8264
海洛因	-11.8264
整齐	-11.8266
汤米	-11.827
辖	-11.827
取笑	-11.8273
百吉饼	-11.8277
魁	-11.8277
锥	-11.8277
掠夺	-11.8279
甩掉	-11.8279
克里斯蒂	-11.8281
我们要找的	-11.8285
僚	-11.8286
逮到	-11.8286
#	-11.8289
熨衣板	-11.8289
厘米	-11.829
主观	-11.8291
▁想象一下	-11.8291
鳄鱼	-11.8291
月初	-11.8292
lan	-11.8294
皇室	-11.8294
歌词	-11.8295
电视剧	-11.8298
分割	-11.8301
嗑药	-11.8302
加仑	-11.8303
传染病	-11.8304
失效	-11.8313
监听	-11.8318
躺下	-11.8319
相结合	-11.8323
危及	-11.8324
想想看	-11.833
没有足够的	-11.8333
一小部分	-11.8333
哈佛大学	-11.8337
乱七八糟	-11.8338
资产负债表	-11.8339
谓	-11.8339
初级	-11.8339
挫折	-11.8339
衣柜	-11.8347
估值	-11.8349
涩	-11.8351
热衷于	-11.8351
勋章	-11.8351
坚称	-11.8351
秋季	-11.8353
sco	-11.8354
过剩	-11.8357
台阶	-11.836
双边	-11.8361
专业人士	-11.8361
呆在这儿	-11.8362
狙击手	-11.8363
付给	-11.8364
座椅	-11.8364
几何	-11.8368
丹佛	-11.837
贝蒂	-11.8372
vis	-11.8374
富兰克林	-11.8376
桑拿	-11.8376
含糊	-11.8377
煽动	-11.8378
卢克	-11.8381
海豹	-11.8381
4000	-11.8381
灯泡	-11.8384
编制	-11.8385
敞	-11.8385
侦	-11.8387
荷尔蒙	-11.8388
缺失	-11.8388
敲诈	-11.8389
想见你	-11.8389
笼罩	-11.8389
The	-11.839
交付	-11.8392
和你说话	-11.8393
永远都不会	-11.84
妳	-11.8401
挑衅	-11.8401
韦恩	-11.8401
纪念品	-11.8408
争辩	-11.841
爱因斯坦	-11.8413
畔	-11.8413
集装箱	-11.8413
麦凯恩	-11.8415
对我而言	-11.8415
东欧	-11.8417
van	-11.8419
殴打	-11.8419
热闹	-11.8419
berg	-11.8421
叶片	-11.8423
维加斯	-11.8425
处决	-11.8426
▁如果我是你	-11.8427
放轻松	-11.8429
持枪	-11.843
兽医	-11.8431
小行星	-11.8436
发抖	-11.8437
老爹	-11.8439
彩虹	-11.844
片刻	-11.844
编写	-11.8442
遇害	-11.8443
和我说话	-11.8445
氟	-11.8451
彗星	-11.8451
胸口	-11.8452
老家伙	-11.8453
休斯顿	-11.8453
僵局	-11.8453
缴纳	-11.8456
审理	-11.8458
诽谤	-11.8463
这篇文章	-11.8463
公交车	-11.8465
骑自行车	-11.8465
惯例	-11.8465
无耻	-11.8471
高血压	-11.8473
冕	-11.8476
世界大战	-11.8476
spa	-11.8477
蠢事	-11.8478
剑桥	-11.8479
增速	-11.8481
移除	-11.8482
借鉴	-11.8482
只猫	-11.8486
驱使	-11.8495
惩	-11.8501
演戏	-11.8501
睾丸	-11.8501
pri	-11.8501
表决	-11.8501
缉	-11.8511
哮喘	-11.8513
合唱团	-11.8513
再说一次	-11.8513
东南亚	-11.8516
900	-11.8519
叛军	-11.8524
本拉登	-11.8526
胆小鬼	-11.8527
清算	-11.8527
身亡	-11.8527
垃圾桶	-11.8529
火辣	-11.8535
凯利	-11.8537
吕	-11.8539
哺乳动物	-11.8539
▁怪不得	-11.8539
赐予	-11.854
估算	-11.8547
新一轮	-11.855
婉	-11.8551
人道主义	-11.8559
巴格达	-11.8564
呆在一起	-11.8564
柴油	-11.8567
▁好消息是	-11.857
抗议活动	-11.8575
洗个澡	-11.8577
散布	-11.8577
赞赏	-11.8578
bur	-11.8578
光谱	-11.8578
露台	-11.858
一棵	-11.8582
百万美元	-11.8587
戒毒	-11.8587
谣	-11.8588
算不上	-11.8589
发短信	-11.8594
金融体系	-11.8598
在电话里	-11.86
独处	-11.86
冰块	-11.8601
卒	-11.8602
休息室	-11.8603
精品	-11.8603
修订	-11.8604
拆除	-11.8611
怨恨	-11.8617
百老汇	-11.8627
镶	-11.8627
修正案	-11.863
基准	-11.8637
脉搏	-11.8637
剧场	-11.8639
过头了	-11.864
马戏团	-11.864
疲软	-11.8641
轨迹	-11.8642
幽默感	-11.8644
的一个重要	-11.8647
另一位	-11.8651
输掉	-11.8652
打招呼	-11.8653
史蒂芬	-11.8653
冰冷	-11.8655
默认	-11.8657
谅	-11.8664
纵火	-11.8665
孵	-11.8666
贮	-11.8666
锚	-11.8666
国务卿	-11.8666
隐蔽	-11.8666
停滞	-11.8669
真他妈	-11.867
1.5	-11.8673
聘请	-11.8673
烧掉	-11.8674
奶牛	-11.8675
重塑	-11.8676
沃尔特	-11.8676
憎	-11.8678
摔跤	-11.8679
遂	-11.8691
提倡	-11.8693
甚么	-11.8694
附属	-11.8695
瑞秋	-11.8697
帐单	-11.8702
连环杀手	-11.8704
一连串	-11.8704
尖锐	-11.8705
弄错了	-11.8706
伊莲	-11.8706
饱受	-11.8706
跨国	-11.8714
啡	-11.8717
幼儿园	-11.8717
【	-11.8717
汉姆	-11.8718
蜂蜜	-11.8718
多元化	-11.8718
坚固	-11.8719
躲起来	-11.8721
终端	-11.8725
整形	-11.8728
归功于	-11.873
英特尔	-11.873
院子里	-11.873
残骸	-11.873
按揭	-11.8734
到哪里去	-11.8735
政客们	-11.8735
订购	-11.8741
纪念日	-11.8741
捕获	-11.8744
看得出来	-11.8746
大气层	-11.8746
通行证	-11.8756
调控	-11.8757
初始	-11.8759
免费无线	-11.876
糕	-11.876
肺部	-11.8767
慧	-11.8768
经销商	-11.8769
婚纱	-11.877
描	-11.8771
激增	-11.8775
方向行驶	-11.8776
马克思	-11.8777
韦尔	-11.8777
层楼	-11.8777
腐蚀	-11.8782
适宜	-11.8784
篮子	-11.8785
切割	-11.8791
发脾气	-11.8794
诺基亚	-11.8795
数十年	-11.8795
争斗	-11.8796
微弱	-11.8801
两项	-11.8801
疑虑	-11.8802
循	-11.8806
迪斯尼	-11.8808
虚伪	-11.8819
滤	-11.8819
自由贸易	-11.882
遗址	-11.8821
乔治亚	-11.8825
波特兰	-11.8825
快递	-11.8826
chi	-11.8829
报社	-11.8829
泪水	-11.8831
窘	-11.8834
新华社	-11.8834
铁矿石	-11.8834
格鲁吉亚	-11.8834
的缘故	-11.8835
突尼斯	-11.8847
结实	-11.8847
主宰	-11.8854
驾驶员	-11.8857
反思	-11.886
整洁	-11.8869
会晤	-11.8871
生物学家	-11.8872
反叛	-11.8873
喝茶	-11.8873
计画	-11.8874
历史学家	-11.8874
逃亡	-11.8877
眨眼	-11.8878
举报	-11.8879
告密	-11.888
振动	-11.8881
未婚妻	-11.8886
中华人民共和国	-11.8886
吞噬	-11.8886
畸形	-11.8886
臀部	-11.889
议程	-11.8891
奢侈	-11.8891
栋房子	-11.8898
帕特里克	-11.8899
照相机	-11.89
庭审	-11.89
新一代	-11.8904
无趣	-11.8906
晋级	-11.8913
是件好事	-11.8916
知道真相	-11.8916
获益	-11.8917
切实	-11.8917
描写	-11.8922
拘捕	-11.8926
拦截	-11.8926
瞩目	-11.8927
衬衣	-11.8927
辩解	-11.893
销毁	-11.8934
营救	-11.8937
显微镜	-11.8938
郁闷	-11.8939
挣钱	-11.8939
恐怖袭击	-11.8944
游荡	-11.8944
导游	-11.8945
未必	-11.8949
准许	-11.8949
两家公司	-11.8951
培根	-11.8953
攀升	-11.8953
尘埃	-11.8954
车停在	-11.8959
蘑菇	-11.8965
毅	-11.8965
转化为	-11.8965
接替	-11.897
辰	-11.8978
复活节	-11.8981
进屋	-11.8985
平稳	-11.8986
辽	-11.8991
友情	-11.8992
湖泊	-11.8993
凝视	-11.8995
心肌	-11.9
想让你知道	-11.9001
退缩	-11.9002
甚至都不	-11.9003
房地产市场	-11.9005
摩托	-11.9008
改良	-11.9011
首脑	-11.9011
煎	-11.9012
零食	-11.9016
逃犯	-11.9016
胡说八道	-11.9017
印度尼西亚	-11.9017
公元前	-11.9017
可行性	-11.9018
示范	-11.902
国旗	-11.9021
登录	-11.9024
凶案	-11.9025
淘	-11.9027
背部	-11.9028
亿元	-11.9029
寇	-11.9031
遇难	-11.9032
截止	-11.9033
坠毁	-11.9033
放屁	-11.9036
允	-11.9041
灭亡	-11.9043
恳	-11.9044
婶	-11.9057
小提琴	-11.9057
疑惑	-11.9058
火烧	-11.9059
健身中心	-11.9064
幸运的是	-11.9064
诚意	-11.9066
活泼	-11.9068
间隔	-11.9068
恳求	-11.907
闸	-11.9071
惜	-11.9071
军团	-11.9071
佛罗里达州	-11.9073
撰	-11.9073
找个地方	-11.9076
煤矿	-11.9076
嘟	-11.9084
快捷	-11.9087
货运	-11.9087
玄	-11.9097
多伦多	-11.9097
惊叹	-11.9098
肾脏	-11.9099
荡妇	-11.91
俄亥俄州	-11.9104
函数	-11.9109
唷	-11.9111
维也纳	-11.9111
配件	-11.9113
告诉任何人	-11.9116
交互	-11.9122
骇	-11.9124
郭	-11.9124
莉莉	-11.9127
旅游业	-11.9132
寝	-11.9137
阿萨德	-11.9137
斯巴达	-11.9137
听起来不错	-11.914
服饰	-11.9144
空袭	-11.9149
藏身	-11.9151
粉色	-11.9153
喝多了	-11.9154
邮报	-11.9157
掌声	-11.9161
磕	-11.9164
冰激凌	-11.9164
五角大楼	-11.9164
保龄球	-11.9164
薄荷	-11.9166
海鲜	-11.9167
太糟了	-11.9175
靡	-11.9178
不在场证明	-11.9178
无法忍受	-11.9181
护送	-11.9182
冥想	-11.9189
钳	-11.9191
抵御	-11.9191
模块	-11.9198
穿透	-11.9198
抑郁症	-11.9199
戈登	-11.92
泥土	-11.9202
舆论	-11.9205
朱莉	-11.9209
老爷	-11.9209
乃至	-11.921
深呼吸	-11.9216
圈套	-11.9217
汪	-11.9218
媒介	-11.9219
饲养	-11.9219
下水道	-11.9219
这种做法	-11.9219
mba	-11.9222
相对较	-11.9222
兮兮	-11.9232
善意	-11.9233
竭尽全力	-11.9233
富豪	-11.9236
追随	-11.9237
瓦解	-11.9243
灿烂	-11.9245
迟钝	-11.9246
敬畏	-11.9246
何必	-11.9247
奇异	-11.9255
热水浴缸	-11.9259
遗体	-11.9261
捣乱	-11.9262
平壤	-11.9262
退役	-11.9262
歉	-11.9264
▁不管怎么说	-11.9266
萎	-11.9272
卢卡斯	-11.9273
沙特阿拉伯	-11.9273
暴躁	-11.9275
禁闭	-11.9276
投标	-11.9277
早晚	-11.9279
起伏	-11.9284
采取措施	-11.9284
短期内	-11.9289
忍耐	-11.9297
柬埔寨	-11.93
俄勒冈	-11.93
粗暴	-11.9305
输送	-11.9306
干得不错	-11.9306
风趣	-11.9309
涌入	-11.931
第一件事	-11.931
甜美	-11.9313
范畴	-11.9313
制片人	-11.9314
短短	-11.9314
社团	-11.932
2.5	-11.9321
谎话	-11.9322
违规	-11.9324
傍晚	-11.9328
营造	-11.933
涵盖	-11.933
油田	-11.9331
潮湿	-11.9332
款项	-11.9333
备份	-11.9334
酚	-11.9341
麻痹	-11.9341
饲料	-11.9341
订阅	-11.9342
关怀	-11.9346
严密	-11.9347
铐	-11.9353
幺	-11.9354
不列颠	-11.9354
撕裂	-11.9356
新鲜空气	-11.9358
栅栏	-11.9368
取悦	-11.9371
丢弃	-11.9371
底层	-11.9377
在黑暗中	-11.9379
别指望	-11.9381
嘻	-11.9382
淤	-11.9382
1994	-11.9382
内心深处	-11.9382
潜意识	-11.9384
颁发	-11.9384
欢迎来到	-11.9388
兄弟姐妹	-11.939
可否	-11.9395
撒尿	-11.94
益处	-11.9407
侦查	-11.9409
闺	-11.9409
胡萝卜	-11.9409
暇	-11.9451
斤	-11.9463
骤	-11.9465
措	-11.9473
梭	-11.9475
飙	-11.9492
莓	-11.9503
靴	-11.9506
扒	-11.952
】	-11.9548
缆	-11.9559
辙	-11.9576
腊	-11.9589
鹤	-11.9618
悖	-11.9618
憋	-11.9675
曹	-11.9675
赵	-11.9703
蚀	-11.9717
眩	-11.9717
烯	-11.9731
鸦	-11.9745
喧	-11.9746
舵	-11.976
拣	-11.9774
肆	-11.9786
嬉	-11.9789
痘	-11.9789
簧	-11.9789
掘	-11.9797
绪	-11.9801
蚁	-11.9803
硕	-11.9816
苟	-11.9817
扛	-11.9817
褪	-11.9817
肃	-11.9831
晋	-11.9844
勘	-11.9846
俭	-11.9875
攒	-11.9904
崎	-11.9918
瞒	-11.9929
庇	-11.9932
胰	-11.9962
孢	-11.9962
瘀	-11.9962
绣	-11.9962
悼	-12.0005
颖	-12.0006
赋	-12.0012
谐	-12.0027
蹭	-12.0035
啃	-12.005
窖	-12.005
惶	-12.0064
斋	-12.0064
髓	-12.0107
涛	-12.0109
徵	-12.0123
潭	-12.0183
炖	-12.0198
弧	-12.0198
脓	-12.0213
葵	-12.0213
怡	-12.0258
蔡	-12.0258
窟	-12.0288
拙	-12.0317
匙	-12.0318
窜	-12.0318
乍	-12.0318
讽	-12.0378
熄	-12.0378
焕	-12.0378
籽	-12.0393
凄	-12.0409
咧	-12.0424
睹	-12.0438
涵	-12.0442
括	-12.0452
枉	-12.0455
芥	-12.0455
徽	-12.0465
牲	-12.047
倚	-12.0485
瞥	-12.0485
玲	-12.0516
棘	-12.0541
践	-12.0559
黎	-12.0572
呕	-12.0577
濒	-12.0577
杭	-12.0624
酵	-12.0649
煞	-12.0655
丈	-12.0669
饥	-12.0702
挟	-12.0718
阁	-12.0722
驼	-12.0734
杠	-12.0749
赦	-12.0765
愧	-12.0765
寨	-12.0765
陡	-12.0781
殊	-12.0791
聪	-12.0811
咖	-12.0829
钝	-12.0844
涕	-12.0876
妃	-12.0876
雏	-12.0892
峭	-12.0908
纬	-12.0924
衔	-12.0933
瞬	-12.0938
姚	-12.0957
镀	-12.0957
肤	-12.0969
揪	-12.0973
脾	-12.0985
羁	-12.1021
剔	-12.1053
姥	-12.1054
Q	-12.1054
黯	-12.1054
歹	-12.1069
膳	-12.107
诶	-12.1086
缀	-12.1086
叽	-12.1102
虱	-12.1102
酥	-12.1102
撮	-12.1135
馈	-12.1183
渊	-12.1199
炫	-12.1217
滕	-12.1217
镯	-12.1234
凿	-12.1265
揉	-12.1267
茵	-12.1267
冗	-12.1284
碾	-12.13
菠	-12.1317
怜	-12.1318
盔	-12.1326
盏	-12.1334
茄	-12.1349
咳	-12.1367
昭	-12.1384
靓	-12.1384
俏	-12.1384
灶	-12.1401
凋	-12.1418
媳	-12.1434
殷	-12.1434
桨	-12.1451
酪	-12.1476
惑	-12.1483
苛	-12.1485
嗦	-12.1485
蚕	-12.1502
羚	-12.1519
厕	-12.1524
挽	-12.154
瘸	-12.157
眨	-12.1581
坟	-12.1587
筛	-12.1598
镑	-12.1604
择	-12.1637
矢	-12.1656
葱	-12.1673
竿	-12.1708
鞍	-12.1708
磋	-12.1708
睦	-12.1726
鳞	-12.1726
圭	-12.1743
汹	-12.176
谭	-12.1778
暮	-12.1795
漱	-12.1795
棵	-12.1796
唧	-12.1813
俺	-12.183
穗	-12.1866
哗	-12.1866
眷	-12.1866
峡	-12.188
坪	-12.1882
跋	-12.1883
芯	-12.1934
茬	-12.1936
钥	-12.1936
荆	-12.1936
羹	-12.1954
乞	-12.198
陋	-12.1989
盹	-12.199
哺	-12.199
辫	-12.2025
榻	-12.2025
嗒	-12.2043
胞	-12.2058
揣	-12.2061
塘	-12.2062
萧	-12.2077
帘	-12.2097
洽	-12.2115
翩	-12.2115
碘	-12.2115
棕	-12.215
蝇	-12.2188
蝎	-12.2188
脐	-12.2206
寥	-12.2206
掀	-12.2217
晦	-12.2224
刹	-12.2236
烙	-12.2243
迅	-12.2278
夷	-12.2279
嫂	-12.2279
穹	-12.2279
臀	-12.2292
虹	-12.2314
渺	-12.2316
槛	-12.2316
慑	-12.2316
梵	-12.2316
烹	-12.2335
稠	-12.2335
榴	-12.2353
昼	-12.2353
酌	-12.2372
肋	-12.2396
巅	-12.2409
厉	-12.2426
涤	-12.2446
摧	-12.2468
勋	-12.2477
宙	-12.2483
瞻	-12.2483
睿	-12.2502
翰	-12.2519
嘶	-12.2521
敛	-12.2521
胚	-12.2539
悄	-12.254
淌	-12.2559
夭	-12.2578
蛙	-12.2596
呛	-12.2615
甫	-12.2634
倡	-12.2669
馅	-12.2691
唉	-12.2703
蜗	-12.2711
仲	-12.2718
饵	-12.273
奢	-12.2748
溃	-12.2749
肇	-12.2749
蠕	-12.2827
蔗	-12.2827
啪	-12.2846
梢	-12.2846
吟	-12.2865
瞄	-12.2884
婿	-12.2885
氰	-12.2885
%	-12.289
涎	-12.2904
=	-12.2904
阐	-12.2946
渥	-12.2963
壤	-12.2978
嚷	-12.2983
喃	-12.2983
咪	-12.3006
谊	-12.3022
拭	-12.3022
磺	-12.3022
虑	-12.3041
绽	-12.3042
沼	-12.3062
仕	-12.3062
啼	-12.3102
顷	-12.3102
澜	-12.3122
拂	-12.3142
骸	-12.3161
嚣	-12.3182
腌	-12.3182
诫	-12.3191
噜	-12.3202
鳍	-12.3222
鸽	-12.3235
匕	-12.3242
唆	-12.3263
鲨	-12.3302
茧	-12.3303
拴	-12.3324
缕	-12.3324
橡	-12.3326
旬	-12.3342
峙	-12.3344
秉	-12.3385
姨	-12.3402
佑	-12.3405
睬	-12.3406
溯	-12.3425
疱	-12.3426
蛤	-12.3426
狒	-12.3447
霞	-12.3447
稽	-12.3467
焰	-12.3506
恍	-12.3509
绍	-12.355
蛾	-12.355
篡	-12.3551
鱿	-12.3571
懊	-12.3571
怠	-12.3592
藐	-12.3592
颓	-12.3592
邸	-12.3592
沫	-12.3612
妨	-12.3633
厥	-12.3634
淀	-12.3655
嚎	-12.3655
辜	-12.3671
缅	-12.3675
诀	-12.3697
辍	-12.3719
冶	-12.374
猥	-12.3783
谬	-12.3825
遛	-12.3825
壕	-12.3825
嬷	-12.3825
坤	-12.3825
腋	-12.3847
熨	-12.3868
筝	-12.3868
惺	-12.3911
袒	-12.3911
褶	-12.3911
栈	-12.3933
弘	-12.3933
醛	-12.3933
蚤	-12.3955
憩	-12.3955
杏	-12.3976
厮	-12.3977
窦	-12.3977
苷	-12.3998
蔼	-12.3998
摒	-12.3998
呦	-12.4042
袱	-12.4042
殃	-12.4064
搂	-12.4086
搐	-12.4086
唬	-12.413
皂	-12.413
擒	-12.413
痰	-12.413
侨	-12.413
镖	-12.4151
簇	-12.4152
抑	-12.4185
晾	-12.4241
禄	-12.4241
渠	-12.426
睫	-12.4264
蹩	-12.4264
锂	-12.4264
锌	-12.4264
赘	-12.4286
玻	-12.4286
萃	-12.4308
枫	-12.4331
殆	-12.4331
尉	-12.4368
隶	-12.4421
坍	-12.4422
倦	-12.4444
譬	-12.4444
囱	-12.4467
舷	-12.4467
跷	-12.4467
嗷	-12.449
惬	-12.449
汲	-12.449
沛	-12.449
捎	-12.4513
殖	-12.4531
嘀	-12.4536
瑙	-12.4536
侣	-12.4549
酰	-12.4582
涯	-12.4599
勉	-12.4613
骰	-12.4652
慨	-12.4652
陕	-12.4652
泣	-12.4674
殉	-12.4698
腓	-12.4698
掳	-12.4698
殴	-12.4711
嘞	-12.4722
儡	-12.4722
浣	-12.4722
猖	-12.4745
嘱	-12.4768
蝶	-12.4769
炙	-12.484
诋	-12.484
仑	-12.486
弛	-12.4863
嗝	-12.4887
瞅	-12.4887
踹	-12.4887
厘	-12.4909
刨	-12.4911
姗	-12.4911
囤	-12.4935
桔	-12.4935
碌	-12.4946
鳄	-12.4956
萤	-12.4959
豚	-12.5028
阑	-12.5031
湛	-12.5031
鳗	-12.5056
甸	-12.508
砌	-12.508
盎	-12.5104
掰	-12.5104
狸	-12.5128
筏	-12.5129
肽	-12.5129
吠	-12.5153
菱	-12.5153
涡	-12.5172
钮	-12.5176
骄	-12.5177
咎	-12.5178
蒲	-12.5178
罹	-12.5178
菩	-12.5178
抒	-12.5178
蜚	-12.5202
厩	-12.5202
喳	-12.5202
檐	-12.5202
耿	-12.5202
侃	-12.5202
甥	-12.5227
棱	-12.5251
篝	-12.5276
鸠	-12.5276
嫖	-12.5301
呱	-12.5301
伶	-12.5326
阉	-12.5326
颌	-12.5326
蔓	-12.5351
捂	-12.5351
砾	-12.5351
歧	-12.537
坞	-12.5376
鞘	-12.5376
蹈	-12.5379
孜	-12.5401
腮	-12.5426
[	-12.5426
啸	-12.5445
镁	-12.5451
缄	-12.5451
汐	-12.5451
洼	-12.5451
啄	-12.5476
坨	-12.5476
颚	-12.5476
汞	-12.5476
]	-12.5502
昨	-12.5538
瞌	-12.5553
馏	-12.5553
钛	-12.5604
淹	-12.5613
趾	-12.5627
纺	-12.5629
讳	-12.5629
炽	-12.5655
笃	-12.5655
崖	-12.5706
妒	-12.5706
狡	-12.5707
禧	-12.5707
唑	-12.5733
肴	-12.5753
垢	-12.5758
鼾	-12.5758
匣	-12.5759
腥	-12.5781
跛	-12.5785
_	-12.5785
娼	-12.5811
笋	-12.5811
栅	-12.5837
鸥	-12.5837
萦	-12.5837
蹊	-12.5837
董	-12.5856
嗑	-12.5861
絮	-12.5863
灸	-12.5916
兢	-12.5942
蜷	-12.5969
傅	-12.5974
扼	-12.6008
轧	-12.6022
沌	-12.6076
侥	-12.6102
瘫	-12.6102
惧	-12.6128
怂	-12.6129
谚	-12.6129
昵	-12.6129
祈	-12.6153
绸	-12.6155
沥	-12.6156
貂	-12.6156
祷	-12.6183
潇	-12.6184
亟	-12.6184
斟	-12.6211
澈	-12.6238
臆	-12.6238
绚	-12.6238
轩	-12.6265
豌	-12.6293
嘣	-12.632
芹	-12.632
禀	-12.6348
臼	-12.6348
叁	-12.6375
嘈	-12.6403
垦	-12.6403
冉	-12.6459
芮	-12.6459
暧	-12.6459
荐	-12.6485
拌	-12.6486
亢	-12.6487
潦	-12.6515
宛	-12.6515
豁	-12.6542
踵	-12.6543
眸	-12.6571
曙	-12.6571
饺	-12.6571
媲	-12.6571
薛	-12.6571
诡	-12.6597
芜	-12.6627
邋	-12.6627
喱	-12.6627
朦	-12.6627
阪	-12.6627
瑕	-12.6656
棺	-12.6684
暨	-12.6684
焙	-12.6684
萍	-12.6713
吁	-12.6741
拎	-12.6742
咚	-12.6742
癫	-12.677
胧	-12.677
腱	-12.677
茉	-12.6799
姻	-12.6817
纠	-12.682
哒	-12.6828
皿	-12.6828
诬	-12.6828
疙	-12.6857
褐	-12.6914
潢	-12.6915
瘩	-12.6915
彪	-12.6915
曰	-12.6915
谛	-12.6944
簸	-12.6944
耦	-12.6944
驹	-12.6944
檀	-12.6974
帚	-12.6974
窑	-12.6974
浊	-12.7003
亵	-12.7033
秤	-12.7033
佼	-12.7033
铛	-12.7062
莽	-12.7091
纫	-12.7092
涸	-12.7092
幌	-12.7152
忿	-12.7152
姊	-12.7181
愣	-12.7182
枣	-12.7182
蛛	-12.7182
祀	-12.7182
咔	-12.7212
镍	-12.7212
讥	-12.7212
髋	-12.7212
攸	-12.7212
晤	-12.7215
遢	-12.7242
蹋	-12.7272
剽	-12.7272
缎	-12.7302
跻	-12.7333
仨	-12.7363
颐	-12.7363
倔	-12.7363
汶	-12.7363
獗	-12.7363
椒	-12.7393
來	-12.7394
沧	-12.7394
×	-12.7394
卤	-12.7424
撩	-12.7424
樱	-12.7455
舅	-12.7455
雳	-12.7455
蜒	-12.7455
忱	-12.7455
赡	-12.7486
铬	-12.7517
粟	-12.7517
尹	-12.7548
蜿	-12.7548
襟	-12.7548
噬	-12.7579
髅	-12.7579
瘪	-12.7579
莺	-12.7579
瞳	-12.761
這	-12.761
烊	-12.7642
鼬	-12.7642
刁	-12.7673
墩	-12.7673
蛊	-12.7673
薰	-12.7705
矣	-12.7705
噩	-12.7733
铎	-12.7736
剁	-12.7736
噎	-12.7736
卉	-12.7736
淮	-12.7736
苞	-12.7736
撵	-12.7768
彬	-12.7768
膀	-12.78
犁	-12.78
蹂	-12.78
珥	-12.78
卿	-12.7832
藩	-12.7832
歼	-12.7864
霹	-12.7896
邱	-12.7928
朔	-12.7928
牟	-12.7928
骷	-12.7961
眶	-12.7961
婷	-12.7961
筷	-12.7961
屯	-12.7993
撂	-12.7993
鹫	-12.7993
邑	-12.7993
們	-12.8026
篱	-12.8026
忆	-12.8045
眺	-12.8058
柬	-12.8058
帷	-12.8058
厦	-12.807
亩	-12.8091
逅	-12.8124
恿	-12.8124
邂	-12.8157
柑	-12.819
逍	-12.819
漓	-12.819
竣	-12.819
瑜	-12.8223
央	-12.824
综	-12.8245
荧	-12.825
蟀	-12.8257
迂	-12.8257
惦	-12.829
哔	-12.829
绯	-12.829
鹏	-12.829
匀	-12.8323
孪	-12.8324
胫	-12.8357
疽	-12.8357
琥	-12.8391
雁	-12.8391
滔	-12.8391
箫	-12.8425
肛	-12.8425
蘸	-12.8425
鳕	-12.8425
锻	-12.8459
蟋	-12.8459
蜕	-12.8459
吭	-12.8493
啮	-12.8493
颁	-12.8518
倪	-12.8528
悴	-12.8528
褒	-12.8528
崭	-12.8559
珈	-12.8562
狙	-12.8596
诲	-12.8596
搓	-12.8596
眯	-12.8596
擂	-12.8596
戛	-12.8596
艰	-12.8625
憾	-12.8631
旭	-12.8631
娴	-12.8666
赝	-12.8666
憔	-12.8666
冀	-12.8701
屌	-12.8701
诧	-12.8701
骡	-12.8701
雹	-12.8701
磐	-12.8701
遏	-12.8734
氪	-12.8736
瘠	-12.8736
渲	-12.8736
惚	-12.8771
铂	-12.8771
霄	-12.8806
桅	-12.8806
辗	-12.8806
迥	-12.8841
楷	-12.8841
岖	-12.8841
睛	-12.8873
矗	-12.8877
筐	-12.8877
羟	-12.8877
泌	-12.8908
恺	-12.8912
疝	-12.8912
辘	-12.8948
侬	-12.8984
俑	-12.902
蕊	-12.902
牡	-12.902
麋	-12.902
燥	-12.9052
扉	-12.9056
憧	-12.9056
湘	-12.9056
魅	-12.9088
芋	-12.9092
～	-12.9092
烃	-12.9128
挝	-12.9128
扪	-12.9128
裘	-12.9165
個	-12.9202
咩	-12.9202
熠	-12.9202
炊	-12.9202
翡	-12.9202
澎	-12.9202
帧	-12.9238
痣	-12.9238
憬	-12.9238
攘	-12.9238
忒	-12.9275
靖	-12.9275
堕	-12.931
哉	-12.9312
魇	-12.9349
蒋	-12.9349
煽	-12.938
悸	-12.9387
烩	-12.9387
娱	-12.9415
恪	-12.9462
砷	-12.9462
豫	-12.9499
葫	-12.95
β	-12.95
曳	-12.95
獭	-12.95
讣	-12.95
轿	-12.9504
啜	-12.9537
迢	-12.9537
汝	-12.9537
氦	-12.9537
猝	-12.9537
犸	-12.9575
喵	-12.9575
攫	-12.9575
孽	-12.9593
眈	-12.9614
枭	-12.9652
枷	-12.9652
毡	-12.9652
愉	-12.9681
偎	-12.969
孰	-12.969
芸	-12.969
楔	-12.969
咏	-12.9729
脯	-12.9729
蛆	-12.9768
叩	-12.9768
喇	-12.9768
楣	-12.9807
矶	-12.9807
沓	-12.9807
霾	-12.9807
励	-12.9841
匈	-12.9846
蹬	-12.9885
榆	-12.9924
叼	-12.9924
瓢	-12.9924
锢	-12.9924
俾	-12.9924
柚	-12.9964
裆	-13.0003
蔚	-13.0043
孚	-13.0043
奕	-13.0043
龊	-13.0123
龌	-13.0123
渝	-13.0124
犊	-13.0124
蛀	-13.0164
腑	-13.0164
坷	-13.0164
馁	-13.0204
屹	-13.0204
傍	-13.0282
谕	-13.0286
睽	-13.0327
钚	-13.0327
睑	-13.0368
磊	-13.0368
峻	-13.0409
吮	-13.0409
`	-13.0409
鸵	-13.0409
唠	-13.0451
迸	-13.0451
捶	-13.0451
撼	-13.0488
曝	-13.0489
镰	-13.0492
啧	-13.0492
槌	-13.0492
皈	-13.0492
莞	-13.0492
馨	-13.0533
颞	-13.0534
呣	-13.0534
殡	-13.0534
媛	-13.0576
匡	-13.0576
跤	-13.0618
俐	-13.0618
搔	-13.0618
毋	-13.0618
躇	-13.0618
斌	-13.0618
札	-13.0618
禾	-13.0618
蓉	-13.0618
祉	-13.0618
惰	-13.0661
粤	-13.0661
狈	-13.0661
祟	-13.0661
荚	-13.0661
饲	-13.0701
谙	-13.0703
踌	-13.0703
剿	-13.0746
遐	-13.0789
疣	-13.0789
蝗	-13.0832
裳	-13.0832
锣	-13.0832
霓	-13.0832
啤	-13.0856
吏	-13.0875
彦	-13.0875
蟾	-13.0875
戚	-13.0918
箍	-13.0919
麼	-13.0919
甄	-13.0919
搀	-13.0919
缚	-13.0962
惋	-13.0963
醚	-13.0963
彷	-13.1006
夥	-13.1006
掂	-13.1006
糜	-13.1006
痞	-13.1006
蕨	-13.1006
麟	-13.1006
膨	-13.105
珂	-13.105
釜	-13.1051
恃	-13.1095
雯	-13.1095
兀	-13.1095
龈	-13.1139
萼	-13.1139
蔬	-13.1228
艮	-13.1229
阂	-13.1229
荟	-13.1229
渎	-13.1274
∮	-13.1274
瀚	-13.1274
娄	-13.1274
骏	-13.1319
糗	-13.1319
『	-13.1319
洙	-13.1319
缤	-13.1319
觎	-13.1364
孬	-13.1364
蟒	-13.1364
悯	-13.141
抠	-13.141
茁	-13.141
裨	-13.141
秆	-13.141
』	-13.1456
晰	-13.1498
哝	-13.1502
虞	-13.1502
鄂	-13.1502
觊	-13.1548
涮	-13.1548
鲤	-13.1548
躬	-13.1548
邃	-13.1548
裴	-13.1548
甭	-13.1595
牒	-13.1595
沪	-13.1595
噗	-13.1642
褥	-13.1642
蜥	-13.1642
莹	-13.1642
诙	-13.1642
喙	-13.1688
缮	-13.1688
梧	-13.1689
酣	-13.1689
苇	-13.1689
痔	-13.1736
楠	-13.1783
踝	-13.1829
悚	-13.1831
箴	-13.1831
桦	-13.1879
恬	-13.1879
湮	-13.1879
糙	-13.1926
沒	-13.1927
箔	-13.1927
桐	-13.1927
鹃	-13.1927
袤	-13.1975
纶	-13.1975
踱	-13.2023
秧	-13.2023
钵	-13.2023
疟	-13.2049
辑	-13.207
缰	-13.2072
孀	-13.2072
鼹	-13.2072
鳟	-13.2072
紊	-13.212
─	-13.2121
耙	-13.2121
噱	-13.2121
罂	-13.2121
铵	-13.2121
嘭	-13.2171
赊	-13.2171
斡	-13.2171
蛭	-13.2171
乓	-13.2171
匝	-13.222
卦	-13.2269
篓	-13.227
鲈	-13.227
蜓	-13.227
倘	-13.2319
骆	-13.232
α	-13.232
嚓	-13.232
奚	-13.232
嚏	-13.232
馊	-13.232
粼	-13.232
茹	-13.232
蜻	-13.232
跺	-13.232
凛	-13.232
杞	-13.232
榔	-13.232
戟	-13.237
搪	-13.237
谍	-13.2418
滓	-13.2421
闩	-13.2421
琉	-13.2421
苑	-13.2421
會	-13.2471
說	-13.2471
啶	-13.2471
陨	-13.2521
釉	-13.2522
藜	-13.2522
涟	-13.2522
鹊	-13.2522
弩	-13.2574
蓿	-13.2574
荼	-13.2574
儆	-13.2625
漉	-13.2625
臃	-13.2625
袁	-13.2625
<	-13.2677
匐	-13.2677
咐	-13.2677
侄	-13.2689
牠	-13.2729
怦	-13.2729
矜	-13.2781
蚱	-13.2781
刽	-13.2781
菇	-13.2781
劾	-13.2781
庐	-13.2781
羡	-13.2834
蝉	-13.2834
匍	-13.2834
琦	-13.2834
炳	-13.2834
蜀	-13.2834
畸	-13.2886
>	-13.2887
缇	-13.2887
黝	-13.2887
聆	-13.2889
阎	-13.294
乒	-13.294
蟆	-13.294
俚	-13.294
癣	-13.294
硼	-13.294
蜍	-13.294
谟	-13.294
鹭	-13.294
壑	-13.294
溴	-13.2994
碉	-13.2994
妾	-13.2994
苜	-13.2994
轶	-13.2994
睾	-13.3047
戎	-13.3047
锄	-13.3047
鲶	-13.3047
谘	-13.3047
恙	-13.3101
捱	-13.3101
圃	-13.3101
湃	-13.3101
跆	-13.3156
颧	-13.3156
腆	-13.3156
郝	-13.3156
锰	-13.3156
廓	-13.3209
囔	-13.321
瞭	-13.321
祛	-13.321
湄	-13.321
惘	-13.3265
诃	-13.3265
蚓	-13.3265
摹	-13.3321
幔	-13.3321
铉	-13.3321
巍	-13.3321
绅	-13.3375
摁	-13.3376
嗣	-13.3376
吡	-13.3376
昙	-13.3432
筵	-13.3432
藓	-13.3432
琅	-13.3432
侏	-13.3488
∶	-13.3488
攥	-13.3545
豺	-13.3545
愕	-13.3545
茸	-13.3545
咨	-13.3601
遁	-13.3602
垣	-13.3602
趸	-13.3602
涝	-13.3602
辐	-13.3656
懦	-13.3656
妍	-13.3659
秸	-13.3659
翱	-13.3716
鹑	-13.3716
脖	-13.3763
為	-13.3774
苣	-13.3774
镣	-13.3774
蕃	-13.3832
痢	-13.3832
嗪	-13.3832
霆	-13.3832
蔻	-13.3891
哆	-13.3891
撅	-13.3891
恣	-13.3891
笺	-13.3891
谧	-13.3891
町	-13.3949
猕	-13.4009
俨	-13.4009
獾	-13.4068
懵	-13.4068
潺	-13.4068
讼	-13.4112
屿	-13.4125
巩	-13.4128
鸳	-13.4128
焉	-13.4128
跄	-13.4128
莴	-13.4188
偕	-13.4188
婢	-13.4188
湍	-13.4188
腼	-13.4188
螳	-13.4188
踉	-13.4188
稚	-13.4248
拗	-13.4249
痤	-13.4249
蚯	-13.4249
恢	-13.4298
擎	-13.4309
虔	-13.431
嗎	-13.431
戊	-13.431
璀	-13.431
钨	-13.431
煌	-13.4371
窿	-13.4371
琵	-13.4371
籁	-13.4371
粱	-13.4371
阈	-13.4371
皑	-13.4371
鹌	-13.4433
螨	-13.4495
鸯	-13.4495
峨	-13.4495
璨	-13.4495
佯	-13.4495
蛰	-13.4495
堰	-13.4557
徉	-13.4558
骋	-13.4558
瑰	-13.4558
茴	-13.462
拈	-13.462
搡	-13.462
璧	-13.462
讷	-13.4684
聂	-13.4684
祠	-13.4684
胁	-13.4746
耽	-13.4747
癞	-13.4747
鳖	-13.4747
碴	-13.4747
蹶	-13.4747
淳	-13.4747
徜	-13.4747
峦	-13.4747
镉	-13.4747
毗	-13.481
沏	-13.4811
胳	-13.4811
娥	-13.4811
绢	-13.4811
鲱	-13.4811
榷	-13.4811
驮	-13.4811
瓮	-13.4876
荔	-13.4876
谄	-13.4876
樟	-13.4876
纰	-13.4941
吝	-13.4941
敝	-13.4941
螂	-13.4941
麝	-13.4941
伎	-13.5006
邵	-13.5006
蹑	-13.5006
麸	-13.5006
漪	-13.5006
阮	-13.5006
膺	-13.5006
鬣	-13.5072
钴	-13.5072
寰	-13.5072
诅	-13.5138
壹	-13.5138
龛	-13.5138
蓓	-13.5138
斓	-13.5138
褓	-13.5138
谤	-13.5138
槟	-13.5204
琢	-13.5272
拚	-13.5272
晖	-13.5272
葆	-13.5272
荤	-13.5272
瞠	-13.5272
嫉	-13.534
掖	-13.534
诩	-13.534
汛	-13.534
麾	-13.5408
寐	-13.5408
觑	-13.5408
瘘	-13.5476
庶	-13.5476
菁	-13.5476
炬	-13.5542
嗖	-13.5545
璜	-13.5545
埠	-13.5545
蚜	-13.5545
廖	-13.5545
轭	-13.5545
瘟	-13.559
疚	-13.5609
惭	-13.5897
澄	-13.5968
灿	-13.6114
侮	-13.6262
粹	-13.6334
葡	-13.6797
帜	-13.6874
柿	-13.7035
鞠	-13.7035
埔	-13.7872
蚂	-13.8048
怖	-13.8406
谴	-13.841
缭	-13.841
陌	-13.849
痫	-13.8503
淇	-13.8691
讶	-13.8786
亥	-13.8882
蕉	-13.9377
汰	-13.9687
兮	-13.9687
纾	-13.9791
虏	-13.9898
瞰	-14.0114
猩	-14.0224
胱	-14.0562
酊	-14.0793
蝠	-14.091
叭	-14.1029
嗤	-14.1029
咻	-14.126
膊	-14.1272
咀	-14.1395
侈	-14.1905
沐	-14.2031
隘	-14.2036
戮	-14.2165
嗽	-14.217
瞩	-14.229
舆	-14.2304
浙	-14.2721
菅	-14.2865
玫	-14.3009
惮	-14.3306
瀑	-14.3452
挛	-14.3457
尬	-14.3611
橇	-14.3763
垄	-14.4085
寞	-14.4418
绎	-14.458
嗡	-14.476
烬	-14.4935
鲑	-14.5294
璃	-14.5296
彗	-14.5667
畴	-14.6258
疵	-14.6258
柠	-14.6258
拇	-14.6293
烁	-14.667
玷	-14.667
衅	-14.6883
镳	-14.7101
奄	-14.7101
苹	-14.717
睐	-14.7549
婊	-14.7775
痹	-14.8264
隧	-14.8511
尴	-14.8515
喋	-14.9034
匆	-14.9188
氛	-14.9301
讪	-14.9304
徙	-14.9304
咄	-14.9582
榄	-14.9582
浏	-14.9582
窒	-14.9867
阱	-15.0162
酩	-15.0162
舶	-15.0359
弈	-15.0464
哮	-15.0465
妊	-15.0465
醺	-15.0465
猾	-15.0778
痉	-15.0778
驭	-15.11
鹦	-15.1434
拯	-15.213
逻	-15.2135
墟	-15.2135
疡	-15.2135
笆	-15.2506
稼	-15.329
蘑	-15.329
匮	-15.4142
垃	-15.4142
忏	-15.4596
檬	-15.4596
娩	-15.5068
漩	-15.557
吩	-15.5573
椭	-15.5787
迄	-15.6098
稣	-15.6098
秩	-15.6099
丐	-15.6099
捍	-15.6654
绌	-15.7243
萄	-15.7868
栩	-15.7868
圳	-15.8533
赂	-15.8534
咆	-15.8534
蛎	-15.8535
崛	-15.9242
骼	-15.9248
屉	-15.9248
陛	-16.0007
酋	-16.0012
酗	-16.0014
惕	-16.0017
痊	-16.0018
惫	-16.0018
础	-16.0849
狩	-16.0851
抉	-16.0851
牺	-16.0851
赁	-16.1759
肮	-16.176
诽	-16.176
跚	-16.176
忡	-16.176
氓	-16.2758
诠	-16.276
呻	-16.276
蜘	-16.276
岌	-16.3872
徊	-16.3872
徘	-16.5121
瑚	-16.655
缛	-16.655
圾	-16.655
墅	-16.8201
抨	-16.8215
沮	-16.8215
凰	-16.8217
婪	-17.0217
慷	-17.0217
蝴	-17.0217
榈	-17.0217
痪	-17.0217
酝	-17.2717
鹉	-17.2717
蝙	-17.2717
啬	-17.2717
蟑	-17.2717
橄	-17.2717
淆	-17.6049
蜴	-17.605
娠	-17.605
飓	-18.1012
溉	-18.105
髦	-19.1007
讧	-19.1038
忑	-19.1039
忐	-19.104
拮	-19.1041
咫	-19.1042
泞	-19.1043
燔	-19.1044
盥	-19.1045
躏	-19.1046
螃	-19.1047
傀	-19.1048
饪	-19.1049
蹒	-19.105
咙	-19.105
肪	-19.105
